0x403A91
0x403BF6
0x403BFF
0x403EEE
0x403F7E
0x404063
0x4043B2
0x4043E0
0x404604
0x4046B2
0x4046DE
0x404BFF
0x404C11
0x404C15
0x404C56
0x404C94
0x404CCC
0x404DF4
0x405148
0x40530C
0x4053F8
0x4054D8
0x4054DA
0x405536
0x40581C
0x4059F1
0x4059F3
0x4059F7
0x4059F9
0x405DDA
0x4062CA
0x4068EC
0x406EB9
0x407051
0x407375
0x4073C4
0x40742A
0x407480
0x4074B0
0x407525
0x407700
0x407720
0x407747
0x407985
0x4079B0
0x4079B2
0x407C80
0x407CB0
0x407D90
0x407DD0
0x408380
0x4083D0
0x408420
0x408730
0x4087B0
0x4087B2
0x408850
0x408852
0x4088C2
0x4089A8
0x408AB4
0x408AB6
0x408B90
0x408BB0
0x408C70
0x408CFA
0x408DC0
0x408DC4
0x408EF0
0x408F40
0x408F67
0x409040
0x409090
0x4090B7
0x409370
0x409373
0x409570
0x4099A0
0x409DF0
0x40A2C2
0x40AA8A
0x40B5BD
0x40B757
0x40B911
0x40B917
0x40BDE2
0x40BEE3
0x40C028
0x40C390
0x40C420
0x40C490
0x40C590
0x40C5E0
0x40C840
0x40CE10
0x40CE1B
0x40CE6F
0x40D230
0x40D380
0x40D389
0x40D390
0x40D8F0
0x40DAD0
0x40DBD0
0x40DEF1
0x40E2C3
0x40E3E2
0x40E42C
0x40E681
0x40EAFE
0x40EC11
0x40F2D0
0x40F2DF
0x40F5EB
0x40F770
0x40F7A0
0x40F9B0
0x40FB77
0x40FCA0
0x4101A0
0x4103C6
0x410500
0x410504
0x410A90
0x410EF5
0x4111C0
0x4111C9
0x411382
0x4114A0
0x4114D2
0x4114D6
0x4114E0
0x411890
0x411ABB
0x411E60
0x412131
0x4124B0
0x4124B2
0x4127B0
0x4127B9
0x412A9A
0x412F1B
0x413208
0x413350
0x413400
0x4134A0
0x4134A3
0x4134B0
0x4136F0
0x413760
0x413774
0x413A00
0x413A19
0x413B00
0x413C90
0x413CAF
0x413D80
0x414016
0x414A60
0x414A64
0x414A67
0x414C80
0x414ED6
0x415130
0x41514E
0x415390
0x4153BF
0x4153D0
0x4153F4
0x4153F7
0x415CAA
0x416400
0x4165C4
0x416782
0x4167DE
0x41683E
0x416842
0x41685E
0x4168D7
0x4169C0
0x4169C8
0x416D10
0x416D90
0x4171D0
0x4173B0
0x417752
0x417915
0x4179D0
0x4179F0
0x417AB0
0x417AB9
0x4180EA
0x418182
0x418186
0x4182DC
0x418300
0x418476
0x418506
0x4185A0
0x418B10
0x418B76
0x419070
0x419073
0x419270
0x419273
0x4192D0
0x4192D2
0x4192D6
0x419582
0x419589
0x4198A0
0x419910
0x4199E0
0x419A30
0x419A38
0x419D26
0x419DB5
0x41A2D0
0x41A2D8
0x41A430
0x41A79F
0x41A7B0
0x41A7C3
0x41A8C0
0x41AA30
0x41AA3F
0x41AA45
0x41AC60
0x41AC6B
0x41AC6D
0x41AE78
0x41AF65
0x41AFB5
0x41B006
0x41B1FC
0x41B240
0x41B24E
0x41B400
0x41B5A0
0x41B5A2
0x41B760
0x41B762
0x41B920
0x41BCA0
0x41BCF0
0x41BD0D
0x41BE60
0x41BE7D
0x41C021
0x41C2D0
0x41C2E7
0x41C394
0x41C5A1
0x41C620
0x41C62F
0x41C81A
0x41CA50
0x41E563
0x41E5D0
0x41EB26
0x41F9E0
0x41FA20
0x41FA60
0x41FA90
0x41FA98
0x41FBE0
0x41FD23
0x41FD90
0x41FDEA
0x41FE2B
0x41FE35
0x41FE36
0x41FE90
0x41FE9C
0x41FF0B
0x41FF14
0x420020
0x420070
0x420238
0x420880
0x4208E2
0x4208E6
0x4209DD
0x420A50
0x420E80
0x420EE0
0x420EE3
0x420FB0
0x420FB8
0x421020
0x421028
0x4210C0
0x42124C
0x421370
0x4213D0
0x42141D
0x421450
0x421452
0x421456
0x421458
0x421460
0x4218D0
0x421AB0
0x421B20
0x421E18
0x421EC1
0x421F57
0x421FF7
0x4220C0
0x4220CE
0x422550
0x42274A
0x422830
0x422880
0x422886
0x422EFA
0x423204
0x42340D
0x423415
0x4234E0
0x42355A
0x42355B
0x4236AD
0x4236B1
0x423718
0x42394B
0x423FC2
0x42418F
0x4242D0
0x4244D6
0x4245A7
0x424760
0x4247F9
0x42488A
0x424C40
0x424C47
0x424D40
0x424D4E
0x424D68
0x424D6A
0x424DAF
0x424E4A
0x424F4C
0x424F88
0x425020
0x42510D
0x425560
0x425822
0x425A90
0x425AB0
0x425AF3
0x425C60
0x425C8D
0x425C91
0x425D7D
0x425D81
0x425E50
0x425EA6
0x425F30
0x425F4B
0x426390
0x4264B0
0x426620
0x426822
0x426880
0x4268E6
0x426930
0x4269D0
0x426B50
0x426C66
0x426D60
0x426D68
0x426E50
0x426F1B
0x426F70
0x427291
0x427298
0x427310
0x427340
0x427671
0x427678
0x4276E2
0x4276ED
0x4278F0
0x427970
0x4279ED
0x427CAD
0x427F61
0x427F68
0x427FD1
0x427FD8
0x4281B0
0x428220
0x428511
0x428518
0x4285B0
0x428D0B
0x42A417
0x42C1A0
0x42C520
0x42C5B0
0x42C980
0x42CA60
0x42CB50
0x42CC61
0x42CD20
0x42CD80
0x42CFE0
0x42D056
0x42D270
0x42D274
0x42D27C
0x42DC06
0x42DC28
0x42DCD5
0x42DDF0
0x42DE17
0x42DE19
0x42E280
0x42E5B2
0x42E6E0
0x42E7E4
0x42E826
0x42E850
0x42E852
0x42E856
0x42E85A
0x42EB40
0x42EC80
0x42ED60
0x42ED67
0x42ED69
0x42EE12
0x42EE19
0x42EF00
0x42EF10
0x42EF30
0x42EF60
0x42EF70
0x42EF80
0x42F020
0x42F030
0x42F033
0x42F04C
0x42F0E0
0x42F110
0x42F140
0x42F170
0x42F2E0
0x42F356
0x42F480
0x42F4D0
0x42F4E4
0x42F4EA
0x42F5A0
0x42F900
0x42F902
0x42F903
0x42F923
0x430490
0x43049B
0x4305A0
0x4305A4
0x4305AA
0x4308C0
0x4309E8
0x430BB1
0x4314A0
0x431900
0x431A82
0x431A84
0x431BD0
0x431E89
0x432187
0x432765
0x4327E5
0x4328DB
0x432995
0x432A05
0x432A75
0x432AE5
0x432B95
0x432C05
0x432D90
0x432DE5
0x433885
0x4338B2
0x4338BE
0x4339E3
0x433A56
0x433A92
0x433A96
0x433C9E
0x433E67
0x433F50
0x434347
0x434980
0x434CCA
0x434CEB
0x434E28
0x434E94
0x434ED0
0x434FA3
0x4353E5
0x4354D5
0x4355F5
0x435695
0x435970
0x435980
0x435A16
0x435B90
0x435C9A
0x435D50
0x435D74
0x436021
0x43602C
0x4362F1
0x4367A1
0x4368E2
0x4368E8
0x436CC0
0x438B65
0x439590
0x439624
0x4397F0
0x439870
0x439C40
0x439D00
0x439D0C
0x43A270
0x43A6E0
0x43A7E0
0x43A810
0x43A840
0x43A870
0x43A8B0
0x43A940
0x43B6C6
0x43B73A
0x43B7F8
0x43B910
0x43B970
0x43BB50
0x43BECE
0x43C240
0x43C2B0
0x43C2F0
0x43C390
0x43C5A0
0x43C7E3
0x43C83A
0x43C9F1
0x43CAB0
0x43CB0E
0x43CB6D
0x43CDD0
0x43CF90
0x43D260
0x43D262
0x43D266
0x43D4B0
0x43D4B9
0x43D660
0x43D662
0x43D666
0x43D800
0x43D808
0x43DB20
0x43DE80
0x43E0B0
0x43E0B2
0x43E0B4
0x43E362
0x43E366
0x43E560
0x43E740
0x43E749
0x43EC0A
0x43EC65
0x43EC70
0x43ECE0
0x43EDA0
0x43EEF0
0x43EFB0
0x43F050
0x43F170
0x43F1D0
0x43F1E0
0x43F248
0x43F250
0x43F4C1
0x43FAA1
0x43FAF0
0x43FBE1
0x43FBEC
0x43FDD8
0x440060
0x440062
0x440066
0x440068
0x4402E7
0x4402FF
0x440328
0x440330
0x4404DF
0x440500
0x440536
0x440538
0x44053A
0x440690
0x440699
0x4415A0
0x441829
0x441902
0x4419F5
0x441C10
0x441E70
0x441EC0
0x4421A5
0x4426A7
0x442790
0x44279E
0x442960
0x442B20
0x442C00
0x442D30
0x442ED0
0x442EDC
0x443320
0x443328
0x4434D0
0x443860
0x44386B
0x443A9B
0x443B30
0x443C50
0x443CE2
0x444260
0x444420
0x444450
0x444480
0x4444B6
0x444545
0x444580
0x4445B6
0x444727
0x444A3F
0x444B70
0x444BB0
0x444EDC
0x444FBD
0x4455EB
0x4456D3
0x44575A
0x4458F0
0x4458F4
0x445A4C
0x445A50
0x445A53
0x445B71
0x445C90
0x445CF0
0x445D78
0x445E10
0x445E16
0x445E24
0x445E70
0x445EF5
0x445F70
0x446108
0x4461B0
0x4461B8
0x4461DB
0x4462B0
0x446419
0x446654
0x446710
0x446712
0x446716
0x446B14
0x446B30
0x446CB0
0x446CB8
0x447320
0x44733C
0x4474A0
0x4474C0
0x4474C2
0x4474C6
0x447CE0
0x447F10
0x448280
0x4482D0
0x4488C0
0x4488D0
0x4488D2
0x4489F0
0x448A82
0x448A8B
0x448C1A
0x448CD0
0x448D1A
0x448D21
0x448DC0
0x448DF1
0x448F20
0x4492D6
0x4493C0
0x4493C9
0x4493CF
0x4493D5
0x449830
0x449A75
0x44A110
0x44A1F7
0x44A430
0x44A625
0x44A6C0
0x44A6F0
0x44A790
0x44A960
0x44AB60
0x44AB90
0x44AC20
0x44AC60
0x44AC80
0x44ACD2
0x44AD20
0x44AE45
0x44AF72
0x44B66A
0x44B6E7
0x44B747
0x44B7AF
0x44B817
0x44B9F0
0x44BA62
0x44BC10
0x44BC6C
0x44BCFC
0x44BD80
0x44BE82
0x44BE89
0x44C1B0
0x44C810
0x44CC10
0x44CE20
0x44D1F0
0x44D440
0x44D47B
0x44DF2F
0x44E3DB
0x44E570
0x44E980
0x44E984
0x44EC00
0x44ED24
0x44F171
0x44F280
0x44F9D0
0x44F9DD
0x45003D
0x450352
0x450354
0x450477
0x45047A
0x450880
0x450AF0
0x450F10
0x450F1D
0x4512B0
0x4512CA
0x4516E2
0x45173D
0x4517B2
0x45180D
0x4518C5
0x451925
0x451A05
0x451A75
0x451B75
0x451C9B
0x451FA5
0x452015
0x452085
0x4520F5
0x4521E5
0x452255
0x452312
0x452450
0x452650
0x4526FA
0x452780
0x452786
0x452830
0x4529C0
0x452A15
0x453490
0x453682
0x45371C
0x453845
0x453870
0x453872
0x453A30
0x453AD7
0x453BC0
0x453E45
0x453F48
0x453F92
0x454096
0x45413C
0x454263
0x4542D6
0x454310
0x4543E3
0x4546B0
0x4546D8
0x45480E
0x4548C2
0x454DA0
0x454DA9
0x4550E0
0x455337
0x455415
0x455515
0x4555C5
0x4556E5
0x455785
0x455830
0x45583F
0x455C50
0x455D86
0x455F06
0x455F90
0x455F94
0x455F9C
0x45604D
0x4561BF
0x4562B6
0x456510
0x456575
0x4565C0
0x456614
0x4567F2
0x456880
0x456A96
0x456AC6
0x456B59
0x456C09
0x456C44
0x456C60
0x456D47
0x456DE0
0x456E84
0x456F3F
0x456FE0
0x456FF6
0x457270
0x457272
0x457273
0x4573CA
0x457490
0x457492
0x457493
0x4575BA
0x457672
0x457726
0x4577B0
0x4577E0
0x45781D
0x457AED
0x457AF1
0x457AFE
0x45846D
0x458471
0x4588E8
0x4589AF
0x458AD0
0x458C60
0x458F70
0x4593B0
0x4593B4
0x45A810
0x45A814
0x45B070
0x45B07B
0x45B3E0
0x45B3F0
0x45B4BB
0x45B511
0x45B5A4
0x45B5B2
0x45BA60
0x45BA76
0x45BCC0
0x45BCE9
0x45BF6E
0x45C008
0x45C012
0x45C162
0x45C2D4
0x45C63F
0x45C660
0x45C6C3
0x45C790
0x45C890
0x45C8D0
0x45C8F0
0x45D0D6
0x45D190
0x45D1A1
0x45D260
0x45D285
0x45D2F0
0x45D2F7
0x45D2FF
0x45D309
0x45D650
0x45DAD0
0x45DAD4
0x45DAE0
0x45DD60
0x45E100
0x45E103
0x45E180
0x45E1D0
0x45E5D0
0x45E5F0
0x45E5F9
0x45F030
0x45F03B
0x45F560
0x45F790
0x45F8B0
0x45F8B3
0x45F940
0x45F94E
0x45FD7D
0x45FE40
0x45FE45
0x45FEF1
0x45FF20
0x45FF40
0x460112
0x460116
0x4606A0
0x460790
0x4607D0
0x460840
0x460842
0x460844
0x4609B0
0x460C20
0x460C35
0x460E20
0x461406
0x462940
0x462950
0x462D30
0x462E10
0x462EA5
0x462F45
0x463145
0x4632B6
0x463470
0x4635A5
0x463620
0x463B10
0x463CA0
0x4640E2
0x4640E6
0x4640F5
0x464236
0x4642F0
0x464640
0x4646E0
0x4646EA
0x464824
0x464875
0x4651B0
0x4651B9
0x4651F0
0x465522
0x4655B2
0x465670
0x465890
0x4658B0
0x4658E0
0x465930
0x465A30
0x465A50
0x465A73
0x465D22
0x465F10
0x4661C5
0x466315
0x4663B0
0x466557
0x46655A
0x466840
0x4668A8
0x466970
0x467120
0x46712A
0x467240
0x467280
0x467299
0x467363
0x467454
0x46745B
0x4678B0
0x4678D0
0x467930
0x4679C0
0x4679C2
0x4679C6
0x4679C8
0x467B97
0x467CC0
0x467CC9
0x467F30
0x468970
0x468982
0x46898A
0x468AC0
0x468CA0
0x468D70
0x468F11
0x468F1C
0x4690D0
0x469100
0x4694E5
0x469694
0x469704
0x469774
0x4697E5
0x4698B5
0x469985
0x469A55
0x469AB5
0x469B05
0x469BB5
0x469C65
0x469CF5
0x469D55
0x469D85
0x469E12
0x469E1A
0x46A2AC
0x46A3D2
0x46A3DA
0x46A4CC
0x46A5F2
0x46A5FA
0x46A6EC
0x46A812
0x46A81A
0x46A90D
0x46AAAD
0x46AC3D
0x46AE12
0x46AE1A
0x46AFB2
0x46AFBA
0x46B1F0
0x46B1F9
0x46B384
0x46B3F4
0x46C080
0x46C082
0x46C08E
0x46C3DA
0x46C4F2
0x46C5B2
0x46C762
0x46C764
0x46C9A9
0x46CA9C
0x46CE12
0x46CE26
0x46D142
0x46D17B
0x46D1A6
0x46D233
0x46D2DE
0x46D31B
0x46D369
0x46D3D0
0x46D402
0x46D43B
0x46D478
0x46D686
0x46D6F5
0x46D7A3
0x46D7E0
0x46D810
0x46D842
0x46D8D8
0x46D933
0x46D960
0x46DA55
0x46DB39
0x46DBA2
0x46DBCA
0x46DDB0
0x46DDE0
0x46DE26
0x46DE9B
0x46DF1B
0x46DF58
0x46DF95
0x46E062
0x46E067
0x46E074
0x46E0CC
0x46E109
0x46E30A
0x46E3B2
0x46E45A
0x46E4BA
0x46E52A
0x46E59E
0x46E5E6
0x46E618
0x46E650
0x46E680
0x46E6C0
0x46E6CD
0x46EAB2
0x46EABB
0x46F100
0x46F8A2
0x46FD2B
0x470B62
0x470E6A
0x471148
0x4712B5
0x4714DF
0x471601
0x47178A
0x4718EC
0x471983
0x471AAF
0x471EA9
0x471F1A
0x471F6C
0x472030
0x472038
0x472150
0x472200
0x472224
0x472432
0x4724C1
0x4724CC
0x472690
0x4726C6
0x4728B4
0x472A2A
0x472AD3
0x472BDD
0x472CD0
0x472DD0
0x472EE0
0x473000
0x473120
0x473262
0x473472
0x4736B2
0x4739F2
0x473BA1
0x473ED0
0x473EE3
0x4742F0
0x474B15
0x474C02
0x474C17
0x474CF1
0x474D02
0x474ED0
0x476190
0x476D32
0x476F65
0x476F6A
0x477000
0x477207
0x47739D
0x477690
0x477D26
0x477EA0
0x478040
0x4781E0
0x4781EA
0x4784D7
0x4784DA
0x478690
0x478692
0x478696
0x478880
0x478C50
0x479010
0x479017
0x4792E0
0x4794E1
0x479530
0x47953B
0x47981F
0x4798E3
0x479AA6
0x479C25
0x479C9E
0x479E35
0x479F55
0x479FC5
0x47A0C0
0x47A100
0x47A2E5
0x47AA34
0x47AB70
0x47AB72
0x47AE0A
0x47AEF1
0x47AFE8
0x47B04F
0x47B21A
0x47B317
0x47B41C
0x47B6B9
0x47B7F5
0x47B8E5
0x47B985
0x47BA30
0x47BA38
0x47BCF0
0x47BD83
0x47BF70
0x47BFD0
0x47C004
0x47C007
0x47C360
0x47C372
0x47C400
0x47C6E0
0x47C850
0x47CB41
0x47CB91
0x47CBDE
0x47CD2E
0x47CD6E
0x47CE1E
0x47CEE1
0x47CF2E
0x47D16E
0x47D440
0x47DADA
0x47DB71
0x47DCB2
0x47DCB5
0x47DDD7
0x47DE90
0x47DEC2
0x47DEC5
0x47E092
0x47E098
0x47E194
0x47E1E0
0x47E1E9
0x47E25B
0x47E2AF
0x47E330
0x47E339
0x47E3B2
0x47E40C
0x47E4C1
0x47E4C7
0x47E5BD
0x47E793
0x47EA13
0x47EC82
0x47EC88
0x47ED52
0x47ED61
0x47F062
0x47F065
0x47F071
0x47F442
0x47F562
0x47F691
0x47F6F1
0x47F6F7
0x47F821
0x47F941
0x47FA7D
0x47FAA6
0x47FB68
0x47FC60
0x47FD74
0x48014A
0x480241
0x48024E
0x480376
0x480411
0x480481
0x480532
0x480538
0x480651
0x480657
0x4806E8
0x4806F1
0x4807EC
0x480882
0x480897
0x480E6D
0x480E71
0x480EAE
0x48108C
0x4810D6
0x481101
0x48117C
0x481392
0x481482
0x4815E7
0x481660
0x481671
0x4817FD
0x48189D
0x481921
0x48192D
0x4819C0
0x481A7B
0x481A81
0x481B36
0x481B85
0x481E5C
0x481F62
0x481FAD
0x481FB5
0x481FBC
0x482382
0x482388
0x4824DD
0x4824E1
0x4824E7
0x482615
0x482892
0x482A32
0x482A38
0x482B55
0x482D4D
0x482D55
0x482DA6
0x482F1D
0x483B30
0x484430
0x484432
0x484439
0x4847B0
0x4847E8
0x484A12
0x484C10
0x484C16
0x484FC0
0x4856A0
0x4856A9
0x48588D
0x4859C5
0x485B55
0x485BE0
0x485C10
0x485C25
0x485C70
0x485CBD
0x485CC1
0x485FE7
0x486082
0x48608A
0x486160
0x486190
0x4861C1
0x4863B0
0x486440
0x486600
0x486649
0x486740
0x486810
0x486812
0x486813
0x486AF2
0x487949
0x487A00
0x487B50
0x487D60
0x4894C9
0x489680
0x489790
0x489C90
0x489CB0
0x489CD0
0x489CE8
0x489D20
0x489D3B
0x489DD0
0x489DD4
0x48A184
0x48A187
0x48A3E5
0x48A5ED
0x48A6D6
0x48A7AA
0x48A8E0
0x48AA10
0x48AA21
0x48AA30
0x48AA43
0x48ABA0
0x48ABE0
0x48ACD0
0x48AE30
0x48AE60
0x48AEA0
0x48AEAB
0x48B0B0
0x48B23C
0x48B6A0
0x48B970
0x48B973
0x48BE60
0x48BE64
0x48BE67
0x48C2B0
0x48C2B3
0x48C5FC
0x48C614
0x48C7C6
0x48CC00
0x48CE40
0x48CE50
0x48D330
0x48D510
0x48D8C0
0x48D8CB
0x48DD60
0x48E14D
0x48E3B2
0x48E480
0x48E540
0x48E892
0x48E894
0x48E9B2
0x48E9B4
0x48EA90
0x48ECA6
0x48ED10
0x48ED29
0x48F160
0x48F190
0x48F280
0x48FBD0
0x48FBE3
0x48FFC0
0x48FFC9
0x490122
0x490125
0x4901A0
0x490210
0x4903C0
0x4903C2
0x4903CD
0x490B70
0x490BE0
0x490BE9
0x490EA0
0x490FA0
0x4914D0
0x4914D9
0x491C12
0x491C17
0x492650
0x492900
0x492930
0x492D92
0x492E37
0x493110
0x4931D0
0x493320
0x493322
0x493400
0x4936F8
0x493794
0x493900
0x493C60
0x494170
0x494172
0x4942A0
0x4942AB
0x4946D0
0x4946D2
0x4946D6
0x494B95
0x494DC0
0x494DE2
0x495370
0x495550
0x495559
0x495623
0x4956A0
0x4956B3
0x4957A0
0x4958DD
0x495920
0x495AB8
0x495B6E
0x495BD7
0x495C84
0x495CF7
0x495DA4
0x495E10
0x495F0D
0x495F43
0x495FBC
0x4960B0
0x49617B
0x496300
0x496304
0x496309
0x4963AE
0x496440
0x49644B
0x4965A6
0x4966A0
0x4967C8
0x49682E
0x496AA1
0x496BC0
0x496C28
0x496C31
0x496C51
0x496CB0
0x496E05
0x496E9D
0x496F18
0x496F60
0x497070
0x4970AE
0x4971A5
0x4973B0
0x4973B2
0x4973B3
0x49762D
0x497890
0x49789C
0x497AA8
0x497AAA
0x497AAB
0x497ABF
0x497DD8
0x497DDA
0x497DDB
0x497DEF
0x4980F9
0x49822C
0x498280
0x498720
0x498736
0x4987FA
0x498957
0x4989B0
0x498B25
0x4990A0
0x4997E0
0x4997EA
0x49A1A0
0x49A1D0
0x49A250
0x49A278
0x49A520
0x49A527
0x49A5DD
0x49A637
0x49A741
0x49A7A0
0x49A7A2
0x49A7A6
0x49A7A8
0x49ABE0
0x49ABE5
0x49AC7D
0x49AD6C
0x49B1C0
0x49B4F0
0x49B5C0
0x49B5C8
0x49B608
0x49B640
0x49B8E6
0x49BA36
0x49BB5F
0x49BED5
0x49BF20
0x49C170
0x49C1B7
0x49C1BD
0x49C2F9
0x49C3E0
0x49C504
0x49C506
0x49C6B2
0x49C742
0x49C7D0
0x49CA10
0x49CB50
0x49CBCE
0x49CD70
0x49CD90
0x49CF0A
0x49CFE0
0x49D411
0x49D482
0x49D510
0x49D519
0x49D52E
0x49D689
0x49D6E8
0x49D739
0x49D790
0x49D799
0x49D7AB
0x49DA6D
0x49DB1A
0x49DF7E
0x49E400
0x49E459
0x49E570
0x49E8E0
0x49ED90
0x49ED9A
0x49F130
0x49F25F
0x49F2E7
0x49F343
0x49F650
0x49FB90
0x49FB96
0x49FCE0
0x49FCE6
0x49FDC0
0x49FE3C
0x4A0098
0x4A10B0
0x4A11B7
0x4A17A3
0x4A1946
0x4A2AA3
0x4A2BD0
0x4A2F19
0x4A3430
0x4A3476
0x4A34E8
0x4A34EC
0x4A3528
0x4A352C
0x4A3554
0x4A3557
0x4A35E9
0x4A36D0
0x4A36D3
0x4A37C0
0x4A37C2
0x4A37C6
0x4A37C8
0x4A3898
0x4A3A80
0x4A3AD0
0x4A3DA0
0x4A3FC8
0x4A4010
0x4A4014
0x4A4017
0x4A4150
0x4A41C0
0x4A41CE
0x4A41D0
0x4A42B0
0x4A42E4
0x4A450A
0x4A450D
0x4A45D0
0x4A45D3
0x4A4890
0x4A48B5
0x4A4917
0x4A4BA0
0x4A4BA3
0x4A4BF0
0x4A5010
0x4A5310
0x4A55A0
0x4A5B90
0x4A5CF0
0x4A6260
0x4A647D
0x4A6481
0x4A66D4
0x4A6DB8
0x4A6EC0
0x4A6F8A
0x4A7260
0x4A74E9
0x4A752C
0x4A75A0
0x4A7972
0x4A7B20
0x4A7B22
0x4A7B26
0x4A7CA0
0x4A7E40
0x4A7E90
0x4A7EF0
0x4A7F50
0x4A8090
0x4A8225
0x4A82D5
0x4A8355
0x4A83D5
0x4A8571
0x4A8A60
0x4A8A63
0x4A8C75
0x4A8C8B
0x4A91B0
0x4A9350
0x4A9358
0x4A9820
0x4AA062
0x4AA064
0x4AA440
0x4AA444
0x4AA44A
0x4AABE0
0x4AABFA
0x4AAFC0
0x4AAFCE
0x4AB08E
0x4AB210
0x4AB3C5
0x4AB5E0
0x4AB5E4
0x4AB640
0x4AB66D
0x4AB6F0
0x4AB72B
0x4AB786
0x4ABAE9
0x4AC062
0x4AC0C9
0x4AC1AE
0x4AC410
0x4AC418
0x4AC870
0x4ADAB0
0x4ADF80
0x4AE400
0x4AEE5D
0x4B07E0
0x4B1300
0x4B1928
0x4B24F0
0x4B27E0
0x4B28D0
0x4B2FF2
0x4B3062
0x4B30D2
0x4B3153
0x4B31D2
0x4B3242
0x4B3470
0x4B34A9
0x4B369C
0x4B36E9
0x4B38C0
0x4B38FA
0x4B39EB
0x4B3D7D
0x4B3D81
0x4B58C0
0x4B58C9
0x4B5A00
0x4B5A0F
0x4B5A19
0x4B5E40
0x4B61A0
0x4B6480
0x4B6860
0x4B6875
0x4B73A0
0x4B7681
0x4B7693
0x4B7C60
0x4B7D41
0x4B7D4C
0x4B7ED0
0x4B7FD0
0x4B8060
0x4B8070
0x4B8110
0x4B81A1
0x4B81AC
0x4B82E6
0x4B83B0
0x4B83B6
0x4B87D0
0x4B89D7
0x4B8B10
0x4B8D17
0x4B8E50
0x4B9067
0x4B91A0
0x4B9410
0x4B9412
0x4B97A0
0x4B97A4
0x4B9970
0x4B9979
0x4B9D92
0x4B9D94
0x4B9EF2
0x4B9EF4
0x4BA052
0x4BA054
0x4BABC0
0x4BABD0
0x4BABF0
0x4BAC20
0x4BAD06
0x4BB532
0x4BB534
0x4BB830
0x4BBA90
0x4BCBE1
0x4BCBE9
0x4BCDA0
0x4BCDA2
0x4BD1B3
0x4BD328
0x4BD5B8
0x4BDB50
0x4BDB5C
0x4BE3C0
0x4BE3F0
0x4BE4A0
0x4BE5AA
0x4BE6A0
0x4BE6AA
0x4BE7A0
0x4BE878
0x4BEBA0
0x4BEBAB
0x4BEBAD
0x4BED6D
0x4BEF67
0x4BF059
0x4BF0D0
0x4BF1B5
0x4BF2E0
0x4BF2E6
0x4BF520
0x4BF750
0x4BF8F0
0x4BFC90
0x4BFC92
0x4BFC96
0x4BFE60
0x4BFEC0
0x4BFEE0
0x4C0110
0x4C03E0
0x4C03F2
0x4C0550
0x4C0563
0x4C096D
0x4C09E0
0x4C09EA
0x4C0BAA
0x4C0C50
0x4C0C80
0x4C0E70
0x4C0E72
0x4C0E76
0x4C0E78
0x4C1300
0x4C130D
0x4C1426
0x4C1A67
0x4C1A69
0x4C1A6D
0x4C1B60
0x4C1D30
0x4C1E27
0x4C2040
0x4C2600
0x4C2899
0x4C28A4
0x4C2F20
0x4C3CEF
0x4C3D07
0x4C3D1F
0x4C3D37
0x4C3EC0
0x4C4430
0x4C4750
0x4C4AC0
0x4C4ACE
0x4C4AD0
0x4C4E82
0x4C4F25
0x4C5191
0x4C5256
0x4C53C0
0x4C53CC
0x4C5680
0x4C59FA
0x4C5BE0
0x4C5BF8
0x4C5CA0
0x4C5CB7
0x4C5F30
0x4C6CA5
0x4C6DF0
0x4C7205
0x4C7475
0x4C74D5
0x4C7513
0x4C75A0
0x4C7845
0x4C7915
0x4C7990
0x4C7BE2
0x4C7BE7
0x4C89C0
0x4C89CB
0x4C89D3
0x4C8F72
0x4C8F73
0x4C8F7B
0x4C9E90
0x4C9E9B
0x4C9EA3
0x4CA3F0
0x4CA3FB
0x4CA403
0x4CA43C
0x4CA6B0
0x4CA6BB
0x4CA6C3
0x4CA6FC
0x4CA9A2
0x4CA9A3
0x4CA9AB
0x4CB7D0
0x4CB7DB
0x4CB7E3
0x4CBD71
0x4CBD7F
0x4CC030
0x4CC270
0x4CC470
0x4CC480
0x4CCCB0
0x4CD5EA
0x4CD707
0x4CD709
0x4CD810
0x4CD81E
0x4CD820
0x4CD927
0x4CDB88
0x4CDB91
0x4CDCC5
0x4CDFA5
0x4CE030
0x4CE061
0x4CE0B0
0x4CE3B0
0x4CE3B5
0x4CE5C0
0x4CE5CF
0x4CE713
0x4CE783
0x4CE7E3
0x4CE828
0x4CE9E0
0x4CEDFA
0x4CF050
0x4CF146
0x4CF1D0
0x4CF220
0x4CF224
0x4CF672
0x4CF700
0x4CF930
0x4CF9A0
0x4CF9B6
0x4CFA90
0x4CFC1F
0x4CFCA6
0x4CFDD5
0x4CFE31
0x4CFE41
0x4D0BC0
0x4D0D90
0x4D0E41
0x4D0E4C
0x4D0FFA
0x4D10A0
0x4D10A4
0x4D10AD
0x4D1170
0x4D11B2
0x4D14E0
0x4D16E0
0x4D16E2
0x4D1750
0x4D175E
0x4D1D48
0x4D1FF0
0x4D2280
0x4D23B0
0x4D23E3
0x4D27C0
0x4D27C7
0x4D27F2
0x4D2F99
0x4D3080
0x4D329B
0x4D3660
0x4D3AE7
0x4D3AFC
0x4D3B60
0x4D3FF0
0x4D4015
0x4D444C
0x4D49AB
0x4D4AA4
0x4D4C1D
0x4D4E50
0x4D51DE
0x4D555B
0x4D632A
0x4D65F0
0x4D68E0
0x4D6BE0
0x4D6BE2
0x4D6BE3
0x4D6BF2
0x4D6FD0
0x4D7036
0x4D7090
0x4D7165
0x4D716C
0x4D71F1
0x4D7225
0x4D738A
0x4D7410
0x4D745A
0x4D7617
0x4D7D10
0x4D8081
0x4D8381
0x4D8770
0x4D87BA
0x4D8EA1
0x4D8ED5
0x4D91D0
0x4D921A
0x4D9940
0x4D9962
0x4D9A52
0x4D9BE0
0x4D9C80
0x4D9DB0
0x4D9DE0
0x4D9DE3
0x4D9E40
0x4D9E43
0x4DA1B6
0x4DA2C6
0x4DA352
0x4DA359
0x4DA4AF
0x4DA680
0x4DA6A0
0x4DA706
0x4DA7B6
0x4DA956
0x4DAA06
0x4DAAB0
0x4DAD72
0x4DADEF
0x4DAF55
0x4DAFA6
0x4DB0D0
0x4DB277
0x4DB3AA
0x4DB622
0x4DB7E6
0x4DB8CE
0x4DB9F0
0x4DBA05
0x4DBEC0
0x4DC1B0
0x4DCD90
0x4DCDB0
0x4DCDE0
0x4DD5BA
0x4DD630
0x4DD7A0
0x4DD7C0
0x4DD7E6
0x4DD880
0x4DD9D0
0x4DD9D9
0x4DDB36
0x4DDC40
0x4DDE21
0x4DE040
0x4DE056
0x4DE2F0
0x4DE570
0x4DE57C
0x4DE7A0
0x4DE8E0
0x4DE8E9
0x4DEB30
0x4DEB3C
0x4DEC51
0x4DF441
0x4DF4F0
0x4DF780
0x4DF7D4
0x4DF7D6
0x4DF971
0x4DF97A
0x4DFC80
0x4DFCE0
0x4DFD72
0x4DFF60
0x4DFF69
0x4E02E3
0x4E06B1
0x4E0901
0x4E090C
0x4E0BE0
0x4E0C60
0x4E0D10
0x4E0E40
0x4E0EF1
0x4E0EFC
0x4E1070
0x4E1072
0x4E18E0
0x4E18E4
0x4E18E8
0x4E2120
0x4E2124
0x4E2260
0x4E2792
0x4E279A
0x4E35B0
0x4E35B2
0x4E3BD0
0x4E3BD9
0x4E4030
0x4E4044
0x4E4300
0x4E46E0
0x4E46E2
0x4E4A60
0x4E4A7D
0x4E4C59
0x4E4EE0
0x4E5590
0x4E559D
0x4E619E
0x4E6CD0
0x4E76F0
0x4E7878
0x4E7882
0x4E86A0
0x4E86E0
0x4E874A
0x4E8779
0x4E897A
0x4E8AB0
0x4E8AB6
0x4E8AC0
0x4E8E51
0x4E9270
0x4E9770
0x4E9774
0x4E97EB
0x4E9A60
0x4E9A73
0x4E9BAC
0x4EA290
0x4EA298
0x4EA29D
0x4EAB10
0x4EAB13
0x4EAB19
0x4EB51D
0x4EB623
0x4EB734
0x4EB739
0x4EB73E
0x4EB741
0x4EB870
0x4EB879
0x4EBCA0
0x4EBCA2
0x4EC12C
0x4EC777
0x4EC78A
0x4ECFC0
0x4ED300
0x4ED306
0x4ED309
0x4ED31A
0x4ED3F3
0x4ED406
0x4ED459
0x4ED471
0x4ED4C9
0x4ED53E
0x4ED590
0x4ED5E0
0x4ED6B0
0x4ED700
0x4ED799
0x4EDCD0
0x4EDD00
0x4EDD4D
0x4EDE30
0x4EDE50
0x4EDE70
0x4EDEA0
0x4EDEC0
0x4EDF10
0x4EDF60
0x4EDF80
0x4EDFD0
0x4EE038
0x4EE098
0x4EE0D0
0x4EE490
0x4EE499
0x4EEA60
0x4EF1A7
0x4EF240
0x4EF24D
0x4EF3FD
0x4EF490
0x4EF680
0x4EF73D
0x4EF8CF
0x4EF970
0x4EFBC7
0x4EFC30
0x4EFC73
0x4F00DA
0x4F014F
0x4F033B
0x4F03B0
0x4F0590
0x4F074C
0x4F0D20
0x4F0DF1
0x4F113E
0x4F1700
0x4F1702
0x4F2320
0x4F24E0
0x4F24E6
0x4F27F0
0x4F2B17
0x4F3419
0x4F391B
0x4F4280
0x4F4293
0x4F4650
0x4F4F34
0x4F53B8
0x4F55F5
0x4F569F
0x4F5862
0x4F58DE
0x4F59B1
0x4F6450
0x4F64A3
0x4F65E0
0x4F7150
0x4F7532
0x4F78B0
0x4F79AA
0x4F79B7
0x4F7D10
0x4F7D1B
0x4F7F50
0x4F8320
0x4F8380
0x4F8411
0x4F863A
0x4F9370
0x4F949A
0x4F98D0
0x4FA410
0x4FAB6B
0x4FAB79
0x4FAC50
0x4FACB3
0x4FB561
0x4FB6E0
0x4FD260
0x4FD360
0x4FD567
0x4FD6D0
0x4FDAE7
0x4FDBF4
0x4FE7D2
0x4FEC38
0x4FF035
0x4FF118
0x4FF3C8
0x4FFFAF
0x5000A4
0x500350
0x501380
0x501706
0x5017D3
0x501A9F
0x501ADA
0x501B7D
0x501B81
0x502CBE
0x502D60
0x502DA0
0x503040
0x5030B0
0x5031E0
0x5031EC
0x5034E0
0x5034EA
0x503AE0
0x503AE5
0x503CD3
0x503D33
0x5041A0
0x5048E2
0x504974
0x504BF7
0x504C47
0x504D40
0x504FE0
0x505000
0x50506D
0x505071
0x505077
0x505359
0x5056A6
0x5059E0
0x505AA2
0x505AF0
0x505AF7
0x506089
0x506134
0x5066F2
0x506760
0x506923
0x506F65
0x50743F
0x5074AD
0x507560
0x5076DE
0x508345
0x508D11
0x508ED0
0x508EF0
0x509016
0x5090F0
0x5090F2
0x509334
0x509339
0x509480
0x509482
0x509690
0x509692
0x509693
0x509697
0x509CB0
0x50A3E5
0x50A8E0
0x50A940
0x50A94F
0x50ABD0
0x50B3AD
0x50B3B1
0x50BDE5
0x50C46A
0x50CF80
0x50D170
0x50D1C7
0x50D20C
0x50D230
0x50D290
0x50D768
0x50D800
0x50D807
0x50D814
0x50D91D
0x50DB30
0x50DE48
0x50DF69
0x50E040
0x50E042
0x50E046
0x50E0FC
0x50E105
0x50E270
0x50E350
0x50E35C
0x50E880
0x50E882
0x50E886
0x50EA08
0x50EA0D
0x50EB70
0x50ED35
0x50EE50
0x50EE52
0x50EED1
0x50F1D1
0x50F220
0x50F290
0x50F4E0
0x50F4E9
0x50F6A1
0x50FAAF
0x50FB50
0x50FC74
0x510C24
0x5124C2
0x512767
0x512768
0x5127B0
0x512940
0x512B40
0x512B49
0x512C98
0x512CA2
0x512E60
0x512E6A
0x5130D0
0x513190
0x5132C0
0x513320
0x5134B2
0x5136C6
0x513750
0x513AF0
0x513AF2
0x513D70
0x513D79
0x513E5E
0x513FD0
0x514042
0x514125
0x5141E0
0x5141E2
0x5141EB
0x514710
0x514C70
0x514C74
0x515300
0x5153A0
0x5153F0
0x5155A0
0x5156E2
0x5157FC
0x515A10
0x515AD0
0x515B90
0x515C50
0x515D10
0x515DD0
0x516206
0x516223
0x5165E0
0x516628
0x5177A0
0x517D70
0x5184B0
0x518780
0x518B07
0x518C40
0x518ED0
0x5192F0
0x519460
0x519700
0x519708
0x519807
0x519988
0x519A10
0x519B30
0x519B32
0x51A220
0x51A300
0x51A390
0x51A450
0x51A560
0x51A622
0x51A6A2
0x51A9D2
0x51AA62
0x51AAA6
0x51AAC2
0x51AB92
0x51AC62
0x51AD60
0x51B000
0x51B0B0
0x51B280
0x51B28B
0x51B2F8
0x51B410
0x51B790
0x51BD21
0x51BEA0
0x51C050
0x51C052
0x51C770
0x51C90B
0x51CBBB
0x51CF40
0x51CF42
0x51CF46
0x51D0F0
0x51D310
0x51D942
0x51D944
0x51DBA9
0x51DBAD
0x51DEE0
0x51E5D0
0x51E6DF
0x51E6E0
0x51E6E8
0x51E8FB
0x51EA88
0x51EBDB
0x51ED50
0x51F287
0x51F295
0x51F489
0x51F600
0x51F73F
0x51FAA0
0x520344
0x520530
0x5205C4
0x52063E
0x521AC0
0x52200F
0x522120
0x5221F0
0x522F9C
0x5232A9
0x523F80
0x5244E0
0x5244E9
0x5247C7
0x524890
0x524950
0x524990
0x524AE6
0x524B31
0x524B70
0x524B72
0x524B76
0x524B78
0x52510C
0x5251D3
0x525230
0x52523F
0x52525A
0x525333
0x5257A0
0x525A30
0x525A34
0x525A4C
0x525AD0
0x525CA0
0x525DC0
0x526020
0x526028
0x5260E0
0x528745
0x529C50
0x52A080
0x52AD30
0x52B270
0x52B272
0x52B276
0x52B27D
0x52B620
0x52BB11
0x52C5C0
0x52C6E6
0x52C7E0
0x52C8DB
0x52C8DC
0x52C8E5
0x52C93B
0x52C9D3
0x52CA00
0x52CA11
0x52CDBB
0x52CE77
0x52D05C
0x52D890
0x52DC30
0x52DC3E
0x52DF2A
0x52DF2F
0x52E120
0x52E32A
0x52E4C0
0x52E8EB
0x52E92B
0x52E966
0x52E9D6
0x52EA46
0x52EAFF
0x52EB01
0x52EB05
0x52EB07
0x52ECF6
0x52ED6B
0x52EE06
0x52EE7B
0x52EF10
0x52F330
0x52F346
0x52F61D
0x52F838
0x52F9C0
0x52F9C6
0x52F9D0
0x52FFE4
0x5305C0
0x53074A
0x53085A
0x53096A
0x530D63
0x5311A3
0x5312E0
0x5312E9
0x531657
0x53179B
0x531A67
0x531E30
0x531E32
0x531E36
0x531E38
0x5322C0
0x5322F2
0x5322F6
0x532F20
0x532F38
0x533265
0x533322
0x53368E
0x533790
0x533792
0x533796
0x533DC2
0x533EA0
0x533EA3
0x533F00
0x534311
0x53463E
0x5346C0
0x5346C7
0x53491B
0x534D30
0x534D33
0x53527D
0x535285
0x53535E
0x5353C9
0x53555E
0x535670
0x5356A0
0x535701
0x535703
0x535707
0x535709
0x535B60
0x535B67
0x535B6A
0x535B83
0x535C30
0x535CB0
0x5360D0
0x536170
0x536490
0x5367B5
0x5368A0
0x536900
0x536902
0x536908
0x5371A0
0x537364
0x5379BB
0x537A92
0x537A96
0x537B71
0x537B94
0x537C40
0x5385FD
0x538601
0x538B2A
0x538DD0
0x538F40
0x5390D7
0x539160
0x5391DD
0x539560
0x539BC0
0x539BE6
0x539F61
0x539FA0
0x53A03D
0x53A041
0x53A047
0x53A470
0x53AF48
0x53B470
0x53B475
0x53B479
0x53BAD0
0x53C090
0x53C490
0x53C4E5
0x53C6A0
0x53C6A2
0x53CEE6
0x53CF2D
0x53CF31
0x53D2A2
0x53E880
0x53E889
0x53E896
0x540623
0x541870
0x541B90
0x541CB0
0x541FA0
0x541FD0
0x542000
0x542040
0x542080
0x542100
0x542118
0x5421B1
0x54249C
0x5424A7
0x542504
0x542A28
0x542B17
0x542B22
0x542DA0
0x542F9F
0x543280
0x5433EB
0x543430
0x5436C0
0x5437E0
0x5439F0
0x543BC0
0x543BD3
0x543EF3
0x543F31
0x54414A
0x544246
0x5443B7
0x544430
0x5446E0
0x544710
0x544712
0x544716
0x544718
0x544B00
0x544B45
0x544B9E
0x544DF0
0x5451D0
0x5451D3
0x545240
0x5453B0
0x545400
0x545410
0x545602
0x5456A6
0x545720
0x545723
0x5457A0
0x5457A2
0x5457A6
0x5457A8
0x545A40
0x545C70
0x545DD5
0x54611D
0x546181
0x546498
0x5467C0
0x546890
0x546960
0x546A30
0x546AB0
0x547162
0x547BE0
0x547DD0
0x547E90
0x547F30
0x547FC0
0x5480B0
0x548376
0x5483F0
0x54841A
0x5485D0
0x548620
0x548647
0x548721
0x548723
0x548727
0x548729
0x548B80
0x548B87
0x548B8A
0x548C52
0x548D40
0x548DD0
0x548DD2
0x548DD6
0x548DD8
0x548DE0
0x549040
0x549059
0x5491B0
0x5491B6
0x549290
0x549706
0x549838
0x549920
0x5499A6
0x549C40
0x549CC0
0x549CC6
0x549E00
0x549EB0
0x549EF2
0x549EF4
0x54A4F3
0x54A540
0x54A6A1
0x54A73C
0x54A930
0x54A9E6
0x54AA85
0x54C060
0x54C098
0x54C0A3
0x54C390
0x54C3D0
0x54C4C6
0x54C5E8
0x54CB30
0x54CE4B
0x54D080
0x54D1C0
0x54D1CA
0x54D436
0x54D505
0x54D5C0
0x54D5D0
0x54D5D3
0x54D66B
0x54D760
0x54D780
0x54D78E
0x54D790
0x54D862
0x54D972
0x54D9E0
0x54DA20
0x54DB20
0x54DB24
0x54DCC0
0x54DCCE
0x54DCD0
0x54DE7D
0x54DFFD
0x54E09A
0x54E230
0x54E23D
0x54E356
0x54E3E0
0x54E3E2
0x54E3E6
0x54E3ED
0x54E630
0x54E800
0x54EA10
0x54EB46
0x54EBD0
0x54EC20
0x54EC42
0x54ECB0
0x54ECBD
0x54EDA0
0x54F1D0
0x54F1DD
0x54F410
0x54F430
0x54F450
0x54F966
0x54FA20
0x54FA2C
0x550231
0x550BE6
0x550C40
0x550C59
0x550E10
0x550E12
0x5510E0
0x5510E2
0x5510E4
0x5514D0
0x5515A8
0x551740
0x551A36
0x551A94
0x551A96
0x551B50
0x551B52
0x551B56
0x551B58
0x551EA0
0x551FFB
0x552160
0x552A10
0x5533E0
0x5533EB
0x5535E0
0x553A50
0x554086
0x5540F6
0x554166
0x554300
0x554313
0x55492D
0x554A40
0x554A4C
0x554EF5
0x555085
0x5554C5
0x555890
0x555B30
0x555B70
0x556030
0x556390
0x556A30
0x556DC0
0x556DC6
0x557000
0x557D50
0x557D58
0x557ED5
0x557FC5
0x55809E
0x558281
0x5583E1
0x558634
0x558955
0x558BA2
0x559A22
0x559FE5
0x55A3B2
0x55A683
0x55AAF0
0x55ADA0
0x55B100
0x55BA90
0x55BD00
0x55C8D2
0x55D170
0x55D224
0x55D450
0x55DAC0
0x55DAD1
0x55E300
0x55EBE0
0x55F200
0x55F202
0x55F352
0x55F5DD
0x55F7B2
0x55FBA1
0x55FEC2
0x560318
0x560325
0x560510
0x560512
0x560516
0x560518
0x56053B
0x56131F
0x5617D0
0x5617DD
0x56185E
0x56191C
0x561CA7
0x561DFE
0x562680
0x562E6A
0x563F43
0x563FC0
0x564011
0x56406B
0x56410B
0x564167
0x5641B0
0x5643C0
0x56448A
0x56452F
0x5645E0
0x5646C7
0x564B10
0x564B13
0x565F50
0x565F60
0x566162
0x566286
0x56638D
0x5667D1
0x5667DA
0x566B22
0x566B2A
0x567AAA
0x567BC0
0x567BC4
0x567BC9
0x567FB0
0x567FB2
0x567FBF
0x568619
0x5697C0
0x569869
0x569C00
0x569C29
0x569F56
0x569F90
0x56A2E0
0x56A8F9
0x56AA80
0x56B3A0
0x56BD48
0x56BEF0
0x56BEFF
0x56C0F0
0x56C109
0x56C261
0x56C2AB
0x56C412
0x56C810
0x56CB23
0x56CB31
0x56CC00
0x56D250
0x56D610
0x56D666
0x56D66F
0x56DAEC
0x56DED0
0x56E59C
0x56E5D6
0x56E67A
0x56E960
0x56E979
0x56EB79
0x56ECE6
0x56ED60
0x56ED70
0x56ED72
0x56ED92
0x56F23F
0x56F250
0x56F252
0x56F256
0x56F258
0x56F260
0x56F871
0x56F959
0x56F9F1
0x56FCB0
0x56FD69
0x57023F
0x5704D0
0x570A50
0x570A58
0x570C10
0x570C1A
0x571180
0x571F20
0x572400
0x572409
0x57240B
0x572413
0x572A50
0x572CDA
0x5740AB
0x574130
0x574132
0x575350
0x57580C
0x5765CA
0x576630
0x576634
0x576E80
0x576E88
0x5772B0
0x5772B2
0x577670
0x577672
0x577676
0x577B70
0x577CB0
0x578050
0x578440
0x578780
0x578927
0x578B10
0x578BC0
0x57A700
0x57B4E7
0x57BCF7
0x57CC6E
0x57CD61
0x57D32D
0x57DD94
0x57E1C0
0x57E2F0
0x57E2F4
0x57EFF0
0x580320
0x580D36
0x580F65
0x581286
0x581330
0x5816CE
0x581780
0x581BC0
0x5820B6
0x58213E
0x5822D6
0x5827E0
0x582C70
0x583F30
0x583F46
0x5841FD
0x584201
0x584207
0x58420B
0x584D04
0x584E10
0x584E3C
0x5850FA
0x585790
0x586170
0x586A50
0x5879A0
0x587D40
0x587D65
0x587E56
0x588020
0x5895F0
0x58998C
0x589BC3
0x589C50
0x58A185
0x58A230
0x58A232
0x58A236
0x58A238
0x58A340
0x58A3D0
0x58A420
0x58A422
0x58A426
0x58A428
0x58A59D
0x58A710
0x58A712
0x58A71F
0x58A9D0
0x58AC42
0x58AC46
0x58AD87
0x58AEE6
0x58B035
0x58B225
0x58B3D5
0x58B8A5
0x58BB15
0x58BD85
0x58BFF5
0x58C1D5
0x58C385
0x58C542
0x58C856
0x58CB66
0x58CE25
0x58D0B0
0x58D3C5
0x58D656
0x58D986
0x58E720
0x58E99C
0x58EA20
0x58F4FD
0x58F5F0
0x58F630
0x58F650
0x58F700
0x58FB47
0x58FDDB
0x591220
0x591222
0x591770
0x591772
0x591776
0x591778
0x591A8F
0x591D28
0x591D31
0x591E7C
0x591ED0
0x59217B
0x5922C0
0x5926F0
0x592820
0x592B1F
0x593220
0x5936A0
0x593CE0
0x5943A0
0x59453C
0x594710
0x594719
0x5947BF
0x594A97
0x595350
0x595357
0x595359
0x59548D
0x5954B1
0x59563D
0x59563F
0x59567E
0x5956B1
0x595A48
0x595BCF
0x595CFF
0x595D17
0x595D43
0x595E40
0x5960BC
0x5960BE
0x596423
0x59645A
0x596B36
0x596B66
0x596C80
0x596F55
0x597090
0x597370
0x597374
0x597830
0x597E00
0x597E03
0x5982D2
0x5985B9
0x598AF8
0x598EA0
0x598EA2
0x598F4F
0x598F51
0x598F61
0x598FD0
0x598FD2
0x599110
0x599465
0x599691
0x599EF0
0x599EF9
0x59A356
0x59A4B0
0x59A4E5
0x59ABB8
0x59ABE8
0x59AD14
0x59AD1B
0x59AD1E
0x59AD50
0x59AE20
0x59AE2F
0x59AE39
0x59B359
0x59B456
0x59B530
0x59B770
0x59C320
0x59C350
0x59C390
0x59C4C0
0x59C4C2
0x59C74D
0x59C751
0x59C75E
0x59CE60
0x59CE6B
0x59CF70
0x59CF86
0x59D0C8
0x59D276
0x59D410
0x59D45A
0x59D500
0x59D702
0x59D790
0x59D8F7
0x59DA68
0x59DB40
0x59DB42
0x59DB46
0x59DDF0
0x59E544
0x59E620
0x59E920
0x59E923
0x59EA10
0x59EDA6
0x59EEA0
0x59F090
0x59F094
0x59F310
0x59F314
0x59F5A0
0x59F5A7
0x59F5AA
0x59F750
0x59F754
0x59F9C0
0x59F9C4
0x59FC34
0x59FDF0
0x59FDF4
0x59FDF8
0x5A00C0
0x5A02B3
0x5A02B7
0x5A04AB
0x5A04B3
0x5A066B
0x5A0673
0x5A0890
0x5A08B0
0x5A0A80
0x5A0A88
0x5A0CE0
0x5A0F80
0x5A0FF0
0x5A0FF4
0x5A1220
0x5A1229
0x5A1420
0x5A2314
0x5A2720
0x5A34F5
0x5A37E3
0x5A3C15
0x5A3D08
0x5A3DF5
0x5A3E75
0x5A3F65
0x5A4005
0x5A40AB
0x5A427E
0x5A4385
0x5A4435
0x5A44F0
0x5A44F3
0x5A4540
0x5A4580
0x5A4760
0x5A4C50
0x5A4F40
0x5A4F42
0x5A4F46
0x5A53A0
0x5A5630
0x5A5639
0x5A5900
0x5A5904
0x5A5C90
0x5A5CA9
0x5A5EF0
0x5A6050
0x5A6390
0x5A63F6
0x5A6570
0x5A6579
0x5A67F0
0x5A6A10
0x5A7020
0x5A7030
0x5A7079
0x5A77F6
0x5A7900
0x5A7EC0
0x5A7EC8
0x5A8030
0x5A8057
0x5A8470
0x5A8480
0x5A85FC
0x5A87AE
0x5A881E
0x5A89F1
0x5A8AD0
0x5A8CA0
0x5A94A0
0x5A9530
0x5A9534
0x5A995B
0x5A9B63
0x5A9C40
0x5A9E40
0x5AA1DF
0x5AA6B3
0x5AA7F0
0x5AAA10
0x5AAC80
0x5AB760
0x5AB780
0x5AB7B0
0x5AB7B9
0x5AB7C0
0x5AC090
0x5AC097
0x5AC200
0x5AC4A0
0x5AC6C0
0x5AC870
0x5ACC30
0x5ACC34
0x5AD11E
0x5AD273
0x5AE110
0x5AE118
0x5AE180
0x5AE188
0x5AE360
0x5AE369
0x5AE6D1
0x5AEE19
0x5AEEB0
0x5AEEC9
0x5AEF72
0x5AEFE8
0x5AF00F
0x5AF0C3
0x5AF0F4
0x5AF156
0x5AF181
0x5AF1B0
0x5AF1EF
0x5AF1F8
0x5AF204
0x5AF20B
0x5AF340
0x5AF490
0x5AF6C2
0x5AF6CA
0x5AF760
0x5AF767
0x5AF76C
0x5AF778
0x5AFC80
0x5AFEB8
0x5AFF92
0x5AFF9A
0x5B0030
0x5B0D6D
0x5B1870
0x5B1FEC
0x5B22D0
0x5B22D7
0x5B29A0
0x5B2A5F
0x5B2B2A
0x5B3084
0x5B3726
0x5B3792
0x5B3AD6
0x5B3D55
0x5B3F02
0x5B3FD2
0x5B40F6
0x5B45D0
0x5B45D4
0x5B474D
0x5B4750
0x5B4790
0x5B4A50
0x5B4D80
0x5B5080
0x5B5370
0x5B5510
0x5B55B1
0x5B56A4
0x5B5722
0x5B5726
0x5B58A0
0x5B5F70
0x5B5F72
0x5B6200
0x5B6202
0x5B6490
0x5B6800
0x5B6802
0x5B681B
0x5B6A10
0x5B6A6F
0x5B6B33
0x5B6B97
0x5B6BF5
0x5B6C52
0x5B6F00
0x5B6F07
0x5B73E2
0x5B73E4
0x5B74A0
0x5B7585
0x5B7655
0x5B7720
0x5B772A
0x5B7772
0x5B7858
0x5B7886
0x5B78CC
0x5B79D0
0x5B79D2
0x5B79D6
0x5B79D8
0x5B7CC5
0x5B7DB5
0x5B7EC5
0x5B7F95
0x5B80A5
0x5B8501
0x5B9174
0x5B91C9
0x5B93C0
0x5B9530
0x5B9542
0x5B9940
0x5B9A40
0x5B9A90
0x5B9BC0
0x5B9CF0
0x5B9D00
0x5BA190
0x5BA1D0
0x5BA500
0x5BA503
0x5BADD0
0x5BB3D0
0x5BB440
0x5BB442
0x5BBBA0
0x5BBBC0
0x5BBC63
0x5BBF60
0x5BBF62
0x5BBF63
0x5BC461
0x5BC505
0x5BC550
0x5BC880
0x5BC886
0x5BC8F0
0x5BC8FB
0x5BCB10
0x5BCB17
0x5BCB1A
0x5BCB80
0x5BCD90
0x5BCD9B
0x5BD1C6
0x5BD2D5
0x5BD360
0x5BD362
0x5BD363
0x5BD370
0x5BD5C0
0x5BD724
0x5BE076
0x5BE340
0x5BE7A7
0x5BF03B
0x5BF67A
0x5BF88F
0x5BF899
0x5C05A0
0x5C05A7
0x5C05B0
0x5C0890
0x5C0A24
0x5C0B50
0x5C1008
0x5C13D1
0x5C1C73
0x5C2330
0x5C4190
0x5C4273
0x5C43D5
0x5C473D
0x5C4E01
0x5C4EC0
0x5C5B9E
0x5C5D6C
0x5C5ED0
0x5C6100
0x5C610A
0x5C61C6
0x5C6320
0x5C6390
0x5C639A
0x5C709A
0x5C72BE
0x5C73C6
0x5C7524
0x5C7848
0x5C7B10
0x5C7B50
0x5C7D50
0x5C7DE3
0x5C7EA0
0x5C7EAA
0x5C82C4
0x5C8440
0x5C875E
0x5C87C8
0x5C88B9
0x5C8AD7
0x5C9147
0x5C9485
0x5C9505
0x5C9600
0x5C99B0
0x5CA242
0x5CA325
0x5CA7DB
0x5CAA86
0x5CAB70
0x5CAF13
0x5CAF26
0x5CAFA3
0x5CAFB6
0x5CB130
0x5CDB70
0x5CDBA0
0x5CDBE0
0x5CDBE2
0x5CDC67
0x5CDD81
0x5CDDFD
0x5CDE42
0x5CDEB2
0x5CDF80
0x5CDF8C
0x5CE10A
0x5CE1C0
0x5CE1C7
0x5CE1CA
0x5CE367
0x5CE369
0x5CE505
0x5CE696
0x5CE792
0x5CE88A
0x5CE9A0
0x5CEE87
0x5CEE89
0x5CF050
0x5CF3C2
0x5CF562
0x5CF6D0
0x5CF6F5
0x5CF770
0x5CF8F0
0x5CFAB0
0x5CFEF0
0x5CFEF2
0x5CFF04
0x5D0190
0x5D04A0
0x5D04A9
0x5D04AB
0x5D0B88
0x5D0FF0
0x5D0FF6
0x5D1535
0x5D1945
0x5D1B90
0x5D1DD0
0x5D2350
0x5D2352
0x5D2356
0x5D2696
0x5D29BE
0x5D2BDD
0x5D2DAC
0x5D2FAE
0x5D3290
0x5D329D
0x5D34A9
0x5D34AB
0x5D38B0
0x5D38EB
0x5D3914
0x5D39B0
0x5D39B2
0x5D39B7
0x5D39BA
0x5D39F0
0x5D3A0C
0x5D3AAC
0x5D3AF0
0x5D3BEB
0x5D3C40
0x5D3C4A
0x5D3FA8
0x5D4160
0x5D4169
0x5D422E
0x5D4794
0x5D47B4
0x5D47D2
0x5D4850
0x5D4852
0x5D4854
0x5D492C
0x5D4930
0x5D4B60
0x5D4BD0
0x5D4C80
0x5D4EEE
0x5D5440
0x5D5F9F
0x5D61CD
0x5D61D8
0x5D6EE5
0x5D79DC
0x5D855C
0x5D88F0
0x5D88F3
0x5D8C90
0x5D8E20
0x5D8FB0
0x5D9160
0x5D9163
0x5D9310
0x5D9317
0x5D931A
0x5D9720
0x5D9995
0x5D9C40
0x5D9D30
0x5DA040
0x5DA044
0x5DA047
0x5DA2D1
0x5DA658
0x5DA7A0
0x5DA7A2
0x5DA7A6
0x5DA7A8
0x5DA7B0
0x5DAB20
0x5DB348
0x5DB944
0x5DBA70
0x5DC2E6
0x5DC850
0x5DC863
0x5DCCAD
0x5DCD2C
0x5DD225
0x5DD286
0x5DD2C0
0x5DD2E0
0x5DD4F0
0x5DD540
0x5DD620
0x5DD629
0x5DDB10
0x5DDD00
0x5DDEB4
0x5DE030
0x5DE043
0x5DE19E
0x5DE210
0x5DE3A0
0x5DE3AB
0x5DE4BB
0x5DE4BC
0x5DF3D0
0x5DF880
0x5DF9D6
0x5DFAA9
0x5DFD49
0x5E02D0
0x5E02D2
0x5E02D6
0x5E02D8
0x5E02E4
0x5E0567
0x5E0568
0x5E05C0
0x5E06D0
0x5E06D7
0x5E0738
0x5E0800
0x5E08B0
0x5E0910
0x5E0B10
0x5E124A
0x5E1780
0x5E1BFD
0x5E1D40
0x5E1D49
0x5E1ED4
0x5E1FC0
0x5E21F0
0x5E2245
0x5E3436
0x5E348A
0x5E350D
0x5E3927
0x5E3A52
0x5E3AC0
0x5E3AC2
0x5E3AC6
0x5E3C80
0x5E3C82
0x5E3C83
0x5E3C93
0x5E4A42
0x5E4A46
0x5E4A50
0x5E533F
0x5E54A0
0x5E6400
0x5E6403
0x5E6481
0x5E64D1
0x5E64D5
0x5E64D8
0x5E6582
0x5E6692
0x5E67A2
0x5E68B2
0x5E6980
0x5E6A24
0x5E6AE0
0x5E6BD2
0x5E6D40
0x5E6D42
0x5E6D49
0x5E6D53
0x5E7052
0x5E7182
0x5E72B2
0x5E73E2
0x5E74C0
0x5E7566
0x5E7650
0x5E7669
0x5E76C9
0x5E7820
0x5E7835
0x5E7AD2
0x5E7C22
0x5E7D72
0x5E7EC2
0x5E7FB0
0x5E7FB2
0x5E7FC6
0x5E8160
0x5E8282
0x5E8420
0x5E8433
0x5E86C0
0x5E86DC
0x5E8720
0x5E874D
0x5E8980
0x5E8A58
0x5E8A62
0x5E8AF8
0x5E8B02
0x5E8B50
0x5E8B70
0x5E8F90
0x5E8FAE
0x5E9440
0x5E9460
0x5E9880
0x5E98A0
0x5E9CC0
0x5E9CE0
0x5EA120
0x5EA13D
0x5EA4B0
0x5EA4D0
0x5EA910
0x5EA912
0x5EACA0
0x5EB130
0x5EB977
0x5EB9C0
0x5EB9DC
0x5EBED0
0x5EC688
0x5EC700
0x5EC730
0x5EC81F
0x5EC873
0x5EC8E3
0x5EC9D7
0x5ECB7D
0x5EEB60
0x5EF7A5
0x5EFC84
0x5EFC87
0x5F0399
0x5F03E7
0x5F0435
0x5F05B3
0x5F07DE
0x5F082C
0x5F1499
0x5F15C0
0x5F1C2D
0x5F2090
0x5F2B6E
0x5F311D
0x5F3121
0x5F3620
0x5F3720
0x5F38DA
0x5F38E9
0x5F39A0
0x5F39B4
0x5F3B60
0x5F3B80
0x5F3CD0
0x5F3D28
0x5F3E9D
0x5F3F88
0x5F40EA
0x5F461D
0x5F4625
0x5F4970
0x5F4977
0x5F497C
0x5F4A98
0x5F4AA1
0x5F4AA2
0x5F4B70
0x5F4CFE
0x5F4D07
0x5F4D90
0x5F4FB0
0x5F4FB4
0x5F5210
0x5F58E0
0x5F5A10
0x5F5A35
0x5F5B70
0x5F6030
0x5F6062
0x5F60E2
0x5F610B
0x5F6730
0x5F6D00
0x5F6D06
0x5F6FD0
0x5F7380
0x5F7490
0x5F7492
0x5F7E60
0x5F84E0
0x5F8B10
0x5F8B1C
0x5F8DCD
0x5F8DD1
0x5F8DD7
0x5F91DA
0x5F96AA
0x5F9920
0x5F9FC4
0x5FA370
0x5FA389
0x5FA6B0
0x5FA880
0x5FAFF0
0x5FAFF9
0x5FAFFB
0x5FC372
0x5FC630
0x5FC817
0x5FCBD0
0x5FD200
0x5FDA40
0x5FE190
0x5FE1A9
0x5FE770
0x5FF2E0
0x600370
0x601520
0x601750
0x601A8B
0x601AB1
0x601BDE
0x601C31
0x601C99
0x601DFA
0x601E55
0x60207D
0x6022A1
0x60237D
0x6026BF
0x602757
0x6028EE
0x6029EA
0x602A68
0x603902
0x604132
0x604694
0x6047DF
0x6048E0
0x605030
0x605280
0x605467
0x605AD0
0x605AE3
0x6069FD
0x607240
0x607C10
0x607C20
0x607D01
0x607E70
0x607EC8
0x60813C
0x608188
0x608510
0x608630
0x608890
0x608A44
0x608A47
0x608B70
0x6091A0
0x6097E0
0x609980
0x609988
0x609A40
0x609AD5
0x609B3B
0x609BC0
0x609E20
0x60A340
0x60A4D0
0x60A4D2
0x60A850
0x60AC72
0x60AC74
0x60AED7
0x60AED9
0x60B182
0x60B184
0x60B402
0x60B962
0x60B964
0x60BBC2
0x60BE3C
0x60BE40
0x60BEB0
0x60BFA0
0x60C06A
0x60C260
0x60C322
0x60C390
0x60C3A2
0x60C662
0x60C760
0x60C940
0x60CBE0
0x60CCCB
0x60CCCD
0x60CCD1
0x60D418
0x60D650
0x60DD90
0x60DD92
0x60E420
0x60E773
0x60F410
0x60F632
0x60F7F0
0x60F830
0x60FD2D
0x60FDF0
0x6100C1
0x6101E0
0x6105E0
0x6105E2
0x6105EF
0x610970
0x61097E
0x610D40
0x610D42
0x610D4F
0x61112D
0x611131
0x611390
0x611392
0x611680
0x611682
0x61197F
0x611C50
0x611F40
0x611F4F
0x6123A0
0x612515
0x612519
0x612640
0x612642
0x612998
0x612BD3
0x612BDD
0x612BDF
0x612E52
0x612E5D
0x613129
0x613137
0x61338C
0x6133D0
0x61372F
0x613800
0x613A65
0x613BB9
0x613C49
0x613CE9
0x613F20
0x61401C
0x614331
0x6143BE
0x614A74
0x614CD6
0x614E0E
0x6150CB
0x61514E
0x6153E1
0x615454
0x6154E4
0x6155E1
0x61568D
0x615791
0x6158C8
0x615946
0x615993
0x615A16
0x615A6D
0x615B09
0x615B96
0x615C19
0x615C70
0x615C72
0x615C7F
0x615CA0
0x615CA2
0x615D10
0x615D2C
0x615E50
0x615E52
0x615E80
0x615E82
0x616110
0x616119
0x61661D
0x616621
0x616CCD
0x616CD1
0x616CDE
0x61734D
0x617351
0x617357
0x6179EF
0x617AA0
0x617D30
0x617D4E
0x617EF0
0x617EF6
0x617F6F
0x618160
0x618162
0x618254
0x6182D0
0x6182F0
0x618312
0x618370
0x6183C5
0x6184C0
0x6184E0
0x618505
0x618560
0x618752
0x6187FB
0x618A76
0x618D70
0x618DA6
0x6190A0
0x6190C0
0x6190C3
0x619130
0x6191B0
0x619240
0x619245
0x6193B0
0x6193E0
0x619730
0x619760
0x619780
0x619880
0x619883
0x6198F0
0x6199A0
0x6199E0
0x619A40
0x619A70
0x619BF0
0x619BF6
0x619DB0
0x619F8E
0x61A190
0x61A19B
0x61A280
0x61A28B
0x61A370
0x61A4CE
0x61A9F0
0x61A9FE
0x61ACF9
0x61AE80
0x61AE82
0x61B429
0x61B510
0x61B570
0x61B7BC
0x61B9F0
0x61C570
0x61CDF9
0x61CFCD
0x61CFD1
0x61DA80
0x61DEC4
0x61E001
0x61E02F
0x61E0A7
0x61E0C0
0x61E43B
0x61E4C0
0x61E6B0
0x61F0F3
0x61F1B2
0x61F1BA
0x61F272
0x61F450
0x61F5A8
0x61F893
0x61F897
0x61F89A
0x61FD42
0x61FE60
0x620074
0x620D56
0x620DB0
0x620EB2
0x620EB9
0x620EBB
0x620F12
0x620F19
0x620FC5
0x62101A
0x621050
0x621390
0x621556
0x621700
0x62178D
0x621D66
0x621DC0
0x621DCB
0x621DCD
0x6220C0
0x6220C2
0x6220C6
0x622135
0x6226F0
0x622741
0x623860
0x6239B0
0x6239B7
0x623A67
0x623AC0
0x623AC2
0x623CB0
0x623F61
0x623F78
0x623FBD
0x623FD1
0x6240B2
0x6240B3
0x62411A
0x62427C
0x62427D
0x62441E
0x624559
0x624607
0x6246C7
0x624758
0x624850
0x624866
0x6248BD
0x624A22
0x624AA7
0x624BAE
0x624C06
0x624C80
0x624D16
0x624D37
0x624D40
0x625100
0x62518D
0x6251AE
0x6251B7
0x625480
0x6257F0
0x6258F0
0x6258F9
0x6258FF
0x625980
0x625AE0
0x6267CF
0x626CC0
0x626CCA
0x626F1D
0x626F21
0x62758E
0x6275FC
0x627622
0x627624
0x627711
0x62797E
0x627BD7
0x627D1C
0x627D90
0x627DE0
0x627F32
0x628040
0x628128
0x628230
0x6284A0
0x628560
0x628570
0x628590
0x62869C
0x628855
0x628A95
0x628CD5
0x629100
0x629122
0x629240
0x629249
0x629253
0x629280
0x6295F2
0x629660
0x629669
0x62967D
0x629880
0x629985
0x629A80
0x629A8C
0x629CD1
0x629E41
0x62A080
0x62A0A8
0x62A150
0x62A16C
0x62A279
0x62A2C0
0x62A2DC
0x62A3E9
0x62A430
0x62A446
0x62A565
0x62A5B0
0x62A5BF
0x62A768
0x62A7F0
0x62B090
0x62B092
0x62B094
0x62B6B0
0x62BD90
0x62BD99
0x62BD9F
0x62BF2B
0x62BF69
0x62BFD2
0x62C4EB
0x62C513
0x62C68D
0x62C7FF
0x62C981
0x62C9ED
0x62C9F1
0x62C9FE
0x62CBE5
0x62CC32
0x62CCF1
0x62CCF2
0x62CCF8
0x62CD48
0x62CD4D
0x62CE34
0x62D1F1
0x62D1F2
0x62D250
0x62D251
0x62D2B3
0x62D2B4
0x62D33F
0x62D340
0x62D39E
0x62D39F
0x62D487
0x62D488
0x62D4E7
0x62D4E8
0x62D546
0x62D547
0x62D5D0
0x62D5D2
0x62D5DF
0x62D6A4
0x62DA30
0x62DA39
0x62DC90
0x62DC92
0x62DCA0
0x62DCAE
0x62DFE0
0x62E15C
0x62E15E
0x62E250
0x62E370
0x62E379
0x62E9EC
0x62EB57
0x62EBE7
0x62ED33
0x62EE46
0x62EE60
0x62F314
0x62F464
0x62F550
0x62F559
0x62F72E
0x62FBC6
0x62FC6D
0x62FC73
0x62FD70
0x62FD76
0x62FEC0
0x62FF2D
0x630090
0x630099
0x630118
0x63014F
0x630313
0x630411
0x630473
0x630479
0x6304DB
0x6304E1
0x630559
0x63055F
0x6305BB
0x6305C1
0x63061A
0x630620
0x630682
0x630688
0x6306E2
0x6306E8
0x630742
0x630748
0x6307C0
0x630A12
0x630BB1
0x630BBF
0x630BFC
0x630C92
0x630CC4
0x6321A0
0x634B50
0x634B52
0x63577B
0x63597A
0x635A79
0x635AE0
0x635B64
0x635BB3
0x635C29
0x635CEA
0x635EC4
0x636117
0x6361A0
0x636307
0x6364AA
0x636812
0x636D4A
0x636F90
0x639C83
0x639CD6
0x644488
0x6445F0
0x6445F6
0x647210
0x6473C0
0x6473C2
0x648C90
0x64A4E0
0x64A527
0x64A69D
0x64A6C2
0x64A6CB
0x64ADFF
0x64B407
0x64BB38
0x64BFD8
0x64C08C
0x64C12C
0x64C1D9
0x64C281
0x64C420
0x64C621
0x64C6AA
0x64C810
0x64CCD0
0x64CF50
0x64CF5F
0x64DB10
0x64DE04
0x64DE7D
0x64FE20
0x64FE29
0x6500F0
0x650C49
0x651540
0x6515B0
0x652290
0x652470
0x652920
0x653360
0x655949
0x6559A9
0x655AA0
0x655AAE
0x655B7E
0x656150
0x656153
0x65689C
0x656A10
0x656A13
0x656BF0
0x656F02
0x656F1B
0x65A295
0x65B226
0x65CBF0
0x65CC00
0x65CC25
0x65DAB0
0x65DAB8
0x65DABD
0x65F210
0x65F216
0x65F880
0x65F8E0
0x65F8E2
0x65FD10
0x6600D8
0x660160
0x660310
0x6603C1
0x660543
0x660553
0x6605A4
0x6605B8
0x6605FB
0x6605FC
0x660610
0x6606AD
0x6606B1
0x660B60
0x661660
0x6618B6
0x6621F5
0x66235B
0x663ABE
0x663AD2
0x663C45
0x663C4F
0x663DD4
0x663EB0
0x663EE0
0x664182
0x664525
0x6648F0
0x664BE6
0x664D50
0x6657C2
0x6657C6
0x6658F9
0x665A28
0x665A2F
0x665D4A
0x665F30
0x666260
0x666267
0x66626C
0x666512
0x66683D
0x6669AD
0x666B1D
0x666CBD
0x666E50
0x667070
0x667074
0x667480
0x66748F
0x667940
0x6679D1
0x667EA9
0x668037
0x6680E0
0x668150
0x668152
0x668156
0x668790
0x668792
0x6688F0
0x6688F9
0x668BA9
0x668DFE
0x668F50
0x668F52
0x668F53
0x6692F7
0x6694C0
0x6696D0
0x6698C0
0x6699E1
0x669CC0
0x669DF8
0x669ED0
0x66A008
0x66A0E0
0x66A0E2
0x66A0F0
0x66A24B
0x66A350
0x66A363
0x66A492
0x66A580
0x66A582
0x66A590
0x66A6EB
0x66A8BE
0x66A96E
0x66AA6E
0x66ABEE
0x66ACFE
0x66AE90
0x66AEA2
0x66AEB7
0x66AF10
0x66AF12
0x66B013
0x66B2D0
0x66B2E3
0x66B44A
0x66B520
0x66B8C0
0x66BB30
0x66BCA5
0x66BF20
0x66BF22
0x66C6A0
0x66C7E5
0x66C960
0x66CA2C
0x66CA34
0x66CB22
0x66CB2A
0x66CBA1
0x66CCD0
0x66CE12
0x66CE13
0x66CECD
0x66CFD0
0x66D280
0x66D28A
0x66D3D2
0x66D3DA
0x66D450
0x66DA4A
0x66DEA0
0x66E91B
0x66EB4E
0x66ECAE
0x66EDB0
0x66EDB2
0x66EEC0
0x66F070
0x66F182
0x66F184
0x66F200
0x66F460
0x66F462
0x66F466
0x66F468
0x66F560
0x66F567
0x66F56C
0x66FD45
0x66FF77
0x66FF79
0x6703B0
0x6703B4
0x670A22
0x670B90
0x670D99
0x670ED0
0x671040
0x6710A1
0x671112
0x671117
0x671850
0x671854
0x671873
0x671A70
0x671A74
0x671D9A
0x671EA0
0x671EA4
0x672317
0x6723D0
0x6723DE
0x6723E9
0x6729B8
0x672B70
0x672BDB
0x673050
0x673390
0x673392
0x6735DB
0x673B40
0x673D30
0x673D32
0x67412E
0x674290
0x674CB5
0x67507A
0x6750CE
0x675DD0
0x675DD2
0x67607F
0x676A56
0x676C10
0x676C23
0x677000
0x677200
0x6781E0
0x6781E4
0x678689
0x6786C2
0x678BE1
0x678E75
0x678F00
0x678F11
0x679960
0x679970
0x679DB0
0x67A149
0x67A198
0x67A3A0
0x67A3DE
0x67A570
0x67AB61
0x67AD82
0x67B3C0
0x67B3D3
0x67BD3A
0x67BD6A
0x67BDF0
0x67C180
0x67CAA2
0x67CAA4
0x67CD50
0x67D1F0
0x67D1F2
0x67D8F6
0x67EB26
0x67EBF9
0x67F31E
0x67F654
0x67FA1A
0x67FA2F
0x67FA31
0x67FF0A
0x67FFC0
0x67FFCA
0x68001D
0x680220
0x680490
0x680493
0x680790
0x680916
0x680AF0
0x680DB0
0x6810D2
0x681250
0x681770
0x681AE2
0x681B96
0x681CB9
0x681D20
0x681EA0
0x682110
0x682590
0x682860
0x682C60
0x682CC3
0x6831C8
0x6831D1
0x683268
0x683288
0x68336A
0x68339C
0x6833D0
0x683AA5
0x683B20
0x683B2C
0x684720
0x68472C
0x684B85
0x684C95
0x684DD5
0x684E85
0x684FB0
0x685760
0x685E40
0x685E50
0x686100
0x686115
0x68643A
0x686450
0x6867D0
0x6867D3
0x686861
0x686985
0x686C70
0x686C90
0x686D20
0x686DB5
0x686F75
0x687127
0x6871E4
0x6871EF
0x6871F0
0x6873E3
0x687463
0x687C50
0x687D10
0x687E10
0x688007
0x688047
0x688108
0x688277
0x6882D7
0x688353
0x6884B0
0x6884B4
0x6884BB
0x68857D
0x688730
0x688760
0x6888F9
0x688904
0x688BB2
0x688DA0
0x688F06
0x688F56
0x688FE0
0x688FE9
0x689180
0x6891F0
0x6891F2
0x6891F8
0x6891FF
0x689690
0x6896A4
0x6897C7
0x689856
0x6898B0
0x6898B2
0x689F20
0x68A0F0
0x68A1C6
0x68A310
0x68A4C0
0x68A4CB
0x68AC60
0x68AC6D
0x68B1E0
0x68B2C0
0x68B6E1
0x68B892
0x68B896
0x68B8A0
0x68B9B8
0x68BA10
0x68BA20
0x68BE3C
0x68BF57
0x68C1A0
0x68C4E0
0x68C4E6
0x68C53D
0x68C590
0x68CA42
0x68CA4A
0x68CABF
0x68CAEA
0x68CCD2
0x68CDBD
0x68D000
0x68D010
0x68D950
0x68DAAB
0x68DAB4
0x68E0F0
0x68E0FF
0x68F810
0x68F812
0x68F816
0x68F818
0x68F9AE
0x68FCF5
0x68FD65
0x68FE75
0x68FEE5
0x68FFB6
0x690255
0x69038E
0x690665
0x6906F5
0x6907E6
0x6908C5
0x690965
0x690A35
0x690C56
0x690CD5
0x690D85
0x690EF5
0x690F65
0x691025
0x691295
0x6913F5
0x6914F5
0x6916B5
0x691755
0x691885
0x6918F0
0x691932
0x691939
0x691AA0
0x691ACA
0x691B23
0x691B2C
0x691C30
0x691F56
0x692500
0x692825
0x692AC0
0x692B27
0x692CF1
0x692DB7
0x692E86
0x692E9A
0x692ED0
0x692ED7
0x692ED9
0x69314F
0x6931B3
0x69328B
0x6932F0
0x693340
0x693345
0x693385
0x6933D0
0x6933D7
0x6933D9
0x693C18
0x693C50
0x693D15
0x693D7A
0x693DC0
0x693DC2
0x694190
0x694192
0x694570
0x6945E5
0x694620
0x694624
0x694740
0x694747
0x694F50
0x695820
0x695880
0x695AC0
0x695B70
0x695C17
0x695D01
0x695D39
0x695D60
0x695DE0
0x695E0C
0x695EA0
0x695EA2
0x695F82
0x695F89
0x69605A
0x6961F0
0x696384
0x696386
0x696690
0x6969D0
0x696A30
0x696D6D
0x696E77
0x696FBA
0x6972D6
0x6972DC
0x697470
0x697551
0x697675
0x69783F
0x697937
0x697AB4
0x697AB7
0x697C24
0x697C27
0x697DC0
0x697E40
0x697EC0
0x697F04
0x698024
0x698027
0x699550
0x6997A0
0x699DBB
0x69AB50
0x69AB52
0x69AB56
0x69B014
0x69B119
0x69B680
0x69BC30
0x69BF0D
0x69C040
0x69C04A
0x69C320
0x69C3D0
0x69C591
0x69C59F
0x69C5EA
0x69C6FA
0x69C830
0x69C83B
0x69CC30
0x69CC33
0x69CDB5
0x69CFE0
0x69CFE2
0x69D260
0x69D2B1
0x69D490
0x69D496
0x69D5C0
0x69D5C9
0x69DB95
0x69DBF0
0x69DC30
0x69DC70
0x69DD50
0x69DD52
0x69E430
0x69E590
0x69E630
0x69E8C0
0x69EB90
0x69EB99
0x69F956
0x69FB80
0x69FB82
0x69FEB0
0x6A0210
0x6A0212
0x6A021F
0x6A0226
0x6A03A2
0x6A03A4
0x6A04C2
0x6A06A2
0x6A07E6
0x6A09A2
0x6A0A97
0x6A0C32
0x6A0D00
0x6A0F22
0x6A0F2A
0x6A1082
0x6A1086
0x6A1292
0x6A1296
0x6A13D5
0x6A1495
0x6A15B5
0x6A1675
0x6A1705
0x6A1795
0x6A1855
0x6A18F5
0x6A1941
0x6A19D6
0x6A1A85
0x6A1BD6
0x6A1CC5
0x6A1D35
0x6A1E45
0x6A1ED5
0x6A2010
0x6A2013
0x6A2090
0x6A20C7
0x6A20C9
0x6A2280
0x6A2417
0x6A2490
0x6A25F0
0x6A25F8
0x6A2840
0x6A2F60
0x6A2F9C
0x6A3330
0x6A3470
0x6A36DF
0x6A39FA
0x6A3C50
0x6A3C76
0x6A3CE0
0x6A3EE0
0x6A4446
0x6A44C6
0x6A4AFA
0x6A4BDF
0x6A4E48
0x6A4EF8
0x6A4F0A
0x6A4F7B
0x6A4FCE
0x6A50F0
0x6A51F9
0x6A52BB
0x6A53FF
0x6A5844
0x6A58FE
0x6A6156
0x6A62C1
0x6A62CC
0x6A62D1
0x6A6340
0x6A6342
0x6A6343
0x6A64DF
0x6A65B0
0x6A66B0
0x6A66B6
0x6A66B9
0x6A6762
0x6A6960
0x6A6C30
0x6A70B0
0x6A7184
0x6A71E0
0x6A7430
0x6A75D0
0x6A76D0
0x6A77A0
0x6A77A7
0x6A77A9
0x6A7CF1
0x6A7DC0
0x6A7DC2
0x6A7DC3
0x6A7FB0
0x6A8C30
0x6A9160
0x6A9169
0x6A9300
0x6A9309
0x6A94A0
0x6A97C0
0x6A9960
0x6A9B00
0x6A9CA0
0x6AA070
0x6AA2F0
0x6AA5BB
0x6AA5D0
0x6AA89B
0x6AA8B0
0x6AAB30
0x6AAE50
0x6AB1F0
0x6AB226
0x6AB300
0x6AB3A5
0x6AB435
0x6AB4C5
0x6AB555
0x6AB5E5
0x6AB6D5
0x6AB765
0x6AB895
0x6ABA35
0x6ABAC5
0x6ABC35
0x6ABCA5
0x6ABD15
0x6ABD85
0x6ABE90
0x6ABFE0
0x6ABFE6
0x6AC230
0x6AC2C0
0x6AC2CC
0x6AC356
0x6AC470
0x6AC930
0x6ACB80
0x6ACCC0
0x6ACED0
0x6ACED2
0x6ACED4
0x6ACEDB
0x6AD2AA
0x6AD3D0
0x6AD784
0x6AD7E3
0x6AD989
0x6ADA90
0x6ADA94
0x6ADA96
0x6ADD90
0x6ADD99
0x6ADDA0
0x6ADF2A
0x6AE260
0x6AE262
0x6AE264
0x6AE785
0x6AE850
0x6AEA78
0x6AEA80
0x6AEB92
0x6AECD5
0x6AEDD6
0x6AEF30
0x6AF0B0
0x6AF0B8
0x6AF270
0x6AF4A0
0x6AF4A3
0x6AF6A0
0x6AF712
0x6AF726
0x6AF816
0x6AFC30
0x6AFC40
0x6AFD60
0x6AFD76
0x6B0016
0x6B00A6
0x6B0176
0x6B02A6
0x6B0510
0x6B0566
0x6B07C2
0x6B0817
0x6B08C0
0x6B08CB
0x6B0A50
0x6B0A69
0x6B0C70
0x6B11D0
0x6B11D2
0x6B14C2
0x6B14C6
0x6B1627
0x6B162A
0x6B16A0
0x6B1850
0x6B1861
0x6B1862
0x6B1B86
0x6B1E6F
0x6B1ED0
0x6B1F30
0x6B1F7A
0x6B20C0
0x6B2490
0x6B2C00
0x6B2FF0
0x6B3350
0x6B3570
0x6B3960
0x6B3B30
0x6B3BC7
0x6B3D34
0x6B3FD5
0x6B4215
0x6B4280
0x6B4282
0x6B428F
0x6B44E0
0x6B4650
0x6B47A2
0x6B47A9
0x6B48C0
0x6B4A50
0x6B4C50
0x6B4C81
0x6B4C8B
0x6B4D80
0x6B4D82
0x6B5190
0x6B5390
0x6B5B80
0x6B5C30
0x6B5CE0
0x6B5D90
0x6B5E40
0x6B6100
0x6B62E0
0x6B6390
0x6B65B0
0x6B6660
0x6B67D0
0x6B6880
0x6B6900
0x6B6980
0x6B6A00
0x6B6A80
0x6B6A87
0x6B6B02
0x6B6C12
0x6B6D32
0x6B6E40
0x6B71E0
0x6B7510
0x6B75C0
0x6B75CB
0x6B7990
0x6B7A41
0x6B7AE0
0x6B8050
0x6B8330
0x6B85F0
0x6B8870
0x6B8876
0x6B8BE0
0x6B8BE8
0x6B8E0C
0x6B8E8B
0x6B8F05
0x6B8F30
0x6B9486
0x6B9625
0x6B9BB5
0x6B9C90
0x6BA483
0x6BA4C3
0x6BA503
0x6BA546
0x6BB445
0x6BB740
0x6BB920
0x6BBBD8
0x6BBC3D
0x6BBC41
0x6BBF10
0x6BC110
0x6BC280
0x6BC299
0x6BC49E
0x6BC5A0
0x6BC5B0
0x6BCAF0
0x6BCB3D
0x6BCB45
0x6BCB4C
0x6BCDAC
0x6BCF80
0x6BD090
0x6BD09B
0x6BD4C0
0x6BD990
0x6BD9B3
0x6BDA2C
0x6BDCD0
0x6BDEC0
0x6BDECB
0x6BE4C0
0x6BE786
0x6BE800
0x6BE945
0x6BEA50
0x6BEA59
0x6BF060
0x6BF062
0x6BF15D
0x6BF171
0x6BF240
0x6BF290
0x6BF295
0x6BF350
0x6BF3B8
0x6BF3BA
0x6BF425
0x6BF585
0x6BF5F5
0x6BF716
0x6BF795
0x6BF840
0x6BF84A
0x6BFB9B
0x6BFDD5
0x6BFE45
0x6C0152
0x6C04B0
0x6C0696
0x6C08F0
0x6C0E90
0x6C10B0
0x6C1A81
0x6C1AC5
0x6C1B50
0x6C1B59
0x6C1D28
0x6C1DB5
0x6C1E45
0x6C1ED5
0x6C20F0
0x6C2140
0x6C2180
0x6C2182
0x6C2290
0x6C22A0
0x6C25A6
0x6C2636
0x6C26D0
0x6C26DD
0x6C2F0F
0x6C3356
0x6C3530
0x6C3D20
0x6C4547
0x6C45D0
0x6C58B5
0x6C5945
0x6C59D0
0x6C59E0
0x6C6045
0x6C6068
0x6C62ED
0x6C64B0
0x6C6520
0x6C6580
0x6C65E0
0x6C6660
0x6C66C0
0x6C6797
0x6C6896
0x6C6A94
0x6C6B60
0x6C6B66
0x6C6D30
0x6C8020
0x6C8022
0x6C8026
0x6C83C0
0x6C847A
0x6C8640
0x6C8950
0x6C8CD0
0x6C8CD2
0x6C8CD6
0x6C8F90
0x6C9250
0x6C9256
0x6C925D
0x6C9370
0x6C9376
0x6C937D
0x6C94E0
0x6C9970
0x6C9C40
0x6CA1A0
0x6CA5F0
0x6CA6A0
0x6CA700
0x6CA760
0x6CA7F3
0x6CA880
0x6CA910
0x6CAD70
0x6CB180
0x6CB76C
0x6CB9C4
0x6CBD20
0x6CBE98
0x6CBFA6
0x6CC0E0
0x6CC0ED
0x6CC620
0x6CC8F0
0x6CC8F4
0x6CD060
0x6CD2D0
0x6CD58B
0x6CD6A0
0x6CD6A4
0x6CD6C4
0x6CD730
0x6CE370
0x6CE530
0x6CE7D0
0x6CEB00
0x6CEEC0
0x6CF176
0x6CF1A0
0x6CF460
0x6CF770
0x6CF772
0x6CF776
0x6CF980
0x6CFD40
0x6CFFDF
0x6D0258
0x6D0400
0x6D0625
0x6D0786
0x6D08C2
0x6D0965
0x6D0AC6
0x6D0B96
0x6D0C76
0x6D0D56
0x6D0E16
0x6D0EC5
0x6D0FF5
0x6D10C6
0x6D1400
0x6D1760
0x6D18F0
0x6D18F9
0x6D1B40
0x6D20D0
0x6D20D2
0x6D20D6
0x6D20D8
0x6D23A6
0x6D2478
0x6D25F9
0x6D2750
0x6D2752
0x6D2757
0x6D2768
0x6D28D0
0x6D28F0
0x6D29EA
0x6D2C90
0x6D2CB0
0x6D3160
0x6D3686
0x6D3730
0x6D3738
0x6D39C0
0x6D3A90
0x6D3A93
0x6D3E70
0x6D40E0
0x6D44B0
0x6D46A9
0x6D49E0
0x6D49F9
0x6D4F60
0x6D4F62
0x6D5AD5
0x6D5BB5
0x6D5DB0
0x6D5E00
0x6D6560
0x6D66F5
0x6D6760
0x6D7A90
0x6D7C10
0x6D7C1D
0x6D8400
0x6D8600
0x6D87A0
0x6D8D65
0x6D9120
0x6D9370
0x6D93A0
0x6D95F5
0x6D9670
0x6D9AB0
0x6D9DD0
0x6DA0B0
0x6DA0BB
0x6DA240
0x6DA2C0
0x6DA730
0x6DA73E
0x6DAA55
0x6DAAF5
0x6DAB75
0x6DAC20
0x6DAC28
0x6DAC2A
0x6DAD30
0x6DAD32
0x6DAD43
0x6DB629
0x6DB790
0x6DB7D7
0x6DB7DE
0x6DB885
0x6DB8EA
0x6DB8EC
0x6DBA36
0x6DBA90
0x6DBC40
0x6DBC41
0x6DBC70
0x6DBF80
0x6DBFE0
0x6DC116
0x6DC13E
0x6DCA30
0x6DCA38
0x6DCC79
0x6DD185
0x6DD205
0x6DD550
0x6DD559
0x6DD850
0x6DDAA0
0x6DDBE0
0x6DDF70
0x6DE440
0x6DE540
0x6DE6E0
0x6DE6E3
0x6DE6E4
0x6DE820
0x6DEA00
0x6DF007
0x6DF008
0x6DF140
0x6DF650
0x6DFAA8
0x6DFC40
0x6E04B0
0x6E04B2
0x6E04B6
0x6E0F30
0x6E0F33
0x6E1600
0x6E1E60
0x6E20B8
0x6E217B
0x6E26D5
0x6E2810
0x6E2812
0x6E2813
0x6E2819
0x6E2C42
0x6E2E6C
0x6E30E1
0x6E31ED
0x6E32F7
0x6E3465
0x6E34A0
0x6E38AB
0x6E38C5
0x6E4114
0x6E4116
0x6E4410
0x6E4710
0x6E4AA0
0x6E4AF0
0x6E4AF9
0x6E4F16
0x6E54E7
0x6E58F0
0x6E5AA0
0x6E5CB0
0x6E5E40
0x6E5EE8
0x6E60C0
0x6E63B0
0x6E63B2
0x6E66A6
0x6E6A20
0x6E6A22
0x6E7062
0x6E71AB
0x6E7360
0x6E7400
0x6E7456
0x6E74F0
0x6E74F2
0x6E74F6
0x6E7700
0x6E7860
0x6E78E0
0x6E7AC0
0x6E7AC9
0x6E7C30
0x6E7D6D
0x6E7D71
0x6E89B4
0x6E89B7
0x6E8B35
0x6E8BC6
0x6E8CC0
0x6E8CF6
0x6E8E80
0x6E8ED8
0x6E9080
0x6E9408
0x6E9496
0x6E9540
0x6E9610
0x6E97B0
0x6E9820
0x6E9A27
0x6E9A29
0x6E9BF2
0x6E9CA0
0x6E9F12
0x6EA0D2
0x6EA1FF
0x6EA530
0x6EA980
0x6EAB10
0x6EAC75
0x6EACE5
0x6EAD55
0x6EB194
0x6EB460
0x6EB467
0x6EB6DC
0x6EBB70
0x6EBF56
0x6EBFE5
0x6EC1C0
0x6EC36D
0x6EC375
0x6EC4BA
0x6EC5CA
0x6EC770
0x6EC77B
0x6ECBB0
0x6ECDF0
0x6ED107
0x6ED10D
0x6ED480
0x6ED489
0x6ED7D4
0x6EDA80
0x6EDB06
0x6EDB85
0x6EDC60
0x6EDDC2
0x6EDFE0
0x6EDFE7
0x6EDFEE
0x6EDFF0
0x6EE120
0x6EE2A0
0x6EE440
0x6EEAD0
0x6EEB90
0x6EEB98
0x6EED80
0x6EED89
0x6EF320
0x6EF32D
0x6EF520
0x6EF550
0x6EF715
0x6EF9DD
0x6EFC32
0x6EFC36
0x6F0155
0x6F01D5
0x6F0265
0x6F02DC
0x6F02E3
0x6F0384
0x6F0418
0x6F04C9
0x6F05F0
0x6F084C
0x6F0DF0
0x6F0DF6
0x6F14B0
0x6F17E1
0x6F1932
0x6F19F2
0x6F1AB2
0x6F1E40
0x6F1F30
0x6F2020
0x6F20E5
0x6F21F0
0x6F2610
0x6F2619
0x6F3020
0x6F3159
0x6F31E0
0x6F3319
0x6F3960
0x6F3EF0
0x6F4AB5
0x6F4C90
0x6F4C92
0x6F4C9D
0x6F516C
0x6F52A0
0x6F56B0
0x6F5B0A
0x6F5EB0
0x6F5ECD
0x6F6296
0x6F6340
0x6F639C
0x6F63D0
0x6F6676
0x6F6727
0x6F672A
0x6F6806
0x6F6910
0x6F6BA0
0x6F6DC5
0x6F6E35
0x6F70B2
0x6F7191
0x6F7192
0x6F7252
0x6F7332
0x6F7410
0x6F7411
0x6F75F5
0x6F79F0
0x6F7B60
0x6F7BDF
0x6F7C9F
0x6F7E40
0x6F8159
0x6F82A0
0x6F8675
0x6F8714
0x6F8780
0x6F8D50
0x6F8D54
0x6F8D5D
0x6F93DF
0x6F93E3
0x6F95C6
0x6F9660
0x6F9663
0x6F966D
0x6F9A92
0x6F9A9D
0x6F9C60
0x6FA020
0x6FA023
0x6FAA20
0x6FAF30
0x6FAF3D
0x6FB560
0x6FBE25
0x6FC205
0x6FC219
0x6FC560
0x6FCAA0
0x6FCAA4
0x6FCD80
0x6FCE7D
0x6FD020
0x6FD030
0x6FD1CE
0x6FD8F0
0x6FD900
0x6FDA50
0x6FDAB0
0x6FE122
0x6FE1A0
0x6FE653
0x6FE850
0x6FEA22
0x6FEAFC
0x6FEB80
0x6FEB82
0x6FEB83
0x701262
0x7018CE
0x702004
0x7022B0
0x702860
0x702878
0x702940
0x703000
0x703009
0x703530
0x7039F7
0x703D52
0x703FD2
0x704260
0x70455C
0x7048E0
0x704FD2
0x70512C
0x70517D
0x70542D
0x7055EC
0x705698
0x705760
0x705B00
0x705D70
0x705D72
0x7071C0
0x707452
0x707456
0x707670
0x707A14
0x707A62
0x707B32
0x707D12
0x707DE2
0x707EC2
0x707F92
0x707FA6
0x708082
0x708161
0x708230
0x708500
0x708502
0x70850D
0x70851E
0x708AF0
0x708F00
0x708FA0
0x709221
0x70922E
0x709560
0x709730
0x709864
0x7098C0
0x709AA2
0x709CA2
0x709CB6
0x709F80
0x70A0A0
0x70A0B0
0x70A22D
0x70A2E6
0x70A335
0x70A373
0x70A660
0x70A6A0
0x70A9C0
0x70A9CB
0x70AC10
0x70AC12
0x70AC14
0x70AC20
0x70ADBD
0x70AEE6
0x70AF35
0x70AFD5
0x70B075
0x70B0F1
0x70B1B0
0x70B1E0
0x70B210
0x70B340
0x70B4F0
0x70B5D0
0x70B5FE
0x70BBB6
0x70BC31
0x70BCA0
0x70BFB8
0x70C045
0x70C130
0x70C13D
0x70C1D4
0x70C330
0x70C598
0x70C5D0
0x70C5D6
0x70CBC0
0x70CBC2
0x70CBC6
0x70CE52
0x70CEBC
0x70CEDC
0x70CF1C
0x70CFD0
0x70CFD9
0x70D690
0x70D9A0
0x70DAA0
0x70DAA6
0x70DBD2
0x70DE40
0x70DE42
0x70DFB0
0x70DFE5
0x70E0FD
0x70E101
0x70E1A9
0x70E4F8
0x70E6EA
0x70E8FC
0x70EA3D
0x70EA69
0x70EBB2
0x70EBB6
0x70EE10
0x70F020
0x70F0F0
0x70F296
0x70F5FF
0x70F6B0
0x70F6BB
0x70F83A
0x70F9C2
0x70FAD0
0x70FBC0
0x70FD00
0x70FD08
0x70FE80
0x70FF10
0x710100
0x710124
0x710126
0x710F10
0x711550
0x7115D8
0x711690
0x7116A0
0x7119E2
0x7119F3
0x711DBE
0x712230
0x712390
0x712550
0x71257F
0x712B50
0x712F84
0x713004
0x713181
0x713192
0x713486
0x7134F8
0x713509
0x713656
0x7137E0
0x7137F1
0x7137F5
0x713967
0x713A34
0x713A91
0x713B12
0x713B13
0x713B1B
0x713D2E
0x713DD4
0x713F20
0x714194
0x7145FB
0x714800
0x71483C
0x714AB0
0x714FA0
0x714FA2
0x714FA6
0x714FB3
0x71569A
0x715BF0
0x715BF6
0x715DE0
0x715F70
0x715FEF
0x716319
0x716470
0x716480
0x7174F0
0x7175B4
0x7175E6
0x717680
0x7178AA
0x7181F4
0x7182FF
0x718794
0x718809
0x718930
0x718934
0x719773
0x719AC0
0x719B30
0x719C28
0x719D16
0x719DFC
0x719F50
0x719F59
0x71A2D0
0x71A520
0x71A710
0x71A714
0x71A969
0x71AACC
0x71AFB0
0x71B0C1
0x71B0D2
0x71B0D3
0x71B1C3
0x71B4E0
0x71BCC0
0x71BD60
0x71BE60
0x71BF48
0x71C120
0x71C390
0x71C3D0
0x71C4A0
0x71C6C5
0x71C888
0x71CB18
0x71CB7B
0x71CBC8
0x71CC28
0x71CC54
0x71CC71
0x71CCB0
0x71CD90
0x71CE06
0x71CF40
0x71CF42
0x71D2BE
0x71D414
0x71D4B9
0x71D529
0x71D540
0x71D5B0
0x71D630
0x71DA8C
0x71DCDF
0x71DD52
0x71DF60
0x71EB43
0x71ECB3
0x71ED44
0x71EDD0
0x71EE05
0x71F1A9
0x71F920
0x71FBC7
0x71FD92
0x71FF50
0x720050
0x720AB8
0x720CA0
0x72103B
0x72158B
0x7217F0
0x721852
0x721854
0x721940
0x721949
0x721AB0
0x721AB8
0x721D20
0x721D29
0x721D2B
0x721FA0
0x721FA6
0x7223C0
0x7223C3
0x722460
0x722462
0x722466
0x722468
0x7226A0
0x7226A7
0x7226AA
0x7227A0
0x722B32
0x722BE6
0x722C32
0x722D90
0x722D96
0x722D99
0x7230E0
0x723354
0x7233F0
0x7237D0
0x723800
0x723840
0x723880
0x723902
0x7239F1
0x723A40
0x723A70
0x723A90
0x723AC0
0x723B75
0x723BD5
0x723C32
0x723EB0
0x723F32
0x723F90
0x7240D0
0x7240D4
0x724542
0x72454A
0x7246A0
0x7246A9
0x7249CE
0x724B10
0x724E70
0x724E7E
0x724FF0
0x724FF2
0x724FF6
0x724FF8
0x725000
0x7251B9
0x725227
0x7252AB
0x7254B0
0x7254BC
0x725660
0x725678
0x725A9D
0x725AA1
0x725AA7
0x725C55
0x725D70
0x725E00
0x725E30
0x725F70
0x725FA0
0x726050
0x72606A
0x7261B2
0x7261E0
0x726200
0x726518
0x726580
0x7266C7
0x726880
0x72688C
0x7269BD
0x726CA0
0x726CB3
0x726DD0
0x726E40
0x726F10
0x726F80
0x726FC0
0x7270D6
0x727460
0x727920
0x72792A
0x727A17
0x727A20
0x727B02
0x727B04
0x727D17
0x727D1A
0x727FB0
0x728370
0x728770
0x7287B0
0x7287E0
0x7287E3
0x728840
0x728890
0x728900
0x728950
0x728A20
0x728A70
0x728AC0
0x728B10
0x728B40
0x728B80
0x728BD0
0x728C20
0x728C80
0x728CD0
0x728D20
0x728D70
0x728DC0
0x728E10
0x728E50
0x728EA0
0x728F00
0x728F60
0x728FB0
0x729020
0x729080
0x7290D0
0x729120
0x729160
0x7291E0
0x729230
0x729280
0x7292D0
0x729330
0x729380
0x7293D0
0x729420
0x729470
0x7294C0
0x729860
0x729869
0x72986B
0x729CB6
0x729DBD
0x729F90
0x729FA3
0x72ACD0
0x72AD10
0x72ADE0
0x72AE20
0x72B1D0
0x72B1DE
0x72B1E0
0x72B23D
0x72B320
0x72B326
0x72B590
0x72B592
0x72B596
0x72B59D
0x72B760
0x72B792
0x72B799
0x72B8B2
0x72B930
0x72B940
0x72BB0B
0x72C0D6
0x72C69D
0x72C7D0
0x72C9B5
0x72CC60
0x72CE30
0x72D23C
0x72D7B9
0x72DFE0
0x72E2C0
0x72E626
0x72E6B0
0x72E7C2
0x72E8A0
0x72EAE0
0x72EB4D
0x72ED80
0x72ED88
0x72EEE0
0x72F330
0x72F340
0x72F69C
0x72F746
0x72F825
0x72F9B5
0x72FAB0
0x72FB00
0x72FB0F
0x72FDC2
0x72FDC6
0x73050D
0x730B95
0x730C70
0x730C79
0x731030
0x731260
0x731470
0x731575
0x731610
0x7316E0
0x7316E9
0x7318F0
0x7318F9
0x731B50
0x731BB0
0x731BB9
0x731FD0
0x732240
0x73224D
0x7324A0
0x732585
0x732890
0x732893
0x7329B0
0x7329CA
0x732B00
0x732B0E
0x732ED0
0x732ED2
0x732EDC
0x733410
0x733414
0x733416
0x73341C
0x7334AA
0x7334AD
0x7339BB
0x733A27
0x733D70
0x733D90
0x733DB0
0x733DD0
0x734590
0x7345C1
0x734960
0x734962
0x734963
0x7351C0
0x7351CD
0x735523
0x7356C4
0x735842
0x7358BA
0x7359D8
0x735A1F
0x735BB0
0x735BCB
0x736039
0x736293
0x73632E
0x737D40
0x738683
0x738B47
0x738FB0
0x738FB4
0x73904D
0x739068
0x739230
0x739371
0x7393D0
0x7398B4
0x7398B7
0x739E20
0x739E29
0x73A350
0x73A9A0
0x73A9A8
0x73AB60
0x73AFC0
0x73AFD4
0x73C168
0x73C22F
0x73D9C4
0x73DAF0
0x73DC50
0x73DCA9
0x73DDD8
0x73E120
0x73E129
0x73E977
0x73E97B
0x740181
0x740BCA
0x742891
0x742F40
0x743468
0x743B24
0x743E2E
0x745285
0x745675
0x7457C0
0x7457CF
0x745B60
0x7460D0
0x7460DE
0x7461ED
0x7461F4
0x746236
0x746370
0x746560
0x746562
0x746566
0x746568
0x746EA6
0x7470D0
0x747620
0x747630
0x7480A5
0x748130
0x748132
0x748995
0x748BE4
0x748C32
0x748C92
0x748D26
0x748DC5
0x748E55
0x749050
0x749080
0x7492B0
0x749441
0x7494D0
0x749986
0x7499E0
0x749B31
0x749B42
0x749CD0
0x749CD3
0x749D30
0x749D80
0x749DC0
0x74A170
0x74A1A9
0x74A267
0x74A287
0x74A2B0
0x74A2B2
0x74A417
0x74A6A2
0x74A6B6
0x74AA90
0x74AA92
0x74AA9D
0x74AAA6
0x74C222
0x74C22E
0x74C45A
0x74C540
0x74CEC0
0x74CEC9
0x74D5E0
0x74D5EA
0x74E0B0
0x74E0CD
0x74E421
0x74E490
0x74E499
0x74F42A
0x74F520
0x74F551
0x74F560
0x74F6A7
0x74F820
0x74F823
0x74F970
0x74FAE0
0x74FD38
0x74FE33
0x74FE61
0x74FFA1
0x750085
0x7500E0
0x750180
0x7501C0
0x750480
0x7504C6
0x750526
0x750576
0x750610
0x7506D0
0x750EF0
0x750F90
0x7515F0
0x7518CD
0x751B20
0x751D8A
0x751D8E
0x751D91
0x752129
0x75227E
0x7522A4
0x752940
0x752B50
0x752F90
0x752F99
0x752FA0
0x753130
0x753141
0x753180
0x753191
0x7531DA
0x753340
0x753480
0x753490
0x753520
0x753530
0x753A40
0x753A49
0x753A50
0x753BB0
0x753C17
0x753C1A
0x753D70
0x753D79
0x754340
0x754490
0x7544AE
0x754760
0x754A38
0x755056
0x7551F0
0x755410
0x7557D0
0x7557D4
0x755E02
0x755E0D
0x755E60
0x755F00
0x755FC2
0x756CB0
0x756D0F
0x7575E0
0x7582C0
0x7582CC
0x7582D3
0x758480
0x758600
0x758602
0x758A00
0x758A04
0x758A08
0x758A0D
0x758BF6
0x758D46
0x758F25
0x758F95
0x759020
0x7590F0
0x759250
0x75925C
0x759650
0x7596E0
0x759720
0x759723
0x759785
0x759A70
0x759FF0
0x75A530
0x75A7B0
0x75AA10
0x75AA60
0x75AA62
0x75AB23
0x75B117
0x75B11A
0x75B1F0
0x75B7E0
0x75B7FF
0x75BE17
0x75BE90
0x75BE97
0x75BEA0
0x75CC40
0x75CC47
0x75D680
0x75D9F3
0x75DAB1
0x75DD76
0x75E400
0x75E721
0x75EB25
0x75EC52
0x75EE10
0x75EE19
0x75F440
0x75FBC0
0x75FBD2
0x7604C0
0x7611E0
0x7618D3
0x7633C0
0x763AC0
0x764350
0x764B30
0x765260
0x765BC7
0x765CD0
0x765EE8
0x7663D0
0x766430
0x766440
0x766616
0x766880
0x7673C0
0x76781D
0x767BDA
0x767E60
0x76836B
0x768949
0x7696A2
0x769BE4
0x76AA1D
0x76B080
0x76B170
0x76B330
0x76B334
0x76D160
0x76D5F0
0x76D6F1
0x76D8A0
0x76D8A3
0x76D8F0
0x76DAA4
0x76DAA7
0x76DBDA
0x76DBFD
0x76DC01
0x76DC07
0x76DEE0
0x76DEE7
0x76E240
0x76E249
0x76E490
0x76E4F0
0x76E4F9
0x76E507
0x76ECC0
0x76EE60
0x76EE64
0x76F200
0x76FB70
0x76FB74
0x76FB7C
0x770246
0x7704D8
0x7707B0
0x7707D0
0x770842
0x770A70
0x770AA2
0x770AA4
0x770B50
0x770B63
0x771770
0x77177D
0x7723F0
0x772510
0x7725E0
0x7727C2
0x7727C9
0x7727FC
0x772885
0x772A30
0x772B20
0x772CA0
0x773170
0x7731A3
0x7731D0
0x77321C
0x7732E4
0x773D90
0x773D91
0x773DF8
0x773E44
0x773E4C
0x773E94
0x773E9C
0x773EE4
0x773EEC
0x773F34
0x773F3C
0x773F96
0x773FD8
0x774190
0x774230
0x774361
0x774368
0x774391
0x774398
0x7743F0
0x774420
0x77442A
0x774446
0x7744A0
0x7745F0
0x774701
0x774758
0x7747B1
0x7747B8
0x7747E5
0x7748B0
0x7748B2
0x7748B3
0x774A19
0x774C75
0x774CD6
0x774CFD
0x774D11
0x774D18
0x774F00
0x775158
0x77523D
0x7757A0
0x7759F0
0x775C39
0x775FE0
0x7760E0
0x776470
0x7764A2
0x776A00
0x776B16
0x776D70
0x777010
0x777014
0x777050
0x777175
0x777340
0x7773CD
0x77758E
0x7775DB
0x77777A
0x7777B0
0x7777ED
0x777A05
0x777A5D
0x777B20
0x777B96
0x777BB8
0x778680
0x7786C0
0x7786E5
0x77879D
0x7787E7
0x7787EA
0x778915
0x778985
0x7789F0
0x778BD0
0x778BD3
0x778D12
0x778D69
0x778E65
0x778EC5
0x778F25
0x778F85
0x778FF0
0x7792F5
0x779385
0x779425
0x7794C5
0x779565
0x779948
0x779A08
0x779A75
0x779AE8
0x779AF0
0x779B80
0x779E20
0x77A170
0x77A50C
0x77A63D
0x77A9FD
0x77B150
0x77B156
0x77B3EA
0x77B528
0x77B59E
0x77B5E9
0x77B62A
0x77B956
0x77BAC0
0x77BD41
0x77BEE1
0x77C080
0x77C08C
0x77C09F
0x77C150
0x77C220
0x77C725
0x77C760
0x77CB40
0x77CCC9
0x77CD29
0x77D1A3
0x77D230
0x77D262
0x77D311
0x77D4C4
0x77D4C6
0x77D950
0x77DE40
0x77DE47
0x77DF7F
0x77E70A
0x77E7D0
0x77E7D3
0x77E817
0x77ED50
0x77EF99
0x77F100
0x77F580
0x77FA30
0x77FA33
0x77FA37
0x7802A0
0x7805F0
0x7805F3
0x78093E
0x781310
0x781470
0x78147A
0x7817F0
0x781A30
0x781A31
0x781B10
0x781B12
0x781B16
0x781B18
0x781B20
0x781F60
0x781FE6
0x7820BE
0x78210C
0x7822FE
0x78234C
0x7828A1
0x782900
0x783486
0x783505
0x783615
0x7837C0
0x7837D3
0x7838A6
0x7839F0
0x783A60
0x783A6C
0x783DE0
0x783DEC
0x784270
0x784273
0x784300
0x784309
0x784680
0x784683
0x784736
0x784906
0x7849E4
0x7849E7
0x784AF7
0x784E15
0x784F20
0x785130
0x785140
0x785407
0x78547D
0x7855C0
0x7855D3
0x785740
0x785A58
0x785A5B
0x785E60
0x785EE0
0x786511
0x786750
0x786A80
0x786AE0
0x786D5D
0x786F80
0x787042
0x7871D0
0x787392
0x787396
0x787550
0x78755F
0x7879C2
0x787B03
0x787C2D
0x787EB2
0x7880B0
0x7880E4
0x788119
0x788330
0x788339
0x78884F
0x78951E
0x7895BE
0x78971F
0x78985B
0x7898CA
0x7899D0
0x789A90
0x789B20
0x789B80
0x789D70
0x789F60
0x78A2D9
0x78A2E3
0x78A376
0x78A976
0x78AAC8
0x78ACD0
0x78B1E6
0x78B3B6
0x78B5C0
0x78B5FC
0x78BC08
0x78BC64
0x78BCF0
0x78C200
0x78C390
0x78C3A7
0x78C640
0x78C949
0x78CB10
0x78CC56
0x78CD73
0x78CE13
0x78CE80
0x78CE8A
0x78D0C3
0x78D163
0x78D1E0
0x78D2C6
0x78D399
0x78D3D1
0x78D470
0x78D4AF
0x78D701
0x78D77D
0x78D783
0x78D830
0x78D881
0x78DC72
0x78DF60
0x78E140
0x78E1C0
0x78E470
0x78E47D
0x78E4CF
0x78E4EE
0x78E694
0x78E916
0x78EA40
0x78EA82
0x78EE50
0x78F0B0
0x78F0B7
0x78F460
0x78F467
0x78F660
0x78FB58
0x78FCB2
0x78FCB5
0x78FD3A
0x78FF20
0x7901F0
0x7901FE
0x7907C0
0x791160
0x791170
0x79176D
0x7917B0
0x7917B9
0x791C40
0x791EF6
0x791FA6
0x792082
0x7922D3
0x7925BC
0x7927D0
0x7927F0
0x792836
0x792890
0x7928E0
0x792A74
0x792B22
0x792CC6
0x792E23
0x792F68
0x793030
0x7933E5
0x79346A
0x793512
0x7935B0
0x793670
0x7936DA
0x793750
0x793755
0x793943
0x793947
0x793966
0x793A10
0x793A1F
0x793BA3
0x793C33
0x793D22
0x793DD0
0x794042
0x7940B2
0x794110
0x79415F
0x794387
0x7944F0
0x794580
0x794756
0x794900
0x79491B
0x794A30
0x794A39
0x7953E0
0x795470
0x795A75
0x795B35
0x795BF0
0x795D30
0x795D39
0x796171
0x796484
0x7964E0
0x7964E2
0x7964E3
0x796689
0x79669B
0x796713
0x79671A
0x796732
0x796792
0x7967AE
0x797180
0x797264
0x79759B
0x79761C
0x7978A0
0x7978A9
0x797980
0x7979E0
0x797A5C
0x797B2C
0x797C0E
0x797CF9
0x797DF7
0x7980A1
0x79882B
0x79888A
0x798BD8
0x798E97
0x798F20
0x798F23
0x799020
0x799180
0x799184
0x799188
0x79918D
0x799506
0x7996CD
0x7997B0
0x7997B8
0x799AE0
0x799BB0
0x799BB4
0x799C45
0x799D73
0x799F70
0x79AB4F
0x79AC0C
0x79AC2C
0x79AD2A
0x79B670
0x79B683
0x79BB90
0x79BEC0
0x79BF9A
0x79C6A4
0x79C910
0x79C91E
0x79C982
0x79CA3F
0x79CDC6
0x79CF75
0x79D145
0x79D460
0x79D7F0
0x79DC00
0x79DCD7
0x79DCD9
0x79DDE0
0x79DDEA
0x79E03D
0x79E140
0x79E500
0x79E590
0x79E5A0
0x79E840
0x79E96B
0x79EAA0
0x79EAA9
0x79EDB0
0x79EE19
0x79EF20
0x79EF2B
0x79F015
0x79F1A5
0x79F27E
0x79F48D
0x79F53C
0x79F5F0
0x79F5F9
0x79F600
0x79F760
0x79F951
0x79FBA5
0x79FC20
0x79FC40
0x79FE90
0x79FE92
0x79FE93
0x79FE99
0x7A0F91
0x7A14AD
0x7A1540
0x7A1B94
0x7A1DD0
0x7A1EA0
0x7A1FC0
0x7A2300
0x7A231E
0x7A2828
0x7A2AA8
0x7A2C11
0x7A2D20
0x7A2F52
0x7A2FC9
0x7A3810
0x7A3D93
0x7A41BB
0x7A4418
0x7A4548
0x7A4810
0x7A5755
0x7A58C2
0x7A58C4
0x7A5D40
0x7A5D70
0x7A5DA0
0x7A60A8
0x7A60B3
0x7A61C0
0x7A6212
0x7A6216
0x7A6484
0x7A6610
0x7A682A
0x7A6840
0x7A6980
0x7A6A28
0x7A6E52
0x7A6E65
0x7A70F0
0x7A70FE
0x7A740B
0x7A79FD
0x7A7B36
0x7A7BC3
0x7A7BE1
0x7A7D80
0x7A8030
0x7A8060
0x7A81E0
0x7A81E2
0x7A81E3
0x7A834F
0x7A8545
0x7A855D
0x7A8760
0x7A8764
0x7A8771
0x7A8E60
0x7A9B9E
0x7A9C85
0x7A9C89
0x7A9C8F
0x7AA6B9
0x7AA830
0x7AA839
0x7AA840
0x7AB2E0
0x7AB2E2
0x7AB2E4
0x7AB2EB
0x7AB2F8
0x7AB314
0x7AB4C2
0x7AB4C7
0x7AB4CE
0x7AB4D7
0x7AB7D3
0x7AB810
0x7ABA40
0x7ABA49
0x7AC490
0x7ACB0C
0x7ACE60
0x7ACE90
0x7ACE9A
0x7ADC8A
0x7AE4B0
0x7AE4B2
0x7AE5DF
0x7AEA67
0x7AEDA0
0x7AEDA9
0x7AF193
0x7AF645
0x7AF670
0x7AF6A0
0x7AF6A9
0x7B0290
0x7B0790
0x7B0F40
0x7B14E0
0x7B14F0
0x7B1510
0x7B16C0
0x7B1870
0x7B1A51
0x7B1C90
0x7B1FA0
0x7B1FA4
0x7B2103
0x7B2430
0x7B24AC
0x7B25D4
0x7B26F0
0x7B2875
0x7B2EB0
0x7B2EB6
0x7B2EDB
0x7B38D0
0x7B38DA
0x7B3D20
0x7B3E0F
0x7B4765
0x7B4767
0x7B4768
0x7B4BA0
0x7B4E70
0x7B507A
0x7B5159
0x7B5340
0x7B6770
0x7B6773
0x7B73B0
0x7B7781
0x7B7969
0x7B79B9
0x7B8585
0x7B8673
0x7B86FF
0x7B9490
0x7B9499
0x7B9957
0x7B9AC4
0x7BA490
0x7BA6DE
0x7BAFE3
0x7BB180
0x7BB659
0x7BB6CA
0x7BC330
0x7BDD03
0x7BDDF0
0x7BDDFB
0x7BE3C0
0x7BF4BF
0x7BF5B0
0x7BF81F
0x7BF8A0
0x7C0174
0x7C0200
0x7C024E
0x7C09B0
0x7C09B3
0x7C1680
0x7C2734
0x7C27BF
0x7C3F0A
0x7C3FD2
0x7C4090
0x7C409F
0x7C4750
0x7C4756
0x7C5020
0x7C5257
0x7C5B32
0x7C62B4
0x7C6549
0x7C6910
0x7C6912
0x7C6B84
0x7C7560
0x7C75C0
0x7C75C4
0x7C75F7
0x7C7630
0x7C7BF0
0x7C7BF8
0x7C7D67
0x7C7DA0
0x7C7DA2
0x7C7DB3
0x7C7EE5
0x7C8040
0x7C8042
0x7C8049
0x7C804B
0x7C89D0
0x7C8A60
0x7C8F5A
0x7C9045
0x7C9E60
0x7CA280
0x7CAA5D
0x7CAEC0
0x7CB8F0
0x7CB906
0x7CF2E8
0x7CF341
0x7CF440
0x7CF540
0x7CFE20
0x7D0622
0x7D0C40
0x7D0C4D
0x7D0F40
0x7D0F61
0x7D0FC0
0x7D1000
0x7D1200
0x7D14CD
0x7D1540
0x7D1780
0x7D1C55
0x7D1C80
0x7D1E48
0x7D1F35
0x7D2170
0x7D2F80
0x7D2F82
0x7D3120
0x7D3142
0x7D44A0
0x7D44A9
0x7D58D0
0x7D58D2
0x7D59B1
0x7D59C1
0x7D59D4
0x7D5A45
0x7D5A50
0x7D5B70
0x7D5DA0
0x7D62F0
0x7D62FF
0x7D6820
0x7D7000
0x7D7320
0x7D7710
0x7D7712
0x7D7713
0x7D7EB0
0x7D8040
0x7D888C
0x7D8960
0x7D8990
0x7D89B7
0x7D9EA9
0x7DA230
0x7DA2C0
0x7DB070
0x7DB570
0x7DB610
0x7DB762
0x7DBBE0
0x7DBE30
0x7DC100
0x7DC102
0x7DCC50
0x7DCC52
0x7DCC63
0x7DCD3D
0x7DCE6B
0x7DCF08
0x7DD0D0
0x7DD3D0
0x7DD970
0x7DD9A0
0x7DD9F0
0x7DDA20
0x7DDAB2
0x7DDC00
0x7DE130
0x7DE132
0x7DE133
0x7DE6E2
0x7DE6EF
0x7DEAF0
0x7DEB80
0x7DEC70
0x7DECC0
0x7DECC9
0x7DF1DD
0x7DF1E1
0x7DF1E7
0x7DFADF
0x7DFCB0
0x7DFCBB
0x7DFFCC
0x7E0040
0x7E00B0
0x7E012C
0x7E015E
0x7E0259
0x7E0340
0x7E0460
0x7E08C0
0x7E08CF
0x7E0FC0
0x7E1836
0x7E1930
0x7E1D40
0x7E1D4E
0x7E21F0
0x7E2360
0x7E258A
0x7E25C0
0x7E274C
0x7E2869
0x7E286D
0x7E2CC7
0x7E2E27
0x7E31D6
0x7E4A60
0x7E4D15
0x7E4EBD
0x7E5218
0x7E5320
0x7E55B0
0x7E55BA
0x7E5878
0x7E5C59
0x7E5DE0
0x7E5E70
0x7E6AE2
0x7E6CC0
0x7E70D5
0x7E76A0
0x7E82B0
0x7E8CBD
0x7E8CC1
0x7EA100
0x7EA6A0
0x7EA6D0
0x7EA6D5
0x7EA7B0
0x7EA7E8
0x7EA9D7
0x7EAB50
0x7EAB5D
0x7EAE7B
0x7EB4EB
0x7EBA30
0x7EC870
0x7EC872
0x7ECCB0
0x7ECD40
0x7ECD49
0x7ED0BF
0x7EDBBD
0x7EE1B0
0x7EE1B2
0x7EE466
0x7EE7C0
0x7EE9F0
0x7EEBD1
0x7EEDD4
0x7EEEA7
0x7EEED7
0x7EEF26
0x7EEF3E
0x7EEF5E
0x7EEFB6
0x7EEFEE
0x7EF0AC
0x7EF0C0
0x7EF0C3
0x7EF400
0x7EF402
0x7EF403
0x7EF458
0x7EFDC0
0x7F0050
0x7F0056
0x7F0490
0x7F0492
0x7F0493
0x7F049D
0x7F0736
0x7F0D70
0x7F0D92
0x7F1100
0x7F1109
0x7F1120
0x7F16D0
0x7F1707
0x7F1710
0x7F2103
0x7F2180
0x7F2182
0x7F2189
0x7F23F3
0x7F267B
0x7F29D3
0x7F2B47
0x7F2C30
0x7F2C3B
0x7F2E27
0x7F3460
0x7F3469
0x7F3B70
0x7F3B72
0x7F3B73
0x7F4220
0x7F423E
0x7F4769
0x7F4E20
0x7F4E30
0x7F5EB0
0x7F5EC0
0x7F6430
0x7F6440
0x7F7130
0x7F75BA
0x7F7F42
0x7F83A0
0x7F83B3
0x7F8440
0x7F8449
0x7F845E
0x7F84E9
0x7F8530
0x7F87E0
0x7F87E9
0x7F8C30
0x7F8C5D
0x7F8C61
0x7F8C64
0x7F8D50
0x7F8EE0
0x7F90EC
0x7F9330
0x7F96D0
0x7F9922
0x7F9A50
0x7F9C10
0x7F9ED0
0x7F9ED8
0x7F9F94
0x7FA00C
0x7FABAC
0x7FBC70
0x7FBCFE
0x7FBE15
0x7FC1A0
0x7FC9B2
0x7FD2D7
0x7FD9E0
0x7FE820
0x7FE822
0x7FE82F
0x7FE836
0x7FE8B2
0x7FEA02
0x7FEAA6
0x7FEAAD
0x7FEBB0
0x7FEBB4
0x7FEBBA
0x800815
0x800820
0x800850
0x800950
0x800D53
0x801150
0x801159
0x801E22
0x801E2F
0x801EEA
0x801EF7
0x8025CC
0x8027BE
0x80287D
0x802901
0x802D10
0x802E85
0x802F26
0x8032BF
0x80332F
0x80379C
0x8039AF
0x804890
0x805300
0x805960
0x805B63
0x806360
0x806634
0x806E10
0x806EF7
0x807290
0x8075F0
0x807C00
0x807C02
0x807E12
0x807E18
0x808103
0x80830F
0x8086E0
0x8086E9
0x8088BB
0x808A10
0x808A20
0x8092DB
0x809445
0x809490
0x809500
0x8095B0
0x809667
0x809968
0x809F20
0x80A0E0
0x80A4D5
0x80A5C0
0x80AB20
0x80B000
0x80B0F9
0x80B326
0x80BA47
0x80BBEB
0x80BE5F
0x80C000
0x80C1C5
0x80C1D6
0x80C1E7
0x80C37C
0x80C389
0x80C396
0x80C5CE
0x80C5F7
0x80C620
0x80C6BF
0x80C7D5
0x80C8C7
0x80CBCA
0x80CBE8
0x80CC13
0x80CDC6
0x80D0A6
0x80D0D3
0x80D0F1
0x80D6C0
0x80D7F2
0x80D7F4
0x80D7F6
0x80D7FA
0x80DB9C
0x80DC83
0x80DC87
0x80E193
0x80E197
0x80E560
0x80E56A
0x80EE0F
0x80F772
0x80F930
0x80F938
0x80FA80
0x810600
0x810609
0x81094A
0x810CE0
0x810EDC
0x810EF8
0x811464
0x811472
0x81195D
0x81198A
0x811A30
0x811A51
0x811BD0
0x8121C0
0x8121C4
0x812290
0x8123E1
0x81279C
0x812D89
0x812EE0
0x813720
0x813723
0x8137DA
0x814150
0x81463E
0x8146FB
0x8151C4
0x8154C2
0x81575F
0x815830
0x815832
0x815836
0x81587C
0x817531
0x81753E
0x817600
0x817610
0x817830
0x817832
0x817833
0x818158
0x8184E0
0x818A52
0x818D68
0x819C95
0x819EE0
0x819EE2
0x819EE6
0x81A2DA
0x81A384
0x81A5FF
0x81E28E
0x81E2F2
0x81E36B
0x81E48E
0x81F680
0x81F682
0x81F683
0x81F689
0x81F68B
0x81F933
0x821540
0x821C00
0x821C51
0x822090
0x822099
0x8236C2
0x8236CA
0x823E40
0x823E70
0x823E79
0x823E90
0x824062
0x824069
0x8241D2
0x8241D6
0x8248D0
0x824915
0x824AD6
0x824C16
0x824C8B
0x824C92
0x824CE0
0x825020
0x8258F0
0x8258F2
0x8258F6
0x8258F8
0x826540
0x82678C
0x8267BA
0x8267EE
0x8267F2
0x826864
0x8268B0
0x826900
0x826940
0x826943
0x82695D
0x8277B0
0x827A26
0x827A4E
0x827A90
0x8285E3
0x82860C
0x828830
0x828BC0
0x828D51
0x8293F2
0x82A0C0
0x82A5A0
0x82A970
0x82ADF0
0x82B030
0x82B874
0x82B884
0x82CDEB
0x82D0F8
0x82D111
0x82D522
0x82D540
0x82D569
0x82D573
0x82D770
0x82DA52
0x82DA56
0x82DA7E
0x82E5B0
0x82F732
0x82FA30
0x82FA32
0x82FA33
0x82FA3B
0x82FDC2
0x82FEBD
0x830670
0x830E69
0x8310B0
0x831B00
0x8324F8
0x832918
0x832D7E
0x833168
0x833470
0x83348C
0x8339F9
0x833CA8
0x833EE6
0x8343A0
0x8343A9
0x83503E
0x835740
0x835D41
0x835DC5
0x835E03
0x835F50
0x837650
0x837CA0
0x837E00
0x838060
0x838066
0x838071
0x8383AF
0x8384E5
0x838B8E
0x838B94
0x838BC7
0x838C38
0x838C3E
0x838CA8
0x838CAE
0x838CED
0x838CF3
0x838D20
0x838D2B
0x838EC0
0x838EC6
0x8398F7
0x839D65
0x839DC5
0x839E61
0x839E74
0x839F5F
0x83A2DF
0x83A3A7
0x83A5D0
0x83A5D4
0x83B2B5
0x83B533
0x83B700
0x83BF39
0x83C015
0x83C170
0x83C591
0x83C595
0x83DEF0
0x83DEF3
0x83E020
0x83E022
0x83E023
0x83E245
0x83E257
0x83E9E5
0x83F874
0x84009C
0x841740
0x841B26
0x841BA6
0x841C70
0x841C7F
0x841D61
0x841F14
0x841F1F
0x842200
0x842202
0x842714
0x842B1B
0x842D98
0x842F3B
0x843146
0x8433D6
0x843500
0x84350F
0x843796
0x843990
0x843A10
0x843A1F
0x8442E0
0x84433D
0x844341
0x844C10
0x844D9D
0x845230
0x845232
0x8452D0
0x8452D2
0x8452EB
0x84548D
0x845510
0x845562
0x845564
0x845640
0x8456C0
0x845919
0x845A00
0x845C9A
0x845DFE
0x845EA0
0x845EF0
0x845F30
0x845F32
0x845F36
0x845F5E
0x846340
0x8463E6
0x8464B0
0x846890
0x846940
0x846F30
0x846F63
0x8471D0
0x8474BE
0x847A70
0x847A90
0x847A92
0x847A93
0x847A9D
0x847CE4
0x849F10
0x84A150
0x84A190
0x84A1F0
0x84A220
0x84A973
0x84A974
0x84A97F
0x84AA05
0x84AAD0
0x84AB40
0x84AB80
0x84AC80
0x84AD00
0x84AD65
0x84ADB3
0x84ADC3
0x84AE73
0x84AEC0
0x84B207
0x84B770
0x84BC46
0x84BC48
0x84BCF9
0x84BF49
0x84BF4C
0x84C0D0
0x84C0D9
0x84C370
0x84C379
0x84C380
0x84C570
0x84C720
0x84C729
0x84CBC0
0x84CCC0
0x84CD10
0x84D1E0
0x84D1E2
0x84D260
0x84D730
0x84D74A
0x84D7C0
0x84D9B0
0x84DA00
0x84DF14
0x84E0EB
0x84E2FD
0x84E430
0x84E44A
0x84E760
0x84E940
0x84E942
0x84E943
0x84F6FE
0x84F900
0x84F9E0
0x84FA40
0x84FA44
0x84FA56
0x852432
0x8524E8
0x852560
0x852569
0x852698
0x8527C6
0x852826
0x852890
0x852892
0x8528DE
0x8529A0
0x852BD0
0x852C20
0x852C22
0x853051
0x8530EC
0x8530F5
0x8530FB
0x853107
0x853186
0x8531A1
0x8532D0
0x853822
0x853990
0x853992
0x85399E
0x8539A7
0x853AD3
0x8546C6
0x85491D
0x854921
0x854BC2
0x854BC6
0x854BCC
0x85602B
0x8580A0
0x8580C9
0x858173
0x8583F0
0x858544
0x8587F0
0x858B90
0x858B92
0x858C10
0x858C1F
0x858C2B
0x858D20
0x858D29
0x859168
0x85A861
0x85B420
0x85B460
0x85B570
0x85B5B5
0x85B630
0x85B9E2
0x85B9E8
0x85BAE0
0x85C2D9
0x85C310
0x85C3C0
0x85C3D3
0x85C3DC
0x85C951
0x85CA10
0x85CA14
0x85CA1C
0x85D084
0x85D519
0x85D566
0x85D660
0x85DC69
0x85DC70
0x85DC74
0x85DC78
0x85DC7A
0x85DD10
0x85DD42
0x85DD44
0x85E019
0x85E056
0x85E116
0x85E1B0
0x85E1B9
0x85E9E0
0x85E9E2
0x85EAB0
0x85EAB2
0x85EB90
0x85EBC0
0x85ED90
0x85F3D0
0x85F3D4
0x85FEA9
0x85FF20
0x85FFE0
0x8600E8
0x8601AE
0x860310
0x860479
0x860510
0x860526
0x860622
0x86087F
0x860908
0x860B0D
0x860BC0
0x860CC0
0x860DF9
0x860E39
0x860EB0
0x860ED0
0x860F20
0x860FD0
0x8611BA
0x862250
0x862256
0x862407
0x862480
0x86248C
0x862AA7
0x862ACD
0x862AD1
0x862ADE
0x8632D7
0x863794
0x864010
0x86401C
0x8643B0
0x8643B4
0x8646B8
0x864910
0x864914
0x864CAA
0x864E14
0x865243
0x865350
0x8654E0
0x865B00
0x865E11
0x866116
0x8664F0
0x8664F9
0x866501
0x866AB0
0x866BE7
0x866D00
0x866D0C
0x866F5A
0x867430
0x867439
0x867504
0x867940
0x86794C
0x868790
0x868794
0x868910
0x86891C
0x868F18
0x869138
0x869465
0x8694A0
0x8694A9
0x86964F
0x8696FF
0x869700
0x869771
0x869860
0x869A50
0x869A52
0x869A5C
0x869A64
0x86A233
0x86A2F0
0x86A3EC
0x86A572
0x86A57B
0x86AA60
0x86AA6C
0x86B250
0x86B259
0x86B25C
0x86BEE0
0x86C220
0x86C22C
0x86C236
0x86C5DE
0x86C667
0x86C680
0x86C6BD
0x86C6C1
0x86CD80
0x86D31C
0x86DFAA
0x86E1B0
0x86E1C9
0x86E2F0
0x86E2F2
0x86E2F9
0x86E585
0x86E640
0x86E644
0x86E646
0x86EF30
0x86EF3C
0x86F140
0x86F14D
0x86F30A
0x86F6C2
0x86FBB0
0x870CB0
0x870CBF
0x871D58
0x871DE1
0x871DF0
0x871E70
0x8723A2
0x8723F2
0x872850
0x872859
0x87285C
0x8729C3
0x8729C6
0x872C10
0x872EA0
0x872EAC
0x873151
0x8733F0
0x8733F9
0x873401
0x873543
0x873750
0x873759
0x873761
0x87396B
0x8739D3
0x873A80
0x873A89
0x873DD0
0x873DD9
0x873DE1
0x8740BC
0x874162
0x874298
0x874320
0x874329
0x87432C
0x874630
0x8747B0
0x8747BC
0x874B48
0x874BD0
0x874BD2
0x874BD6
0x874BD8
0x874BDE
0x874C30
0x874EC0
0x874EC4
0x875240
0x87524C
0x87546F
0x875679
0x875680
0x875940
0x87594A
0x875CA0
0x875CA2
0x875CAC
0x875CB4
0x876099
0x8761E1
0x876350
0x876359
0x87635C
0x876363
0x876B00
0x877370
0x877379
0x877387
0x877866
0x87796F
0x8779C0
0x877A2F
0x877A74
0x878120
0x87817D
0x8784B0
0x8784B4
0x87853E
0x878575
0x87859F
0x878651
0x878690
0x878692
0x878775
0x8787D6
0x878ACC
0x878C00
0x878D69
0x879070
0x87910D
0x8792E0
0x87935D
0x8793BF
0x879420
0x87943D
0x8794D6
0x87953B
0x87969F
0x8797B3
0x87986E
0x8798F9
0x879930
0x879932
0x87993C
0x879D2A
0x879DC1
0x87A373
0x87A614
0x87A790
0x87ADF2
0x87ADFF
0x87AF77
0x87AF90
0x87AF94
0x87B270
0x87B274
0x87B7A8
0x87B87D
0x87BBBE
0x87BBE0
0x87BC38
0x87BDC0
0x87C020
0x87C024
0x87C187
0x87C450
0x87D552
0x87D6D0
0x87D6D4
0x87D6DF
0x87D6E6
0x87DC98
0x87DF69
0x87E03E
0x87E270
0x87E279
0x87E28A
0x87E360
0x87E36F
0x87E685
0x87EE88
0x87EF70
0x87EF74
0x87EF7F
0x87EFA1
0x87F080
0x87F084
0x87F0B1
0x87F331
0x87F340
0x87F3D1
0x87F417
0x87F471
0x87F480
0x87F4C0
0x87F58D
0x87F719
0x87F71F
0x87FC40
0x87FC4C
0x880120
0x880129
0x8803F0
0x8803F3
0x8803F4
0x8803F9
0x880401
0x880720
0x880729
0x8809E0
0x8809E4
0x880D29
0x880D2F
0x880DB0
0x880DB2
0x880E12
0x880F10
0x880F14
0x880F61
0x881240
0x881244
0x8813A3
0x8814D8
0x881991
0x881B92
0x881EE0
0x881EEB
0x881FF0
0x8824A0
0x8824AD
0x8826AE
0x882740
0x8827DF
0x88280D
0x8828F7
0x88292E
0x882A20
0x882A39
0x882A92
0x882B16
0x882B42
0x882B60
0x882BDD
0x882C3B
0x882EF0
0x882EF4
0x8831E0
0x8831E4
0x88337B
0x883410
0x8835C0
0x883670
0x883674
0x8837B8
0x8837BF
0x883860
0x883863
0x883868
0x883AA7
0x883B30
0x883CB9
0x883D19
0x884310
0x88438D
0x884612
0x884710
0x884719
0x88472A
0x884765
0x884A80
0x884A84
0x884E40
0x884EC7
0x885151
0x885160
0x885380
0x885384
0x8857F0
0x885994
0x885A30
0x885A38
0x885A99
0x885B70
0x885E6E
0x885FA4
0x885FC0
0x886013
0x8860D0
0x886119
0x886158
0x886450
0x886A40
0x886F51
0x886F5F
0x886FD0
0x886FDF
0x886FED
0x887060
0x8870DD
0x887160
0x887163
0x887310
0x8874B0
0x88783E
0x887B3F
0x887CA0
0x887E47
0x8882E9
0x888377
0x888501
0x8886A0
0x888A90
0x888AA3
0x888F05
0x889A70
0x889A73
0x889A7B
0x88A020
0x88A137
0x88A2C0
0x88A2C4
0x88A490
0x88A4A2
0x88A860
0x88AB40
0x88ACA2
0x88AE12
0x88AF80
0x88AF82
0x88B016
0x88B18A
0x88B200
0x88B250
0x88B2A0
0x88B330
0x88B3A2
0x88B3B8
0x88B3C0
0x88B410
0x88B460
0x88B4C0
0x88B4C9
0x88B550
0x88B559
0x88B5E0
0x88B5E6
0x88B640
0x88B646
0x88B6B8
0x88B6C8
0x88B7C2
0x88BB1A
0x88BD65
0x88BF20
0x88C742
0x88CA80
0x88CA89
0x88CC8A
0x88CD98
0x88CF10
0x88CF13
0x88D350
0x88D3C0
0x88D470
0x88D5FC
0x88DA30
0x88DBE0
0x88DBE6
0x88DF1F
0x88E1A0
0x88E1A2
0x88E1A9
0x88E3E0
0x88E3E9
0x88E52D
0x88E640
0x88E67E
0x88E800
0x88E820
0x88E840
0x88E860
0x88E870
0x88E880
0x88E883
0x88ED30
0x88ED32
0x88EDA1
0x88EF97
0x88F283
0x88F29F
0x88F321
0x88F5F0
0x88FA3E
0x88FA79
0x88FD19
0x88FDC0
0x88FDE0
0x88FE20
0x890392
0x8903D1
0x890527
0x890911
0x890B80
0x890CE0
0x890CE9
0x8911BB
0x8912F1
0x8913E1
0x891820
0x89187F
0x891950
0x891D00
0x891DF0
0x891E30
0x891E53
0x892050
0x892054
0x892AC0
0x892AC2
0x892AEB
0x892DB0
0x893100
0x893103
0x8931A0
0x8931CD
0x893800
0x893802
0x893811
0x893912
0x893913
0x893919
0x893BF0
0x893BF4
0x893BF7
0x893E72
0x893E79
0x893EAF
0x8940F7
0x894160
0x894164
0x894174
0x894184
0x8941D8
0x8941E8
0x8941F0
0x8941F2
0x8941F3
0x89487D
0x894E0A
0x894F39
0x895040
0x895050
0x8951DA
0x895301
0x895350
0x89550E
0x895537
0x895F1C
0x896000
0x896002
0x896003
0x896158
0x896788
0x896834
0x896A60
0x897270
0x89759C
0x8975C0
0x8975C4
0x8979E9
0x897A80
0x897AFA
0x897B05
0x897B41
0x897B4B
0x897BD0
0x897BD2
0x897E10
0x897E14
0x898120
0x8985D6
0x898610
0x898612
0x898626
0x898AD0
0x898B40
0x898BFA
0x898EA6
0x898F80
0x8994C2
0x899565
0x89962D
0x899FF0
0x899FF9
0x89A17B
0x89A310
0x89A320
0x89A330
0x89A600
0x89A602
0x89A608
0x89A870
0x89A872
0x89AA09
0x89AAC0
0x89ABD0
0x89AD33
0x89B040
0x89B416
0x89B440
0x89B44F
0x89B468
0x89B6C2
0x89B807
0x89B810
0x89B890
0x89BD00
0x89C05E
0x89C107
0x89C110
0x89C1A7
0x89C1B0
0x89C237
0x89C240
0x89C397
0x89C3A0
0x89C43E
0x89CD10
0x89CE77
0x89CE80
0x89CF07
0x89CF10
0x89CFB0
0x89CFB2
0x89CFB3
0x89D0D0
0x89D1C0
0x89D330
0x89D52D
0x89D580
0x89D790
0x89D970
0x89DB60
0x89DB62
0x89DB63
0x89DB70
0x89DC50
0x89DD47
0x89DD50
0x89DDE0
0x89E008
0x89E070
0x89E1E0
0x89E2C0
0x89E9EC
0x89EF90
0x89F720
0x89F724
0x89F74B
0x89F8AA
0x89FA18
0x89FFD3
0x8A00B1
0x8A0583
0x8A0B2F
0x8A0BF0
0x8A0DF0
0x8A0E3A
0x8A0E5C
0x8A0F50
0x8A0F54
0x8A101C
0x8A1740
0x8A1744
0x8A19E7
0x8A24A0
0x8A24C5
0x8A27B0
0x8A27B4
0x8A27D3
0x8A2954
0x8A2A41
0x8A2A4E
0x8A2A66
0x8A2AA5
0x8A2B20
0x8A2C80
0x8A2F7C
0x8A2FCF
0x8A310F
0x8A31AC
0x8A31D0
0x8A31FC
0x8A32E3
0x8A3610
0x8A36E5
0x8A3980
0x8A3B37
0x8A3B87
0x8A3BEF
0x8A3C86
0x8A3D40
0x8A3DF1
0x8A3E00
0x8A3E2D
0x8A3E3C
0x8A3E94
0x8A3EBF
0x8A4114
0x8A4560
0x8A46B8
0x8A4975
0x8A4B02
0x8A4CB5
0x8A4F19
0x8A4F94
0x8A4F99
0x8A5140
0x8A5438
0x8A54C0
0x8A54C4
0x8A5690
0x8A5694
0x8A569D
0x8A59D0
0x8A59F0
0x8A5A30
0x8A5B08
0x8A5BB0
0x8A5C0F
0x8A5D48
0x8A6090
0x8A60A9
0x8A64B0
0x8A6734
0x8A6A38
0x8A6A7E
0x8A6AB7
0x8A6AD0
0x8A6C40
0x8A6C55
0x8A6C78
0x8A6D00
0x8A6D3F
0x8A6DC7
0x8A6E70
0x8A6EA0
0x8A6EBC
0x8A6FC0
0x8A6FEC
0x8A7010
0x8A7040
0x8A7090
0x8A70D0
0x8A7130
0x8A7197
0x8A7200
0x8A7220
0x8A7240
0x8A7260
0x8A72C0
0x8A7300
0x8A7330
0x8A7350
0x8A7371
0x8A73B4
0x8A73B7
0x8A75BA
0x8A76C0
0x8A76C4
0x8A76C8
0x8A76CD
0x8A7A40
0x8A7A80
0x8A7AC0
0x8A7AE2
0x8A7C90
0x8A7C92
0x8A7C96
0x8A8330
0x8A85B0
0x8A85D5
0x8A8B90
0x8A8B9D
0x8A8E12
0x8A9036
0x8A95AD
0x8A99C0
0x8AA0A6
0x8AA2F0
0x8AA5B7
0x8AA6A0
0x8AA6B0
0x8AA801
0x8AA9B0
0x8AA9B2
0x8AA9B6
0x8AA9B9
0x8AAC00
0x8AAD3D
0x8AB260
0x8AB2A3
0x8AB442
0x8AB45A
0x8AB624
0x8AB63C
0x8ABF10
0x8ABF12
0x8ACB59
0x8AD3C0
0x8AD3C2
0x8AD3C6
0x8AD6E0
0x8ADB30
0x8ADDC0
0x8ADDC4
0x8ADE90
0x8ADEBD
0x8AE03B
0x8AE0D0
0x8AE43C
0x8AE650
0x8AF0B8
0x8AF339
0x8AF360
0x8AF520
0x8AF522
0x8AF523
0x8AF9DB
0x8AFE2E
0x8AFE59
0x8B0410
0x8B0ED0
0x8B0F86
0x8B1410
0x8B141F
0x8B142C
0x8B1E50
0x8B2510
0x8B2514
0x8B2AC8
0x8B3150
0x8B31EF
0x8B32BA
0x8B3758
0x8B3A1D
0x8B3A21
0x8B3A27
0x8B6015
0x8B6019
0x8B601B
0x8B6026
0x8B78AB
0x8B7A71
0x8B85E0
0x8B85E4
0x8B85E6
0x8B87BD
0x8B8BA0
0x8B92BB
0x8B94B0
0x8B951E
0x8B9662
0x8B96D5
0x8B9720
0x8B9734
0x8BA0DB
0x8BAD50
0x8BADA7
0x8BB0E4
0x8BB756
0x8BB772
0x8BB830
0x8BB9D0
0x8BBE9F
0x8BBEFC
0x8BBF61
0x8BC170
0x8BC174
0x8BC2A6
0x8BC390
0x8BC3E8
0x8BC590
0x8BC594
0x8BCB90
0x8BCE60
0x8BD4A0
0x8BD4B9
0x8BD570
0x8BD720
0x8BD793
0x8BDAA9
0x8BE190
0x8BE437
0x8BE4CD
0x8BE4F2
0x8BEE8D
0x8BF634
0x8BF7C4
0x8C0C90
0x8C0CAD
0x8C10C0
0x8C10F3
0x8C14EE
0x8C14F7
0x8C15E0
0x8C15E2
0x8C17A0
0x8C1972
0x8C1AA0
0x8C1D20
0x8C1D29
0x8C1FD0
0x8C1FD4
0x8C1FDF
0x8C2180
0x8C21D5
0x8C246E
0x8C2749
0x8C29E4
0x8C2B91
0x8C3628
0x8C3700
0x8C370F
0x8C37AE
0x8C3810
0x8C386E
0x8C38A8
0x8C38E0
0x8C38FA
0x8C56B1
0x8C5816
0x8C5818
0x8C5910
0x8C592C
0x8C5A40
0x8C5A58
0x8C5BD0
0x8C5BDF
0x8C5DB0
0x8C5DBA
0x8C5E2D
0x8C5F69
0x8C6055
0x8C6289
0x8C6F43
0x8C7B20
0x8C7DCF
0x8C80F5
0x8C9B7F
0x8CAA7D
0x8CB010
0x8CB012
0x8CB01B
0x8CB3DA
0x8CB4C3
0x8CBC39
0x8CC03A
0x8CC7A0
0x8CC7F0
0x8CC7FB
0x8CCCA8
0x8CCCB0
0x8CD0E2
0x8CD311
0x8CD313
0x8CD408
0x8CD430
0x8CD4C0
0x8CD4C9
0x8CD945
0x8CDC40
0x8CDC49
0x8CE3A0
0x8CE3A8
0x8CE5D0
0x8CE5D2
0x8CE5D3
0x8CE748
0x8CEA80
0x8CEA82
0x8CEA83
0x8CF070
0x8CF072
0x8CF073
0x8CF1DD
0x8CFCC9
0x8CFE66
0x8D02D8
0x8D03A0
0x8D0412
0x8D0441
0x8D05E5
0x8D0626
0x8D0676
0x8D0810
0x8D0850
0x8D0950
0x8D0970
0x8D0980
0x8D0B0C
0x8D0D50
0x8D0DB0
0x8D0E10
0x8D0EA0
0x8D0F30
0x8D1150
0x8D11A0
0x8D11F0
0x8D1240
0x8D1290
0x8D1330
0x8D1350
0x8D1478
0x8D1508
0x8D1618
0x8D16A0
0x8D19C0
0x8D1A43
0x8D1CC1
0x8D1EB0
0x8D1EBF
0x8D23D0
0x8D2870
0x8D2872
0x8D2AD0
0x8D2D20
0x8D2D22
0x8D2D26
0x8D2F83
0x8D3030
0x8D3AD1
0x8D3B50
0x8D42C0
0x8D486E
0x8D4B30
0x8D4C7A
0x8D4CA9
0x8D507F
0x8D5220
0x8D596E
0x8D6587
0x8D6600
0x8D6D27
0x8D6E50
0x8D6E70
0x8D6E90
0x8D6EB0
0x8D70F0
0x8D7400
0x8D7410
0x8D7412
0x8D78B0
0x8D79E2
0x8D84B7
0x8D84BF
0x8D8520
0x8D8522
0x8D8697
0x8D86A9
0x8D86B2
0x8D893F
0x8D8959
0x8D895A
0x8D8BDF
0x8D8BF9
0x8D8BFA
0x8D8E40
0x8D8EA0
0x8D8F10
0x8D8FF0
0x8D9440
0x8D9560
0x8D9562
0x8D9750
0x8D9757
0x8D9E41
0x8DA010
0x8DA012
0x8DA013
0x8DA019
0x8DA4A0
0x8DA562
0x8DA610
0x8DA612
0x8DA616
0x8DA690
0x8DA692
0x8DA696
0x8DA710
0x8DA712
0x8DA716
0x8DA790
0x8DA792
0x8DA796
0x8DA816
0x8DA8CB
0x8DA9B5
0x8DAA13
0x8DAC49
0x8DACE7
0x8DAD86
0x8DAFCB
0x8DB0F4
0x8DB120
0x8DB510
0x8DB5BA
0x8DB603
0x8DB630
0x8DB6B0
0x8DBB40
0x8DBB6E
0x8DC0BF
0x8DC2A0
0x8DC2A9
0x8DC4E0
0x8DCCF0
0x8DCCF5
0x8DCD20
0x8DCD25
0x8DCD75
0x8DCE7D
0x8DCFCD
0x8DCFCF
0x8DCFDA
0x8DD318
0x8DD3A0
0x8DD3D0
0x8DD3D6
0x8DD8F0
0x8DDFE0
0x8DE082
0x8DE4F0
0x8DEBD0
0x8DEDE0
0x8DF320
0x8DF5D0
0x8DFC90
0x8E00C0
0x8E03C0
0x8E03C4
0x8E0AD0
0x8E0B05
0x8E0CE0
0x8E0E35
0x8E0E3B
0x8E0EC7
0x8E0ECC
0x8E118A
0x8E11E0
0x8E12F0
0x8E13A5
0x8E143D
0x8E154D
0x8E15F2
0x8E1AC0
0x8E1C40
0x8E1C44
0x8E1DF0
0x8E1DF4
0x8E23C0
0x8E23C8
0x8E23CA
0x8E2894
0x8E296C
0x8E2A44
0x8E3294
0x8E336C
0x8E4AA0
0x8E6DA6
0x8E6DD2
0x8E6E30
0x8E6F50
0x8E6F58
0x8E71EC
0x8E7270
0x8E7699
0x8E7782
0x8E778C
0x8E7960
0x8E7964
0x8E7967
0x8E7F10
0x8E7F2B
0x8E8450
0x8E845D
0x8E8840
0x8E884F
0x8E8D20
0x8E8EAB
0x8E8F7B
0x8E904B
0x8E9ADB
0x8E9BAB
0x8EAE5A
0x8EB07A
0x8EB420
0x8EB7B0
0x8EBBA0
0x8EBBA2
0x8EBBA6
0x8EBE00
0x8EC2D0
0x8EC7D0
0x8ECE73
0x8ECED0
0x8ED270
0x8ED498
0x8ED4E0
0x8ED5E1
0x8EDD04
0x8EDE20
0x8EF170
0x8EF172
0x8EF176
0x8EFFC0
0x8F0893
0x8F1AC0
0x8F1CD2
0x8F1E12
0x8F1FB0
0x8F2350
0x8F3591
0x8F36B0
0x8F3870
0x8F3D5C
0x8F3F68
0x8F3F77
0x8F4058
0x8F4064
0x8F40CF
0x8F4170
0x8F41E9
0x8F4230
0x8F450B
0x8F45E0
0x8F4620
0x8F4650
0x8F4695
0x8F4699
0x8F46E0
0x8F4738
0x8F48D0
0x8F4BF0
0x8F4CC3
0x8F4CCC
0x8F4CDA
0x8F5040
0x8F5045
0x8F5290
0x8F5293
0x8F54D0
0x8F54D3
0x8F56FF
0x8F57B0
0x8F6360
0x8F6692
0x8F68BE
0x8F7260
0x8F726C
0x8F7810
0x8F796C
0x8F7B58
0x8F7CF0
0x8F7D06
0x8F7D20
0x8F8488
0x8F97C0
0x8FBB28
0x8FBB2C
0x8FBCDF
0x8FBD56
0x8FBFA0
0x8FC2CF
0x8FC379
0x8FC387
0x8FC530
0x8FD530
0x8FE530
0x8FE570
0x8FE575
0x8FF710
0x8FFDF0
0x9001AE
0x900590
0x9007E1
0x900965
0x900A76
0x900C20
0x9017AC
0x901889
0x9018D0
0x901C10
0x901C87
0x902D54
0x903330
0x9033B1
0x9033BC
0x903480
0x903510
0x903516
0x90361B
0x9039D4
0x903E75
0x904070
0x9040A0
0x9040D0
0x9043A3
0x904424
0x9044A0
0x904559
0x9045D5
0x904690
0x904694
0x904696
0x90469C
0x904742
0x904799
0x904A20
0x904B30
0x904B39
0x904B4D
0x904BA4
0x904D30
0x904EC0
0x904ED3
0x904ED7
0x905170
0x905190
0x905220
0x905480
0x9056F0
0x905941
0x905D90
0x905D99
0x905DD0
0x906120
0x9061A0
0x906220
0x906243
0x906620
0x906778
0x9069D3
0x906EA0
0x906EB6
0x9078C0
0x907B10
0x907B19
0x907C50
0x907C5F
0x907D20
0x907EE0
0x9081D0
0x9081DC
0x908440
0x908560
0x908D07
0x9090B0
0x9090B2
0x9090C0
0x909229
0x90929A
0x9092B3
0x9092F3
0x9096B0
0x9097B6
0x909850
0x909852
0x909940
0x909970
0x9099C0
0x909B44
0x909BB5
0x909CD0
0x90A652
0x90BBC3
0x90BBC8
0x90BCC0
0x90BCCD
0x90BE24
0x90BE87
0x90C190
0x90CC20
0x90D653
0x90D659
0x90D676
0x90D6B0
0x90D710
0x90D719
0x90D737
0x90D8D0
0x90DCDD
0x90E012
0x90E2A0
0x90E2A9
0x90E2C4
0x90E450
0x90E48A
0x90E6C0
0x90E750
0x90E8A0
0x90E8A2
0x90E8A6
0x90EAD0
0x90EAD2
0x90EB3C
0x90ED00
0x90ED80
0x90EF66
0x90EF69
0x90F150
0x90F15F
0x90F165
0x90F9C8
0x90F9ED
0x90FF70
0x910160
0x910162
0x910169
0x91037C
0x9105C0
0x9105E0
0x910600
0x910620
0x910630
0x910680
0x9106A7
0x91071A
0x910890
0x910B80
0x911000
0x911254
0x9113A0
0x911439
0x911500
0x911962
0x911BA4
0x911C34
0x91224F
0x9122B2
0x91247F
0x9124BC
0x91278E
0x912BA0
0x912BA9
0x912BAF
0x9134EA
0x9136A0
0x9136A9
0x9136C0
0x913800
0x913BC9
0x913BD4
0x913D80
0x9142F0
0x91451F
0x9146BB
0x91477B
0x916C70
0x9175E6
0x917840
0x9178BD
0x9178C2
0x917B27
0x917C2D
0x917CF2
0x917CF3
0x917DCC
0x917E28
0x917E31
0x918204
0x918209
0x9185A2
0x9187FF
0x91A9FF
0x91AA59
0x91AFC5
0x91B3C0
0x91B813
0x91B839
0x91B886
0x91BF10
0x91C000
0x91C030
0x91C072
0x91C073
0x91C29F
0x91C520
0x91C5CF
0x91C6CF
0x91C8CF
0x91C977
0x91C9E6
0x91CCC0
0x91CE88
0x91CF30
0x91E1C5
0x91E210
0x91EBF0
0x91EF90
0x91EFC0
0x91F220
0x91F650
0x91F651
0x91F674
0x91F720
0x91F721
0x91F744
0x91F7F0
0x91F7F1
0x91F814
0x91F840
0x91F841
0x91F864
0x91FC90
0x91FC91
0x91FCB4
0x91FCE0
0x9214FD
0x921665
0x9216B0
0x9216BA
0x922E60
0x922E85
0x9238D0
0x923C10
0x923C34
0x924110
0x925B6A
0x925C50
0x925C53
0x926020
0x9260E6
0x926100
0x9262A8
0x9262DB
0x9268A9
0x9268C8
0x926C10
0x926C1C
0x926E20
0x926EE6
0x9272CF
0x9272D3
0x9275A4
0x927650
0x927826
0x927BC0
0x927D88
0x928150
0x928152
0x928158
0x928160
0x92816D
0x928370
0x928452
0x928510
0x928515
0x928540
0x9285E0
0x928850
0x928859
0x928970
0x928B40
0x928B50
0x928D30
0x928FF0
0x929000
0x9296A0
0x9296C0
0x929703
0x929725
0x92972B
0x92976F
0x929775
0x9297B0
0x9297B1
0x929840
0x929860
0x929880
0x9298A0
0x9298C0
0x9298E0
0x929930
0x929960
0x9299C0
0x9299F0
0x929A20
0x929A50
0x929A80
0x929AB0
0x929AE0
0x929B10
0x929B40
0x929B70
0x929BA0
0x929BD0
0x929C00
0x929C30
0x929C60
0x929C90
0x929CC0
0x929CF3
0x929DB0
0x929DC0
0x92A000
0x92A230
0x92A570
0x92A8B0
0x92A8C0
0x92AB00
0x92AB10
0x92AD20
0x92AD30
0x92AF40
0x92AF50
0x92B160
0x92B170
0x92B380
0x92B390
0x92B5A0
0x92B5B0
0x92B7C0
0x92B7D0
0x92B9E0
0x92B9F0
0x92BC00
0x92BC10
0x92BE20
0x92C050
0x92C280
0x92C4B0
0x92C6E0
0x92C910
0x92CB40
0x92CD70
0x92CFA0
0x92CFB0
0x92D1C0
0x92D1D0
0x92D3E0
0x92D3F0
0x92D600
0x92D610
0x92D820
0x92DA50
0x92DA60
0x92DC70
0x92DC80
0x92DE90
0x92DFD0
0x92DFD7
0x92E580
0x92E582
0x92E583
0x92E631
0x92EB20
0x92EB30
0x92EBCC
0x92EDB0
0x92EDB7
0x92EFD0
0x92F320
0x92F32A
0x92F533
0x92F5F2
0x92FA9C
0x9306B4
0x9308A0
0x931456
0x9314D0
0x931553
0x931563
0x931584
0x931682
0x931B02
0x931B0E
0x931C7C
0x931E15
0x931F40
0x931F4B
0x932107
0x932273
0x9323E9
0x9324DC
0x9325B6
0x9325C4
0x932630
0x932657
0x932890
0x93292C
0x93318C
0x9331FC
0x933294
0x9332D6
0x933306
0x933988
0x933C70
0x933C80
0x933D70
0x933D80
0x933E70
0x934110
0x9346D2
0x934710
0x934739
0x934BD0
0x935110
0x935112
0x935346
0x935E60
0x935E70
0x93665B
0x9366C0
0x939120
0x9397EA
0x939FA4
0x939FC2
0x93AAE6
0x93B670
0x93B770
0x93B77B
0x93B77F
0x93B782
0x93B879
0x93BBAB
0x93BF90
0x93D110
0x93D11E
0x93D190
0x93D2EF
0x93D37A
0x93D54E
0x93D868
0x93D8CB
0x93D960
0x93DB00
0x93DC90
0x93DD48
0x93DDA8
0x93DE08
0x93DEA7
0x93DF99
0x93E1B0
0x93E4D0
0x93E4D5
0x93E529
0x93E58B
0x93E6D9
0x93E752
0x93E950
0x93E96F
0x93EA20
0x93EA26
0x93F040
0x93F338
0x93F363
0x93F411
0x93F6B0
0x93F970
0x940518
0x9405C3
0x9405E3
0x940750
0x94096D
0x940EAD
0x941253
0x9412E4
0x9412EF
0x941344
0x941417
0x94142A
0x941555
0x941600
0x941608
0x9416D0
0x9418B0
0x941C1F
0x941E41
0x941E52
0x941EF0
0x941EFA
0x941F48
0x942347
0x942479
0x942493
0x942517
0x942547
0x942577
0x9425A7
0x9425C0
0x9425CD
0x9425CF
0x942A50
0x942AD8
0x942F60
0x942FBD
0x94302F
0x94303B
0x9430F0
0x9430F8
0x9430FA
0x943240
0x94357D
0x943610
0x943720
0x9437F4
0x943890
0x943897
0x943C80
0x943C82
0x943D03
0x943DAA
0x943F00
0x943F02
0x943F08
0x943F11
0x94431F
0x9443AC
0x9444AA
0x944630
0x94464C
0x944A16
0x944C49
0x944D48
0x944DD0
0x944E30
0x945024
0x9452ED
0x945980
0x945C30
0x945CA0
0x945D7D
0x945E60
0x945F00
0x94609D
0x94610A
0x94612E
0x9461B8
0x9461C6
0x946280
0x9463F7
0x9464D0
0x9467B0
0x9467BA
0x946A90
0x946CBE
0x946D70
0x946DA2
0x946FE0
0x94738F
0x9474C0
0x9474E0
0x947800
0x94787A
0x947901
0x947ADC
0x947BF4
0x947CC6
0x947D00
0x947D02
0x947DC5
0x947E58
0x947E68
0x948014
0x948054
0x948166
0x9481F0
0x9481FB
0x9481FD
0x948358
0x94850E
0x948940
0x948949
0x948AA0
0x948B30
0x948B39
0x948C29
0x948D10
0x948D19
0x948D21
0x948EA8
0x948EB4
0x949520
0x949579
0x9495E0
0x949623
0x9496F7
0x949830
0x94993A
0x949A97
0x949A9C
0x949AA0
0x949BC1
0x949BD1
0x949C90
0x949C93
0x94A0FD
0x94A318
0x94A31A
0x94A31E
0x94AB7F
0x94AB83
0x94AF70
0x94B138
0x94B1F8
0x94B450
0x94B452
0x94B456
0x94B870
0x94B87B
0x94B940
0x94BA20
0x94BC44
0x94C005
0x94C048
0x94C080
0x94C090
0x94C150
0x94C175
0x94C210
0x94C2D0
0x94C4D0
0x94C74F
0x94C820
0x94CB50
0x94CB63
0x94D8EF
0x94E28D
0x94E28F
0x94E290
0x94E650
0x94E9A0
0x94E9A2
0x94EE3A
0x94EE80
0x94EF70
0x94F010
0x94F024
0x94F234
0x94F316
0x94F3C0
0x94F4F0
0x9500BD
0x9500BF
0x9500C0
0x950500
0x950640
0x950990
0x950C60
0x950E9B
0x950EE0
0x9512F0
0x9517A3
0x951C20
0x951C22
0x9525B6
0x952690
0x952698
0x952881
0x952910
0x952BA0
0x952BA7
0x952BAB
0x952F72
0x952F79
0x9530A0
0x9530AF
0x953415
0x9534E6
0x9537E0
0x9538B8
0x9538BA
0x953B76
0x953EC3
0x954006
0x954080
0x954620
0x954881
0x9548B0
0x9548B4
0x954A19
0x954AC7
0x954C60
0x954C76
0x956550
0x95658E
0x9568D0
0x956A40
0x956D20
0x956D98
0x956F70
0x956F86
0x957000
0x957016
0x957073
0x9571D0
0x9571D5
0x9572C0
0x957320
0x9573B0
0x9573B6
0x957CD0
0x957F90
0x957FA8
0x9580E0
0x9581C8
0x958230
0x958232
0x958236
0x95823D
0x9584E1
0x9585F0
0x9585F4
0x9587B2
0x958C90
0x959224
0x959980
0x95A037
0x95B7D0
0x95BFA7
0x95C79B
0x95E74D
0x95F670
0x95F672
0x95F673
0x95F679
0x95F683
0x95F6AF
0x9609FA
0x9610A4
0x9612FF
0x961730
0x961AF0
0x961C85
0x961F68
0x961FD0
0x962980
0x962A19
0x962A6A
0x963770
0x96439B
0x965000
0x9656D0
0x9656D2
0x9656D6
0x9657E7
0x965C47
0x965D0B
0x965E10
0x965E19
0x965E20
0x966460
0x966820
0x966822
0x96692D
0x966934
0x96693D
0x96697C
0x9669C0
0x9669C6
0x9669C9
0x966A53
0x9676E0
0x967AD2
0x967AD3
0x967BD0
0x967BD4
0x967BD7
0x967ED4
0x967F5C
0x968000
0x9684E0
0x9689E2
0x968C5B
0x968C90
0x968ED0
0x969230
0x9692AC
0x96941D
0x969510
0x969582
0x969616
0x969691
0x96972C
0x969930
0x969BA0
0x969BA4
0x96A940
0x96A950
0x96A95F
0x96A9B5
0x96AD00
0x96AE70
0x96B8B0
0x96B8BA
0x96B943
0x96B9A5
0x96BA6F
0x96BBE1
0x96BDB0
0x96BE04
0x96C0F8
0x96C4DD
0x96C568
0x96C630
0x96C680
0x96CA40
0x96CA70
0x96CF10
0x96CF8E
0x96D0A0
0x96DB90
0x96DBCB
0x96E706
0x96EC10
0x970234
0x970235
0x9706FB
0x9706FC
0x97074F
0x970750
0x9707A7
0x9707A8
0x971A7D
0x971DC9
0x971DD4
0x971DD6
0x971EA9
0x971EAB
0x971EAC
0x971FB9
0x971FC4
0x971FC6
0x9720D2
0x972220
0x972424
0x972498
0x9724A0
0x972560
0x972896
0x972BD0
0x972BD1
0x9730A0
0x973100
0x9731A0
0x9731CC
0x9731F3
0x973300
0x973308
0x973400
0x973509
0x973517
0x973657
0x9737B0
0x9737B1
0x973800
0x973908
0x9739D9
0x9739E1
0x973A7D
0x973A82
0x973C20
0x973C29
0x973C31
0x973CE2
0x974FC0
0x975020
0x9752D0
0x975310
0x9756A0
0x9757B4
0x9757D0
0x975DA2
0x975E66
0x9760C8
0x97612D
0x9761A8
0x976356
0x9764A8
0x9764AC
0x9765E7
0x9768B2
0x97695D
0x976C59
0x976E1E
0x977360
0x9774E2
0x9774E4
0x977686
0x977785
0x9777D0
0x9777E0
0x9777EB
0x977AE0
0x977AE2
0x977AE3
0x977B99
0x977DEE
0x979E80
0x979ED7
0x979EE0
0x97A0DF
0x97A160
0x97A1A0
0x97A356
0x97A4A4
0x97A509
0x97A50B
0x97A50C
0x97A5A9
0x97A5B3
0x97A680
0x97A682
0x97A683
0x97A763
0x97A93D
0x97A942
0x97A9C9
0x97A9CD
0x97AAD9
0x97AC90
0x97AE49
0x97AEE2
0x97AFE2
0x97AFE4
0x97AFE5
0x97B0D0
0x97B0DB
0x97B400
0x97B519
0x97B521
0x97B64A
0x97B680
0x97B7B5
0x97B84C
0x97B880
0x97B929
0x97B994
0x97BA14
0x97BA19
0x97BCC0
0x97BEAA
0x97C1B8
0x97C250
0x97C330
0x97C40C
0x97C60F
0x97C66C
0x97C777
0x97C7D7
0x97C880
0x97C8BF
0x97C8E2
0x97CB26
0x97CCB5
0x97CD28
0x97CF3B
0x97D0F0
0x97D0FF
0x97D390
0x97DC26
0x97DCD5
0x97DDAC
0x97DFC1
0x97E1D3
0x97E2A0
0x97E369
0x97E3E9
0x97E4E0
0x97E4E2
0x97E614
0x97E700
0x97E704
0x97E970
0x97E97B
0x97E97D
0x97EC60
0x97ED40
0x97EDD4
0x97EF04
0x97F020
0x97F038
0x97F1F0
0x97F978
0x980065
0x980078
0x98007C
0x9803F0
0x980465
0x980552
0x98055D
0x980720
0x980B80
0x980B84
0x980CB0
0x980CE0
0x980D22
0x980FE2
0x980FE6
0x981130
0x981139
0x98130F
0x981770
0x981B50
0x981BA0
0x981BB0
0x981BD0
0x981C91
0x981E50
0x981FB0
0x982110
0x982185
0x982290
0x9829E6
0x982ABA
0x982ACD
0x982AD1
0x982BD0
0x982CB8
0x982DA0
0x9833A0
0x9834B0
0x983618
0x983760
0x983768
0x983800
0x983808
0x98380A
0x983AE0
0x983C70
0x9841F8
0x98424A
0x98427E
0x984356
0x9843BA
0x984460
0x984630
0x984C60
0x984C6E
0x985962
0x985EC0
0x985EC2
0x9861BA
0x986205
0x986310
0x986ECC
0x987AC0
0x988570
0x988579
0x989030
0x9892B9
0x989A10
0x989C99
0x98A3F2
0x98A5EA
0x98A6EA
0x98A787
0x98A8B0
0x98AC10
0x98B6A7
0x98B921
0x98BB6D
0x98BB71
0x98BB7E
0x98C640
0x98C9E7
0x98DF80
0x98E363
0x98E54F
0x98E794
0x98E869
0x98EC29
0x98EE56
0x98F020
0x98F410
0x98F4D4
0x98F760
0x98F766
0x98F7B0
0x98F7B2
0x990232
0x990238
0x990448
0x990580
0x991610
0x991619
0x991930
0x991F40
0x991FE6
0x99200F
0x992055
0x9920D6
0x992280
0x992692
0x9927C0
0x992842
0x992980
0x99298F
0x992F30
0x992FB8
0x992FBC
0x992FC3
0x993100
0x99319A
0x9931A5
0x99320E
0x99321A
0x9932CA
0x993370
0x993372
0x993373
0x9934DF
0x9936A0
0x994460
0x995500
0x9956F6
0x995A70
0x995B20
0x995BC0
0x995BC2
0x995C97
0x995C9D
0x995C9E
0x996430
0x996A8D
0x996A91
0x996A97
0x996D0F
0x996E0D
0x996EAA
0x996EDA
0x997450
0x997760
0x997769
0x99781D
0x997821
0x997827
0x997B07
0x997D87
0x9980C5
0x998B6C
0x998B6D
0x998BE0
0x998C52
0x998CB0
0x998F86
0x999210
0x999216
0x9992AA
0x999421
0x999490
0x999556
0x999980
0x999D10
0x99A395
0x99A472
0x99A553
0x99A7B0
0x99AF7E
0x99B386
0x99B430
0x99B435
0x99B500
0x99B504
0x99B506
0x99B6D0
0x99B6D6
0x99B6DD
0x99BA50
0x99BA59
0x99BC71
0x99C210
0x99C225
0x99C244
0x99CA70
0x99CA90
0x99CA9A
0x99CD54
0x99D080
0x99D230
0x99D520
0x99D866
0x99D8F0
0x99DA10
0x99DD3E
0x99DD3F
0x99DDA5
0x99DE2D
0x99DEB0
0x99E0AE
0x99E0AF
0x99E1DC
0x99E670
0x99E7A0
0x99E7AC
0x99EB54
0x99EF30
0x99EF4C
0x99F590
0x99F592
0x99F593
0x99F989
0x99FF60
0x9A0768
0x9A0851
0x9A08A0
0x9A08B0
0x9A09B6
0x9A0FC0
0x9A0FCD
0x9A10D0
0x9A10E0
0x9A10F0
0x9A15A0
0x9A15A5
0x9A1670
0x9A16C9
0x9A1730
0x9A1780
0x9A2462
0x9A32E0
0x9A32E2
0x9A32E3
0x9A3489
0x9A34AE
0x9A34AF
0x9A34B1
0x9A34BC
0x9A35C8
0x9A36F1
0x9A37F4
0x9A37F6
0x9A3CB1
0x9A3CC1
0x9A3F52
0x9A4060
0x9A4110
0x9A4E41
0x9A4E49
0x9A524E
0x9A562C
0x9A569E
0x9A5B1C
0x9A5EA0
0x9A5EA2
0x9A60EC
0x9A6380
0x9A6382
0x9A65B2
0x9A6AAC
0x9A6C24
0x9A6DF8
0x9A6E40
0x9A6ED0
0x9A6ED2
0x9A7030
0x9A7050
0x9A7090
0x9A70A0
0x9A70D3
0x9A7115
0x9A722F
0x9A7380
0x9A80D0
0x9A80DB
0x9A8664
0x9A8724
0x9A8A90
0x9A8AA8
0x9A8BBC
0x9A8D06
0x9A8ED7
0x9A8FE8
0x9A8FF3
0x9A9100
0x9A9140
0x9A9143
0x9A91C3
0x9A9257
0x9A92D0
0x9A92D4
0x9A92F3
0x9A93E0
0x9A93E8
0x9A94B0
0x9A94B8
0x9A9590
0x9A9599
0x9A96C0
0x9A9D52
0x9A9D5A
0x9AA049
0x9AA05B
0x9AA0D1
0x9AAC66
0x9AAD4E
0x9AAE5E
0x9AAF72
0x9AB0F0
0x9AB0FD
0x9AB115
0x9AB7A0
0x9AB997
0x9ABB40
0x9AC170
0x9AC350
0x9AC3AA
0x9AC560
0x9AC562
0x9AC564
0x9AC56C
0x9AC640
0x9AC649
0x9AC990
0x9ACF48
0x9AD1C6
0x9AD3E0
0x9AD510
0x9AD720
0x9AD726
0x9AD730
0x9AD7E7
0x9AE160
0x9AE162
0x9AE166
0x9AE360
0x9AE5A0
0x9AE5A9
0x9AE5B9
0x9AE6B7
0x9AE6BA
0x9AE770
0x9AF839
0x9AF947
0x9AF9B4
0x9AFD26
0x9AFDAB
0x9B0239
0x9B027D
0x9B0A30
0x9B0ED0
0x9B1014
0x9B12CE
0x9B12D9
0x9B1546
0x9B1630
0x9B1D0D
0x9B21E3
0x9B25C6
0x9B26E2
0x9B27E3
0x9B2C59
0x9B2DB0
0x9B2DB7
0x9B2DBA
0x9B2EE0
0x9B2EE3
0x9B30B8
0x9B314A
0x9B3182
0x9B3194
0x9B3310
0x9B3314
0x9B3317
0x9B34A0
0x9B34A2
0x9B3695
0x9B3710
0x9B39F7
0x9B3C27
0x9B3C32
0x9B3F90
0x9B43B0
0x9B46B6
0x9B4BA0
0x9B4BA8
0x9B4BAA
0x9B4E92
0x9B4E9A
0x9B4EA2
0x9B51AA
0x9B51B5
0x9B5F80
0x9B5FA2
0x9B6115
0x9B6270
0x9B6272
0x9B6276
0x9B6C95
0x9B6CB5
0x9B6EA0
0x9B7100
0x9B7102
0x9B7103
0x9B7109
0x9B73FD
0x9B7990
0x9B8DA0
0x9B9D60
0x9B9D62
0x9B9D6C
0x9B9D72
0x9BA0B3
0x9BA110
0x9BA113
0x9BA1B7
0x9BA490
0x9BA5F0
0x9BAAA2
0x9BAAAC
0x9BAB20
0x9BAB24
0x9BB66D
0x9BC6F8
0x9BD756
0x9BE254
0x9BE630
0x9BE63A
0x9BE7A0
0x9BEF69
0x9BF210
0x9BF216
0x9BF219
0x9BF4F0
0x9BF4F3
0x9BF6E0
0x9BF6E4
0x9BF6EB
0x9BF6ED
0x9BFA83
0x9BFBE0
0x9BFC32
0x9BFC49
0x9BFE40
0x9C0020
0x9C0A21
0x9C0E77
0x9C0FA0
0x9C1044
0x9C1240
0x9C1244
0x9C1AA0
0x9C1F8A
0x9C1FC0
0x9C22AB
0x9C22BB
0x9C2610
0x9C2612
0x9C2616
0x9C2AC5
0x9C2C8D
0x9C2DD0
0x9C2F48
0x9C2F50
0x9C2F54
0x9C312C
0x9C3148
0x9C3151
0x9C31D0
0x9C3250
0x9C33D0
0x9C3412
0x9C3419
0x9C3690
0x9C3B56
0x9C3FAE
0x9C4490
0x9C4A00
0x9C4E92
0x9C4F20
0x9C5037
0x9C51B0
0x9C51B2
0x9C51BD
0x9C5490
0x9C554E
0x9C5555
0x9C588C
0x9C5898
0x9C5A00
0x9C5A0E
0x9C5B63
0x9C6640
0x9C6643
0x9C6758
0x9C6E02
0x9C6EE0
0x9C7290
0x9C7320
0x9C7730
0x9C7C80
0x9C8040
0x9C8049
0x9C831E
0x9C8355
0x9C8384
0x9C8860
0x9C8AD9
0x9C97B0
0x9C97B2
0x9C9836
0x9CA0B0
0x9CA0B2
0x9CA2F3
0x9CA4AC
0x9CA9A2
0x9CAB20
0x9CAB29
0x9CAC20
0x9CAC29
0x9CAD42
0x9CB1B0
0x9CB1B5
0x9CB1F0
0x9CB1FA
0x9CB3F5
0x9CB4E0
0x9CB630
0x9CB750
0x9CB752
0x9CB8B0
0x9CB8B2
0x9CB8BF
0x9CB9C0
0x9CBD4B
0x9CBDC0
0x9CBEA0
0x9CC050
0x9CC110
0x9CC340
0x9CC343
0x9CC34D
0x9CC355
0x9CC650
0x9CC670
0x9CC674
0x9CC730
0x9CC732
0x9CC73B
