0x402DA5
0x402DF4
0x402E5A
0x4030A1
0x4030B2
0x4030C2
0x4030D2
0x4030E1
0x4030EA
0x403170
0x403210
0x403282
0x403342
0x4035A1
0x4035B2
0x4035C2
0x4035D2
0x4035E1
0x4035EA
0x403670
0x403710
0x403782
0x403842
0x403A91
0x403AA2
0x403AB2
0x403AC2
0x403AD1
0x403ADA
0x403BD0
0x403BE0
0x403C00
0x403C72
0x403D32
0x403E81
0x403E83
0x4041C0
0x40426A
0x404311
0x4043E1
0x4044D1
0x4044F0
0x404600
0x404711
0x4049BA
0x4049BE
0x4049C2
0x4049F1
0x404A5F
0x405170
0x405221
0x405691
0x405871
0x405EF1
0x4062D1
0x40635A
0x406811
0x4068C7
0x406C4C
0x406DB0
0x4071E0
0x4071E2
0x4071E4
0x407240
0x407270
0x4072E1
0x407340
0x407501
0x407850
0x40786A
0x407A40
0x407D00
0x408103
0x40810C
0x408114
0x408202
0x408212
0x408222
0x408291
0x4082A1
0x4082AA
0x408340
0x408681
0x408692
0x4086A2
0x4086B2
0x4086C1
0x4086CA
0x408750
0x4087C0
0x4087D0
0x4087E0
0x408862
0x408922
0x408940
0x408A90
0x408B00
0x408B72
0x408FD3
0x408FDC
0x408FE4
0x4090D2
0x4090E2
0x4090F2
0x409161
0x409171
0x40917A
0x409210
0x409350
0x409354
0x4094CB
0x409611
0x4096F1
0x409B81
0x409B92
0x409BA2
0x409BB2
0x409BC1
0x409BCA
0x409C50
0x409CC0
0x409CD0
0x409CE0
0x409D62
0x409E22
0x409E4D
0x409ED4
0x409F41
0x409FC4
0x40A0E0
0x40A0FA
0x40A280
0x40A29D
0x40A338
0x40AA11
0x40AA22
0x40AA32
0x40AA42
0x40AA51
0x40AA5A
0x40AAE0
0x40AB50
0x40AB60
0x40ABF2
0x40ACB2
0x40ACD0
0x40AF21
0x40AF32
0x40AF42
0x40AF52
0x40AF61
0x40AF6A
0x40AFF0
0x40B080
0x40B090
0x40B102
0x40B1C2
0x40B1E1
0x40B9DC
0x40BCC1
0x40C1B7
0x40C43E
0x40CED6
0x40D366
0x40DA51
0x40DB51
0x40DEFC
0x40E191
0x40E1FF
0x40E209
0x40E591
0x40E767
0x40E7A0
0x40E9B1
0x40E9C2
0x40E9D2
0x40E9E2
0x40E9F1
0x40E9FA
0x40EAF0
0x40EB00
0x40EB10
0x40EB92
0x40EC52
0x40EE85
0x40EEF0
0x40F1EF
0x40F261
0x40F593
0x40F5C3
0x40F5F3
0x40F7A0
0x40FAF1
0x40FEAE
0x40FF25
0x40FFFC
0x4100B1
0x4107F0
0x4108AB
0x4109F9
0x410C48
0x410F6E
0x411041
0x4111F8
0x4112D1
0x411791
0x411941
0x411DD1
0x412061
0x4125B9
0x412681
0x412A20
0x412AE0
0x412B41
0x412D98
0x412EF0
0x412F39
0x412F91
0x41314A
0x413174
0x413230
0x413271
0x413301
0x413481
0x413831
0x413842
0x413852
0x413862
0x413871
0x41387A
0x413A12
0x413AD2
0x413B91
0x41401E
0x4146C2
0x414E21
0x4154E0
0x415663
0x41584D
0x415870
0x415B21
0x415CF4
0x415D50
0x415F41
0x416301
0x416761
0x416772
0x416782
0x416792
0x4167A1
0x4167AA
0x4168A0
0x4168B0
0x4168D0
0x416942
0x416A02
0x416C61
0x416C72
0x416C82
0x416C92
0x416CA1
0x416CAA
0x416DA0
0x416DB0
0x416DD0
0x416E42
0x416F02
0x416F21
0x417001
0x417311
0x417322
0x417332
0x417342
0x417351
0x41735A
0x4173E0
0x417450
0x417460
0x4174F2
0x4175B2
0x4175D0
0x417685
0x417881
0x417910
0x417A51
0x417A70
0x417BB1
0x4182A8
0x4182B6
0x4182D6
0x4182EE
0x4183D0
0x4183D4
0x418931
0x4189C6
0x418C55
0x418E63
0x418E67
0x418E6C
0x419121
0x419132
0x419142
0x419152
0x419161
0x41916A
0x4191F0
0x419280
0x419290
0x419302
0x4193C2
0x4193E0
0x419600
0x419604
0x419970
0x4199A6
0x419A31
0x419AE0
0x419B01
0x419D30
0x41A130
0x41A261
0x41A267
0x41A3B3
0x41A3D9
0x41A46F
0x41A4B1
0x41A5F0
0x41A7AB
0x41A806
0x41A973
0x41AB70
0x41AC30
0x41AC90
0x41ACD0
0x41AD40
0x41ADA0
0x41ADF0
0x41AF40
0x41B061
0x41B072
0x41B082
0x41B092
0x41B0A1
0x41B0AA
0x41B1A0
0x41B1B0
0x41B1D0
0x41B242
0x41B302
0x41B320
0x41B4F1
0x41B550
0x41B5C1
0x41B76E
0x41B7F1
0x41BCEE
0x41BDA1
0x41BFA1
0x41C151
0x41C490
0x41C5E1
0x41CEE1
0x41DD71
0x41E0A0
0x41E500
0x41E601
0x41E7B1
0x41ECF1
0x41ED1B
0x41EE70
0x41EE78
0x41F081
0x41F220
0x41F228
0x41F471
0x41F4F2
0x41F6E6
0x41FA40
0x41FA41
0x41FAA0
0x41FAD1
0x41FD71
0x41FF80
0x420120
0x4202D1
0x420438
0x420631
0x420830
0x420891
0x420AA0
0x420AB0
0x420B21
0x420BD2
0x421B20
0x422492
0x423231
0x423269
0x423442
0x4234BF
0x423681
0x4240B1
0x4242A1
0x424668
0x424711
0x424782
0x424980
0x4249B1
0x424BC1
0x424C43
0x424D21
0x4256C9
0x4256F0
0x425770
0x425791
0x425931
0x42593A
0x425CD5
0x425CF1
0x425D72
0x425EE1
0x425EE3
0x426211
0x4264D0
0x4264E1
0x426E3C
0x4272F1
0x4273BA
0x427520
0x4275C0
0x4276A0
0x427770
0x427921
0x427B40
0x427D61
0x42855A
0x428761
0x428910
0x428CC4
0x429051
0x4291B0
0x42955B
0x42A1A0
0x42A1A2
0x42A1A4
0x42A220
0x42A3B0
0x42A3B2
0x42A3B4
0x42A480
0x42A4E0
0x42A5D0
0x42A620
0x42B630
0x42B6B1
0x42B710
0x42B750
0x42B930
0x42B990
0x42B9F0
0x42B9F2
0x42B9F4
0x42BAD0
0x42BB30
0x42BB80
0x42BBC1
0x42C5F0
0x42C670
0x42C9A1
0x42C9B2
0x42C9C2
0x42C9D2
0x42C9E1
0x42C9EA
0x42CA70
0x42CB10
0x42CB82
0x42CC42
0x42CCA0
0x42CD70
0x42CDE0
0x42CDF1
0x42D1E4
0x42D531
0x42D5F1
0x42D7C1
0x42D8A1
0x42DA0D
0x42DA52
0x42DA87
0x42DAA6
0x42DB90
0x42DCB0
0x42DCD8
0x42DCF3
0x42DD17
0x42DDEE
0x42DE71
0x42EA91
0x42ECBE
0x42ECD1
0x42ED1D
0x42EE80
0x42EEEC
0x42EFC1
0x42F241
0x42F411
0x42F5F1
0x42F621
0x42F667
0x42FA51
0x42FA5A
0x42FBC5
0x42FC40
0x42FD24
0x430B79
0x4310E4
0x431FE1
0x432351
0x432611
0x4326A1
0x4326DC
0x43276C
0x43287F
0x4328FE
0x432B5C
0x432B76
0x432DFD
0x4334D1
0x433561
0x4342D1
0x434501
0x4346AC
0x434741
0x434C4F
0x435471
0x4355A1
0x435731
0x435921
0x435A1D
0x436201
0x43620A
0x4362E4
0x436C11
0x436D11
0x4370EE
0x4371F1
0x437390
0x43756D
0x43774E
0x4377EA
0x4379FD
0x437E0B
0x438551
0x438770
0x438774
0x43877A
0x4388B0
0x4388B4
0x438FB1
0x4398E1
0x439B24
0x439BC0
0x439FE2
0x43A0D9
0x43A521
0x43AA60
0x43AC32
0x43ACB0
0x43ACB4
0x43AE01
0x43B0C0
0x43B491
0x43B9BF
0x43BA5F
0x43BB40
0x43BB44
0x43BD16
0x43BE26
0x43BEA0
0x43BF41
0x43BFA4
0x43C2E1
0x43C421
0x43C423
0x43C550
0x43C5B1
0x43C6B1
0x43C6BA
0x43C8B1
0x43CAF0
0x43CB61
0x43CC27
0x43CC3B
0x43CD91
0x43CD93
0x43CEB0
0x43CED1
0x43CF20
0x43CF41
0x43CF91
0x43CFA1
0x43D421
0x43D471
0x43D861
0x43DA6A
0x43DA7E
0x43DAE5
0x43DAF8
0x43DCD0
0x43DDF1
0x43DE02
0x43DE12
0x43DE22
0x43DE31
0x43DE3A
0x43DF50
0x43DFD2
0x43E092
0x43E0B1
0x43E4C1
0x43E4D2
0x43E4E2
0x43E4F2
0x43E501
0x43E50A
0x43E620
0x43E630
0x43E6A2
0x43E762
0x43E781
0x43E7D8
0x43E8F1
0x43EA41
0x43EB91
0x43F160
0x43F164
0x43F481
0x43F492
0x43F4A2
0x43F4B2
0x43F4C1
0x43F4CA
0x43F550
0x43F5C0
0x43F5D0
0x43F5E0
0x43F662
0x43F722
0x43FA57
0x43FB27
0x43FC81
0x43FD71
0x43FE60
0x43FE64
0x440260
0x440371
0x4405C0
0x4406C1
0x440910
0x440951
0x440A50
0x440BD1
0x440C39
0x440D91
0x440E27
0x440EC7
0x440EF2
0x440F67
0x441017
0x44105D
0x441100
0x441350
0x441471
0x441500
0x441504
0x441620
0x441701
0x441811
0x441813
0x441921
0x4419F1
0x441A82
0x441AEC
0x44239C
0x442760
0x4428E1
0x442AA2
0x442EC1
0x443001
0x4431D1
0x4431D3
0x443C40
0x443C42
0x443D61
0x4442B0
0x4444F1
0x444719
0x444844
0x444948
0x444AC8
0x444B28
0x444C58
0x444E18
0x444F44
0x445228
0x445398
0x445499
0x445658
0x4457B8
0x4459D8
0x445BB5
0x445C59
0x445E04
0x445FB8
0x446158
0x446368
0x446761
0x446AA0
0x4471E0
0x447291
0x447AA1
0x447BF2
0x447CF1
0x447D5C
0x447E51
0x448544
0x448870
0x44902C
0x449119
0x449168
0x449710
0x449712
0x44ABCB
0x44B17F
0x44B55D
0x44B595
0x44B7EA
0x44BC52
0x44C1DA
0x44C243
0x44C567
0x44C5C8
0x44C629
0x44C897
0x44CA63
0x44CAC4
0x44CB25
0x44CB86
0x44CBC0
0x44CDF0
0x44CE4D
0x44CF9E
0x44D110
0x44D2DC
0x44D33D
0x44DBE7
0x44DC48
0x44DCA9
0x44E2A8
0x44EF98
0x44F1EB
0x44F249
0x44F2A7
0x44FB4B
0x44FBA9
0x44FC07
0x450E42
0x4511D4
0x4512A0
0x4512FD
0x45144E
0x451643
0x4516EB
0x45174C
0x4517AD
0x451BCE
0x451C29
0x451D99
0x451DFA
0x451E5B
0x451EBC
0x451F1D
0x451F7E
0x451FDF
0x452040
0x4520A1
0x452102
0x452163
0x4521C4
0x452225
0x452286
0x4522E7
0x452348
0x4523A9
0x45240A
0x45246B
0x4524CC
0x45252D
0x45258E
0x4525EF
0x452650
0x4526B1
0x452712
0x452773
0x4527D4
0x452835
0x452896
0x4528F7
0x452958
0x4529B9
0x452BF7
0x452C58
0x452CB9
0x452EDC
0x452F3D
0x452F9E
0x452FFF
0x453060
0x4530C1
0x45320F
0x453270
0x4532B8
0x4532D1
0x453332
0x453393
0x4533F4
0x453455
0x4534B6
0x453517
0x453578
0x4535D9
0x45363A
0x45369B
0x4536FC
0x45375D
0x453BAC
0x453D9B
0x453DD2
0x453E02
0x454655
0x454C5F
0x4559D3
0x4559FF
0x455B72
0x455C4E
0x456538
0x4567F8
0x456866
0x4569B0
0x456CB8
0x4572E8
0x457BEE
0x4594DC
0x4595C0
0x4595E0
0x4596A1
0x4596B4
0x459821
0x45989B
0x4599FA
0x459DDC
0x459EF1
0x45A0E7
0x45A190
0x45A5D0
0x45A5D4
0x45A6B4
0x45A8D8
0x45AA61
0x45AA6A
0x45AC71
0x45ADF0
0x45AF70
0x45B000
0x45B012
0x45B091
0x45B4D1
0x45B52F
0x45B5E5
0x45B641
0x45B753
0x45B950
0x45B9B1
0x45BD01
0x45C010
0x45C451
0x45C7B0
0x45C900
0x45C93F
0x45C950
0x45C985
0x45C990
0x45CB61
0x45CC11
0x45CCC1
0x45CDE1
0x45CEB7
0x45CFF1
0x45D141
0x45D260
0x45D276
0x45D2AB
0x45D330
0x45D370
0x45D388
0x45D641
0x45D652
0x45D662
0x45D672
0x45D681
0x45D68A
0x45D780
0x45D790
0x45D822
0x45D8E2
0x45D904
0x45D991
0x45DAB1
0x45DEC8
0x45E22C
0x45E360
0x45E7C4
0x45EA20
0x45EB98
0x45F2D0
0x45F529
0x45FB41
0x45FB52
0x45FB62
0x45FB72
0x45FB81
0x45FB8A
0x45FC80
0x45FC90
0x45FD22
0x45FDE2
0x45FE18
0x45FE6A
0x45FF11
0x4602A1
0x460401
0x460501
0x460FC0
0x4610A0
0x461151
0x4611EE
0x461234
0x4615AD
0x4615D0
0x461633
0x462A4C
0x462ABF
0x462AFA
0x462C24
0x462C90
0x462D08
0x462FDD
0x4631C1
0x463450
0x463454
0x463482
0x463558
0x4637E1
0x4637F2
0x463802
0x463812
0x463821
0x46382A
0x4639C2
0x463A82
0x463AA0
0x463C69
0x463CC0
0x463F11
0x463F22
0x463F32
0x463F42
0x463F51
0x463F5A
0x463FE0
0x464050
0x464060
0x4640F2
0x4641B2
0x4641D1
0x4647F0
0x464831
0x4648E0
0x464911
0x464AE0
0x464AE2
0x464B70
0x464BD0
0x464C14
0x464C80
0x464C84
0x464E51
0x465161
0x465172
0x465182
0x465192
0x4651A1
0x4651AA
0x4652A0
0x4652B0
0x4652D0
0x465342
0x465402
0x46543E
0x465461
0x465490
0x465660
0x465911
0x465922
0x465932
0x465942
0x465951
0x46595A
0x4659E0
0x465A50
0x465A60
0x465AF2
0x465BB2
0x465E71
0x465E82
0x465E92
0x465EA2
0x465EB1
0x465EBA
0x465FE0
0x466052
0x466112
0x466131
0x466290
0x4662C0
0x466370
0x4666B0
0x4666F0
0x466730
0x466771
0x466B01
0x467A31
0x467AE5
0x467C42
0x467CA8
0x467D07
0x467DC1
0x467EC8
0x46802F
0x4683EB
0x468429
0x468661
0x468F31
0x469280
0x4693E1
0x469821
0x469827
0x469A30
0x469A34
0x469C61
0x469F62
0x469FE9
0x46A71C
0x46AA01
0x46AA73
0x46ACA1
0x46AF61
0x46B401
0x46B40A
0x46B5A1
0x46B9E1
0x46BFF1
0x46C02C
0x46C251
0x46C691
0x46C8C1
0x46D681
0x46D7D1
0x46D9A6
0x46DA51
0x46E270
0x46E411
0x46E541
0x46F331
0x46FBC1
0x46FBC7
0x470031
0x4718B8
0x471A9E
0x471AD1
0x471AD3
0x471B91
0x471D81
0x472071
0x4721B1
0x4724A1
0x472677
0x472740
0x472935
0x47294B
0x472998
0x472A39
0x472A71
0x472D61
0x472E81
0x472FC1
0x473011
0x473066
0x473121
0x473292
0x473481
0x473601
0x4737C1
0x473971
0x473977
0x473AD1
0x474E6B
0x475021
0x475C01
0x476121
0x476132
0x476142
0x476152
0x476161
0x47616A
0x4761F0
0x476280
0x476290
0x476302
0x4763C2
0x476511
0x4768A1
0x4768B2
0x4768C2
0x4768D2
0x4768E1
0x4768EA
0x476970
0x476A10
0x476A82
0x476B42
0x476B60
0x476B80
0x476BA0
0x476BC0
0x476BE0
0x476C00
0x476C20
0x476C40
0x476C60
0x476C80
0x476CA0
0x476CC0
0x476CE0
0x476D00
0x476D71
0x476FB1
0x477470
0x477472
0x477520
0x4777F0
0x477970
0x477C50
0x477C52
0x477D10
0x477F50
0x477F52
0x478030
0x4783F0
0x4784F0
0x478780
0x478BC1
0x479219
0x479330
0x4793B0
0x4795A0
0x479780
0x479800
0x479920
0x4799C0
0x479A40
0x479DE0
0x47A2E0
0x47A531
0x47A801
0x47A812
0x47A822
0x47A832
0x47A841
0x47A84A
0x47A8D0
0x47A960
0x47A9E2
0x47A9F2
0x47AAA2
0x47AAC0
0x47AB30
0x47ABA1
0x47ABA7
0x47AD31
0x47ADED
0x47AE47
0x47AE7F
0x47AEDA
0x47B17F
0x47B311
0x47B441
0x47B731
0x47B742
0x47B752
0x47B762
0x47B771
0x47B77A
0x47B912
0x47B9D2
0x47B9F1
0x47BD11
0x47BEF1
0x47C5D4
0x47CF70
0x47D230
0x47D3A0
0x47D3D1
0x47D3DA
0x47DDE1
0x47E081
0x47E2E1
0x47E4F1
0x47E6B1
0x47E760
0x47EA01
0x47EA12
0x47EA22
0x47EA32
0x47EA41
0x47EA4A
0x47EAD0
0x47EB60
0x47EBE2
0x47ECA2
0x47ECC0
0x47ED81
0x47F07F
0x47F0F0
0x47F148
0x47F1FC
0x47F281
0x47F350
0x47F354
0x47F35D
0x47F37E
0x47F498
0x480076
0x4810C8
0x4819E7
0x481E75
0x4828D1
0x482A41
0x483051
0x483052
0x483055
0x48319C
0x483283
0x483290
0x483381
0x483461
0x48346A
0x4837B1
0x483850
0x483980
0x483984
0x483BD7
0x483E4E
0x483E62
0x4844B4
0x484697
0x484AB1
0x484E51
0x484E62
0x484E72
0x484E82
0x484E91
0x484E9A
0x484F90
0x484FA0
0x484FC0
0x485032
0x4850F2
0x485110
0x485171
0x485331
0x485340
0x485344
0x485460
0x485464
0x4854B1
0x485511
0x485549
0x485600
0x485821
0x485860
0x4858E1
0x4859F1
0x485CE1
0x485E41
0x4860E1
0x486261
0x48674F
0x486E11
0x487001
0x487291
0x487401
0x487860
0x487930
0x487A50
0x487CF1
0x487D02
0x487D12
0x487D22
0x487D31
0x487D3A
0x487E50
0x487ED2
0x487F92
0x487FB1
0x4880B1
0x4881A1
0x4881A3
0x4881A8
0x488221
0x48822A
0x4882A8
0x4886D1
0x488851
0x488858
0x488990
0x4889B0
0x488AA1
0x488E91
0x488F51
0x489261
0x489491
0x4895D0
0x4897C1
0x489CF0
0x489CF2
0x489CF4
0x489DC1
0x489E35
0x489E42
0x489F50
0x48A171
0x48A561
0x48A611
0x48A7B1
0x48A7BA
0x48AD51
0x48AD62
0x48AD72
0x48AD82
0x48AD91
0x48AD9A
0x48AE90
0x48AEA0
0x48AEC0
0x48AF32
0x48AFF2
0x48B080
0x48B141
0x48B211
0x48B5BB
0x48BD44
0x48C181
0x48C192
0x48C1A2
0x48C1B2
0x48C1C1
0x48C1CA
0x48C250
0x48C2C0
0x48C2D0
0x48C2E0
0x48C362
0x48C422
0x48C441
0x48C5B1
0x48C6B1
0x48D145
0x48D5DF
0x48DFBD
0x48E050
0x48E0B1
0x48E330
0x48E431
0x48E4C1
0x48EA63
0x48F801
0x48F8DE
0x48F971
0x48FF11
0x48FF22
0x48FF32
0x48FF42
0x48FF51
0x48FF5A
0x48FFE0
0x490050
0x490060
0x4900F2
0x4901B2
0x4901D1
0x4905D0
0x490971
0x490E01
0x490E81
0x491A97
0x491EE0
0x492369
0x492389
0x4923A3
0x4924F9
0x492512
0x492A0A
0x492F48
0x493F1B
0x4942FD
0x494330
0x494500
0x494741
0x494751
0x4948E1
0x494C78
0x494C8C
0x494D51
0x494ED1
0x495990
0x495992
0x495994
0x495A51
0x495C1D
0x495D60
0x495DF1
0x496F34
0x49737D
0x4975E0
0x4978F1
0x497902
0x497912
0x497922
0x497931
0x49793A
0x497A50
0x497AD2
0x497B92
0x497D31
0x498450
0x498454
0x4986A0
0x498710
0x498830
0x498860
0x498C21
0x499020
0x4990B0
0x499210
0x4993A1
0x4995BC
0x499800
0x499851
0x499AE0
0x499B20
0x499B60
0x499C01
0x499C80
0x499D00
0x499FA1
0x499FB2
0x499FC2
0x499FD2
0x499FE1
0x499FEA
0x49A070
0x49A110
0x49A182
0x49A242
0x49A260
0x49A467
0x49A750
0x49AA61
0x49AD40
0x49AE31
0x49AFF3
0x49B0D0
0x49B141
0x49B240
0x49B3E1
0x49B5DA
0x49B8C1
0x49BB90
0x49C241
0x49C441
0x49C44A
0x49C981
0x49C992
0x49C9A2
0x49C9B2
0x49C9C1
0x49C9CA
0x49CA50
0x49CAC0
0x49CAD0
0x49CAE0
0x49CB62
0x49CC22
0x49CCC1
0x49CE70
0x49D031
0x49D2C0
0x49D3D1
0x49D6B1
0x49D760
0x49D866
0x49D880
0x49D8C1
0x49D97F
0x49DBF7
0x49DC50
0x49DD0A
0x49DF41
0x49DF4A
0x49E05B
0x49E508
0x49E751
0x49E860
0x49E891
0x49EAB1
0x49ED90
0x49EDA3
0x49EE51
0x49EFE3
0x49F0A1
0x49F300
0x49F3C1
0x49F6F0
0x49F8CE
0x49F955
0x49FBE7
0x4A0496
0x4A04A5
0x4A07E4
0x4A093E
0x4A0981
0x4A0A5D
0x4A0D01
0x4A0D12
0x4A0D22
0x4A0D32
0x4A0D41
0x4A0D4A
0x4A0DD0
0x4A0E60
0x4A0EE2
0x4A0FA2
0x4A1001
0x4A1350
0x4A137B
0x4A1380
0x4A13E1
0x4A13E3
0x4A14C1
0x4A16E1
0x4A1981
0x4A1CC1
0x4A1CD2
0x4A1CE2
0x4A1CF2
0x4A1D01
0x4A1D0A
0x4A1E20
0x4A1E30
0x4A1EA2
0x4A1F62
0x4A1F81
0x4A2584
0x4A2671
0x4A2B51
0x4A2D61
0x4A2DA1
0x4A2E44
0x4A2FA1
0x4A2FF4
0x4A3391
0x4A3561
0x4A37D0
0x4A3901
0x4A390A
0x4A3A34
0x4A3B01
0x4A3F16
0x4A3F38
0x4A40D3
0x4A41F6
0x4A4596
0x4A4A01
0x4A4B31
0x4A4B41
0x4A4B4A
0x4A4E58
0x4A5088
0x4A5101
0x4A510A
0x4A5140
0x4A5157
0x4A5451
0x4A5583
0x4A59A8
0x4A5A5C
0x4A5AB1
0x4A5E21
0x4A5E32
0x4A5E42
0x4A5E52
0x4A5E61
0x4A5E6A
0x4A5EF0
0x4A5F80
0x4A5F90
0x4A6002
0x4A60C2
0x4A6280
0x4A6282
0x4A62E1
0x4A68F1
0x4A6961
0x4A6B60
0x4A6BB0
0x4A6D81
0x4A6F70
0x4A6FC1
0x4A7054
0x4A74F1
0x4A7A10
0x4A7A18
0x4A7CD1
0x4A8274
0x4A8411
0x4A8900
0x4A89A1
0x4A8A80
0x4A8B30
0x4A8BF1
0x4A8CF1
0x4A8E80
0x4A8EC8
0x4A8EFA
0x4A8F41
0x4A9321
0x4A9471
0x4A9481
0x4A97A1
0x4A9EE0
0x4AA140
0x4AA300
0x4AA368
0x4AA391
0x4AA3E1
0x4AA811
0x4AA89E
0x4AA8BB
0x4AA910
0x4AA92C
0x4AA940
0x4AAA31
0x4AB041
0x4AB052
0x4AB062
0x4AB072
0x4AB081
0x4AB08A
0x4AB180
0x4AB190
0x4AB222
0x4AB2E2
0x4AB5C0
0x4AB5C2
0x4AB7B0
0x4AB8B1
0x4ABA23
0x4ABA61
0x4ABCA0
0x4ABE96
0x4ABEC0
0x4AC120
0x4AC2B0
0x4AC3D0
0x4AC4A0
0x4AC561
0x4AC691
0x4AC8B0
0x4ACA0C
0x4ACA20
0x4ACAE1
0x4ACC30
0x4ACE91
0x4AD020
0x4AD260
0x4AD2B0
0x4AD990
0x4ADB60
0x4ADBD1
0x4ADCE1
0x4ADF11
0x4ADF30
0x4AE0B1
0x4AE310
0x4AE316
0x4AE620
0x4AE84C
0x4AE89C
0x4AEB81
0x4AEB92
0x4AEBA2
0x4AEBB2
0x4AEBC1
0x4AEBCA
0x4AEC50
0x4AECC0
0x4AECD0
0x4AECE0
0x4AED62
0x4AEE22
0x4AEF30
0x4AEF34
0x4AF056
0x4AF0D2
0x4AF461
0x4AF861
0x4AF872
0x4AF882
0x4AF892
0x4AF8A1
0x4AF8AA
0x4AF9A0
0x4AF9B0
0x4AF9D0
0x4AFA42
0x4AFB02
0x4AFC01
0x4AFD81
0x4AFFE0
0x4B00A1
0x4B014A
0x4B040F
0x4B0443
0x4B06D7
0x4B07A2
0x4B0A51
0x4B0AA8
0x4B1320
0x4B1850
0x4B2000
0x4B2041
0x4B24A1
0x4B2681
0x4B2930
0x4B2B41
0x4B2D81
0x4B2DD1
0x4B2ED1
0x4B2F20
0x4B3071
0x4B30E4
0x4B3128
0x4B35F1
0x4B3602
0x4B3612
0x4B3622
0x4B3631
0x4B363A
0x4B3750
0x4B37D2
0x4B3892
0x4B39B1
0x4B39BA
0x4B4090
0x4B43F4
0x4B4631
0x4B47B0
0x4B4B51
0x4B4D51
0x4B537B
0x4B59C0
0x4B60FB
0x4B6BD8
0x4B70FD
0x4B7126
0x4B7152
0x4B7B93
0x4B8A79
0x4B8E41
0x4B8E47
0x4B8FE1
0x4B9131
0x4B9280
0x4B9391
0x4B9411
0x4B9721
0x4B9A11
0x4B9BD0
0x4B9DD1
0x4B9F80
0x4BA070
0x4BA1F0
0x4BA2B0
0x4BA3B1
0x4BA446
0x4BA7AE
0x4BA961
0x4BA96A
0x4BAB81
0x4BAC2D
0x4BB340
0x4BB4C1
0x4BBA11
0x4BBA8F
0x4BBBC1
0x4BC5F1
0x4BC5FA
0x4BC691
0x4BCE21
0x4BD111
0x4BD570
0x4BD6C0
0x4BD7B1
0x4BD89E
0x4BD9D1
0x4BDBCA
0x4BDC9B
0x4BE7DB
0x4BE836
0x4BF666
0x4BFBBE
0x4BFC69
0x4BFDC1
0x4C0438
0x4C0A01
0x4C0D3C
0x4C0FF4
0x4C1111
0x4C11BF
0x4C1501
0x4C2070
0x4C2E31
0x4C3121
0x4C3127
0x4C3B51
0x4C4071
0x4C4DB7
0x4C4FA1
0x4C5111
0x4C5B01
0x4C5C61
0x4C5DC6
0x4C6C73
0x4C6DCB
0x4C7301
0x4C73C9
0x4C75E1
0x4C79D1
0x4C7C8D
0x4C7E31
0x4C7F21
0x4C8112
0x4C82D1
0x4C8641
0x4C8652
0x4C8662
0x4C8672
0x4C8681
0x4C868A
0x4C8780
0x4C8790
0x4C8822
0x4C88E2
0x4C8911
0x4C891A
0x4C8974
0x4C90B1
0x4C91E1
0x4C9521
0x4C9723
0x4C972C
0x4C9734
0x4C9822
0x4C9832
0x4C9842
0x4C9851
0x4C985A
0x4C98E0
0x4C98F0
0x4C98F2
0x4C99E0
0x4C9AF0
0x4C9AF2
0x4C9AF4
0x4C9C01
0x4C9DA1
0x4CA171
0x4CA182
0x4CA192
0x4CA1A2
0x4CA1B1
0x4CA1BA
0x4CA2E0
0x4CA352
0x4CA412
0x4CA431
0x4CA533
0x4CA741
0x4CABA5
0x4CAF54
0x4CB061
0x4CB360
0x4CB4ED
0x4CB8C0
0x4CBA31
0x4CBF81
0x4CBF92
0x4CBFA2
0x4CBFB2
0x4CBFC1
0x4CBFCA
0x4CC050
0x4CC0C0
0x4CC0D0
0x4CC0E0
0x4CC162
0x4CC222
0x4CC3F0
0x4CC480
0x4CC610
0x4CCA91
0x4CCCD1
0x4CCF5C
0x4CD038
0x4CD472
0x4CD5B1
0x4CD7B3
0x4CDD01
0x4CE038
0x4CE28B
0x4CE6E1
0x4CEA00
0x4CEB92
0x4CEBA2
0x4CEBB2
0x4CEC21
0x4CEC31
0x4CEC3A
0x4CEEC3
0x4CEECC
0x4CEED4
0x4CEFC0
0x4CEFD6
0x4CEFF0
0x4CF0C1
0x4CFB52
0x4CFD71
0x4CFE05
0x4D07D6
0x4D0D00
0x4D0E90
0x4D120F
0x4D1221
0x4D1C91
0x4D3037
0x4D6491
0x4D6493
0x4D64DF
0x4D65D0
0x4D66A0
0x4D66A3
0x4D6730
0x4D6734
0x4D6A93
0x4D6AD0
0x4D6AD4
0x4D6C30
0x4D6D45
0x4D6F05
0x4D73F1
0x4D74DB
0x4D76C0
0x4D78B1
0x4D7AB0
0x4D7AB4
0x4D7B80
0x4D7C38
0x4D7CC1
0x4D8621
0x4D8901
0x4D8BD0
0x4D8E00
0x4D8E02
0x4D8EB1
0x4D93A2
0x4D93B2
0x4D93C2
0x4D9431
0x4D9441
0x4D944A
0x4D94D0
0x4D96D3
0x4D96DC
0x4D96E4
0x4D9940
0x4D9990
0x4D9A11
0x4D9AE1
0x4D9B3A
0x4D9CA1
0x4D9EA3
0x4D9EAC
0x4D9EB4
0x4DA0B0
0x4DA112
0x4DA122
0x4DA132
0x4DA141
0x4DA14A
0x4DA1D0
0x4DA1E0
0x4DA1F0
0x4DA1F4
0x4DA312
0x4DA621
0x4DA6A1
0x4DA70B
0x4DA748
0x4DA7FD
0x4DAA04
0x4DAA41
0x4DAAE4
0x4DAB21
0x4DAB9D
0x4DAE6A
0x4DAED7
0x4DAFDB
0x4DAFF6
0x4DB028
0x4DB2FB
0x4DB466
0x4DB500
0x4DBBC8
0x4DC097
0x4DC0E9
0x4DD4B6
0x4DD6B1
0x4DD7C0
0x4DD869
0x4DD8D0
0x4DD8D4
0x4DD9B1
0x4DDD51
0x4DE226
0x4DE6B4
0x4DE824
0x4DE876
0x4DEAE1
0x4DF764
0x4DF891
0x4DF988
0x4DF9E7
0x4E00FC
0x4E0867
0x4E08F1
0x4E1001
0x4E13A5
0x4E14A6
0x4E14ED
0x4E1645
0x4E16B6
0x4E16FE
0x4E1A48
0x4E1BE9
0x4E1C04
0x4E1C72
0x4E1C9F
0x4E1FF1
0x4E2954
0x4E29AA
0x4E2AC0
0x4E2BF0
0x4E3351
0x4E3463
0x4E36E9
0x4E37D1
0x4E3877
0x4E38C4
0x4E3977
0x4E3C57
0x4E4319
0x4E446B
0x4E44C8
0x4E49AD
0x4E4A3E
0x4E4B71
0x4E4C5C
0x4E4CD9
0x4E4F71
0x4E5238
0x4E5767
0x4E57EE
0x4E59D7
0x4E5AA6
0x4E5F01
0x4E5F63
0x4E602F
0x4E60B8
0x4E6177
0x4E625A
0x4E6275
0x4E6415
0x4E6432
0x4E66B0
0x4E66B4
0x4E6754
0x4E6961
0x4E6988
0x4E699B
0x4E6B81
0x4E6F02
0x4E7491
0x4E77D0
0x4E78D1
0x4E7C0A
0x4E80E1
0x4E84B1
0x4E89E1
0x4E8C80
0x4E8CF0
0x4E8CF4
0x4E8F30
0x4E8F34
0x4E9210
0x4E92C1
0x4E9490
0x4E94B0
0x4E9580
0x4E9630
0x4E9634
0x4E9A61
0x4E9ABD
0x4E9BA0
0x4E9BA4
0x4E9DC0
0x4E9DC4
0x4E9E51
0x4EA160
0x4EA164
0x4EA1C0
0x4EA1C4
0x4EA261
0x4EA360
0x4EA364
0x4EA470
0x4EA491
0x4EA5C0
0x4EA7C0
0x4EA8D1
0x4EA8E5
0x4EA9F0
0x4EAB01
0x4EACF1
0x4EAFF1
0x4EAFF3
0x4EB051
0x4EB261
0x4EB263
0x4EB300
0x4EB3A1
0x4EB4CC
0x4EB571
0x4EB5C6
0x4EB793
0x4EB8D1
0x4EBB71
0x4EBCA1
0x4EC101
0x4EC531
0x4EC730
0x4EC961
0x4ECA40
0x4ECBD1
0x4ECBF1
0x4ECDA1
0x4ED78F
0x4ED867
0x4EDC58
0x4EDCE1
0x4EDEAA
0x4EDEBB
0x4EDF30
0x4EDFF1
0x4EE69D
0x4EEDEA
0x4EEE73
0x4EF07E
0x4EF2A6
0x4EF333
0x4EFA47
0x4EFA4C
0x4EFCF1
0x4EFF90
0x4F01F0
0x4F0330
0x4F0441
0x4F06B6
0x4F0920
0x4F0990
0x4F0ADB
0x4F0AF0
0x4F0B90
0x4F0C50
0x4F0D60
0x4F0F85
0x4F0FE0
0x4F1054
0x4F1081
0x4F1131
0x4F19F1
0x4F1A97
0x4F1B0F
0x4F1B22
0x4F1D31
0x4F1D3A
0x4F1D48
0x4F20A0
0x4F2753
0x4F2C51
0x4F34BE
0x4F351D
0x4F3591
0x4F3682
0x4F36D0
0x4F3DE1
0x4F3EB9
0x4F3F1C
0x4F4012
0x4F41F0
0x4F424B
0x4F4398
0x4F4408
0x4F44B1
0x4F4670
0x4F4674
0x4F48F1
0x4F48FA
0x4F4BEC
0x4F4D41
0x4F4D4A
0x4F5850
0x4F58C0
0x4F58C2
0x4F5911
0x4F5D20
0x4F5D24
0x4F5F31
0x4F5FF5
0x4F60A1
0x4F6461
0x4F6881
0x4F6A81
0x4F6ADC
0x4F6D50
0x4F6D52
0x4F6DB0
0x4F6DB8
0x4F70C2
0x4F7431
0x4F74B0
0x4F7571
0x4F7911
0x4F7BEC
0x4F8670
0x4F86CE
0x4F87D5
0x4F88D0
0x4F89D1
0x4F8B5B
0x4F8C90
0x4F8DA5
0x4F8F47
0x4F8FA2
0x4F92F1
0x4F9710
0x4F9714
0x4F98F0
0x4F98F4
0x4F9A41
0x4F9F61
0x4FA081
0x4FA310
0x4FA390
0x4FA3E1
0x4FB151
0x4FB2A1
0x4FB3B6
0x4FB421
0x4FB511
0x4FB780
0x4FB7E8
0x4FB891
0x4FBAD7
0x4FBDDA
0x4FBE51
0x4FC0F1
0x4FC410
0x4FC521
0x4FC744
0x4FC870
0x4FC8C0
0x4FC921
0x4FC971
0x4FCEE0
0x4FD070
0x4FD1F1
0x4FD23E
0x4FD440
0x4FD444
0x4FD4F1
0x4FD601
0x4FD6F1
0x4FD840
0x4FD8B1
0x4FD971
0x4FDBF9
0x4FDC20
0x4FDC24
0x4FDCA0
0x4FDDA1
0x4FDDAA
0x4FE020
0x4FE0E0
0x4FE0E4
0x4FE2D1
0x4FE53B
0x4FE5D5
0x4FE5FA
0x4FE790
0x4FE7F0
0x4FE7F2
0x4FE8A1
0x4FED21
0x4FED36
0x4FF348
0x4FF5B1
0x4FF5C2
0x4FF5D2
0x4FF5E2
0x4FF5F1
0x4FF5FA
0x4FF6F0
0x4FF700
0x4FF710
0x4FF792
0x4FF852
0x4FF870
0x4FF8F1
0x4FFC45
0x4FFF61
0x500401
0x500620
0x5008AC
0x5008B1
0x500F81
0x5013A1
0x501661
0x5019D1
0x501BE8
0x501C7D
0x501E61
0x502795
0x502796
0x502810
0x502814
0x502D91
0x503D50
0x503E1D
0x5062A0
0x5062E5
0x506DBF
0x50754E
0x507F00
0x5081C0
0x5082B7
0x5083B4
0x508551
0x5087E1
0x508A81
0x508C37
0x508D52
0x509060
0x509628
0x509AE7
0x509FB1
0x509FBA
0x50A54A
0x50A5C1
0x50ABE1
0x50AE31
0x50B0FA
0x50BA01
0x50BD71
0x50BDB6
0x50C061
0x50C1B1
0x50C251
0x50C361
0x50C468
0x50C846
0x50CA68
0x50CDB1
0x50CF01
0x50D0C1
0x50DD20
0x50DD41
0x50DDF7
0x50E0D8
0x50E175
0x50E491
0x50E4A2
0x50E4B2
0x50E4C2
0x50E4D1
0x50E4DA
0x50E5D0
0x50E5E0
0x50E600
0x50E672
0x50E732
0x50E761
0x50E793
0x50E9B0
0x50EA61
0x50EC11
0x50EE11
0x50F090
0x50F1A1
0x50F55A
0x50F5C0
0x50F5F1
0x50F856
0x50F961
0x50FB30
0x50FB60
0x50FB91
0x50FD81
0x50FFC1
0x510101
0x5101C1
0x510540
0x5105D1
0x510851
0x510F01
0x511140
0x511301
0x511451
0x511630
0x511791
0x511AC0
0x511AD0
0x511D91
0x511DA2
0x511DB2
0x511DC2
0x511DD1
0x511DDA
0x511ED0
0x511EE0
0x511F00
0x511F72
0x512032
0x512050
0x5121D8
0x51226E
0x5125B1
0x5125B3
0x512870
0x512872
0x512874
0x512920
0x512D90
0x512DE0
0x512E50
0x5134F1
0x5136D1
0x5137C7
0x51396C
0x5139A8
0x513C6E
0x513CCC
0x513D0E
0x513DBD
0x51402D
0x5141DA
0x514377
0x5144B1
0x514C08
0x515050
0x5152FC
0x5156CF
0x515896
0x515BA5
0x515DDC
0x515E79
0x515EFC
0x51612E
0x516208
0x5162F0
0x516515
0x5168E3
0x516981
0x516D40
0x516D9F
0x516E8F
0x51709C
0x517126
0x517281
0x5176F1
0x517781
0x517970
0x517AC1
0x517E1D
0x5186C4
0x518700
0x518820
0x518B30
0x518B32
0x518DC8
0x518E21
0x519321
0x519332
0x519342
0x519352
0x519361
0x51936A
0x5193F0
0x519480
0x519490
0x519502
0x5195C2
0x519600
0x519660
0x519664
0x5197F0
0x519A91
0x519AA2
0x519AB2
0x519AC2
0x519AD1
0x519ADA
0x519BD0
0x519BE0
0x519C00
0x519C72
0x519D32
0x519D80
0x519FB9
0x51A1B1
0x51A351
0x51A551
0x51A6FE
0x51A7C1
0x51A7CA
0x51AB10
0x51ACD3
0x51AFA1
0x51B0B0
0x51BB31
0x51BB42
0x51BB52
0x51BB62
0x51BB71
0x51BB7A
0x51BD12
0x51BD22
0x51BDD2
0x51BDF1
0x51C019
0x51C688
0x51C6C2
0x51C7AB
0x51C834
0x51C88B
0x51C8C8
0x51C9C6
0x51CAA0
0x51CBE1
0x51CD81
0x51CF01
0x51CF45
0x51D0A1
0x51D181
0x51D261
0x51D611
0x51D990
0x51DA11
0x51DAE4
0x51DD41
0x51DDF1
0x51DDFA
0x51E000
0x51E004
0x51E251
0x51E262
0x51E272
0x51E282
0x51E291
0x51E29A
0x51E390
0x51E3A0
0x51E3C0
0x51E432
0x51E4F2
0x51E651
0x51E822
0x51E832
0x51E842
0x51E851
0x51E85A
0x51E8E0
0x51E900
0x51E970
0x51EB9D
0x51EE60
0x51EF01
0x51EF72
0x51EF82
0x51EF92
0x51EFA1
0x51EFAA
0x51F041
0x51F04A
0x51F3B0
0x51F970
0x51F9F0
0x51FA60
0x51FB1A
0x51FB70
0x51FB7C
0x51FBE0
0x51FBEC
0x51FC50
0x51FD61
0x51FDD2
0x51FDE2
0x51FDF2
0x51FE01
0x51FE0A
0x51FEA1
0x5202A9
0x520480
0x5204F0
0x5204F4
0x520550
0x520620
0x520680
0x5206E1
0x5207E1
0x520852
0x520862
0x520872
0x520881
0x52088A
0x520921
0x52092A
0x5209B5
0x520CA1
0x520CE8
0x520D26
0x520DA0
0x520EC1
0x5215F0
0x521670
0x521674
0x5216D0
0x5217B0
0x521810
0x521871
0x521B54
0x521CD0
0x521CE1
0x521D12
0x521D70
0x521DB3
0x521E0D
0x521F33
0x5220C2
0x522441
0x5227EE
0x522843
0x5229F1
0x522FE1
0x5231C1
0x5234B8
0x5235B8
0x52364A
0x5236E9
0x523818
0x523AC8
0x523BA9
0x523C7F
0x524001
0x5240D9
0x524431
0x5245D9
0x524606
0x5248F1
0x524953
0x524A0B
0x5251B1
0x5253F9
0x52549D
0x52554F
0x525703
0x525F53
0x525FDE
0x526313
0x5268F1
0x5268FA
0x526AA7
0x526BAB
0x526C72
0x526E92
0x526EE4
0x5270C8
0x527151
0x5272DC
0x5274B0
0x5277D1
0x5279B7
0x527B01
0x527C63
0x528140
0x528351
0x5283ED
0x5286D1
0x528AAD
0x5291C2
0x529702
0x529A3B
0x529A8A
0x529CE0
0x529CE3
0x529D3F
0x529FA1
0x52A0BF
0x52A2C5
0x52AA88
0x52AD08
0x52ADB0
0x52B09A
0x52B216
0x52B354
0x52B576
0x52B5B2
0x52B681
0x52B70C
0x52B76C
0x52B9C0
0x52B9C8
0x52B9F1
0x52BA93
0x52BAC7
0x52BE51
0x52BEC3
0x52C2E4
0x52C40E
0x52C447
0x52CC2F
0x52CC3E
0x52CCD9
0x52CF81
0x52D452
0x52D4AD
0x52D7B9
0x52D941
0x52D9D0
0x52DAB1
0x52DBFB
0x52DD91
0x52E133
0x52E168
0x52E1B5
0x52E22B
0x52E3F1
0x52E437
0x52E5D2
0x52E801
0x52EB43
0x52EB90
0x52ECBE
0x52EF85
0x52EFBC
0x52F071
0x52F1DC
0x52F42E
0x52F56A
0x52FF52
0x530704
0x530798
0x530EF0
0x530F41
0x531019
0x531360
0x531363
0x5313BF
0x5316AD
0x53172F
0x531740
0x531748
0x531770
0x5317C1
0x531ADC
0x531C61
0x531CB9
0x531CF8
0x531D72
0x531EB1
0x5321F7
0x532276
0x5322D4
0x532309
0x532531
0x532871
0x532882
0x532892
0x5328A2
0x5328B1
0x5328BA
0x5329E0
0x532A52
0x532B12
0x532B31
0x532BB6
0x532F20
0x533041
0x533052
0x533062
0x533072
0x533081
0x53308A
0x533180
0x533190
0x533222
0x5332E2
0x533300
0x533421
0x533950
0x5339A4
0x533A10
0x533E81
0x5340CA
0x53443A
0x534465
0x5344C1
0x534561
0x534C60
0x534CD1
0x5350F1
0x5353C1
0x535580
0x535600
0x535680
0x535720
0x5357C0
0x5358D1
0x535A11
0x535A29
0x535C71
0x535D90
0x535F70
0x535FE0
0x536051
0x536291
0x5363B1
0x5363C0
0x536590
0x5367A1
0x536980
0x536A80
0x536D61
0x536D72
0x536D82
0x536D92
0x536DA1
0x536DAA
0x536EA0
0x536EB0
0x536ED0
0x536F42
0x537002
0x537020
0x537090
0x537201
0x537380
0x537410
0x53750F
0x537701
0x5379DE
0x537BC1
0x537D60
0x537DA0
0x537DA2
0x537DA4
0x537DC0
0x537E60
0x537F71
0x538031
0x538100
0x538180
0x538380
0x538421
0x538640
0x538901
0x538BF0
0x538C71
0x539031
0x539151
0x5392F1
0x539530
0x539781
0x5398B1
0x5398B8
0x539B11
0x539C30
0x539CA1
0x539EC1
0x53A040
0x53A0D0
0x53A260
0x53A360
0x53A671
0x53A911
0x53AA30
0x53AAA1
0x53ABA1
0x53ACD0
0x53AD3E
0x53ADC6
0x53B030
0x53B130
0x53B2F0
0x53B2F2
0x53B330
0x53B4A1
0x53B7B0
0x53B891
0x53BB81
0x53BE24
0x53BFA3
0x53C271
0x53C491
0x53C592
0x53C9B1
0x53CAD0
0x53CB41
0x53CB4A
0x53CFD1
0x53D157
0x53D391
0x53D4C1
0x53D4CA
0x53D774
0x53DF51
0x53DF5A
0x53E181
0x53E2A1
0x53E531
0x53E650
0x53E6D1
0x53E70F
0x53E986
0x53EBF1
0x53ED38
0x53ED81
0x53F101
0x53F401
0x53F412
0x53F422
0x53F432
0x53F441
0x53F44A
0x53F4D0
0x53F560
0x53F5E2
0x53F6A2
0x53F6C0
0x53F6C8
0x53F9B0
0x53F9B2
0x53F9E9
0x53F9FD
0x53FA11
0x53FA25
0x53FA91
0x53FBC0
0x53FD81
0x53FF80
0x540000
0x540220
0x5404C0
0x5406A0
0x5406A4
0x540911
0x540987
0x5409A2
0x5409A4
0x540B81
0x540E0E
0x540E31
0x540F61
0x540F6B
0x540F83
0x541120
0x541180
0x5411D0
0x541230
0x541270
0x5412E1
0x5414A0
0x541571
0x541850
0x541854
0x54185A
0x541B10
0x541BB1
0x541D81
0x541D83
0x541F41
0x54213E
0x5421C5
0x54224F
0x542282
0x5424FF
0x542540
0x542714
0x542761
0x542763
0x542A11
0x542C81
0x5430C0
0x5430C4
0x5432CE
0x543621
0x543DC0
0x543E94
0x544091
0x54414A
0x544360
0x544471
0x544521
0x544540
0x5446A1
0x544808
0x544837
0x544AEB
0x544DC1
0x544DE8
0x544F60
0x544FF0
0x545101
0x5451FB
0x545233
0x54526E
0x545450
0x5454DA
0x5455F0
0x5455F4
0x545758
0x545AC0
0x545DB1
0x545F10
0x545F14
0x545F16
0x546090
0x546261
0x5465E0
0x5465F5
0x546620
0x54669A
0x5466B0
0x546775
0x546790
0x546901
0x546B6B
0x546BD2
0x546C03
0x546C21
0x546D21
0x546FA1
0x547081
0x54708A
0x5471ED
0x547221
0x54728F
0x5472B1
0x547401
0x547627
0x547660
0x5476D1
0x5479D1
0x5479E2
0x5479F2
0x547A02
0x547A11
0x547A1A
0x547AA0
0x547B30
0x547BB2
0x547C72
0x547C90
0x547D70
0x547DD0
0x547E14
0x547F70
0x5480C0
0x548221
0x548350
0x5483B9
0x5484F0
0x5484F2
0x5485B0
0x5486A0
0x548751
0x548810
0x548DD1
0x548DE2
0x548DF2
0x548E02
0x548E11
0x548E1A
0x548EA0
0x548F30
0x548FB2
0x549072
0x549150
0x549200
0x549271
0x5492C1
0x5494A0
0x5494F0
0x549670
0x549674
0x549980
0x549C25
0x549C61
0x549C63
0x549C66
0x549DA0
0x549DA3
0x549E92
0x549F43
0x549F81
0x54A035
0x54A071
0x54A11C
0x54A161
0x54A20C
0x54A251
0x54A352
0x54A405
0x54A442
0x54A4F3
0x54A530
0x54A533
0x54A622
0x54A6D5
0x54A712
0x54A7C5
0x54A862
0x54A915
0x54ABF1
0x54AC02
0x54AC12
0x54AC22
0x54AC31
0x54AC3A
0x54AD50
0x54ADD2
0x54AE92
0x54AEC0
0x54AF81
0x54B6C8
0x54B6D7
0x54B6DB
0x54B721
0x54B72A
0x54BEC4
0x54BF11
0x54C071
0x54C9B1
0x54CA13
0x54CAA8
0x54CAD7
0x54CB51
0x54CC1B
0x54CC91
0x54CD24
0x54CD70
0x54CDEA
0x54CE01
0x54CE06
0x54D081
0x54D092
0x54D0A2
0x54D0B2
0x54D0C1
0x54D0CA
0x54D150
0x54D1C0
0x54D1D0
0x54D1E0
0x54D262
0x54D322
0x54D341
0x54D5E0
0x54D621
0x54DC5E
0x54DC76
0x54DC91
0x54DCE0
0x54DE81
0x54DEE6
0x54E360
0x54E5A1
0x54E5A3
0x54E5FD
0x54E617
0x54E671
0x54E930
0x54E938
0x54EA61
0x54EB21
0x54EBA1
0x54ED51
0x54EEC1
0x54F081
0x54F270
0x54F406
0x54F461
0x54F558
0x550300
0x550380
0x550461
0x550561
0x550634
0x550820
0x550822
0x550824
0x550880
0x550B21
0x550B32
0x550B42
0x550B52
0x550B61
0x550B6A
0x550BF0
0x550C80
0x550C90
0x550D02
0x550DC2
0x550DE1
0x551291
0x5512A2
0x5512B2
0x5512C2
0x5512D1
0x5512DA
0x5513D0
0x5513E0
0x551400
0x551472
0x551532
0x551566
0x55171B
0x551759
0x551790
0x5517C0
0x5517F0
0x551820
0x551857
0x551883
0x5518D3
0x551904
0x551920
0x551958
0x551980
0x5519E0
0x551A18
0x551A40
0x551A78
0x551AA0
0x551B00
0x551D71
0x551DD7
0x551E18
0x551E90
0x551EE5
0x551F30
0x551F34
0x55200B
0x552371
0x552382
0x552392
0x5523A2
0x5523B1
0x5523BA
0x5524E0
0x552552
0x552612
0x552780
0x552821
0x552D0B
0x553D7C
0x553E76
0x5540D7
0x554441
0x5544B5
0x554AAD
0x554C70
0x554C73
0x554C80
0x554D95
0x554E68
0x554E91
0x554F40
0x554F90
0x554FB2
0x555111
0x555572
0x555882
0x5558AE
0x555E21
0x55616C
0x5565E1
0x556600
0x5566D2
0x55695B
0x5569D1
0x556C91
0x556D2B
0x556DBE
0x556F3A
0x556FE6
0x557080
0x5570E3
0x5571D1
0x557291
0x5574B1
0x557520
0x557636
0x557821
0x557832
0x557842
0x557852
0x557861
0x55786A
0x5578F0
0x557980
0x557990
0x557A02
0x557AC2
0x557C01
0x557C03
0x557D51
0x557D53
0x557EE1
0x557EE3
0x558041
0x558043
0x5581A1
0x5581A3
0x5582F1
0x55877C
0x558800
0x558850
0x5589C0
0x558AC0
0x558AC2
0x558AC4
0x558BF0
0x558BF4
0x558C30
0x558D81
0x558D83
0x558DD0
0x558EB1
0x559441
0x559452
0x559462
0x559472
0x559481
0x55948A
0x559580
0x559590
0x559622
0x5596E2
0x5597F1
0x559945
0x5599F1
0x559C00
0x559C40
0x559FA1
0x55A149
0x55A2C0
0x55A381
0x55AC5C
0x55B281
0x55B40A
0x55B419
0x55B920
0x55BAED
0x55C001
0x55C007
0x55C1B0
0x55C2B1
0x55C5D1
0x55C993
0x55CB81
0x55D267
0x55D961
0x55DC12
0x55DCF0
0x55E1F1
0x55E6D5
0x55E8C1
0x55F00B
0x55F05D
0x5600E7
0x5607E7
0x560931
0x560CB0
0x560D10
0x560FA1
0x5610B1
0x561250
0x561271
0x561470
0x561472
0x561543
0x561571
0x56157A
0x561689
0x5616E3
0x561717
0x561729
0x561806
0x561831
0x56183B
0x5619C0
0x5619E1
0x561F41
0x5622A1
0x562610
0x5628D9
0x562A4C
0x562C81
0x562D0C
0x5646F0
0x5647F0
0x5648A0
0x5648A2
0x5648A4
0x5649B0
0x564BF0
0x564C20
0x564C50
0x564CA0
0x564D60
0x564DB0
0x564E30
0x564F70
0x565080
0x565110
0x565271
0x5653C0
0x565490
0x565531
0x5655A0
0x5655F0
0x565691
0x565700
0x565851
0x5658D0
0x565B70
0x565BA0
0x565BD0
0x565C20
0x565C60
0x565C90
0x565DC1
0x565E30
0x565EA0
0x565EF0
0x565F30
0x565F70
0x566010
0x5660A0
0x566130
0x5661A0
0x566220
0x566321
0x5663D0
0x566461
0x5665A1
0x566650
0x5666E1
0x566790
0x566821
0x566977
0x566EA0
0x567001
0x567661
0x5677E0
0x567941
0x567A83
0x567E11
0x5686EC
0x568781
0x5687D8
0x568B84
0x568C7B
0x569395
0x569508
0x56A15D
0x56A211
0x56A283
0x56ACF3
0x56B2A4
0x56B361
0x56B43F
0x56BAC1
0x56BBA1
0x56C03E
0x56C527
0x56C5D7
0x56D10B
0x56D8E0
0x56D91D
0x56D9B7
0x56DCF1
0x56E22A
0x56E515
0x56E662
0x56E7AF
0x56E875
0x570491
0x57053C
0x5708D0
0x5708F1
0x570CC7
0x571A60
0x571A62
0x571A64
0x571CF1
0x571E88
0x571EE0
0x571FB1
0x57202E
0x572186
0x57220F
0x572361
0x572818
0x572AD8
0x572AF8
0x5731A6
0x5731E8
0x573513
0x573851
0x5738A9
0x573B26
0x573FFE
0x5743E8
0x5752E1
0x575541
0x575B11
0x576245
0x576511
0x576F13
0x576F21
0x5785DD
0x578650
0x578654
0x57865C
0x578941
0x578DF7
0x578F00
0x579090
0x579156
0x5791B1
0x5793E1
0x579421
0x579A81
0x579DB1
0x579F54
0x57A0F0
0x57A120
0x57A281
0x57A7F4
0x57AA05
0x57AC41
0x57ADD1
0x57B231
0x57BC41
0x57BEB1
0x57C189
0x57C351
0x57C4E1
0x57C58A
0x57C5A0
0x57C6C1
0x57C9B1
0x57CED0
0x57D071
0x57D140
0x57D161
0x57D321
0x57D760
0x57D8D1
0x57D967
0x57DF51
0x57E2F1
0x57E4CE
0x57E741
0x57EBF0
0x57EC1A
0x57EC1B
0x57ECC1
0x57ECCA
0x57EE98
0x57EF40
0x57EF80
0x57F110
0x57F131
0x57F470
0x57F6D1
0x57F6DA
0x57F769
0x57FA30
0x580440
0x580531
0x580701
0x580950
0x580954
0x580AA1
0x580B2C
0x580BF2
0x580C21
0x580D51
0x580EB1
0x581191
0x581288
0x5813B1
0x581510
0x581514
0x581516
0x581640
0x581651
0x5816A0
0x5816A4
0x5818A1
0x581B11
0x581C50
0x581C8B
0x581D37
0x581D5E
0x581DA1
0x581DE3
0x582020
0x582024
0x5826C7
0x5827E3
0x582911
0x582D01
0x5835B7
0x58360D
0x583700
0x583861
0x583A91
0x583A9A
0x583FD1
0x583FE8
0x5843D1
0x584611
0x584851
0x584BC1
0x5855A0
0x5857D7
0x585970
0x5859C2
0x585A30
0x585B20
0x585C00
0x585CA0
0x586233
0x58623C
0x586244
0x586332
0x586342
0x586352
0x5863C1
0x5863D1
0x5863DA
0x586500
0x586520
0x586530
0x586600
0x586670
0x586681
0x586760
0x586771
0x586950
0x586A51
0x586B1B
0x586D71
0x586D82
0x586D92
0x586DA2
0x586DB1
0x586DBA
0x586EE0
0x586F52
0x587012
0x587031
0x587190
0x587261
0x587371
0x5873F9
0x587455
0x587681
0x5877B1
0x587A91
0x587B05
0x587DC1
0x588281
0x5886A1
0x588872
0x5889A1
0x5889AA
0x5889E1
0x588A13
0x588A7D
0x588CF1
0x589061
0x589072
0x589082
0x589092
0x5890A1
0x5890AA
0x5891A0
0x5891B0
0x5891D0
0x589242
0x589302
0x589340
0x5894D1
0x5897A0
0x5897E1
0x5897E3
0x589970
0x5899C1
0x589B10
0x589D1E
0x589F50
0x589F61
0x58A2A0
0x58A2A4
0x58A4B1
0x58A5E1
0x58A8A7
0x58A8F0
0x58A991
0x58AAA1
0x58AAE1
0x58AC11
0x58ACB1
0x58ADD1
0x58B2E0
0x58B2E5
0x58B311
0x58B4A1
0x58B4AA
0x58BDF6
0x58BE90
0x58BEA1
0x58BEC0
0x58C061
0x58C063
0x58C07C
0x58C1F1
0x58C1F3
0x58C381
0x58C383
0x58C500
0x58C536
0x58C5F1
0x58C831
0x58CA11
0x58CBD0
0x58CBE1
0x58CC52
0x58CDC4
0x58CF00
0x58CF94
0x58D031
0x58D067
0x58D250
0x58D2F0
0x58D340
0x58D481
0x58D5F0
0x58D651
0x58D750
0x58D861
0x58D977
0x58DA51
0x58E0BE
0x58E200
0x58E260
0x58E2C0
0x58E2F0
0x58E3F4
0x58E454
0x58E4B0
0x58E4E0
0x58E541
0x58E6A9
0x58E72C
0x58EA70
0x58ED90
0x58EDF7
0x58EE00
0x58EED0
0x58F070
0x58F090
0x58F30C
0x58F347
0x58F370
0x58F3F9
0x58F433
0x58F490
0x58F560
0x58F610
0x58F6C0
0x58F7D0
0x58F850
0x58F910
0x58FA20
0x58FAC0
0x58FB60
0x58FC20
0x58FCA1
0x58FDF1
0x58FF41
0x590091
0x5901E1
0x5901E3
0x590591
0x590A40
0x590BA0
0x590BE0
0x590C12
0x590D30
0x590D70
0x590E30
0x590E89
0x5910D0
0x5911D0
0x5912D1
0x5917B0
0x591991
0x593920
0x59394E
0x593954
0x593959
0x593979
0x5939B1
0x593F61
0x593F72
0x593F82
0x593F92
0x593FA1
0x593FAA
0x5940A0
0x5940B0
0x5940D0
0x594142
0x594202
0x5942D0
0x594320
0x594450
0x5944B1
0x5944E4
0x59464F
0x594660
0x5946D1
0x5946E2
0x594748
0x594759
0x5947B7
0x5947C0
0x594933
0x5949A2
0x5949D9
0x594AA1
0x594DE1
0x594DF2
0x594E02
0x594E12
0x594E21
0x594E2A
0x594FC2
0x595082
0x595140
0x595340
0x5954A0
0x595680
0x5956EA
0x595700
0x595730
0x595768
0x59577E
0x5957E0
0x595800
0x5958D1
0x5959B1
0x595B90
0x595B92
0x595CF1
0x596067
0x596112
0x5962A0
0x5962A3
0x5962B0
0x5962E1
0x596670
0x5966C0
0x5966C1
0x5967F0
0x5968C0
0x596960
0x596985
0x596A20
0x596B51
0x596C20
0x596E60
0x596EE0
0x596F61
0x597190
0x597361
0x5974D9
0x5975DE
0x597645
0x597676
0x597810
0x5978D6
0x59790C
0x597B68
0x597CA0
0x597D01
0x598390
0x5983A0
0x598401
0x598731
0x598825
0x5989D0
0x598A00
0x598A70
0x598BE1
0x598D81
0x5990E1
0x5990F2
0x599102
0x599112
0x599121
0x59912A
0x5992C2
0x599382
0x599411
0x5996B0
0x599850
0x5998B0
0x5998E1
0x599BB1
0x599ED0
0x599ED2
0x599ED4
0x59A031
0x59A033
0x59A190
0x59A300
0x59A5B1
0x59AA61
0x59AC3E
0x59AEA0
0x59AEB1
0x59B531
0x59B542
0x59B552
0x59B562
0x59B571
0x59B57A
0x59B712
0x59B7D2
0x59B7F1
0x59B881
0x59B886
0x59BC3A
0x59BE71
0x59C216
0x59C3D6
0x59C552
0x59C5B1
0x59C6BA
0x59C7F9
0x59C9E1
0x59CC32
0x59CEF3
0x59D741
0x59D890
0x59D8E0
0x59D931
0x59D994
0x59DCA1
0x59DDB0
0x59E181
0x59E1CC
0x59E324
0x59E38F
0x59E551
0x59E7F1
0x59ED21
0x59ED2A
0x59EE91
0x59EF11
0x59EF6B
0x59EF71
0x5A0361
0x5A07A9
0x5A08F4
0x5A0C5D
0x5A0D5C
0x5A1614
0x5A1E51
0x5A1F13
0x5A2159
0x5A21F1
0x5A2245
0x5A24B1
0x5A26B1
0x5A3151
0x5A33CB
0x5A357A
0x5A3681
0x5A368A
0x5A3A04
0x5A3B51
0x5A3BCA
0x5A3D41
0x5A3E4A
0x5A3EDC
0x5A4091
0x5A40F0
0x5A4310
0x5A4314
0x5A50F1
0x5A54A1
0x5A5541
0x5A560D
0x5A5A21
0x5A5A32
0x5A5A42
0x5A5A52
0x5A5A61
0x5A5A6A
0x5A5AF0
0x5A5B80
0x5A5B90
0x5A5C02
0x5A5CC2
0x5A5CE1
0x5A5F81
0x5A6A11
0x5A6ABA
0x5A6E31
0x5A70B0
0x5A70E1
0x5A7221
0x5A7391
0x5A76BD
0x5A7781
0x5A77E0
0x5A7AF9
0x5A7E7C
0x5A7FE1
0x5A8150
0x5A8261
0x5A8311
0x5A8390
0x5A8394
0x5A8480
0x5A8484
0x5A8511
0x5A85AA
0x5A8A31
0x5A8AF0
0x5A8B91
0x5A8C20
0x5A8C24
0x5A9271
0x5A92A5
0x5A94C0
0x5A9570
0x5A9611
0x5A961A
0x5A97F1
0x5A98B1
0x5A9991
0x5A9CA1
0x5A9E81
0x5A9F81
0x5A9F8A
0x5A9FD0
0x5AA1B1
0x5AA324
0x5AA382
0x5AA441
0x5AA510
0x5AA6A1
0x5AA787
0x5AA7D4
0x5AA891
0x5AACF1
0x5AAF9D
0x5AB081
0x5AB08A
0x5AB1E8
0x5AB2E9
0x5AB599
0x5AB751
0x5AB881
0x5ABFE1
0x5AC195
0x5AC1F7
0x5AC32F
0x5AC478
0x5AC506
0x5AC50A
0x5AC561
0x5AC5B9
0x5AC991
0x5ACDFB
0x5AD381
0x5AD6AB
0x5AD871
0x5AD911
0x5ADB41
0x5ADCDC
0x5ADFE1
0x5AE080
0x5AE125
0x5AE15F
0x5AE311
0x5AE451
0x5AE491
0x5AE493
0x5AE4E1
0x5AE581
0x5AE583
0x5AE66F
0x5AE6C1
0x5AEB21
0x5AEDA6
0x5AF2F5
0x5AFD08
0x5AFD8A
0x5AFEC2
0x5B0278
0x5B036B
0x5B03AD
0x5B0B3B
0x5B0DB3
0x5B1364
0x5B14F3
0x5B1508
0x5B15D2
0x5B1791
0x5B1B59
0x5B1C18
0x5B1E15
0x5B2360
0x5B25AE
0x5B274B
0x5B278E
0x5B32C8
0x5B32E7
0x5B3855
0x5B399A
0x5B3A13
0x5B3A37
0x5B3A5B
0x5B3A7F
0x5B4060
0x5B4062
0x5B4064
0x5B4231
0x5B4311
0x5B4621
0x5B48D0
0x5B48E1
0x5B48EA
0x5B4BF0
0x5B4C71
0x5B4DC0
0x5B4E31
0x5B55A7
0x5B5A26
0x5B60C4
0x5B621B
0x5B6281
0x5B62D9
0x5B63A1
0x5B6796
0x5B69A1
0x5B6A12
0x5B6AD2
0x5B6AF0
0x5B6B62
0x5B6B72
0x5B6B82
0x5B6BF1
0x5B6C01
0x5B6C0A
0x5B6E93
0x5B6E9C
0x5B6EA4
0x5B7110
0x5B71AE
0x5B71CE
0x5B7280
0x5B7282
0x5B72CF
0x5B7427
0x5B762C
0x5B7753
0x5B7790
0x5B7792
0x5B7A23
0x5B7A2C
0x5B7A34
0x5B7DC1
0x5B7DD2
0x5B7DE2
0x5B7DF2
0x5B7E01
0x5B7E0A
0x5B7F20
0x5B7F30
0x5B7FA2
0x5B8062
0x5B8080
0x5B81D1
0x5B83A1
0x5B83A5
0x5B83C2
0x5B8531
0x5B86BF
0x5B8805
0x5B8A00
0x5B8A04
0x5B8B10
0x5B8C10
0x5B9580
0x5B9620
0x5B9624
0x5B98E1
0x5B99C0
0x5B99C4
0x5BA070
0x5BA140
0x5BA1FF
0x5BAB51
0x5BAB99
0x5BAC81
0x5BB190
0x5BB2D1
0x5BB380
0x5BB511
0x5BB6C0
0x5BB800
0x5BBAA0
0x5BBB40
0x5BBF30
0x5BC1BD
0x5BC290
0x5BC521
0x5BCB11
0x5BCB22
0x5BCB32
0x5BCB42
0x5BCB51
0x5BCB5A
0x5BCBE0
0x5BCC50
0x5BCC60
0x5BCCF2
0x5BCDB2
0x5BCDD8
0x5BCDE2
0x5BCDEF
0x5BCE11
0x5BCF91
0x5BD0A0
0x5BD151
0x5BD66B
0x5BD6E4
0x5BDF01
0x5BE190
0x5BE331
0x5BE761
0x5BE971
0x5BEB11
0x5BED61
0x5BEF11
0x5BEF16
0x5BF020
0x5BF233
0x5BF23C
0x5BF244
0x5BF4B1
0x5BF621
0x5BFCE1
0x5C01E1
0x5C0B71
0x5C0B82
0x5C0B92
0x5C0BA2
0x5C0BB1
0x5C0BBA
0x5C0CE0
0x5C0D52
0x5C0E12
0x5C0F30
0x5C10E8
0x5C1111
0x5C1221
0x5C1581
0x5C1670
0x5C1760
0x5C1764
0x5C18D7
0x5C19CA
0x5C1AB6
0x5C1D6B
0x5C2000
0x5C2054
0x5C2231
0x5C246A
0x5C24B7
0x5C24D6
0x5C2585
0x5C26C3
0x5C2781
0x5C2798
0x5C2941
0x5C2981
0x5C2B71
0x5C31F1
0x5C3230
0x5C32AD
0x5C3FC9
0x5C3FDA
0x5C4001
0x5C4012
0x5C4023
0x5C40C1
0x5C40CA
0x5C45A1
0x5C4D43
0x5C4DA1
0x5C4E2D
0x5C4E2F
0x5C5011
0x5C50E1
0x5C5181
0x5C5323
0x5C5330
0x5C5CB1
0x5C5EF7
0x5C5F2A
0x5C6320
0x5C65AC
0x5C65FA
0x5C6643
0x5C67D1
0x5C67DA
0x5C6CB4
0x5C6E30
0x5C6FD1
0x5C6FDA
0x5C708C
0x5C7561
0x5C76DF
0x5C7D68
0x5C7FB1
0x5C8501
0x5C86E1
0x5C88D1
0x5C89E1
0x5C8D4B
0x5C8DB0
0x5C8DB4
0x5C8F5D
0x5C91E1
0x5C91E3
0x5C91E7
0x5C92B1
0x5C9CA2
0x5CAE91
0x5CAF11
0x5CC01B
0x5CC3F0
0x5CC471
0x5CC8E1
0x5CC94B
0x5CCBFA
0x5CD0D3
0x5CD0E0
0x5CD56F
0x5CD5A5
0x5CDBAC
0x5CDBB9
0x5CFFA0
0x5D0C70
0x5D0E64
0x5D24AB
0x5D32C5
0x5D3D86
0x5D4BF9
0x5D4F7E
0x5D6C33
0x5DB011
0x5DB421
0x5DB502
0x5DB531
0x5DB771
0x5DB77A
0x5DBA5B
0x5DBD81
0x5DBFB1
0x5DBFBA
0x5DC3B1
0x5DC550
0x5DC7DC
0x5DD0B1
0x5DD2D1
0x5DD491
0x5DD6A8
0x5DD794
0x5DD79C
0x5DD7C6
0x5DD821
0x5DDA11
0x5DDB71
0x5DDCB1
0x5DDCBA
0x5DDDAF
0x5DDDD3
0x5DE25D
0x5DE2AB
0x5DE2F5
0x5DE33A
0x5DE642
0x5DE64F
0x5DE919
0x5DF1F1
0x5DF1FA
0x5DF62E
0x5DF88B
0x5DF895
0x5E1280
0x5E14C2
0x5E166A
0x5E184C
0x5E1C80
0x5E1CAE
0x5E1D4E
0x5E3101
0x5E3103
0x5E3140
0x5E31C1
0x5E32E9
0x5E41B1
0x5E42D1
0x5E42DA
0x5E5901
0x5E5B21
0x5E5BF1
0x5E5CD1
0x5E5DF1
0x5E5F71
0x5E6331
0x5E6630
0x5E665F
0x5E68AC
0x5E6900
0x5E6BD0
0x5E6BD4
0x5E6BD7
0x5E6C40
0x5E6E51
0x5E7240
0x5E7261
0x5E73C1
0x5E74C0
0x5E74D1
0x5E74DA
0x5E84A1
0x5E84EE
0x5E8691
0x5E8821
0x5E8951
0x5E8C51
0x5E8E11
0x5E9141
0x5E98A1
0x5E98B2
0x5E98C2
0x5E98D2
0x5E98E1
0x5E98EA
0x5E9970
0x5E9A10
0x5E9A82
0x5E9B42
0x5E9BCA
0x5E9C2D
0x5E9C56
0x5E9D12
0x5E9DE2
0x5E9E2D
0x5E9EB2
0x5E9F10
0x5EA041
0x5EA086
0x5EA280
0x5EA291
0x5EA52D
0x5EA7D0
0x5EA7E1
0x5EA8E0
0x5EAA01
0x5EAA07
0x5EAA0F
0x5EAC21
0x5EB001
0x5EB0AB
0x5EB181
0x5EB261
0x5EB3C3
0x5EB420
0x5EB4E1
0x5EB630
0x5EB650
0x5EB6C0
0x5EB767
0x5EB815
0x5EB891
0x5EC3C0
0x5EC5A0
0x5EC6E0
0x5EC6E4
0x5EC8CC
0x5EC9D1
0x5ECC81
0x5ECED0
0x5ECF21
0x5ED028
0x5ED061
0x5ED06A
0x5ED081
0x5ED091
0x5ED2F0
0x5ED2F4
0x5ED3F0
0x5ED4D1
0x5ED612
0x5ED6F0
0x5ED751
0x5ED840
0x5ED94D
0x5ED9DF
0x5ED9E0
0x5ED9E8
0x5EDA5E
0x5EDADC
0x5EDB40
0x5EDB48
0x5EDC89
0x5EDE50
0x5EDF20
0x5EDF24
0x5EDF98
0x5EE466
0x5EE9DE
0x5EFD2B
0x5EFD60
0x5EFF30
0x5EFF38
0x5F006E
0x5F0248
0x5F0481
0x5F05C1
0x5F0B10
0x5F0BE0
0x5F0BF1
0x5F0BFA
0x5F0DA8
0x5F1202
0x5F13B5
0x5F18A0
0x5F18E0
0x5F1930
0x5F19D0
0x5F1A10
0x5F1A50
0x5F1AB0
0x5F1B00
0x5F1BA1
0x5F1C50
0x5F1C64
0x5F1CC0
0x5F1D70
0x5F1DE0
0x5F1DE4
0x5F22E1
0x5F22F2
0x5F2302
0x5F2312
0x5F2321
0x5F232A
0x5F24C2
0x5F2582
0x5F25C0
0x5F2690
0x5F29A1
0x5F30E0
0x5F3151
0x5F3260
0x5F3553
0x5F35A1
0x5F36C1
0x5F3881
0x5F3981
0x5F3C81
0x5F3E81
0x5F4551
0x5F455A
0x5F4654
0x5F4961
0x5F4972
0x5F4982
0x5F4992
0x5F49A1
0x5F49AA
0x5F4AA0
0x5F4AB0
0x5F4AD0
0x5F4B42
0x5F4C02
0x5F4E60
0x5F4F71
0x5F51AE
0x5F5391
0x5F5F3B
0x5F6911
0x5F6B2E
0x5F6D78
0x5F739F
0x5F7873
0x5F790C
0x5F7E01
0x5F800A
0x5F83B3
0x5F8554
0x5F8970
0x5F89D0
0x5F8C31
0x5F8D91
0x5F8EB0
0x5F8FA1
0x5F91A1
0x5F9471
0x5F95F0
0x5F9661
0x5F9DDA
0x5FA5D1
0x5FA961
0x5FAC33
0x5FAC91
0x5FAE61
0x5FAF30
0x5FB35D
0x5FB421
0x5FB610
0x5FB631
0x5FB820
0x5FB901
0x5FBB40
0x5FBCA0
0x5FBDA1
0x5FBEE1
0x5FC2C1
0x5FC2D2
0x5FC2E2
0x5FC2F2
0x5FC301
0x5FC30A
0x5FC420
0x5FC430
0x5FC4A2
0x5FC562
0x5FC580
0x5FC641
0x5FC6A1
0x5FC711
0x5FC781
0x5FC7D1
0x5FC861
0x5FC8F1
0x5FC931
0x5FC970
0x5FC9A1
0x5FCAE1
0x5FCB21
0x5FCB71
0x5FCC11
0x5FCC81
0x5FCCC1
0x5FCD01
0x5FCD41
0x5FCD81
0x5FD181
0x5FD192
0x5FD1A2
0x5FD1B2
0x5FD1C1
0x5FD1CA
0x5FD250
0x5FD322
0x5FD3E2
0x5FD571
0x5FD573
0x5FD861
0x5FD8D0
0x5FDB41
0x5FDB52
0x5FDB62
0x5FDB72
0x5FDB81
0x5FDB8A
0x5FDC80
0x5FDC90
0x5FDD22
0x5FDDE2
0x5FDE00
0x5FDE39
0x5FDE40
0x5FDE79
0x5FDE80
0x5FDE82
0x5FDEA3
0x5FDEB2
0x5FE130
0x5FE150
0x5FE231
0x5FE300
0x5FE361
0x5FE573
0x5FE7F0
0x5FE7F4
0x5FE890
0x5FE8B0
0x5FEA10
0x5FEA43
0x5FEA52
0x5FEA93
0x5FECF0
0x5FED00
0x5FED20
0x5FF2C1
0x5FF2D2
0x5FF2E2
0x5FF2F2
0x5FF301
0x5FF30A
0x5FF420
0x5FF430
0x5FF4A2
0x5FF562
0x5FF601
0x5FF702
0x5FF985
0x5FFC30
0x5FFC32
0x5FFC34
0x5FFD91
0x6004E0
0x600511
0x600743
0x60084F
0x6009F1
0x600B30
0x600B71
0x601451
0x601462
0x601472
0x601482
0x601491
0x60149A
0x601590
0x6015A0
0x6015C0
0x601632
0x6016F2
0x601760
0x601791
0x601931
0x601BB1
0x601EB6
0x601F51
0x602201
0x602411
0x6025E0
0x602680
0x602780
0x6027B0
0x602810
0x602891
0x602E50
0x602EF0
0x602F50
0x603121
0x6032E1
0x603440
0x603442
0x6034D0
0x603540
0x6035A1
0x603620
0x603650
0x6036C0
0x603820
0x603910
0x603990
0x603A2C
0x603A50
0x603AEC
0x603B80
0x603CF1
0x603E8A
0x603EAA
0x603EF4
0x603F2C
0x603F69
0x604310
0x6043D1
0x604981
0x6049CD
0x6050AA
0x60523C
0x605310
0x6054E0
0x6054E4
0x605CF1
0x606001
0x606007
0x606046
0x6060F4
0x606171
0x606490
0x606540
0x606612
0x606664
0x606681
0x606901
0x606CA1
0x607180
0x607480
0x607507
0x60759E
0x6078B0
0x607A01
0x607C1F
0x607C57
0x607EF0
0x6080A0
0x6080C8
0x6081B0
0x6081B8
0x608371
0x608D01
0x608E60
0x608E64
0x608F80
0x608FC0
0x608FD0
0x608FD4
0x60903E
0x609145
0x609182
0x6091F3
0x6095A3
0x60987B
0x6098BD
0x60996A
0x609BB5
0x609E51
0x609F14
0x60A431
0x60A501
0x60AB61
0x60AB98
0x60ADA0
0x60B001
0x60B012
0x60B022
0x60B032
0x60B041
0x60B04A
0x60B0D0
0x60B160
0x60B1E2
0x60B2A2
0x60B2C1
0x60B411
0x60B481
0x60B521
0x60B621
0x60B700
0x60B780
0x60B801
0x60B981
0x60BC70
0x60BDC0
0x60BEB0
0x60C030
0x60C040
0x60C050
0x60C261
0x60C4B0
0x60C571
0x60C921
0x60C932
0x60C942
0x60C952
0x60C961
0x60C96A
0x60C9F0
0x60CA80
0x60CA90
0x60CB02
0x60CBC2
0x60CBE0
0x60CBE7
0x60CFE1
0x60D4A0
0x60D731
0x60D891
0x60DBA8
0x60E0A1
0x60E0B2
0x60E0C2
0x60E0D2
0x60E0E1
0x60E0EA
0x60E170
0x60E210
0x60E282
0x60E342
0x60E3E1
0x60E451
0x60E48B
0x60F62A
0x60F670
0x60F6B2
0x60F771
0x60F7B3
0x60F7F5
0x60FAFE
0x610D40
0x610D61
0x611056
0x6111D4
0x61169B
0x6118D1
0x611941
0x611A01
0x611B31
0x611BAE
0x611DA1
0x6127A1
0x612B21
0x612C40
0x612F61
0x612F72
0x612F82
0x612F92
0x612FA1
0x612FAA
0x6130A0
0x6130B0
0x6130D0
0x613142
0x613202
0x6132A0
0x613391
0x613540
0x613580
0x6135F0
0x6135F4
0x6136AD
0x613771
0x6137F1
0x6138A0
0x6138A2
0x61397C
0x613A61
0x613B9B
0x613C50
0x613C61
0x613F80
0x614000
0x614180
0x614230
0x614260
0x6142A0
0x6142CE
0x6142E1
0x614481
0x6144D1
0x6144DA
0x614821
0x614D6F
0x615060
0x615311
0x616C42
0x61777F
0x617F28
0x618486
0x61916C
0x619582
0x619AFE
0x619C35
0x61A553
0x61A758
0x61A8B3
0x61AFE0
0x61B351
0x61B400
0x61B404
0x61B4F5
0x61BAC2
0x61BBE0
0x61BDD1
0x61C0B0
0x61C0C5
0x61C2B0
0x61C2FC
0x61C421
0x61C6B0
0x61C6B2
0x61C710
0x61C712
0x61C771
0x61CA50
0x61CA54
0x61CCD9
0x61D0D8
0x61D4C1
0x61D4D7
0x61D571
0x61D5C1
0x61D6B1
0x61D761
0x61D763
0x61D7E0
0x61DBC0
0x61DC51
0x61E02A
0x61E2C1
0x61E621
0x61E62A
0x61EAB1
0x61EBD5
0x61F3D1
0x61F521
0x61F6D1
0x61F6E8
0x61FDD1
0x61FEC0
0x61FFA1
0x620161
0x62026A
0x620359
0x620501
0x620691
0x6207F1
0x62084A
0x62098E
0x6209E0
0x620C41
0x620C52
0x620C62
0x620C72
0x620C81
0x620C8A
0x620D80
0x620D90
0x620E22
0x620EE2
0x620F00
0x620F04
0x620F0D
0x62140D
0x621554
0x62157E
0x621720
0x621740
0x6217CE
0x6217ED
0x621912
0x621940
0x621996
0x621A60
0x621A64
0x621B40
0x621B44
0x621E41
0x621E52
0x621E62
0x621E72
0x621E81
0x621E8A
0x621F80
0x621F90
0x622022
0x6220E2
0x622100
0x622341
0x622376
0x6223A5
0x62252E
0x622870
0x6228CA
0x622BB0
0x622C20
0x622CA1
0x6231A1
0x6231B2
0x6231C2
0x6231D2
0x6231E1
0x6231EA
0x623270
0x623310
0x623382
0x623442
0x6236A1
0x6236B2
0x6236C2
0x6236D2
0x6236E1
0x6236EA
0x623770
0x623810
0x623882
0x623942
0x623B91
0x623BA2
0x623BB2
0x623BC2
0x623BD1
0x623BDA
0x623CD0
0x623CE0
0x623D00
0x623D72
0x623E32
0x624081
0x624092
0x6240A2
0x6240B2
0x6240C1
0x6240CA
0x624150
0x6241C0
0x6241D0
0x6241E0
0x624262
0x624322
0x624571
0x624582
0x624592
0x6245A2
0x6245B1
0x6245BA
0x6246E0
0x624752
0x624812
0x6248A0
0x624A61
0x624A72
0x624A82
0x624A92
0x624AA1
0x624AAA
0x624BA0
0x624BB0
0x624BD0
0x624C42
0x624D02
0x624F51
0x624F62
0x624F72
0x624F82
0x624F91
0x624F9A
0x625090
0x6250A0
0x6250C0
0x625132
0x6251F2
0x625441
0x625452
0x625462
0x625472
0x625481
0x62548A
0x625580
0x625590
0x625622
0x6256E2
0x625931
0x625942
0x625952
0x625962
0x625971
0x62597A
0x625B12
0x625BD2
0x625E21
0x625E32
0x625E42
0x625E52
0x625E61
0x625E6A
0x625EF0
0x625F80
0x625F90
0x626002
0x6260C2
0x6260E1
0x6262A0
0x626820
0x6268A0
0x626940
0x626A10
0x626A70
0x6278B0
0x6278F0
0x6279B0
0x627AF0
0x627BD0
0x627C00
0x627E90
0x627F70
0x627F72
0x627F74
0x627FE0
0x6280A0
0x628160
0x628350
0x628410
0x6284B0
0x628520
0x628580
0x6285D0
0x628660
0x6287F0
0x628850
0x628890
0x628A00
0x628AC0
0x628C40
0x628D80
0x629040
0x629090
0x6290C0
0x6290F0
0x629130
0x6291D0
0x629200
0x629430
0x629680
0x629731
0x6298B0
0x6298E0
0x629930
0x629970
0x629994
0x6299B0
0x629A50
0x629B50
0x629BB0
0x629C7D
0x629D40
0x629DC0
0x629E00
0x629E50
0x629EA0
0x629EE0
0x629F70
0x629FA0
0x62A050
0x62A171
0x62A250
0x62A2E0
0x62A380
0x62A410
0x62A540
0x62A5F0
0x62A620
0x62A6C1
0x62A7D1
0x62A7DA
0x62A9E1
0x62AA40
0x62AFA0
0x62B031
0x62B090
0x62B141
0x62B1A0
0x62B270
0x62B2E0
0x62B340
0x62B390
0x62BCED
0x62C210
0x62C2D0
0x62C310
0x62C350
0x62C390
0x62C470
0x62C4C0
0x62C5A1
0x62C680
0x62C6C0
0x62C7A0
0x62C7E0
0x62C970
0x62CA31
0x62CBA0
0x62CC10
0x62CC91
0x62CCF0
0x62CD30
0x62CD70
0x62CF10
0x62CFE1
0x62D040
0x62D240
0x62D280
0x62D360
0x62D3C0
0x62D461
0x62D4C0
0x62D530
0x62D590
0x62D5E0
0x62D630
0x62D670
0x62D701
0x62D760
0x62D8A0
0x62D9C0
0x62DA20
0x62DA70
0x62DAB0
0x62DAF0
0x62DB30
0x62DC20
0x62DD00
0x62DDE0
0x62DE30
0x62DFD0
0x62E060
0x62E1B1
0x62E210
0x62E410
0x62E581
0x62E5E0
0x62E630
0x62E670
0x62E6B0
0x62E6F0
0x62E730
0x62E770
0x62E880
0x62E8C0
0x62E910
0x62EB21
0x62ED30
0x62EDE1
0x62EEB1
0x62EF21
0x62F0A3
0x62F110
0x62F1B0
0x62F2B1
0x62F310
0x62F3E0
0x62F4B0
0x62F4F0
0x62F540
0x62F580
0x62F5C0
0x62F600
0x62F610
0x62F650
0x62F690
0x62F6D0
0x62F750
0x62F8A0
0x62F8E0
0x62F920
0x62F981
0x62F999
0x62FDA1
0x62FE00
0x62FFE0
0x6300C1
0x630190
0x630200
0x630351
0x630560
0x630600
0x630681
0x630720
0x630760
0x6307A0
0x6307F0
0x630840
0x6308A0
0x6308F0
0x630940
0x630990
0x630A21
0x630AD0
0x630B10
0x630BE1
0x630C90
0x630D31
0x630E71
0x630FB1
0x631060
0x6310F1
0x6311A0
0x631241
0x6312F1
0x6313A0
0x631431
0x6314E0
0x6315A1
0x6316E1
0x631790
0x631861
0x631910
0x631951
0x631A01
0x631AB1
0x631B60
0x631C01
0x631CB1
0x631DC7
0x631E87
0x631EE0
0x631F80
0x632251
0x632262
0x632272
0x632282
0x632291
0x63229A
0x632390
0x6323A0
0x6323C0
0x632432
0x6324F2
0x6325A1
0x6327D1
0x632940
0x6329C1
0x632B34
0x632D3C
0x632DA1
0x6330D0
0x633131
0x63313A
0x633551
0x633940
0x633A60
0x633AA6
0x633B40
0x633BF1
0x633C31
0x633C91
0x633C9A
0x634300
0x634304
0x634438
0x6344D8
0x6348A8
0x636BBF
0x636C81
0x636D80
0x636D8E
0x636FA1
0x6371EB
0x6374D1
0x637CAD
0x637DB0
0x637DB4
0x63817F
0x6382B0
0x6382E1
0x6383C1
0x6383CA
0x638910
0x638913
0x638994
0x6389B5
0x6389E7
0x638B80
0x638BB0
0x638E10
0x638F30
0x638FC1
0x6398A1
0x6398D0
0x639B21
0x639C70
0x639D91
0x639EA1
0x63A240
0x63A310
0x63A411
0x63A428
0x63A830
0x63A921
0x63AAF1
0x63AC10
0x63AD10
0x63AF01
0x63B280
0x63B811
0x63B951
0x63BB71
0x63BB82
0x63BB92
0x63BBA2
0x63BBB1
0x63BBBA
0x63BE43
0x63BE4C
0x63BE54
0x63C0E0
0x63C0F0
0x63C100
0x63C102
0x63C120
0x63C131
0x63C241
0x63C370
0x63C391
0x63C491
0x63C590
0x63C592
0x63C594
0x63C621
0x63C751
0x63C821
0x63C901
0x63C972
0x63CA91
0x63CCE1
0x63CE30
0x63CE80
0x63D12E
0x63D451
0x63D462
0x63D472
0x63D482
0x63D491
0x63D49A
0x63D590
0x63D5A0
0x63D5C0
0x63D632
0x63D6F2
0x63D720
0x63D740
0x63D760
0x63D770
0x63D7A0
0x63D7C0
0x63D7F0
0x63D810
0x63D820
0x63D830
0x63D840
0x63D880
0x63D890
0x63D8C0
0x63D8E0
0x63D8F0
0x63D900
0x63D910
0x63D930
0x63D940
0x63D960
0x63D970
0x63D980
0x63D990
0x63D9A0
0x63D9B0
0x63D9C0
0x63D9D0
0x63DA51
0x63DC20
0x63DC30
0x63DEB1
0x63DEC2
0x63DED2
0x63DEE2
0x63DEF1
0x63DEFA
0x63DFF0
0x63E000
0x63E010
0x63E092
0x63E152
0x63E3A1
0x63E3B2
0x63E3C2
0x63E3D2
0x63E3E1
0x63E3EA
0x63E470
0x63E510
0x63E582
0x63E642
0x63E661
0x63E771
0x63E773
0x63EC76
0x63ECDC
0x63EE1B
0x63F341
0x63FAE1
0x63FCB0
0x63FEE1
0x6400E0
0x6400E4
0x640391
0x640421
0x640621
0x64076D
0x6408E0
0x640A31
0x640AF0
0x640C41
0x640D60
0x640DB1
0x641201
0x6416A3
0x641720
0x641787
0x64180C
0x641878
0x6418B1
0x641928
0x6419C1
0x641B1C
0x642101
0x6421A7
0x642CF1
0x642DA1
0x642EA1
0x643001
0x643428
0x6434B8
0x643C71
0x643D81
0x643FB0
0x6440E1
0x644570
0x64459A
0x6445AC
0x6445FC
0x64462B
0x64465C
0x644AF0
0x644AF8
0x644E01
0x644E25
0x644E33
0x644E69
0x644F2F
0x6459AE
0x645DB1
0x6460A1
0x6464A1
0x6465A1
0x646681
0x64698B
0x646B21
0x646ED1
0x647011
0x6472A0
0x647391
0x6473FF
0x6475F1
0x647B90
0x647FD1
0x64819C
0x648220
0x648426
0x648751
0x648861
0x648921
0x648A01
0x648A91
0x648B08
0x648BA1
0x648F05
0x64904A
0x6490D1
0x6492C1
0x6494A1
0x649721
0x649AE1
0x649EF0
0x649EF4
0x649FC0
0x64A0C1
0x64A331
0x64A431
0x64A573
0x64A5B1
0x64A6F0
0x64A7A1
0x64A970
0x64AAB6
0x64AC91
0x64AD71
0x64B0CC
0x64B111
0x64B5C1
0x64B618
0x64BA91
0x64BBCB
0x64BC81
0x64BE93
0x64C4B4
0x64C931
0x64CC01
0x64CD1A
0x64CDF0
0x64CE0E
0x64CE61
0x64CF61
0x64D021
0x64D1A1
0x64D1A3
0x64D221
0x64D4C1
0x64D5B1
0x64D6B1
0x64D6B7
0x64D811
0x64DC64
0x64DC69
0x64DCB8
0x64DE1F
0x64DF71
0x64E301
0x64E6DF
0x64E890
0x64E8A0
0x64E8B0
0x64E8C0
0x64E8D0
0x64E8E1
0x64EBE0
0x64EBF1
0x64ECA7
0x64ED22
0x64EEB4
0x64F4CD
0x64F4E2
0x64F4ED
0x64F6C9
0x64F740
0x64FBF9
0x64FCC7
0x6506F1
0x650C21
0x650C97
0x6511A1
0x651219
0x6514D1
0x651520
0x651B11
0x6523D0
0x6528C1
0x652AA1
0x6532B0
0x6532B2
0x6532B4
0x653371
0x653377
0x653580
0x653612
0x653721
0x653850
0x653960
0x654381
0x6544F1
0x654643
0x6546A4
0x654AAD
0x654AD3
0x654AE3
0x654F61
0x654F63
0x654F70
0x6550B0
0x655131
0x655341
0x6554D1
0x655801
0x655ADF
0x655B44
0x655EE0
0x655F11
0x655F75
0x6560A1
0x65639A
0x6567E1
0x656925
0x65692A
0x656BA1
0x657121
0x657471
0x657601
0x6577B1
0x6578D2
0x657B00
0x657BD1
0x657D41
0x657E10
0x657EF1
0x657F31
0x658001
0x658111
0x658130
0x6582E1
0x658381
0x6583F8
0x6585A1
0x65860A
0x658831
0x658852
0x658991
0x6589A1
0x658B51
0x658B64
0x658B94
0x658E21
0x65945A
0x659724
0x65A0B1
0x65A44E
0x65A464
0x65A480
0x65A4C1
0x65A4F2
0x65A71F
0x65A7A1
0x65A820
0x65AAA1
0x65AB31
0x65B0A1
0x65B205
0x65B243
0x65B290
0x65B310
0x65B331
0x65B921
0x65BA90
0x65BE71
0x65C1DE
0x65C2D8
0x65C519
0x65CC34
0x65CD09
0x65D868
0x65DEA3
0x65DF53
0x65DFD4
0x65EC51
0x65F0F1
0x65F322
0x65F360
0x65F44B
0x65F46E
0x65F4D1
0x65F4DA
0x65FD98
0x65FEB6
0x65FEE1
0x660650
0x6608E1
0x660BA0
0x660BC1
0x660C60
0x660FB1
0x660FB7
0x661140
0x661150
0x661190
0x6611E0
0x6612F0
0x661331
0x6614D1
0x6614D7
0x661780
0x661911
0x661989
0x661AD1
0x661BB1
0x661E91
0x662211
0x662290
0x662461
0x6624B2
0x6626B1
0x662A20
0x662A24
0x662A88
0x664870
0x664A80
0x664A82
0x664BD0
0x66615A
0x6666B8
0x666810
0x666CC1
0x666F31
0x666F3A
0x667461
0x667472
0x667482
0x667492
0x6674A1
0x6674AA
0x6675A0
0x6675B0
0x6675D0
0x667642
0x667702
0x667721
0x667F71
0x667FEB
0x6691D1
0x6691E2
0x6691F2
0x669202
0x669211
0x66921A
0x6692A0
0x669330
0x6693B2
0x669472
0x6694AE
0x669581
0x669DF7
0x66A6E8
0x66A7A5
0x66AA61
0x66AB31
0x66ABB1
0x66C3D9
0x66C9A8
0x66CADE
0x66CB76
0x66CB89
0x66CB9E
0x66CC10
0x66CC14
0x66D0C1
0x66D320
0x66D341
0x66D409
0x66D501
0x66D682
0x66D6AB
0x66D6D0
0x66D6F5
0x66D891
0x66D900
0x66D9E1
0x66DA1B
0x66DC21
0x66DDC1
0x66DEE1
0x66DFC4
0x66DFEF
0x66E017
0x66E1F1
0x66E4AB
0x66E4E8
0x66E891
0x66E89A
0x66EA41
0x66EB21
0x66F2B0
0x66F4C1
0x66F4D2
0x66F4E2
0x66F4F2
0x66F501
0x66F50A
0x66F620
0x66F630
0x66F6A2
0x66F762
0x66F7DA
0x66F7F1
0x66F871
0x66FFD1
0x670491
0x6704A2
0x6704B2
0x6704C2
0x6704D1
0x6704DA
0x6705D0
0x6705E0
0x670600
0x670672
0x670732
0x670761
0x67081B
0x670BF1
0x670C02
0x670C12
0x670C22
0x670C31
0x670C3A
0x670D50
0x670DD2
0x670E92
0x670EB1
0x670EB3
0x670F4A
0x671070
0x6710E1
0x671598
0x673694
0x674020
0x674573
0x6755B1
0x67A028
0x67A1E8
0x67A390
0x67B371
0x67B6C7
0x67C658
0x67E0E8
0x67F104
0x67FF90
0x680358
0x680606
0x681608
0x682CC7
0x683B58
0x687BF6
0x688CF5
0x6896CC
0x689708
0x68A7E5
0x68C1B0
0x68CD0F
0x68CD99
0x68D158
0x68E608
0x68EB58
0x690508
0x691A50
0x691ADA
0x692908
0x692A58
0x692CF0
0x693708
0x693D58
0x694F9D
0x695458
0x697058
0x6971C3
0x697939
0x69D1F7
0x69D700
0x69DB58
0x69DC4D
0x69E6C3
0x69E6F4
0x69E723
0x69E752
0x69FD60
0x6A0AC0
0x6A0EA4
0x6A3911
0x6A42A4
0x6A5F07
0x6A5F58
0x6A7908
0x6A9D02
0x6ACD58
0x6AD444
0x6AE3DA
0x6AE4DA
0x6AFF7A
0x6B06C5
0x6B10F9
0x6B1989
0x6B2569
0x6B2808
0x6B30DA
0x6B3184
0x6B55BB
0x6B6058
0x6B700F
0x6B859C
0x6BAA10
0x6BAA83
0x6BC308
0x6BDE08
0x6BE108
0x6BED58
0x6C08F0
0x6C2F70
0x6C2FF4
0x6C30D0
0x6C31A0
0x6C32B0
0x6C3321
0x6C3420
0x6C3908
0x6C5012
0x6C5058
0x6C5640
0x6C5E58
0x6C7C08
0x6C8958
0x6C8F08
0x6C9250
0x6C9458
0x6CA5DA
0x6CC208
0x6CE258
0x6D1EB1
0x6D2708
0x6D2908
0x6D3058
0x6D3A08
0x6D5358
0x6D6A58
0x6D7558
0x6D85D3
0x6D8FD0
0x6D93C4
0x6D9DA1
0x6D9E58
0x6DA908
0x6DB208
0x6DC478
0x6DCF58
0x6DD608
0x6DDD58
0x6DE608
0x6E20EC
0x6E3A58
0x6E5308
0x6E5F24
0x6E6AEA
0x6E70F9
0x6E7258
0x6E875F
0x6E8E58
0x6E9158
0x6E9C58
0x6EA958
0x6EAC08
0x6ECF29
0x6ED427
0x6EFD00
0x6F05B4
0x6F1F58
0x6F48BC
0x6F5745
0x6F6008
0x6F6258
0x6F6308
0x6F6458
0x6F7047
0x6F7208
0x6F7769
0x6F9858
0x6FA84C
0x6FC708
0x6FE5B7
0x700E62
0x703098
0x7035DA
0x704258
0x7075BA
0x7075EE
0x707622
0x707656
0x7083CD
0x70A96B
0x70B7E8
0x70E496
0x70FD58
0x710508
0x711038
0x7111E8
0x711A17
0x712CC7
0x7130A1
0x713258
0x714A01
0x714B08
0x715489
0x715FB0
0x7170E8
0x717E30
0x717EA0
0x717F30
0x7187B1
0x7187C2
0x7187D2
0x7187E2
0x7187F1
0x7187FA
0x7188F0
0x718900
0x718910
0x718992
0x718A52
0x718A70
0x718B51
0x7199C6
0x719A33
0x719B80
0x71A530
0x71A571
0x71A731
0x71A8D1
0x71ACB0
0x71ADC0
0x71AEC0
0x71B161
0x71B172
0x71B182
0x71B192
0x71B1A1
0x71B1AA
0x71B2A0
0x71B2B0
0x71B2D0
0x71B342
0x71B402
0x71B580
0x71B5C0
0x71B5C2
0x71B630
0x71B6A0
0x71B710
0x71B740
0x71B770
0x71B7A0
0x71B7D0
0x71B800
0x71B830
0x71B860
0x71B890
0x71B8C0
0x71B8F0
0x71B970
0x71B9F0
0x71BA70
0x71BB00
0x71BB90
0x71BC20
0x71BCE0
0x71BDB0
0x71BE40
0x71BED0
0x71BF80
0x71C0E0
0x71C1A0
0x71C260
0x71C320
0x71C3F0
0x71C580
0x71C8A0
0x71C970
0x71CB80
0x71CC20
0x71CD30
0x71CDD0
0x71CE50
0x71CFE0
0x71D050
0x71D150
0x71D1C0
0x71D2C0
0x71D330
0x71D540
0x71D570
0x71D5B0
0x71D5F1
0x71D731
0x71D870
0x71D872
0x71D930
0x71D932
0x71DA10
0x71DA12
0x71DAF0
0x71DAF2
0x71DB80
0x71DB82
0x71DC20
0x71DC22
0x71DCC0
0x71DCC2
0x71DCC4
0x71DD80
0x71DD82
0x71DD84
0x71E1F4
0x71E200
0x71E202
0x71E2C0
0x71E2C2
0x71E3A0
0x71E3A2
0x71E5C0
0x71E850
0x71E8F0
0x71E9B0
0x71EA90
0x71EB30
0x71EBD0
0x71EC90
0x71EDC0
0x71EE60
0x71EF20
0x71F000
0x71F0A0
0x71F140
0x71F200
0x71F330
0x71F440
0x71F7F0
0x71FC10
0x71FDE0
0x71FF40
0x7200A0
0x7201A0
0x7201D0
0x720220
0x720270
0x7206C0
0x720730
0x7207A0
0x720858
0x720908
0x721930
0x721960
0x721990
0x7219C0
0x721D20
0x721DB0
0x721E30
0x721EB0
0x721F30
0x7221C0
0x722451
0x722961
0x722E70
0x723100
0x723390
0x7234F0
0x7239B0
0x723A70
0x723B30
0x723BF0
0x7240D0
0x724140
0x724446
0x7248D0
0x724940
0x7249B0
0x724A20
0x724A90
0x724B10
0x724E90
0x724F20
0x7252B0
0x725340
0x725790
0x725840
0x7258F0
0x7259A0
0x725A50
0x725B00
0x725BB0
0x725C60
0x725D10
0x725DC0
0x725E70
0x725F50
0x726020
0x7260F0
0x7261C0
0x7262A0
0x726370
0x726440
0x726820
0x726850
0x726880
0x726970
0x7269A0
0x7269D0
0x726A00
0x726A70
0x726C40
0x726D30
0x726DC0
0x726DC2
0x726E60
0x726E90
0x7270A8
0x7271E8
0x7272E0
0x7272E2
0x72731F
0x727400
0x727402
0x72743F
0x727521
0x727601
0x7276A1
0x7277B0
0x7278A0
0x727920
0x727A00
0x727A3E
0x728121
0x7282C0
0x728350
0x7284A0
0x728520
0x7285A0
0x7285E0
0x728B50
0x728BC0
0x728C30
0x728EA8
0x728F58
0x729140
0x7291D0
0x729200
0x729206
0x729217
0x72921C
0x729510
0x7295F1
0x729B00
0x729D90
0x72A020
0x72A181
0x72A690
0x72A921
0x72AE30
0x72B0C0
0x72B350
0x72B4B1
0x72B9C0
0x72BC50
0x72BC85
0x72BD0A
0x72BDA4
0x72BE1C
0x72BE29
0x72BED0
0x72C340
0x72C370
0x72C3A0
0x72C3D0
0x72C400
0x72C430
0x72C700
0x72C730
0x72C760
0x72C790
0x72C8C0
0x72C8F0
0x72CBA0
0x72CC50
0x72D360
0x72D3C0
0x72D420
0x72D480
0x72D4E0
0x72D540
0x72D781
0x72D7B1
0x72D961
0x72D96A
0x72DA91
0x72DA9A
0x72DBC1
0x72DBE7
0x72DCB1
0x72DE11
0x72DF01
0x72DFF0
0x72E250
0x72E340
0x72E440
0x72E540
0x72E620
0x72E720
0x72E800
0x72E920
0x72EA41
0x72EC51
0x72F160
0x72F162
0x72F18E
0x72F213
0x72F2A0
0x72F490
0x72F7F0
0x72F7F2
0x72F8F0
0x72FAB0
0x72FAB2
0x72FB90
0x72FB92
0x72FBBE
0x72FC43
0x72FCD0
0x72FEC0
0x730220
0x730222
0x730320
0x7304E0
0x7304E2
0x7305C0
0x7305C2
0x7305EE
0x730673
0x730700
0x730702
0x730800
0x730802
0x730920
0x7309D0
0x730A80
0x730D30
0x730DD0
0x730E70
0x730F10
0x730FB0
0x731050
0x7310F0
0x731190
0x731230
0x7312D0
0x731370
0x731410
0x731590
0x731D10
0x731D40
0x731D70
0x731DA0
0x731DD0
0x731E00
0x731E30
0x731E60
0x731E90
0x731EC0
0x731FF0
0x732070
0x7320F0
0x732170
0x7321F0
0x732280
0x732310
0x7323A0
0x732430
0x7324E0
0x732590
0x732660
0x732AB0
0x732B31
0x732B3A
0x732CA0
0x732D70
0x732E40
0x732F10
0x732FA0
0x733030
0x733A20
0x733AA0
0x733B20
0x733BA0
0x733C20
0x733CA0
0x733D20
0x733DA0
0x733DF0
0x733E70
0x733EC0
0x733F10
0x733F60
0x733FB0
0x734000
0x734050
0x7340A0
0x734550
0x734552
0x734554
0x734650
0x734652
0x734654
0x734990
0x7349C0
0x734A90
0x734B60
0x734D60
0x734D90
0x734E00
0x734E30
0x734E32
0x734E34
0x734E39
0x735030
0x735060
0x735100
0x7351A0
0x735250
0x735300
0x7353B0
0x735570
0x735760
0x7359E0
0x735A30
0x735B50
0x735B52
0x735B54
0x735C50
0x735C58
0x735E11
0x736030
0x736032
0x736034
0x736120
0x736122
0x736124
0x7362D1
0x7362D3
0x736640
0x736642
0x7367B1
0x736A20
0x736B30
0x737140
0x737280
0x737630
0x737770
0x7378B0
0x7378E0
0x737910
0x7379A0
0x737A30
0x737A80
0x737AD0
0x737B20
0x737E30
0x737E32
0x737E34
0x737F70
0x737F72
0x737F74
0x7380B0
0x7380B2
0x7380B4
0x7381F0
0x7382B0
0x738370
0x738430
0x738432
0x738434
0x7384C0
0x7384C2
0x7384C4
0x738550
0x738552
0x738554
0x7385E0
0x7385E8
0x738770
0x738778
0x738900
0x738A51
0x738B50
0x738B58
0x738C21
0x738D01
0x738DE0
0x738E90
0x738F40
0x738F70
0x738FA0
0x738FD0
0x738FD2
0x738FD4
0x739070
0x739072
0x739074
0x739110
0x739112
0x739114
0x739450
0x739452
0x739580
0x739582
0x739590
0x739700
0x739702
0x7397C0
0x7397C2
0x7397C4
0x739860
0x739862
0x739864
0x73990B
0x739960
0x739962
0x739964
0x739A00
0x739A02
0x739A04
0x739B00
0x739B02
0x739B04
0x739BA0
0x739BA2
0x739BA4
0x739E60
0x73A020
0x73A220
0x73A222
0x73A224
0x73A300
0x73A302
0x73A304
0x73A420
0x73A5B0
0x73A780
0x73A782
0x73A784
0x73A860
0x73A862
0x73A864
0x73B140
0x73B142
0x73B144
0x73B320
0x73B322
0x73B324
0x73B41A
0x73B500
0x73B502
0x73B504
0x73BBC0
0x73BBC2
0x73BCB0
0x73BCB2
0x73BDA0
0x73BDA2
0x73BE70
0x73BED0
0x73BF30
0x73BF90
0x73BFF1
0x73C1B0
0x73C260
0x73C300
0x73C3D0
0x73C470
0x73C4D0
0x73C530
0x73C590
0x73C5F1
0x73C7B0
0x73C7B2
0x73C850
0x73C852
0x73C8F0
0x73C8F2
0x73C990
0x73C992
0x73CA30
0x73CA32
0x73CAD0
0x73CAD2
0x73CB70
0x73CB72
0x73CC10
0x73CC12
0x73CF80
0x73D020
0x73D0C0
0x73D160
0x73D200
0x73D320
0x73D580
0x73D630
0x73D6E0
0x73D791
0x73D931
0x73DB00
0x73DBB0
0x73DC61
0x73DD91
0x73DEC0
0x73DF30
0x73DFA0
0x73E021
0x73E1A1
0x73E271
0x73E273
0x73E310
0x73E370
0x73E3D0
0x73E430
0x73E490
0x73E4F0
0x73E600
0x73E602
0x73E604
0x73E710
0x73E712
0x73E714
0x73E7F0
0x73E850
0x73E8B0
0x73E910
0x73E970
0x73E9D0
0x73EA30
0x73EA32
0x73EA34
0x73EB40
0x73EB42
0x73EB44
0x73EC50
0x73EC52
0x73EC54
0x73ED30
0x73ED32
0x73ED34
0x73EE10
0x73F070
0x73F078
0x73F511
0x73F513
0x73F581
0x73F583
0x73F8B0
0x73F900
0x73F950
0x73F9A0
0x73F9D0
0x73FA00
0x73FA30
0x73FA60
0x73FA90
0x73FBB1
0x73FBB7
0x73FCA1
0x73FCA7
0x73FD91
0x73FD97
0x73FE81
0x73FE87
0x73FF71
0x73FF77
0x740070
0x740170
0x7402E1
0x740420
0x7405E0
0x740640
0x7406A0
0x740701
0x7407DA
0x7408C0
0x7408F1
0x740AA0
0x740B00
0x740B60
0x740BC0
0x740C90
0x740CC0
0x740D20
0x740D80
0x740DE0
0x740DE2
0x740EB1
0x7410D0
0x741130
0x741240
0x7412A0
0x7412A2
0x741371
0x741590
0x7415F0
0x741700
0x741760
0x7417F0
0x741880
0x741920
0x741922
0x741924
0x7419F0
0x7419F2
0x7419F4
0x741A90
0x741AD0
0x741D51
0x741D57
0x741E91
0x741E97
0x741FC1
0x741FC7
0x742101
0x742107
0x742230
0x742280
0x7422D0
0x742340
0x7423B0
0x742430
0x742439
0x7426F0
0x742740
0x742780
0x7427D0
0x742820
0x742870
0x7428C0
0x7429B0
0x742A50
0x742AD0
0x742AF0
0x742B20
0x742B40
0x742BD0
0x742CD0
0x742EC0
0x742EC8
0x743170
0x743172
0x743310
0x7433F3
0x7434F0
0x7434F2
0x743690
0x743810
0x743970
0x743972
0x743A60
0x743C10
0x743DE0
0x744030
0x744200
0x7442D0
0x7443B0
0x744420
0x744740
0x744890
0x744892
0x744981
0x744A31
0x744B51
0x744C71
0x744CD6
0x744D21
0x744E41
0x745240
0x745300
0x7453C0
0x7453C2
0x745470
0x745580
0x745720
0x7457B0
0x745840
0x745910
0x7459B0
0x745A51
0x745C20
0x745CD0
0x745D81
0x745F50
0x746000
0x7460B0
0x746180
0x7462B0
0x7463E0
0x7464B0
0x7465E0
0x746710
0x7467E0
0x746910
0x746A90
0x746A92
0x746B20
0x746B22
0x746BB0
0x746BB2
0x746C90
0x746D20
0x746DB0
0x746DD4
0x746E40
0x746E64
0x746ED0
0x746EF4
0x746F61
0x746FDF
0x747250
0x7472C0
0x747370
0x747420
0x747490
0x747540
0x7475F0
0x747660
0x747710
0x7477C1
0x747805
0x747C80
0x747D30
0x747DE0
0x747F40
0x748000
0x7480C0
0x7481D1
0x748296
0x7482B1
0x748390
0x748392
0x748470
0x7484F0
0x748570
0x7486E0
0x7488F0
0x7488F2
0x7488F4
0x748A50
0x748B20
0x748B22
0x748B24
0x748BD0
0x748BD2
0x748BD4
0x748C90
0x748C92
0x748C94
0x749130
0x7492F0
0x7494B0
0x749670
0x749678
0x749830
0x749838
0x7499F0
0x749AA1
0x749BC0
0x749BC8
0x749CA1
0x749D91
0x749E80
0x749F40
0x74A1D0
0x74A390
0x74A540
0x74A6F0
0x74A6F8
0x74A8B0
0x74A8B8
0x74AA70
0x74AB21
0x74AC40
0x74AC48
0x74AD21
0x74AE11
0x74AF00
0x74AFC0
0x74B250
0x74B410
0x74B5C0
0x74B770
0x74B910
0x74BA10
0x74BC71
0x74BED1
0x74C191
0x74C450
0x74C4DC
0x74C530
0x74C5BC
0x74C610
0x74C69C
0x74C6F1
0x74C761
0x74C991
0x74CA51
0x74CB51
0x74CBC0
0x74CD50
0x74CDF1
0x74CEF1
0x74CF3E
0x74CF84
0x74D0E1
0x74D211
0x74D380
0x74D4C0
0x74D520
0x74D580
0x74D621
0x74D771
0x74D900
0x74D960
0x74D9C0
0x74DA20
0x74DAB0
0x74DB70
0x74DBD0
0x74DC30
0x74DC91
0x74DDD0
0x74DDD2
0x74DDD4
0x74DE70
0x74DED0
0x74DF30
0x74E021
0x74E070
0x74E201
0x74E341
0x74E343
0x74E3F0
0x74E4A0
0x74E8D0
0x74E8D4
0x74E9B0
0x74E9B4
0x74EAA0
0x74EAA4
0x74EBC0
0x74EC60
0x74ED00
0x74ED71
0x74F021
0x74F027
0x74F121
0x74F127
0x74F221
0x74F227
0x74F371
0x74F377
0x74F481
0x74F487
0x74F591
0x74F597
0x74F671
0x74F677
0x74F711
0x74F851
0x74F990
0x74FA20
0x74FAA0
0x7504E0
0x7504E4
0x7506F0
0x7506F4
0x7509E0
0x7509E4
0x750BC0
0x750BC4
0x750D80
0x750D82
0x750D84
0x7513A0
0x7513A4
0x7515B0
0x7515B4
0x7518A0
0x7518A4
0x751A80
0x751A84
0x751C40
0x751C42
0x751C44
0x751CD0
0x751DA0
0x751DA4
0x751E90
0x751E94
0x751F80
0x751F84
0x752090
0x752094
0x7521B0
0x7521B4
0x7522D0
0x7522D4
0x7523F1
0x752521
0x7526E0
0x752810
0x7528E0
0x752941
0x75294A
0x752AB0
0x752B10
0x752B70
0x752D80
0x752DB0
0x752DE0
0x752E10
0x752E70
0x752EA0
0x752ED0
0x752F00
0x752F30
0x7530A0
0x753170
0x7531A0
0x753230
0x7532E0
0x753390
0x753420
0x753422
0x753460
0x7534B0
0x753500
0x753502
0x753580
0x753610
0x7536A0
0x753730
0x7537C0
0x753850
0x7538E0
0x753970
0x753A00
0x753A90
0x753B20
0x753BB0
0x753C40
0x753CD0
0x753D60
0x753DF0
0x753E80
0x753F10
0x753FF0
0x7540D0
0x7542F1
0x754450
0x754580
0x754610
0x7546A0
0x754730
0x7547C0
0x754850
0x7548E0
0x754970
0x754A00
0x754A90
0x754B20
0x754BB0
0x754C40
0x754CD0
0x754D60
0x754DF0
0x754E80
0x754F31
0x755010
0x755012
0x755050
0x7550A0
0x7550F0
0x7550F2
0x755170
0x755172
0x7551B0
0x7551B2
0x755230
0x755232
0x755270
0x755272
0x7552F0
0x755378
0x755394
0x755420
0x755580
0x755584
0x755670
0x755674
0x755AA0
0x755AA2
0x755AA4
0x755AF0
0x755D20
0x755D90
0x755DC0
0x755DF0
0x755E20
0x755E50
0x755E80
0x755EB0
0x755EE0
0x755F10
0x755F40
0x755F70
0x755FA0
0x755FD0
0x756600
0x756690
0x756720
0x7567B0
0x756840
0x7568D0
0x756960
0x7569F0
0x756A80
0x756B10
0x756BA0
0x756C30
0x756CC0
0x756DA0
0x756E30
0x7570E0
0x757190
0x757240
0x7572F0
0x7573A0
0x757450
0x757500
0x7575B0
0x757660
0x757662
0x7577A1
0x7577C9
0x757831
0x757859
0x7578C0
0x757950
0x7579E0
0x757A70
0x757B00
0x757B90
0x757C20
0x757CB0
0x757D40
0x757DD0
0x757E60
0x757EF0
0x757F81
0x7580A1
0x7581C1
0x758370
0x758372
0x758400
0x758402
0x758470
0x758472
0x7584E0
0x758690
0x758694
0x7586BA
0x7587B0
0x7587B4
0x7587DA
0x7588C0
0x7588C4
0x7588EA
0x7589F0
0x7589F4
0x758A1A
0x758B10
0x758CA1
0x758F01
0x7590F1
0x759247
0x759291
0x759451
0x759630
0x759710
0x7597F1
0x7598D5
0x7598FA
0x759971
0x759A80
0x759B50
0x759E10
0x759E60
0x759E62
0x759EA0
0x759EA2
0x759EE0
0x759EE2
0x759F20
0x759F22
0x759F60
0x759F62
0x759FA0
0x759FA2
0x759FE0
0x75A030
0x75A180
0x75A2A0
0x75A2A2
0x75A380
0x75A382
0x75A440
0x75A442
0x75A520
0x75A522
0x75A640
0x75A642
0x75A680
0x75A682
0x75A6C0
0x75A6C2
0x75A700
0x75A702
0x75A740
0x75A742
0x75A780
0x75A782
0x75A7C0
0x75A9C0
0x75AB30
0x75ABB1
0x75ACB0
0x75AD80
0x75ADC0
0x75AE00
0x75AE40
0x75AE80
0x75AEC0
0x75AF00
0x75AF40
0x75AF80
0x75AFC0
0x75B000
0x75B040
0x75B080
0x75B0C0
0x75B100
0x75B140
0x75B180
0x75B1E0
0x75B230
0x75B300
0x75B360
0x75B430
0x75B650
0x75B6E0
0x75B770
0x75B800
0x75B890
0x75B920
0x75B9B0
0x75BA40
0x75BAD0
0x75BB60
0x75BBF0
0x75BC80
0x75BD10
0x75BDA0
0x75BE30
0x75BEC0
0x75BF51
0x75BF8D
0x75C061
0x75C116
0x75C1B0
0x75C240
0x75C320
0x75C400
0x75C540
0x75C680
0x75C8E0
0x75C8FB
0x75C981
0x75C9B3
0x75CC71
0x75CCB0
0x75CF0C
0x75D121
0x75D229
0x75D2B1
0x75D3B9
0x75D441
0x75D549
0x75D5D1
0x75D6D9
0x75D761
0x75D901
0x75DAA0
0x75DC00
0x75DD60
0x75DDAF
0x75DE31
0x75DE7E
0x75DE87
0x75E000
0x75E090
0x75E110
0x75E190
0x75E210
0x75E290
0x75E310
0x75E390
0x75E410
0x75E490
0x75E520
0x75E5B0
0x75E640
0x75E6D0
0x75E6F0
0x75E72F
0x75E880
0x75E8AE
0x75E970
0x75E99E
0x75EA60
0x75EA7B
0x75EA9C
0x75EAE0
0x75EB0E
0x75EBD0
0x75EBEB
0x75EC0C
0x75EC50
0x75EC7E
0x75ED40
0x75ED6E
0x75EE30
0x75EE50
0x75EE6C
0x75EEB0
0x75EEDE
0x75EFA0
0x75EFCE
0x75F090
0x75F0B0
0x75F0CC
0x75F110
0x75F1A0
0x75F230
0x75F2C0
0x75F351
0x75F379
0x75F3E1
0x75F409
0x75F471
0x75F499
0x75F501
0x75F529
0x75F591
0x75F5B9
0x75F621
0x75F649
0x75F6B1
0x75F6D9
0x75F741
0x75F769
0x75F7D0
0x75F980
0x75FB30
0x75FCE0
0x75FE90
0x75FF20
0x75FFB0
0x760040
0x7600D0
0x760160
0x7601F0
0x760280
0x760310
0x7603A0
0x760430
0x7604C0
0x760550
0x7605E0
0x760670
0x760700
0x760760
0x7607C0
0x760821
0x760901
0x760A01
0x760A8F
0x760AA2
0x760B10
0x760B12
0x760B90
0x760CA0
0x761010
0x761150
0x7611D8
0x7612C0
0x761350
0x7613E0
0x761470
0x761511
0x7615C0
0x761700
0x761800
0x7618E0
0x7618E8
0x761A40
0x761A48
0x761BA1
0x761D41
0x761EE1
0x762081
0x762211
0x762421
0x762631
0x762841
0x762A40
0x762B70
0x762CA0
0x762DD0
0x762F00
0x762FC0
0x763080
0x763140
0x763200
0x763330
0x763460
0x763590
0x7636C0
0x7637F0
0x763920
0x7639E0
0x763AA0
0x763B61
0x763CB1
0x763E01
0x764041
0x764240
0x764420
0x7645C0
0x7645C2
0x7645C4
0x764670
0x764672
0x764674
0x764720
0x764722
0x764724
0x7647D0
0x7647D2
0x7647D4
0x764880
0x764981
0x764AB0
0x764C20
0x764D20
0x764E00
0x764F30
0x764FE0
0x7650B0
0x765220
0x7652A0
0x765420
0x765560
0x765680
0x7657C0
0x765B41
0x765CB1
0x765E21
0x765F91
0x766080
0x7660D1
0x766641
0x766652
0x766662
0x766672
0x766681
0x76668A
0x766780
0x766790
0x766822
0x7668E2
0x766900
0x7679D9
0x76BDCC
0x76C0CC
0x76C571
0x76C582
0x76C592
0x76C5A2
0x76C5B1
0x76C5BA
0x76C6E0
0x76C752
0x76C812
0x76CAB1
0x76CAC2
0x76CAD2
0x76CAE2
0x76CAF1
0x76CAFA
0x76CBF0
0x76CC00
0x76CC10
0x76CC92
0x76CD52
0x76DF57
0x76DF90
0x76DFDC
0x76E015
0x76EC48
0x76FD10
0x76FE31
0x76FE42
0x76FE52
0x76FE62
0x76FE71
0x76FE7A
0x770012
0x7700D2
0x7703C0
0x7704B0
0x7708D0
0x770A00
0x770A60
0x770C30
0x770C90
0x770E10
0x770E20
0x770E30
0x7710B0
0x771150
0x771390
0x7715F0
0x771690
0x771900
0x7719A0
0x771A40
0x771B00
0x771BC0
0x771E50
0x771EF0
0x771F90
0x772000
0x772100
0x772190
0x7721D0
0x772290
0x772320
0x7723B0
0x772450
0x7724E0
0x772570
0x772682
0x77275F
0x7727D0
0x772860
0x7729C0
0x772DB0
0x772DC0
0x772DD0
0x772DE0
0x772DF0
0x772E00
0x772E10
0x772E20
0x772E30
0x772FD0
0x772FF0
0x773030
0x7739C0
0x773A20
0x773A80
0x773AE0
0x773B40
0x773BA0
0x773BD0
0x773C00
0x773C50
0x773C80
0x773CB0
0x773CE0
0x773D10
0x773D40
0x773D70
0x773DA0
0x773DD0
0x773E10
0x773E50
0x773E90
0x773ED0
0x773F10
0x773F40
0x773F90
0x773FE0
0x774070
0x7740A0
0x7740D0
0x774100
0x774130
0x774160
0x774190
0x774240
0x7742C0
0x7742F0
0x774320
0x774350
0x774380
0x7743B0
0x7743E0
0x774C61
0x774C72
0x774C82
0x774C92
0x774CA1
0x774CAA
0x774DA0
0x774DB0
0x774DD0
0x774E42
0x774F02
0x775151
0x775162
0x775172
0x775182
0x775191
0x77519A
0x775290
0x7752A0
0x7752C0
0x775332
0x7753F2
0x775489
0x775509
0x775550
0x775580
0x775630
0x775640
0x775650
0x775680
0x7756CE
0x77570D
0x77595C
0x775C10
0x775C74
0x775CD0
0x775EE0
0x775FAA
0x77603B
0x776046
0x77612A
0x776360
0x7763B0
0x7765E0
0x776720
0x776770
0x7767D0
0x776890
0x776EA1
0x777743
0x77777F
0x7778C2
0x777988
0x77799B
0x777C01
0x777C12
0x777C22
0x777C32
0x777C41
0x777C4A
0x777CD0
0x777D60
0x777DE2
0x777EA2
0x777EC0
0x779651
0x77CC68
0x77D454
0x77ED5E
0x77EF33
0x78054A
0x782000
0x7820AE
0x783D48
0x783EE4
0x7841C4
0x784D7A
0x786F22
0x78A668
0x78B480
0x78D978
0x791B49
0x793581
0x794770
0x7957E4
0x796170
0x799FB9
0x7A04FE
0x7A0831
0x7A28E4
0x7A29A4
0x7A4099
0x7A4790
0x7A58E0
0x7A6A08
0x7AA3E1
0x7AAC4E
0x7AD106
0x7AF230
0x7B3501
0x7B3A5A
0x7B5708
0x7B5BF0
0x7B5D2C
0x7B6044
0x7B6431
0x7B8A7C
0x7B95E8
0x7B99E3
0x7BB62E
0x7BBBE8
0x7BC231
0x7BD754
0x7BE3D1
0x7BE504
0x7C03B1
0x7C1498
0x7C1D0E
0x7C3DE8
0x7C4A9A
0x7C4B04
0x7C4CD1
0x7C5CFF
0x7C750C
0x7C7A8D
0x7C9041
0x7CA7A8
0x7CB1D0
0x7CCE65
0x7CD5FF
0x7CD678
0x7CDFC0
0x7CFFB0
0x7D04A1
0x7D3890
0x7D3898
0x7D6071
0x7D8C11
0x7D8C22
0x7D8C32
0x7D8C42
0x7D8C51
0x7D8C5A
0x7D8CE0
0x7D8D50
0x7D8D60
0x7D8DF2
0x7D8EB2
0x7D8ED0
0x7D90D0
0x7D90E1
0x7D9170
0x7D9220
0x7D92A1
0x7D93F0
0x7D9400
0x7D9461
0x7D9600
0x7D9690
0x7D9731
0x7D9A21
0x7D9A32
0x7D9A42
0x7D9A52
0x7D9A61
0x7D9A6A
0x7D9AF0
0x7D9B80
0x7D9B90
0x7D9C02
0x7D9CC2
0x7D9CF1
0x7DB061
0x7DB300
0x7DB421
0x7DB591
0x7DB59A
0x7DBAD1
0x7DBBF1
0x7DBDE1
0x7DBDEA
0x7DC1E1
0x7DC1F2
0x7DC202
0x7DC212
0x7DC221
0x7DC22A
0x7DC3C2
0x7DC482
0x7DC4A1
0x7DC601
0x7DC6A1
0x7DC7E1
0x7DC938
0x7DCD2B
0x7DD011
0x7DD968
0x7DDAF5
0x7DDB58
0x7DE600
0x7DE701
0x7DEEA1
0x7DF0B1
0x7DF1B1
0x7DF331
0x7DF561
0x7DF563
0x7DF710
0x7DF771
0x7DF900
0x7DFD01
0x7DFD12
0x7DFD22
0x7DFD32
0x7DFD41
0x7DFD4A
0x7DFDD0
0x7DFE60
0x7DFEE2
0x7DFFA2
0x7E0000
0x7E00A1
0x7E0116
0x7E0180
0x7E02E1
0x7E03B1
0x7E03E1
0x7E06B1
0x7E06BA
0x7E0941
0x7E118E
0x7E1911
0x7E1D30
0x7E1D50
0x7E1DD0
0x7E1E10
0x7E1FB0
0x7E2031
0x7E2151
0x7E22FA
0x7E2490
0x7E2620
0x7E2770
0x7E27E1
0x7E2C21
0x7E31D1
0x7E31DA
0x7E31DE
0x7E33B0
0x7E3511
0x7E3771
0x7E3C01
0x7E3C18
0x7E3F04
0x7E3F19
0x7E449C
0x7E45A1
0x7E4716
0x7E4722
0x7E49A1
0x7E49B2
0x7E49C2
0x7E49D2
0x7E49E1
0x7E49EA
0x7E4A70
0x7E4B10
0x7E4B82
0x7E4C42
0x7E4C91
0x7E4C9A
0x7E53A1
0x7E5511
0x7E56B1
0x7E5911
0x7E5917
0x7E5BA1
0x7E5C24
0x7E5CD6
0x7E5EC3
0x7E6076
0x7E65F1
0x7E66C1
0x7E6811
0x7E6930
0x7E6EB1
0x7E6EC2
0x7E6ED2
0x7E6EE2
0x7E6EF1
0x7E6EFA
0x7E6FF0
0x7E7000
0x7E7010
0x7E7092
0x7E7152
0x7E72A1
0x7E7323
0x7E73EC
0x7E780E
0x7E7AFD
0x7E81C0
0x7E81C4
0x7E8880
0x7E88CE
0x7E8971
0x7E8AD0
0x7E8C30
0x7E8CB1
0x7E8E44
0x7E8F90
0x7E90D0
0x7E9111
0x7E912B
0x7E93B0
0x7E93F9
0x7E942E
0x7E94E1
0x7E97B1
0x7E983A
0x7E9CC1
0x7E9F31
0x7EA030
0x7EA032
0x7EA034
0x7EA160
0x7EA240
0x7EA496
0x7EA681
0x7EA692
0x7EA6A2
0x7EA6B2
0x7EA6C1
0x7EA6CA
0x7EA750
0x7EA7C0
0x7EA7D0
0x7EA7E0
0x7EA862
0x7EA922
0x7EA980
0x7EA984
0x7EBF4C
0x7EC913
0x7ECA34
0x7ECCEE
0x7ECD9C
0x7ED1C1
0x7ED3A6
0x7ED6A1
0x7ED861
0x7ED9F5
0x7EDA70
0x7EDD30
0x7EDD94
0x7EDE41
0x7EDEC0
0x7EDF61
0x7EE910
0x7EE9E0
0x7EEBA1
0x7EED50
0x7EED81
0x7EF150
0x7EF154
0x7EF240
0x7EF4D1
0x7EF929
0x7EF971
0x7EF9E0
0x7EF9E4
0x7EFA70
0x7EFC41
0x7EFD00
0x7EFDD1
0x7EFF20
0x7EFF24
0x7EFF53
0x7F0124
0x7F0239
0x7F0465
0x7F05B8
0x7F09E1
0x7F14B1
0x7F1590
0x7F1594
0x7F1981
0x7F1992
0x7F19A2
0x7F19B2
0x7F19C1
0x7F19CA
0x7F1A50
0x7F1AC0
0x7F1AD0
0x7F1AE0
0x7F1B62
0x7F1C22
0x7F1C73
0x7F1D51
0x7F1E91
0x7F2070
0x7F2441
0x7F24BD
0x7F25A5
0x7F267B
0x7F2711
0x7F29AA
0x7F3E88
0x7F3ECD
0x7F3EF1
0x7F3EF7
0x7F3FA0
0x7F42A1
0x7F43E1
0x7F4581
0x7F4781
0x7F478A
0x7F4BF1
0x7F4C7F
0x7F4DE1
0x7F5241
0x7F54E0
0x7F55A0
0x7F5691
0x7F5BE1
0x7F5BF2
0x7F5C02
0x7F5C12
0x7F5C21
0x7F5C2A
0x7F5DC2
0x7F5E82
0x7F5F11
0x7F5F4A
0x7F5F68
0x7F6091
0x7F64E1
0x7F64F2
0x7F6502
0x7F6512
0x7F6521
0x7F652A
0x7F66C2
0x7F6782
0x7F68CB
0x7F6981
0x7F7040
0x7F70A0
0x7F7160
0x7F7168
0x7F7240
0x7F7244
0x7F72B1
0x7F7301
0x7F7303
0x7F7625
0x7F7B01
0x7F7B12
0x7F7B22
0x7F7B32
0x7F7B41
0x7F7B4A
0x7F7BD0
0x7F7C60
0x7F7CE2
0x7F7DA2
0x7F7E11
0x7F8000
0x7F8121
0x7F9350
0x7F93B0
0x7F93B4
0x7F9492
0x7F9721
0x7F97F9
0x7F9851
0x7F9861
0x7F98F5
0x7F9A74
0x7F9D36
0x7FA1D6
0x7FA488
0x7FA4B0
0x7FA5BE
0x7FB031
0x7FB732
0x7FB81E
0x7FBB6B
0x7FBC12
0x7FC043
0x7FC0C1
0x7FC1C0
0x7FC2E1
0x7FC481
0x7FC621
0x7FC9D1
0x7FC9E2
0x7FC9F2
0x7FCA02
0x7FCA11
0x7FCA1A
0x7FCAA0
0x7FCB30
0x7FCBB2
0x7FCC72
0x7FCC91
0x7FCE01
0x7FCE59
0x7FD021
0x7FD2D0
0x7FD351
0x7FD390
0x7FD392
0x7FD394
0x7FD400
0x7FD433
0x7FD550
0x7FD580
0x7FD610
0x7FD631
0x7FD6B5
0x7FD725
0x7FD745
0x7FD7B2
0x7FD831
0x7FD83A
0x7FD9AA
0x7FDA10
0x7FDA56
0x7FDA81
0x7FDB25
0x7FDB61
0x7FDC41
0x7FDD21
0x7FDDCB
0x7FE9A9
0x7FEA0E
0x7FEACB
0x7FEC7B
0x7FEE32
0x7FEE90
0x7FEF81
0x7FF2C3
0x7FF432
0x7FF4D0
0x7FF895
0x8001B3
0x8004F6
0x800651
0x80093D
0x800A97
0x800C2C
0x800F21
0x801210
0x801258
0x801351
0x8015C1
0x8015F1
0x8015FB
0x801740
0x8017A1
0x801941
0x8019B7
0x801AF0
0x801B40
0x801B80
0x801BB1
0x802020
0x802080
0x802270
0x80227F
0x8024D1
0x8024E2
0x8024F2
0x802502
0x802511
0x80251A
0x8025A0
0x802630
0x8026B2
0x802772
0x802840
0x8028B9
0x802A30
0x802AF1
0x802D51
0x802D7D
0x803015
0x80355A
0x803D71
0x803F01
0x804063
0x804079
0x8040E1
0x8046B1
0x804AF1
0x805B91
0x805B9A
0x805CD1
0x806311
0x806322
0x806332
0x806342
0x806351
0x80635A
0x8063E0
0x806450
0x806460
0x8064F2
0x8065B2
0x8065E1
0x8068C0
0x806951
0x806BD9
0x806C9C
0x807051
0x80705E
0x8071E1
0x8077A8
0x807850
0x807931
0x80799B
0x807BC1
0x807BCA
0x807CF7
0x807FC1
0x8082F1
0x808302
0x808312
0x808322
0x808331
0x80833A
0x808450
0x8084D2
0x808592
0x8085B1
0x808831
0x808C80
0x808CB1
0x808F81
0x809091
0x8091A4
0x809A47
0x809AE3
0x809AFC
0x809C21
0x809C2A
0x809E7B
0x809F50
0x80A461
0x80A553
0x80AB81
0x80AC11
0x80AD01
0x80AEC9
0x80B021
0x80B101
0x80B138
0x80B1D1
0x80B7D0
0x80B7D2
0x80B7D4
0x80B981
0x80B98A
0x80BB3C
0x80BE21
0x80BF11
0x80BFE1
0x80C047
0x80C351
0x80C6A1
0x80C6C1
0x80CF21
0x80D1C0
0x80D1E0
0x80D201
0x80D597
0x80D655
0x80D97E
0x80EB3A
0x80F5B3
0x80F621
0x80F8C2
0x80FD01
0x80FD12
0x80FD22
0x80FD32
0x80FD41
0x80FD4A
0x80FDD0
0x80FE60
0x80FEE2
0x80FFA2
0x810021
0x8103ED
0x810A75
0x8110D1
0x811101
0x811160
0x8112C6
0x81136A
0x811761
0x8118D1
0x811A41
0x812017
0x812261
0x812441
0x812BB1
0x812BC2
0x812BD2
0x812BE2
0x812BF1
0x812BFA
0x812CF0
0x812D00
0x812D10
0x812D92
0x812E52
0x812E71
0x813361
0x813B37
0x813BBA
0x814063
0x8141C0
0x8141E0
0x814310
0x8145A1
0x814940
0x814B31
0x814B50
0x814D41
0x8150C4
0x8151A8
0x815230
0x8152A1
0x815491
0x8156E0
0x815801
0x815812
0x815822
0x815832
0x815841
0x81584A
0x8158D0
0x815960
0x8159E2
0x815AA2
0x815AC1
0x816020
0x816050
0x816100
0x816130
0x816160
0x8163E0
0x8165F0
0x816641
0x816751
0x816A31
0x816D21
0x816DC1
0x816EE8
0x817011
0x817071
0x817181
0x817231
0x8172F1
0x817351
0x817783
0x817A61
0x817A72
0x817A82
0x817A92
0x817AA1
0x817AAA
0x817BA0
0x817BB0
0x817BD0
0x817C42
0x817D02
0x817D21
0x817D23
0x817DE1
0x817EF7
0x817F90
0x817FE1
0x8180C1
0x818161
0x818211
0x818481
0x8185A0
0x818661
0x8187CE
0x818F2D
0x819555
0x8199AD
0x819A9A
0x81B087
0x81B193
0x81BDA8
0x81CCB1
0x81D143
0x81D270
0x81D351
0x81D5DB
0x81E291
0x81E3B9
0x81E489
0x81E711
0x81E797
0x81EE06
0x81F271
0x81F391
0x81F541
0x81F54A
0x81F680
0x81FA57
0x81FB89
0x81FD07
0x81FEF1
0x81FFF1
0x820060
0x820096
0x820127
0x820321
0x8204A1
0x820641
0x8206E0
0x8207B1
0x8209B1
0x820B81
0x820ED1
0x820FD1
0x821331
0x821342
0x821352
0x821362
0x821371
0x82137A
0x821512
0x8215D2
0x8215F1
0x821651
0x821730
0x8219C1
0x821D20
0x821DE1
0x821E66
0x822081
0x822291
0x822381
0x8224B6
0x822770
0x8227DA
0x822EE1
0x8239E1
0x823D9D
0x823DA0
0x824491
0x82482E
0x824AF2
0x824C91
0x8254D1
0x825512
0x82579C
0x826081
0x826141
0x826411
0x826422
0x826432
0x826442
0x826451
0x82645A
0x8264E0
0x826550
0x826560
0x8265F2
0x8266B2
0x826720
0x826731
0x826791
0x8267F6
0x8269E1
0x8269F2
0x826A02
0x826A12
0x826A21
0x826A2A
0x826BC2
0x826C82
0x826CE0
0x826D00
0x826D10
0x826D20
0x826D77
0x826DA0
0x826DA4
0x826ED0
0x826F60
0x826FE0
0x827121
0x827430
0x8274D1
0x8275C0
0x8275D0
0x827630
0x827AC1
0x827AD2
0x827AE2
0x827AF2
0x827B01
0x827B0A
0x827C20
0x827C30
0x827CA2
0x827D62
0x827D81
0x827E83
0x8285A1
0x828861
0x828B71
0x828C98
0x829581
0x829592
0x8295A2
0x8295B2
0x8295C1
0x8295CA
0x829650
0x8296C0
0x8296D0
0x8296E0
0x829762
0x829822
0x829880
0x829970
0x829B40
0x829DA1
0x829DB2
0x829DC2
0x829DD2
0x829DE1
0x829DEA
0x829E70
0x829F10
0x829F82
0x82A042
0x82A291
0x82A2A2
0x82A2B2
0x82A2C2
0x82A2D1
0x82A2DA
0x82A3D0
0x82A3E0
0x82A400
0x82A472
0x82A532
0x82A9AF
0x82A9C0
0x82AC11
0x82AC22
0x82AC32
0x82AC42
0x82AC51
0x82AC5A
0x82ACE0
0x82AD50
0x82AD60
0x82ADF2
0x82AEB2
0x82AED1
0x82BE33
0x82C35E
0x82C643
0x82C64F
0x82CB50
0x82D450
0x82D670
0x82D7B1
0x82D891
0x82D9CB
0x82DA01
0x82DBE1
0x82E001
0x82E251
0x82E3B1
0x82E7E1
0x82ED11
0x82ED22
0x82ED32
0x82ED42
0x82ED51
0x82ED5A
0x82EDE0
0x82EE50
0x82EE60
0x82EEF2
0x82EFB2
0x82F171
0x82F391
0x82F445
0x82F941
0x82F9F0
0x82FBF0
0x82FCA1
0x830070
0x830171
0x830491
0x83058D
0x8306A0
0x830860
0x830A01
0x830DD1
0x83260A
0x832815
0x8328C0
0x8328E1
0x832A51
0x832AAC
0x832E81
0x832F20
0x833084
0x833456
0x833641
0x8337E1
0x833B81
0x833B92
0x833BA2
0x833BB2
0x833BC1
0x833BCA
0x833C50
0x833CC0
0x833CD0
0x833CE0
0x833D62
0x833E22
0x833E41
0x833ED3
0x8344F3
0x834DC3
0x834EFA
0x83509C
0x835367
0x835549
0x835628
0x835880
0x836211
0x8362F0
0x8367C8
0x8369AF
0x8369D6
0x836A31
0x836A6F
0x836B7E
0x836DF1
0x837290
0x837371
0x837791
0x8377A2
0x8377B2
0x8377C2
0x8377D1
0x8377DA
0x8378D0
0x8378E0
0x837900
0x837972
0x837A32
0x837A51
0x837B88
0x837D41
0x838339
0x8388E1
0x8388F2
0x838902
0x838912
0x838921
0x83892A
0x838AC2
0x838B82
0x838BD1
0x838BDA
0x839C3E
0x839D91
0x839E33
0x83A411
0x83A413
0x83A4C1
0x83A671
0x83A780
0x83A952
0x83A962
0x83A972
0x83A9E1
0x83A9F1
0x83A9FA
0x83AC83
0x83AC8C
0x83AC94
0x83AFC1
0x83AFD2
0x83AFE2
0x83AFF2
0x83B001
0x83B00A
0x83B120
0x83B130
0x83B1A2
0x83B262
0x83B280
0x83B2B0
0x83B2E1
0x83B2E3
0x83B34A
0x83B3A1
0x83B6A6
0x83B9D8
0x83BA6C
0x83BF1E
0x83BFE5
0x83C011
0x83C16F
0x83C1F7
0x83C960
0x83CDA1
0x83CDB2
0x83CDC2
0x83CDD2
0x83CDE1
0x83CDEA
0x83CE70
0x83CF10
0x83CF82
0x83D042
0x83D071
0x83D13E
0x83D4B1
0x83DB25
0x83E1E6
0x83E58C
0x83F120
0x83F140
0x83F1E1
0x840F8C
0x8410EC
0x8411BB
0x841301
0x841321
0x841370
0x8413B1
0x841441
0x841550
0x841660
0x841664
0x84166A
0x841687
0x841740
0x841744
0x841A81
0x841A92
0x841AA2
0x841AB2
0x841AC1
0x841ACA
0x841B50
0x841BC0
0x841BD0
0x841BE0
0x841C62
0x841D22
0x841E30
0x841EA1
0x841F01
0x84390C
0x843924
0x84395E
0x843B43
0x843C51
0x843E4B
0x844F00
0x844F04
0x844F91
0x845B71
0x845BAC
0x845C71
0x845D41
0x845E71
0x846321
0x846332
0x846342
0x846352
0x846361
0x84636A
0x8463F0
0x846480
0x846490
0x846502
0x8465C2
0x8465E0
0x846610
0x846680
0x8466F0
0x846780
0x846801
0x846891
0x846901
0x8469D1
0x8469F0
0x846A10
0x846A90
0x846A9C
0x846AF0
0x846DF1
0x846E02
0x846E12
0x846E22
0x846E31
0x846E3A
0x846F50
0x846FD2
0x847092
0x847190
0x847260
0x8472D7
0x847481
0x847541
0x847761
0x8477F0
0x8479B0
0x847B20
0x847C30
0x847C64
0x847D40
0x847D6F
0x847FB1
0x847FC2
0x847FD2
0x847FE2
0x847FF1
0x847FFA
0x8480F0
0x848100
0x848110
0x848192
0x848252
0x848271
0x848380
0x848420
0x8484C1
0x8487EA
0x848942
0x848B91
0x848D4C
0x848D53
0x848DE0
0x848EB0
0x848F10
0x848FD0
0x849030
0x849111
0x8491C0
0x849200
0x849451
0x849462
0x849472
0x849482
0x849491
0x84949A
0x849590
0x8495A0
0x8495C0
0x849632
0x8496F2
0x849711
0x8498C0
0x8498C4
0x849AC1
0x849B02
0x849EB0
0x849FB1
0x84A381
0x84A392
0x84A3A2
0x84A3B2
0x84A3C1
0x84A3CA
0x84A450
0x84A4C0
0x84A4D0
0x84A4E0
0x84A562
0x84A622
0x84A683
0x84A740
0x84AC60
0x84AC81
0x84AE0E
0x84AEA1
0x84B0D1
0x84B340
0x84B420
0x84B460
0x84B541
0x84B691
0x84B991
0x84B9A2
0x84B9B2
0x84B9C2
0x84B9D1
0x84B9DA
0x84BAD0
0x84BAE0
0x84BB00
0x84BB72
0x84BC32
0x84BC50
0x84BD74
0x84BDAE
0x84BDC1
0x84BFF1
0x84C0C4
0x84C122
0x84C132
0x84C142
0x84C1B1
0x84C1C1
0x84C1CA
0x84C250
0x84C453
0x84C45C
0x84C464
0x84C6D0
0x84C6D4
0x84C8AC
0x84CB70
0x84CB81
0x84CC44
0x84CCD5
0x84CF41
0x84CF52
0x84CF62
0x84CF72
0x84CF81
0x84CF8A
0x84D213
0x84D21C
0x84D224
0x84D310
0x84D312
0x84D450
0x84D458
0x84D522
0x84D532
0x84D542
0x84D5B1
0x84D5C1
0x84D5CA
0x84D650
0x84D853
0x84D85C
0x84D864
0x84DAC0
0x84DC11
0x84E031
0x84E042
0x84E052
0x84E062
0x84E071
0x84E07A
0x84E212
0x84E2D2
0x84E311
0x84EB10
0x84EB71
0x84ED91
0x84EF71
0x84F281
0x84F28A
0x84FE81
0x84FE8A
0x84FEF2
0x8500B8
0x850A21
0x850DE1
0x850E6C
0x8515C9
0x8518EE
0x8519CC
0x851CC3
0x851EFB
0x852071
0x852221
0x8522CC
0x8525F4
0x85268C
0x852711
0x8527F1
0x852D71
0x852D82
0x852D92
0x852DA2
0x852DB1
0x852DBA
0x852EE0
0x852F52
0x853012
0x853030
0x8530A1
0x853503
0x854AB0
0x854C00
0x855000
0x8559F1
0x855BC1
0x855E31
0x855E42
0x855E52
0x855E62
0x855E71
0x855E7A
0x856103
0x85610C
0x856114
0x85637C
0x8563A6
0x8563B1
0x856471
0x8564C0
0x856CA1
0x856D0D
0x856E01
0x856F61
0x8570A1
0x8570B2
0x8570C2
0x8570D2
0x8570E1
0x8570EA
0x857170
0x857373
0x85737C
0x857384
0x8575E1
0x857A41
0x857A52
0x857A62
0x857A72
0x857A81
0x857A8A
0x857B80
0x857B90
0x857C22
0x857CE2
0x857D11
0x858A79
0x858C21
0x858F61
0x858F72
0x858F82
0x858F92
0x858FA1
0x858FAA
0x8590A0
0x8590B0
0x8590D0
0x859142
0x859202
0x859220
0x859341
0x85934A
0x859911
0x859ACF
0x859ADE
0x859ED7
0x859EF8
0x85A7DB
0x85A98F
0x85AAFF
0x85AE4D
0x85BD85
0x85BDE0
0x85BECD
0x85BF7C
0x85C26C
0x85C7B0
0x85C891
0x85CA01
0x85CA5D
0x85D120
0x85D201
0x85D351
0x85D4E1
0x85D7C9
0x85D7F5
0x85D825
0x85D85A
0x85D892
0x85D8A2
0x85D8B2
0x85D8B9
0x85D921
0x85D931
0x85D93A
0x85D9C4
0x85D9D0
0x85DB21
0x85DE63
0x85DE6C
0x85DE74
0x85E301
0x85E312
0x85E322
0x85E332
0x85E341
0x85E34A
0x85E3D0
0x85E460
0x85E4E2
0x85E5A2
0x85E5D1
0x85E63B
0x85E901
0x85ED00
0x85EDE1
0x85F261
0x85F631
0x85F925
0x860040
0x860571
0x8613D1
0x8614F9
0x861640
0x861B01
0x861BA8
0x8623B8
0x862722
0x862BBC
0x862DE1
0x863575
0x8636A9
0x863A20
0x863FF1
0x864441
0x864981
0x865990
0x86650B
0x866527
0x866591
0x8665A7
0x8666BF
0x866BB8
0x866BCA
0x866C4D
0x866F9C
0x8670FA
0x8672F9
0x867341
0x8676F8
0x867A18
0x867D71
0x8680D1
0x8685DC
0x868661
0x868981
0x868D01
0x868E41
0x868E43
0x868EB1
0x868F56
0x869011
0x8690B1
0x869281
0x86928A
0x869341
0x8695BE
0x869604
0x869626
0x869941
0x869A92
0x869B81
0x869E0D
0x86A4BD
0x86A9F1
0x86AD03
0x86ADE1
0x86B021
0x86B098
0x86BA93
0x86BA98
0x86BD81
0x86BD92
0x86BDA2
0x86BDB2
0x86BDC1
0x86BDCA
0x86BE50
0x86BEC0
0x86BED0
0x86BEE0
0x86BF62
0x86C022
0x86C0D5
0x86C121
0x86C241
0x86C290
0x86C2F3
0x86C7C0
0x86C8B1
0x86CAF1
0x86CAFA
0x86CB43
0x86CED2
0x86DB81
0x86DFE0
0x86E058
0x86E879
0x86E8B4
0x86E8D0
0x86F3BC
0x86F424
0x86F6D1
0x87013D
0x870141
0x870300
0x870320
0x8703D1
0x870550
0x870554
0x872121
0x8721A3
0x8721A6
0x8722BB
0x872733
0x87292E
0x872A60
0x872A64
0x8740B0
0x874290
0x874294
0x8746C0
0x874D00
0x874DF1
0x874FB0
0x874FB4
0x8753E4
0x8756DC
0x875840
0x8759A0
0x8759A4
0x875A71
0x875C11
0x875C65
0x875F21
0x876001
0x8760E0
0x8760E4
0x876508
0x876681
0x87671F
0x8767AA
0x87691A
0x876BDD
0x876BEE
0x876CF1
0x87735A
0x877386
0x8773A5
0x877A33
0x877C66
0x87808A
0x878BE0
0x878DBB
0x8791A0
0x879220
0x879224
0x879280
0x8795D4
0x879621
0x879D64
0x87A021
0x87A350
0x87A380
0x87A491
0x87A510
0x87A661
0x87A990
0x87AA51
0x87AE20
0x87AF41
0x87AF52
0x87AF62
0x87AF72
0x87AF81
0x87AF8A
0x87B080
0x87B090
0x87B122
0x87B1E2
0x87B83A
0x87BB61
0x87BC40
0x87BD2A
0x87BE18
0x87BF31
0x87C075
0x87C111
0x87C173
0x87C1B1
0x87C351
0x87C399
0x87C3B1
0x87CACC
0x87D4EB
0x87D6E6
0x87DA31
0x87DDB1
0x87DF31
0x87DFA1
0x87DFD4
0x87DFEF
0x87E04B
0x87E066
0x87E1F6
0x87E2A3
0x87E380
0x87E427
0x87E4D9
0x87E552
0x87E574
0x87E575
0x87E6AF
0x87E7AB
0x87E853
0x87E86C
0x87E8A1
0x87EA74
0x87EC71
0x87ECB4
0x87EEC1
0x87EECA
0x87F061
0x87F2A1
0x87F304
0x87F45C
0x87F5E1
0x87F6B9
0x87F6E5
0x87F7B1
0x87F801
0x87FD6D
0x880851
0x8809C1
0x880AE1
0x880CE1
0x880E01
0x881011
0x8810CD
0x8810E9
0x881151
0x881261
0x8812CF
0x881931
0x881A21
0x881A2A
0x881A92
0x881C10
0x881CF3
0x881DC1
0x881E51
0x881E5A
0x882011
0x882889
0x8829FC
0x882A28
0x882AE8
0x882C7F
0x882CA4
0x882D20
0x882D61
0x882EE0
0x882F70
0x883021
0x8831A0
0x8832C0
0x883370
0x883400
0x883490
0x883540
0x8835D0
0x883711
0x883D51
0x883DA0
0x883DA5
0x883F71
0x884331
0x884407
0x884501
0x884640
0x884700
0x8847C0
0x884841
0x8848E1
0x8859A8
0x885A2E
0x885A5D
0x885F4D
0x886211
0x8862D0
0x8862D4
0x886421
0x886560
0x886564
0x8866D1
0x886811
0x8868E1
0x886AE1
0x886D41
0x886DE8
0x886E51
0x887171
0x887226
0x887281
0x887421
0x8876B1
0x8877E1
0x887980
0x887DA0
0x887ED0
0x887F00
0x887F90
0x887FE0
0x888071
0x888121
0x8884E0
0x8884E4
0x888640
0x888644
0x888850
0x888854
0x888C91
0x888CA2
0x888CB2
0x888CC2
0x888CD1
0x888CDA
0x888DD0
0x888DE0
0x888E00
0x888E72
0x888F32
0x888F50
0x88A99C
0x88B491
0x88C256
0x88CE30
0x88CE91
0x88D151
0x88D162
0x88D172
0x88D182
0x88D191
0x88D19A
0x88D290
0x88D2A0
0x88D2C0
0x88D332
0x88D3F2
0x88D411
0x88D531
0x88D578
0x88D5D0
0x88DA21
0x88DA32
0x88DA42
0x88DA52
0x88DA61
0x88DA6A
0x88DAF0
0x88DB80
0x88DB90
0x88DC02
0x88DCC2
0x88DCE1
0x88E0A0
0x88E181
0x88E88F
0x88EA78
0x88EBBD
0x88EBEB
0x88F6BE
0x88FF3C
0x8900C0
0x890277
0x890361
0x890421
0x890511
0x89051A
0x890790
0x890D11
0x891081
0x891092
0x8910A2
0x8910B2
0x8910C1
0x8910CA
0x891150
0x8911C0
0x8911D0
0x8911E0
0x891262
0x891322
0x891340
0x8913A1
0x8915B0
0x8916D1
0x8916E2
0x8916F2
0x891702
0x891711
0x89171A
0x8917A0
0x891830
0x8918B2
0x891972
0x891E30
0x891E51
0x892111
0x892290
0x892F26
0x895120
0x895340
0x895390
0x895451
0x895494
0x8955B1
0x895972
0x895AF0
0x895BD0
0x895C3E
0x895DE0
0x895EE0
0x895FBA
0x896040
0x896437
0x896581
0x8965F1
0x896940
0x896A41
0x896C20
0x896C60
0x896F01
0x896F12
0x896F22
0x896F32
0x896F41
0x896F4A
0x896FD0
0x897060
0x8970E2
0x8971A2
0x8971C0
0x8972B1
0x8974C1
0x897751
0x8978C1
0x897941
0x897943
0x897ADD
0x897B31
0x897B7D
0x897BD0
0x897CC0
0x898081
0x898092
0x8980A2
0x8980B2
0x8980C1
0x8980CA
0x898150
0x8981C0
0x8981D0
0x8981E0
0x898262
0x898322
0x898340
0x898380
0x8983D0
0x898401
0x898560
0x8985C0
0x898610
0x898634
0x89868F
0x8986A1
0x898860
0x898B01
0x898B12
0x898B22
0x898B32
0x898B41
0x898B4A
0x898BD0
0x898C60
0x898CE2
0x898DA2
0x898DF1
0x89A2C0
0x89A310
0x89A6F1
0x89A931
0x89ABE0
0x89AC81
0x89AE20
0x89AF41
0x89AF52
0x89AF62
0x89AF72
0x89AF81
0x89AF8A
0x89B080
0x89B090
0x89B122
0x89B1E2
0x89B201
0x89B2A8
0x89B67A
0x89C3F1
0x89C641
0x89C820
0x89C824
0x89CB86
0x89CDF0
0x89CE1C
0x89CF21
0x89D381
0x89D861
0x89D872
0x89D882
0x89D892
0x89D8A1
0x89D8AA
0x89D9A0
0x89D9B0
0x89D9D0
0x89DA42
0x89DB02
0x89DB33
0x89DBC0
0x89DC93
0x89DDF4
0x89DEB1
0x89DF74
0x89E051
0x89E2E1
0x89E593
0x89E653
0x89E740
0x89E820
0x89E880
0x89E931
0x89E991
0x89EA40
0x89EAA0
0x89EAD0
0x89EB51
0x89EDCE
0x89F071
0x8A0481
0x8A0483
0x8A0901
0x8A0C51
0x8A0E71
0x8A0F71
0x8A10E1
0x8A1281
0x8A17C0
0x8A1871
0x8A1F81
0x8A1F92
0x8A1FA2
0x8A1FB2
0x8A1FC1
0x8A1FCA
0x8A2050
0x8A20C0
0x8A20D0
0x8A20E0
0x8A2162
0x8A2222
0x8A2240
0x8A22CF
0x8A22F0
0x8A2350
0x8A2381
0x8A24B0
0x8A24B4
0x8A258C
0x8A3BF1
0x8A3ED0
0x8A3F91
0x8A4090
0x8A4180
0x8A41A1
0x8A4320
0x8A4350
0x8A4430
0x8A4520
0x8A4580
0x8A45A0
0x8A46C1
0x8A4841
0x8A4BC1
0x8A4BD2
0x8A4BE2
0x8A4BF2
0x8A4C01
0x8A4C0A
0x8A4D20
0x8A4D30
0x8A4DA2
0x8A4E62
0x8A4ECC
0x8A4EF1
0x8A53AB
0x8A592A
0x8A5E30
0x8A6180
0x8A620F
0x8A6541
0x8A6552
0x8A6562
0x8A6572
0x8A6581
0x8A658A
0x8A6680
0x8A6690
0x8A6722
0x8A67E2
0x8A6861
0x8A68C7
0x8A6B13
0x8A794E
0x8A81F1
0x8A857D
0x8A859D
0x8A8D3B
0x8A8E30
0x8A8E71
0x8A9481
0x8A9492
0x8A94A2
0x8A94B2
0x8A94C1
0x8A94CA
0x8A9550
0x8A95C0
0x8A95D0
0x8A95E0
0x8A9662
0x8A9722
0x8A9740
0x8A9744
0x8AA6E2
0x8AA700
0x8AA9CB
0x8AB0E2
0x8ABE41
0x8ABF80
0x8ABF82
0x8AC121
0x8AC421
0x8AC432
0x8AC442
0x8AC452
0x8AC461
0x8AC46A
0x8AC4F0
0x8AC580
0x8AC590
0x8AC602
0x8AC6C2
0x8AC700
0x8AC704
0x8AC956
0x8ACB03
0x8ACB81
0x8ACB8A
0x8ACC48
0x8AD761
0x8AD7CF
0x8ADA01
0x8ADCF1
0x8ADDB2
0x8ADE90
0x8ADE92
0x8ADF01
0x8ADF07
0x8AE011
0x8AE240
0x8AE38A
0x8AE4A1
0x8AEB60
0x8AEC90
0x8AED10
0x8AED61
0x8AF151
0x8AF153
0x8AF281
0x8AF3D0
0x8AF7B1
0x8AF7DE
0x8AF8A1
0x8AF930
0x8AF9C1
0x8AF9F7
0x8AFAB0
0x8AFB31
0x8AFB45
0x8AFD61
0x8AFD6A
0x8B00BE
0x8B0111
0x8B02B0
0x8B04C0
0x8B0521
0x8B05E1
0x8B08A1
0x8B093C
0x8B0B41
0x8B0CE1
0x8B0D82
0x8B1761
0x8B1772
0x8B1782
0x8B1792
0x8B17A1
0x8B17AA
0x8B18A0
0x8B18B0
0x8B18D0
0x8B1942
0x8B1A02
0x8B1A21
0x8B1B11
0x8B1B98
0x8B1BF1
0x8B1CA8
0x8B25F1
0x8B2D09
0x8B3010
0x8B30B0
0x8B31A1
0x8B3910
0x8B3914
0x8B4371
0x8B4675
0x8B473E
0x8B4D08
0x8B4DBE
0x8B4E77
0x8B4F20
0x8B500D
0x8B536A
0x8B60D7
0x8B6135
0x8B63F1
0x8B66C1
0x8B77D1
0x8B7B00
0x8B7B04
0x8B83B1
0x8B84DB
0x8B8717
0x8B8A76
0x8B8AD1
0x8B8BA8
0x8B8C2A
0x8B8CA0
0x8B8CED
0x8B9340
0x8B94F1
0x8B94F3
0x8B9560
0x8B9771
0x8B9A81
0x8B9A92
0x8B9AA2
0x8B9AB2
0x8B9AC1
0x8B9ACA
0x8B9B50
0x8B9BC0
0x8B9BD0
0x8B9BE0
0x8B9C62
0x8B9D22
0x8B9D40
0x8B9F11
0x8BA23A
0x8BAB1C
0x8BAEC3
0x8BB391
0x8BB8A1
0x8BBB51
0x8BBB61
0x8BBDA8
0x8BBE51
0x8BC000
0x8BC0E1
0x8BC1F8
0x8BC3D0
0x8BC448
0x8BC4B2
0x8BC4C2
0x8BC4D2
0x8BC541
0x8BC551
0x8BC55A
0x8BC5E0
0x8BC7E3
0x8BC7EC
0x8BC7F4
0x8BC948
0x8BC960
0x8BC964
0x8BCE4F
0x8BCE71
0x8BD110
0x8BD114
0x8BD11D
0x8BD132
0x8BD380
0x8BE199
0x8BE462
0x8BE552
0x8BE8C2
0x8BF3D4
0x8BFB81
0x8BFCB5
0x8BFD16
0x8C04FE
0x8C059E
0x8C0B17
0x8C0C01
0x8C1983
0x8C2B6D
0x8C2D00
0x8C2DB0
0x8C2DB9
0x8C2DF1
0x8C2F51
0x8C2FE0
0x8C3000
0x8C3028
0x8C303E
0x8C3320
0x8C3390
0x8C33F1
0x8C3481
0x8C3610
0x8C3614
0x8C3931
0x8C3942
0x8C3952
0x8C3962
0x8C3971
0x8C397A
0x8C3B12
0x8C3BD2
0x8C3D91
0x8C42F0
0x8C43F1
0x8C45A1
0x8C4CF1
0x8C4DD0
0x8C5111
0x8C5180
0x8C51F1
0x8C5558
0x8C5611
0x8C5741
0x8C5A41
0x8C5A52
0x8C5A62
0x8C5A72
0x8C5A81
0x8C5A8A
0x8C5B80
0x8C5B90
0x8C5C22
0x8C5CE2
0x8C5D21
0x8C685C
0x8C69F8
0x8C6B08
0x8C6B89
0x8C7267
0x8C743B
0x8C7BC1
0x8C7BD2
0x8C7BE2
0x8C7BF2
0x8C7C01
0x8C7C0A
0x8C7D20
0x8C7D30
0x8C7DA2
0x8C7E62
0x8C7EA0
0x8C7EA4
0x8C81DB
0x8C86B9
0x8C8989
0x8C8BD2
0x8C904A
0x8C92D9
0x8C96F4
0x8C9E2C
0x8CA731
0x8CAB5C
0x8CADD1
0x8CAF41
0x8CB90D
0x8CB9B1
0x8CB9BA
0x8CBE81
0x8CBEA0
0x8CC455
0x8CC9A1
0x8CC9B2
0x8CC9C2
0x8CC9D2
0x8CC9E1
0x8CC9EA
0x8CCA70
0x8CCB10
0x8CCB82
0x8CCC42
0x8CCC63
0x8CCE61
0x8CD0C0
0x8CD5F8
0x8CD8A9
0x8CDB91
0x8CDB9A
0x8CE211
0x8CE222
0x8CE232
0x8CE242
0x8CE251
0x8CE25A
0x8CE2E0
0x8CE350
0x8CE360
0x8CE3F2
0x8CE4B2
0x8CE5A1
0x8CE731
0x8CE79A
0x8CE8E8
0x8CE9D7
0x8CE9E6
0x8CEDAF
0x8CEF17
0x8CF07B
0x8CF14D
0x8CF162
0x8CF267
0x8CF321
0x8CF358
0x8CF3B1
0x8CF89D
0x8CFC8A
0x8CFEC3
0x8CFEEC
0x8CFF12
0x8D0118
0x8D011C
0x8D04D7
0x8D0625
0x8D0671
0x8D0CB3
0x8D10A1
0x8D10A7
0x8D1211
0x8D1411
0x8D1518
0x8D1950
0x8D1954
0x8D1AA1
0x8D1F29
0x8D1F31
0x8D1F9A
0x8D2BA1
0x8D2EA1
0x8D2F60
0x8D2F62
0x8D3091
0x8D313C
0x8D33B1
0x8D36A1
0x8D37D1
0x8D3DE8
0x8D3EB4
0x8D3ED0
0x8D3EE5
0x8D3EFE
0x8D3FBB
0x8D3FE8
0x8D4394
0x8D43DD
0x8D58C1
0x8D58E8
0x8D5DE6
0x8D6870
0x8D6EB3
0x8D7221
0x8D7248
0x8D731E
0x8D732E
0x8D7495
0x8D7635
0x8D778D
0x8D77EC
0x8D7931
0x8D7B10
0x8D7BD1
0x8D7F6C
0x8D80D1
0x8D80D3
0x8D8260
0x8D8441
0x8D844A
0x8D8641
0x8D8643
0x8D8791
0x8D8831
0x8D8910
0x8D8C50
0x8D8CE1
0x8D8D5E
0x8D8D73
0x8D9036
0x8D9071
0x8D908F
0x8D912C
0x8D9195
0x8D91A9
0x8D91AB
0x8D91AC
0x8D91D0
0x8D9301
0x8D941D
0x8D948D
0x8D94BF
0x8D956A
0x8D9710
0x8D9762
0x8D9776
0x8D9865
0x8D990A
0x8D9968
0x8D997C
0x8D99F4
0x8D9A35
0x8D9AE7
0x8D9B8B
0x8D9BC4
0x8D9CFA
0x8D9E2F
0x8D9F45
0x8D9FB2
0x8DA01B
0x8DA0AB
0x8DA0E4
0x8DA13D
0x8DA1AC
0x8DA326
0x8DA369
0x8DA3BF
0x8DA3F0
0x8DA4C3
0x8DA4F1
0x8DA4FC
0x8DA515
0x8DA531
0x8DA560
0x8DA56E
0x8DA699
0x8DA6CC
0x8DA76D
0x8DA7A4
0x8DA7DB
0x8DA809
0x8DA814
0x8DA82D
0x8DA840
0x8DA842
0x8DA942
0x8DA971
0x8DACB1
0x8DACC2
0x8DACD2
0x8DACE2
0x8DACF1
0x8DACFA
0x8DADF0
0x8DAE00
0x8DAE10
0x8DAE92
0x8DAF52
0x8DB108
0x8DB118
0x8DB180
0x8DB291
0x8DB42D
0x8DB6B1
0x8DC4B0
0x8DCA50
0x8DE0A5
0x8DF261
0x8DF3FE
0x8DF411
0x8DF811
0x8DF81A
0x8DFEA0
0x8DFEB0
0x8DFEB2
0x8DFEB4
0x8DFF31
0x8E0335
0x8E096D
0x8E0F69
0x8E10DD
0x8E1374
0x8E1B87
0x8E1CA4
0x8E22CB
0x8E2C4D
0x8E36D2
0x8E4CBC
0x8E5441
0x8E5651
0x8E5901
0x8E5A4F
0x8E62C0
0x8E62D3
0x8E6331
0x8E6601
0x8E6650
0x8E69B1
0x8E6A37
0x8E6B61
0x8E78E1
0x8E7BAD
0x8E7CD3
0x8E7F10
0x8E80C1
0x8E8321
0x8E8551
0x8E8580
0x8E87E1
0x8E8985
0x8E8E31
0x8E97C1
0x8E97CA
0x8E97DA
0x8E9C61
0x8EA250
0x8EA3E1
0x8EA941
0x8EA952
0x8EA962
0x8EA972
0x8EA981
0x8EA98A
0x8EAA80
0x8EAA90
0x8EAB22
0x8EABE2
0x8EAC00
0x8EAC10
0x8EAE71
0x8EAE82
0x8EAE92
0x8EAEA2
0x8EAEB1
0x8EAEBA
0x8EAFE0
0x8EB052
0x8EB112
0x8EB131
0x8EB411
0x8EB7F1
0x8EBE81
0x8EBE8A
0x8EBF78
0x8EBF99
0x8EC060
0x8EC579
0x8ECB10
0x8ED011
0x8ED390
0x8ED54C
0x8ED620
0x8ED63C
0x8ED901
0x8ED912
0x8ED922
0x8ED932
0x8ED941
0x8ED94A
0x8ED9D0
0x8EDA60
0x8EDAE2
0x8EDBA2
0x8EDDE1
0x8EDE31
0x8EE0D1
0x8EE0E2
0x8EE0F2
0x8EE102
0x8EE111
0x8EE11A
0x8EE1A0
0x8EE230
0x8EE2B2
0x8EE372
0x8EE3D0
0x8EE4C1
0x8EE560
0x8EE6F0
0x8EE702
0x8EE740
0x8EE747
0x8EE9B0
0x8EEDD1
0x8EEDE2
0x8EEDF2
0x8EEE02
0x8EEE11
0x8EEE1A
0x8EEEA0
0x8EEF30
0x8EEFB2
0x8EF072
0x8EF091
0x8EF1C1
0x8EF340
0x8EF37B
0x8EF388
0x8EF395
0x8EF3A2
0x8EF535
0x8EF53E
0x8EF547
0x8EF550
0x8EF591
0x8EF6AE
0x8EF7C4
0x8EF7D0
0x8EF7F1
0x8EF970
0x8EFA90
0x8EFA92
0x8EFAC1
0x8EFAD1
0x8EFB41
0x8EFD81
0x8EFEC1
0x8F00E1
0x8F0143
0x8F0230
0x8F0271
0x8F03F1
0x8F0550
0x8F0690
0x8F06D1
0x8F07B5
0x8F084F
0x8F08F0
0x8F0971
0x8F0B90
0x8F0BB1
0x8F0C61
0x8F0DE1
0x8F1110
0x8F1371
0x8F14A3
0x8F14A4
0x8F159B
0x8F168F
0x8F17C2
0x8F180B
0x8F188F
0x8F18FB
0x8F1970
0x8F1A60
0x8F1A6B
0x8F1AD5
0x8F1B30
0x8F1B80
0x8F1BE1
0x8F1CD1
0x8F1DC1
0x8F1E21
0x8F1ECB
0x8F1F35
0x8F2211
0x8F22E1
0x8F24C1
0x8F2690
0x8F26E0
0x8F2740
0x8F27A1
0x8F28EA
0x8F2901
0x8F2A21
0x8F2B0A
0x8F2B81
0x8F2D6E
0x8F2D81
0x8F2F01
0x8F3350
0x8F3370
0x8F3391
0x8F34A0
0x8F3721
0x8F3841
0x8F3A11
0x8F3AF1
0x8F3C41
0x8F40E1
0x8F41E1
0x8F43B1
0x8F4AE1
0x8F54E1
0x8F54F2
0x8F5502
0x8F5512
0x8F5521
0x8F552A
0x8F56C2
0x8F5782
0x8F58A0
0x8F58B0
0x8F58C0
0x8F58D1
0x8F5D81
0x8F5D92
0x8F5DA2
0x8F5DB2
0x8F5DC1
0x8F5DCA
0x8F5E50
0x8F5EC0
0x8F5ED0
0x8F5EE0
0x8F5F62
0x8F6022
0x8F6070
0x8F60C1
0x8F62F0
0x8F6460
0x8F64B0
0x8F6505
0x8F6551
0x8F6741
0x8F6840
0x8F6951
0x8F6A2E
0x8F6BD1
0x8F6E40
0x8F6E42
0x8F6FE1
0x8F7391
0x8F75FF
0x8F76AB
0x8F76C1
0x8F792F
0x8F79DB
0x8F79F1
0x8F7C5F
0x8F7D0B
0x8F7D51
0x8F7E2E
0x8F7FD1
0x8F8201
0x8F82DE
0x8F8481
0x8F84CB
0x8F84D5
0x8F84DE
0x8F8503
0x8F86A1
0x8F86AA
0x8F8A21
0x8F8A2A
0x8F8DA1
0x8F8DAA
0x8F90A1
0x8F90AA
0x8F9390
0x8F9441
0x8F9570
0x8F9660
0x8F9AD1
0x8F9AE2
0x8F9AF2
0x8F9B02
0x8F9B11
0x8F9B1A
0x8F9BA0
0x8F9C30
0x8F9CB2
0x8F9D72
0x8F9DD4
0x8F9DD9
0x8F9E21
0x8F9F14
0x8F9FE0
0x8F9FE8
0x8FA0C0
0x8FA26C
0x8FA297
0x8FA2C2
0x8FA2ED
0x8FA318
0x8FA4B9
0x8FA51F
0x8FA530
0x8FA6C8
0x8FA8E1
0x8FA9B0
0x8FACD1
0x8FAF61
0x8FAF6B
0x8FB0D1
0x8FB6C0
0x8FB771
0x8FB781
0x8FB7E8
0x8FB8A1
0x8FB99A
0x8FBA00
0x8FBAB1
0x8FBBC9
0x8FBD61
0x8FC451
0x8FC46A
0x8FC8A1
0x8FD56C
0x8FE180
0x8FE19E
0x8FE430
0x900810
0x900901
0x900950
0x90096C
0x900A72
0x900B1F
0x900B7B
0x900C90
0x900CF1
0x900EE1
0x9013A1
0x9017E0
0x901831
0x9018CA
0x9019F3
0x901AD5
0x901B21
0x901CA1
0x901D51
0x902051
0x902401
0x9028F8
0x902961
0x902F61
0x903331
0x903451
0x9039C1
0x9039D2
0x9039E2
0x9039F2
0x903A01
0x903A0A
0x903B20
0x903B30
0x903BA2
0x903C62
0x903C81
0x903D72
0x904558
0x9045C1
0x9046CC
0x904770
0x904930
0x904C71
0x904C82
0x904C92
0x904CA2
0x904CB1
0x904CBA
0x904DE0
0x904E52
0x904F12
0x904F31
0x905211
0x9053B1
0x905D90
0x905FC1
0x9063A0
0x906491
0x9064AC
0x9064EF
0x90664E
0x906669
0x9068C0
0x9068C7
0x9069DB
0x906AF1
0x9071DE
0x9074E0
0x907763
0x907AEF
0x908486
0x908638
0x908869
0x90886D
0x9088C4
0x908F91
0x909190
0x909244
0x90928E
0x9093B8
0x909851
0x909910
0x9099B8
0x909A21
0x909B31
0x909D47
0x909E66
0x909F18
0x909FDC
0x90A2AF
0x90A59E
0x90A6A1
0x90A700
0x90AB33
0x90AE20
0x90AEF1
0x90B005
0x90B396
0x90B461
0x90B463
0x90B660
0x90B6B1
0x90B941
0x90BB6C
0x90BC81
0x90BD5E
0x90BE81
0x90C271
0x90C282
0x90C292
0x90C2A2
0x90C2B1
0x90C2BA
0x90C3E0
0x90C452
0x90C512
0x90C531
0x90CB78
0x90CCD0
0x90CCD4
0x90D661
0x90D66A
0x90DA11
0x90DC20
0x90DC22
0x90DC24
0x90DD01
0x90E0F1
0x90E102
0x90E112
0x90E122
0x90E131
0x90E13A
0x90E250
0x90E2D2
0x90E392
0x90E5E1
0x90E5F2
0x90E602
0x90E612
0x90E621
0x90E62A
0x90E7C2
0x90E882
0x90E8A0
0x90E900
0x90E902
0x90E904
0x90E940
0x90E990
0x90EB80
0x90EBC0
0x90EDC1
0x90EDDD
0x90EF9F
0x90F091
0x90F421
0x90F781
0x90F78A
0x90F8D1
0x90F9D1
0x90FA10
0x90FE29
0x910041
0x910301
0x9103D2
0x91040B
0x910461
0x9104DE
0x91059B
0x91062F
0x910653
0x910655
0x91069C
0x9106A6
0x9109C1
0x910A4A
0x910B11
0x910F15
0x9113A6
0x911511
0x911751
0x911A70
0x911AC1
0x911C11
0x911CF1
0x911CFE
0x911D91
0x911F1C
0x912011
0x91201A
0x9121A0
0x912251
0x9122E1
0x912471
0x912541
0x912770
0x912871
0x9128F3
0x912AF0
0x912B20
0x912B41
0x912BE0
0x912C41
0x912EF1
0x912FB0
0x912FC6
0x9130A0
0x913131
0x91313A
0x91317B
0x913201
0x91331A
0x913326
0x9133EC
0x913530
0x9135F0
0x9135F8
0x9136C0
0x913860
0x913890
0x913A11
0x913BD8
0x913CA1
0x913F00
0x913F35
0x913FB1
0x914251
0x9144AE
0x9144C0
0x914590
0x9145D0
0x914671
0x91492A
0x9149A1
0x914E01
0x9150F0
0x915140
0x9151B0
0x915250
0x9152C0
0x915301
0x915400
0x915404
0x9156D0
0x915929
0x915AF5
0x915CD0
0x915EC1
0x9162D0
0x916380
0x9164B0
0x9164F1
0x9164FA
0x916BE0
0x916C61
0x916DF3
0x916E87
0x916EDA
0x917021
0x917149
0x917151
0x917153
0x917320
0x917328
0x917401
0x917621
0x917791
0x917990
