0x402340
0x402346
0x402825
0x402919
0x402952
0x40295E
0x4029C4
0x402A6C
0x402B38
0x402B3B
0x402E3B
0x402E6A
0x403237
0x40331E
0x403394
0x40339D
0x4034D3
0x40354F
0x403612
0x40365E
0x403667
0x4037CA
0x4039B5
0x4039B9
0x403B26
0x403C05
0x403D41
0x403D62
0x404489
0x4047C9
0x404F76
0x404F78
0x404F7C
0x405D3E
0x405D42
0x406AB0
0x4093CF
0x40B629
0x40B8A0
0x40BC53
0x40CB08
0x40DA09
0x412A12
0x412AD7
0x412B1F
0x412CD4
0x412F82
0x4131DD
0x413971
0x413B54
0x413BB9
0x413BBF
0x413E71
0x413EF9
0x413F74
0x413F76
0x4145DF
0x414618
0x4147AA
0x4147B2
0x4147B9
0x41487B
0x414A99
0x414C67
0x414D1E
0x414F73
0x414F7F
0x414FD6
0x41511F
0x4154B6
0x4154D6
0x41574C
0x415791
0x4157FE
0x4158CF
0x415908
0x415A10
0x415E3C
0x416380
0x4163E0
0x4164A9
0x4164CC
0x416572
0x416579
0x4165B8
0x41669F
0x4166A2
0x41670B
0x416745
0x4167A0
0x4167A3
0x416800
0x416922
0x41695A
0x416969
0x416970
0x4170B3
0x4170B6
0x4172F4
0x417351
0x4176F5
0x417824
0x4178C5
0x417914
0x41797A
0x417A60
0x417A64
0x417AE0
0x417B00
0x417B25
0x417D7C
0x417F62
0x417F69
0x417FD2
0x417FDA
0x417FE6
0x418110
0x4183B0
0x4184C4
0x4185A8
0x4185AA
0x4185AF
0x4186A0
0x418890
0x418892
0x418C10
0x418C15
0x418D31
0x418FC4
0x419300
0x419320
0x419340
0x419345
0x419454
0x419456
0x41945A
0x41945C
0x419840
0x41A1B9
0x41A650
0x41A8BD
0x41B930
0x41B93F
0x41BB3B
0x41BD90
0x41BDE3
0x41C122
0x41C124
0x41C33A
0x41C4B2
0x41C4B4
0x41C825
0x41C910
0x41C914
0x41C940
0x41CA84
0x41CF4D
0x41D0E0
0x41D31F
0x41D3E0
0x41D3E4
0x41D469
0x41D520
0x41D66B
0x41D7B0
0x41D7B4
0x41DB90
0x41DE80
0x41E010
0x41E950
0x41E9D2
0x41E9DB
0x41ECB0
0x41ED32
0x41ED39
0x41EF54
0x41EF56
0x41EF57
0x41EF63
0x41F64A
0x41F651
0x41F9D0
0x41F9DA
0x41FA00
0x420629
0x420662
0x420781
0x4207B7
0x420801
0x4209A6
0x420F49
0x42149F
0x4218E0
0x421BBF
0x421E65
0x421F30
0x421F40
0x422019
0x422408
0x422479
0x4228A0
0x422931
0x422A10
0x422AE7
0x423051
0x42327E
0x423633
0x423760
0x423963
0x423C05
0x423C30
0x423C4D
0x423F33
0x4240A0
0x4240A9
0x4242D8
0x424B10
0x424E9C
0x424FAA
0x425030
0x425444
0x42544D
0x4255D0
0x4258C0
0x425D10
0x425D1A
0x425D55
0x425D80
0x425DE0
0x425E40
0x425E6B
0x4264F0
0x4266D1
0x426750
0x42675D
0x4269B0
0x4269B2
0x4269B8
0x4269C0
0x4269C7
0x4269F0
0x426A69
0x426AE0
0x426AEC
0x426C50
0x426CA8
0x426CAF
0x426CF0
0x426CF8
0x427000
0x427002
0x4273A0
0x427570
0x4275F8
0x42880B
0x429415
0x429680
0x429C32
0x429CB0
0x429CB9
0x42A142
0x42A4F0
0x42A4F7
0x42B0CD
0x42B23D
0x42B241
0x42B6D6
0x42BACE
0x42BBD9
0x42BC50
0x42BE00
0x42C040
0x42C550
0x42C6C6
0x42C700
0x42C9B0
0x42CBCF
0x42CE69
0x42D088
0x42D1D5
0x42D3B8
0x42D410
0x42D414
0x42D53A
0x42D977
0x42D9E0
0x42DA48
0x42DA51
0x42DA5A
0x42DC70
0x42DC72
0x42DC76
0x42DD22
0x42DFC0
0x42DFC4
0x42E069
0x42E109
0x42E159
0x42E1A9
0x42E3C0
0x42E3C4
0x42F2D0
0x42F347
0x42F5E0
0x42F7B0
0x42F810
0x42F870
0x42F8B0
0x430008
0x430108
0x4315A0
0x431730
0x431778
0x431786
0x4317D0
0x4317D2
0x431A30
0x432240
0x432670
0x432D3D
0x432DB0
0x432DC7
0x433040
0x43304B
0x43304D
0x433608
0x433609
0x433612
0x4337D0
0x4337D7
0x4337DB
0x4337F1
0x433A49
0x433C00
0x433C0B
0x433C50
0x433EC0
0x433ECA
0x4343E0
0x434420
0x434460
0x43460A
0x43462C
0x434670
0x434671
0x434770
0x43477B
0x43477D
0x434950
0x43495B
0x43495D
0x434FB2
0x434FB6
0x435743
0x435750
0x4362B0
0x4362C2
0x4363B0
0x436F26
0x437259
0x438D8B
0x438E71
0x4390A5
0x4390BA
0x439170
0x4391B5
0x4397D0
0x43987C
0x439A5D
0x439A61
0x439A67
0x439A6E
0x439FC0
0x43A49A
0x43A4A0
0x43A4A9
0x43A910
0x43A912
0x43A925
0x43AB62
0x43AB8D
0x43ACE0
0x43B737
0x43B950
0x43B962
0x43BB50
0x43C8B0
0x43C9DA
0x43CF49
0x43D1C0
0x43D251
0x43D467
0x43D594
0x43D6A4
0x43D750
0x43D751
0x43D790
0x43D810
0x43D91D
0x43D9E8
0x43DA1D
0x43DAE8
0x43DBE8
0x43DC12
0x43DE70
0x43E001
0x43F1C0
0x43F1E0
0x43F720
0x43F810
0x43F90E
0x43FA9A
0x43FA9C
0x43FAA0
0x43FB13
0x43FC3C
0x44036C
0x440C00
0x440C40
0x440CB5
0x440D2A
0x440DA3
0x440E1B
0x440E92
0x441170
0x441174
0x4411AF
0x44120F
0x44127A
0x441352
0x4413A1
0x441900
0x441957
0x441B94
0x441B97
0x441D50
0x441DD0
0x441E20
0x441E2B
0x441E33
0x441E3A
0x441FA0
0x4421F2
0x4421FC
0x442CF2
0x4431F0
0x4431FD
0x44322A
0x443371
0x4433EF
0x443462
0x4434D2
0x44353E
0x443720
0x443724
0x443759
0x4437B6
0x443811
0x4438E9
0x44392D
0x443E50
0x443E5B
0x443E63
0x443E6A
0x44400A
0x444170
0x444176
0x44443D
0x4448B0
0x444980
0x444AF0
0x444DEC
0x444F70
0x444F7E
0x4454C7
0x445610
0x44561A
0x445A25
0x445C20
0x445D68
0x445F54
0x446653
0x4466A3
0x446CA0
0x446CDD
0x446CFB
0x446E90
0x446E9E
0x447220
0x447788
0x447D6C
0x447FA8
0x448100
0x448170
0x4481A0
0x4481A6
0x448979
0x4489F0
0x4489F8
0x448B80
0x448CD2
0x448E40
0x448E42
0x448E43
0x449208
0x449459
0x4495FF
0x449851
0x4498B0
0x4498B3
0x449D0C
0x449D40
0x449D45
0x449E60
0x44A3F8
0x44C2AF
0x44C32E
0x44C35F
0x44C5F0
0x44C78C
0x44CB60
0x44CC5A
0x44CD0C
0x44CFE0
0x44CFE4
0x44D3F0
0x44D490
0x44D499
0x44D829
0x44D89D
0x44DB70
0x44DBD6
0x44DBDB
0x44DCC0
0x44E08B
0x44E094
0x44E1AB
0x44E1B4
0x44E2C0
0x44E310
0x44E31F
0x44E403
0x44E870
0x44E89E
0x44E960
0x44E98E
0x44EA50
0x44EA58
0x44F00C
0x44F01C
0x44F090
0x44FD7C
0x450180
0x45061B
0x45063B
0x450881
0x450C1B
0x450CDF
0x450CF5
0x45126C
0x4517A0
0x452010
0x4520EA
0x452562
0x45291C
0x452B42
0x452FB0
0x452FB9
0x4530BD
0x4532E0
0x453331
0x453529
0x4535AE
0x453950
0x453B03
0x453B96
0x453D9B
0x453ECF
0x453F36
0x453F9E
0x454496
0x4545C0
0x4548B8
0x455180
0x4551D5
0x455440
0x45544A
0x4555C5
0x455F10
0x455F12
0x455F16
0x456420
0x4565AE
0x45661A
0x4566B7
0x456711
0x4567E5
0x457180
0x457182
0x457186
0x4571B1
0x4571C1
0x4571C8
0x4571D8
0x457233
0x457244
0x457348
0x457710
0x457712
0x457716
0x457734
0x457778
0x457EE2
0x4580D0
0x45833E
0x458349
0x458470
0x458A32
0x458B80
0x458DDB
0x4590EF
0x45910E
0x459BC1
0x459C52
0x459F09
0x45A130
0x45A136
0x45A250
0x45A254
0x45A256
0x45AAA0
0x45AAA9
0x45AAAB
0x45B1B0
0x45BE20
0x45BE24
0x45BE70
0x45BE74
0x45BF11
0x45BF61
0x45BFA8
0x45C041
0x45C0A0
0x45C0A9
0x45C0EC
0x45C1C0
0x45C8F2
0x45C8F7
0x45C8F9
0x45CB9D
0x45CC90
0x45CC99
0x45CC9E
0x45CCA3
0x45CED0
0x45CED4
0x45D3F0
0x45D4C0
0x45D4C6
0x45D608
0x45D677
0x45D794
0x45D86B
0x45DA5D
0x45DA73
0x45DAEB
0x45DB5B
0x45DD40
0x45DD86
0x45DDC8
0x45DE10
0x45DEA4
0x45DF40
0x45DF42
0x45E040
0x45E042
0x45E151
0x45E190
0x45E2A0
0x45E2E0
0x45E320
0x45E360
0x45E3A0
0x45E3E0
0x45E420
0x45E460
0x45E4A0
0x45E4E0
0x45E520
0x45E6E0
0x45E841
0x45E8B0
0x45E92C
0x45E9E9
0x45E9F7
0x45ECB2
0x45ED6E
0x45EE60
0x45EEC2
0x45F14A
0x45F2C0
0x45F3FD
0x45FA9A
0x460460
0x460490
0x460499
0x4606E2
0x4606FE
0x4607F0
0x460963
0x460A85
0x460A91
0x460B80
0x460C40
0x46121C
0x461294
0x4612C4
0x46132C
0x461AFD
0x461C91
0x461F19
0x4620E0
0x462270
0x4627A2
0x463147
0x463384
0x4639AD
0x4639B0
0x464130
0x46437D
0x464381
0x464A30
0x464B47
0x464D41
0x464DD0
0x464FE0
0x465008
0x465881
0x465A30
0x465CF8
0x465F1B
0x465FE1
0x46651D
0x466670
0x4667F5
0x4668C0
0x4669DC
0x466DFC
0x466F18
0x466FD6
0x467570
0x467DDB
0x469271
0x469397
0x4698AA
0x469B32
0x46B6A8
0x46C476
0x46D190
0x46D1CE
0x46D20D
0x46D246
0x46D296
0x46D2D5
0x46D314
0x46D353
0x46D392
0x46D3D1
0x46D407
0x46D419
0x46D449
0x46D488
0x46D4F7
0x46D557
0x46DB40
0x46EEAA
0x46F8EF
0x46F939
0x46FFE0
0x4702BA
0x471F58
0x471F77
0x4749BA
0x474F17
0x475900
0x475920
0x475934
0x4759FA
0x475A02
0x475A13
0x475B67
0x475B70
0x475B90
0x475B92
0x476170
0x476183
0x4762D0
0x47636E
0x476790
0x476795
0x4768A0
0x4768A4
0x47698F
0x476C70
0x476C8E
0x476D30
0x476ED0
0x476ED8
0x4773D0
0x4773D4
0x4774BE
0x4777F0
0x47791A
0x477980
0x4779B0
0x4779B2
0x4779B6
0x4779B8
0x477B76
0x477C74
0x477D4B
0x477DA0
0x477E20
0x477E2B
0x477E2D
0x4781A0
0x4781D9
0x478280
0x47830E
0x478448
0x4784B0
0x478A90
0x478AAC
0x478E6B
0x478FA0
0x478FDA
0x479075
0x479097
0x4790C7
0x4790E7
0x479103
0x479117
0x4791E6
0x479236
0x479278
0x4792C8
0x4793D8
0x4793E6
0x479420
0x479709
0x479877
0x4799B0
0x4799B4
0x4799BC
0x47AD87
0x47AF78
0x47B880
0x47B92C
0x47BA70
0x47BA74
0x47BAEC
0x47BB86
0x47BCA0
0x47BCA2
0x47BCAD
0x47BF40
0x47BF48
0x47C0B0
0x47C350
0x47C352
0x47E028
0x47E7D6
0x47E870
0x47EB5E
0x47ECD0
0x47F380
0x47F96D
0x47FEFA
0x480110
0x4803A0
0x4803A4
0x4803D2
0x4805F0
0x4805F2
0x48071A
0x480750
0x4807A5
0x4807AC
0x480826
0x480877
0x480967
0x480CB0
0x480E27
0x480E4F
0x480FE0
0x4812E0
0x481840
0x481A40
0x481AE8
0x481C50
0x481E70
0x481EF0
0x482060
0x4821C7
0x4821D1
0x4823E1
0x4824B0
0x4824B9
0x4825C0
0x482680
0x482749
0x4827FC
0x482880
0x482889
0x482930
0x482B67
0x482D00
0x482D0D
0x483040
0x483049
0x48335C
0x483407
0x4834BC
0x48356C
0x483617
0x4836C7
0x483BE0
0x483BE9
0x483DD9
0x483DDC
0x48497E
0x484C40
0x484C5D
0x484E40
0x484E67
0x4857A7
0x4857F5
0x485BBB
0x485C69
0x485D28
0x486653
0x4866B0
0x48692D
0x486931
0x486958
0x4874E0
0x487537
0x4878CD
0x487E08
0x487E3D
0x4884E8
0x488577
0x48871D
0x488721
0x488727
0x48879F
0x48893E
0x488CAF
0x488FB7
0x48933D
0x489341
0x4893F4
0x489515
0x4897CF
0x4897D3
0x4897D9
0x489873
0x489A0D
0x489A11
0x489A48
0x489C38
0x489D6E
0x489DE0
0x489DE4
0x489DE7
0x48A21B
0x48A419
0x48ABBD
0x48ABC1
0x48AC30
0x48ADFD
0x48AE01
0x48AE03
0x48B150
0x48B38D
0x48B393
0x48B3DC
0x48B46D
0x48B471
0x48B890
0x48B9FD
0x48BA01
0x48BA1F
0x48BA3A
0x48BAF0
0x48BB16
0x48BE0F
0x48BE13
0x48BE59
0x48C520
0x48D28D
0x48D291
0x48D330
0x48D484
0x48D5D4
0x48D6B0
0x48D7DD
0x48D7E1
0x48D9AF
0x48DC90
0x48DF41
0x48E9F0
0x48EA90
0x48EB4A
0x48ECAD
0x48ECB1
0x48ECE5
0x48F068
0x48F079
0x48F167
0x48F434
0x48F44D
0x48F5B4
0x48F750
0x49010D
0x490111
0x490117
0x490EFD
0x490F01
0x4912AA
0x491470
0x491AA0
0x491CAD
0x491CB1
0x491CB7
0x491D65
0x491E0A
0x491EA5
0x491F3D
0x491FF3
0x492085
0x4921E3
0x492283
0x492313
0x4927AD
0x4927B1
0x4927B7
0x4927E0
0x4928A6
0x492974
0x492A50
0x492A71
0x493020
0x493028
0x493031
0x4936D4
0x4936DD
0x4942A4
0x4942A6
0x49474A
0x4948A7
0x4948A9
0x4948C8
0x4949F0
0x494A58
0x494AE0
0x494B42
0x494CB0
0x494CB5
0x494D78
0x494E99
0x494EE0
0x494EE2
0x494EE6
0x494EE8
0x495350
0x4954D0
0x4954D6
0x4954E0
0x495742
0x49574C
0x495921
0x495B60
0x495B63
0x495DE0
0x495EC0
0x495ECA
0x495FEB
0x4960D0
0x4960DB
0x4966C6
0x49692F
0x496A70
0x496A76
0x496E8E
0x497058
0x497128
0x497260
0x497263
0x497390
0x497394
0x497397
0x497C10
0x497C30
0x497C50
0x497C70
0x497C90
0x497CB0
0x497CD0
0x497CF0
0x497D10
0x497D30
0x497D50
0x497D70
0x497D90
0x497DB0
0x497DE0
0x497E2C
0x498060
0x498068
0x498100
0x49814F
0x498418
0x498468
0x4984C5
0x498622
0x49862C
0x4987B0
0x4987B8
0x498A40
0x498A80
0x498DBA
0x499108
0x499386
0x499894
0x499896
0x499910
0x4999A0
0x499CD2
0x49A4D2
0x49A4DA
0x49A969
0x49A970
0x49AAC0
0x49AAC8
0x49AC50
0x49AC55
0x49ADF8
0x49AEF1
0x49B0B0
0x49B0D0
0x49B270
0x49B290
0x49B631
0x49B899
0x49B946
0x49B97B
0x49B9B3
0x49BC90
0x49BCA0
0x49BCA2
0x49BCA4
0x49BEC0
0x49BF3C
0x49C290
0x49C292
0x49C46D
0x49C479
0x49C48D
0x49C960
0x49CD4A
0x49CF5D
0x49D2F9
0x49D31A
0x49D3F7
0x49D4C1
0x49D640
0x49EA3E
0x49EBE0
0x49EBEF
0x49F1A6
0x49F640
0x49F649
0x49F658
0x49FA90
0x49FA94
0x49FC46
0x49FD79
0x49FD80
0x4A0316
0x4A065E
0x4A0BA3
0x4A0E66
0x4A0F0A
0x4A130E
0x4A2010
0x4A2938
0x4A2A02
0x4A2B56
0x4A2B59
0x4A2E54
0x4A2E56
0x4A3180
0x4A332D
0x4A3360
0x4A3364
0x4A4E37
0x4A50F7
0x4A5448
0x4A55EA
0x4A63E1
0x4A69DE
0x4A6ABF
0x4A6E28
0x4A6F11
0x4A7293
0x4A7344
0x4A79A0
0x4A7A10
0x4A7AE0
0x4A7B47
0x4A7B6E
0x4A7BF0
0x4A7C50
0x4A7C70
0x4A7FF1
0x4A8001
0x4A8010
0x4A8111
0x4A8120
0x4A81AF
0x4A81D2
0x4A857E
0x4A85D0
0x4A8D50
0x4A8D70
0x4A8D80
0x4A8D82
0x4A8D86
0x4A8D8D
0x4A8F2A
0x4A9129
0x4A9193
0x4A9370
0x4A9389
0x4A97A0
0x4A97A2
0x4A9AC0
0x4A9C20
0x4A9E00
0x4A9E0B
0x4AA240
0x4AA2E7
0x4AA530
0x4AA6B7
0x4AA870
0x4AAAD0
0x4AAAD2
0x4AAAD3
0x4AAEC0
0x4AAF60
0x4AAF9E
0x4AAFF0
0x4AB080
0x4AB120
0x4AB1B0
0x4AB250
0x4AB330
0x4AB4B7
0x4AB5D2
0x4AB7F0
0x4AB7F2
0x4AB7FF
0x4ABC77
0x4ABCD7
0x4ABDA6
0x4AC060
0x4AC250
0x4AC255
0x4AC293
0x4AC3A0
0x4AC3A8
0x4AC919
0x4AC922
0x4AC9F0
0x4ACBBF
0x4ACCA0
0x4ACF20
0x4AD183
0x4AD2C0
0x4AD880
0x4AD889
0x4AD890
0x4AD9D6
0x4ADB47
0x4ADCA0
0x4ADCA2
0x4ADCA6
0x4ADCAD
0x4AE310
0x4AE31B
0x4AE323
0x4AE6A0
0x4AE6B5
0x4AE6D0
0x4AE700
0x4AE890
0x4AE8B3
0x4AE959
0x4AE95F
0x4AEA26
0x4AF146
0x4AF198
0x4AF27A
0x4AF33F
0x4AF56E
0x4AF800
0x4AFA60
0x4AFA6F
0x4AFED0
0x4AFEE6
0x4AFFE0
0x4AFFE6
0x4B02D9
0x4B1619
0x4B161B
0x4B16C5
0x4B17CD
0x4B1823
0x4B182D
0x4B18B0
0x4B1A90
0x4B1A92
0x4B1A96
0x4B1B8C
0x4B1BE3
0x4B1E73
0x4B209F
0x4B23B0
0x4B2FFE
0x4B3300
0x4B3559
0x4B38B0
0x4B3910
0x4B3AC0
0x4B3AC2
0x4B3AC3
0x4B3BB0
0x4B3BB4
0x4B3CF0
0x4B3CF3
0x4B3D54
0x4B3D7C
0x4B3DE0
0x4B3F60
0x4B4312
0x4B445B
0x4B4566
0x4B456C
0x4B4620
0x4B4628
0x4B462D
0x4B4748
0x4B48EE
0x4B4900
0x4B4A30
0x4B4D41
0x4B4EC4
0x4B4FC0
0x4B5220
0x4B5222
0x4B53D0
0x4B5790
0x4B5A98
0x4B64A0
0x4B64A4
0x4B64A8
0x4B6A60
0x4B6A62
0x4B6A63
0x4B6B17
0x4B6B52
0x4B6DD3
0x4B701F
0x4B7160
0x4B72C1
0x4B7730
0x4B7D10
0x4B7D18
0x4B7D3C
0x4B7FC9
0x4B839C
0x4B86B0
0x4B8C8B
0x4B8D80
0x4B8D88
0x4B8D8D
0x4BA627
0x4BA8D0
0x4BA8D2
0x4BAEB0
0x4BB2B8
0x4BB300
0x4BB3A1
0x4BB708
0x4BBF69
0x4BC0EC
0x4BD067
0x4BD0E6
0x4BD390
0x4BD407
0x4BD440
0x4BDD10
0x4BDD14
0x4BE0D0
0x4BE230
0x4BE4C0
0x4BE630
0x4BE790
0x4BE792
0x4BE79D
0x4BED30
0x4BF130
0x4BF1BC
0x4BF581
0x4BF583
0x4BF6B0
0x4BF6C3
0x4BF987
0x4BF9D7
0x4BFA27
0x4BFAD2
0x4BFC61
0x4BFC62
0x4BFCE0
0x4BFDAE
0x4BFE68
0x4BFE6C
0x4C006F
0x4C0700
0x4C09E0
0x4C0D39
0x4C0E1D
0x4C0EA2
0x4C1000
0x4C1002
0x4C1006
0x4C1011
0x4C1190
0x4C1192
0x4C16B0
0x4C16B2
0x4C1EB3
0x4C224B
0x4C2603
0x4C275F
0x4C2770
0x4C2A89
0x4C2B10
0x4C2B40
0x4C2BE2
0x4C2C30
0x4C2C55
0x4C2D05
0x4C2F50
0x4C2FB0
0x4C30D0
0x4C33C5
0x4C33F8
0x4C3410
0x4C3450
0x4C3452
0x4C3456
0x4C3940
0x4C41C0
0x4C42F4
0x4C4795
0x4C4876
0x4C49A0
0x4C49A4
0x4C49AD
0x4C4A70
0x4C4C80
0x4C4C8B
0x4C4E4E
0x4C4EB7
0x4C4F68
0x4C4FF0
0x4C5012
0x4C50D8
0x4C53F0
0x4C53F8
0x4C573D
0x4C57E0
0x4C57F0
0x4C57F5
0x4C5950
0x4C5958
0x4C59A3
0x4C5A40
0x4C5EFA
0x4C6690
0x4C68BC
0x4C68C3
0x4C6914
0x4C6C71
0x4C6CC0
0x4C6CC8
0x4C70A0
0x4C7130
0x4C71F0
0x4C71FB
0x4C7400
0x4C7420
0x4C7660
0x4C7662
0x4C766B
0x4C792E
0x4C7A71
0x4C7A9A
0x4C7BF0
0x4C7BFB
0x4C7DE0
0x4C7F40
0x4C7F99
0x4C83EA
0x4C84E0
0x4C8C10
0x4C8C1E
0x4C8EE0
0x4C8F52
0x4C8FA3
0x4C9170
0x4C93D8
0x4C93E4
0x4C9602
0x4C9630
0x4C9828
0x4C98F2
0x4C98F4
0x4C9994
0x4C9A0E
0x4C9A90
0x4C9A9A
0x4C9E0B
0x4CA449
0x4CABF0
0x4CB144
0x4CB230
0x4CB2B0
0x4CB670
0x4CB67B
0x4CBDF0
0x4CBE01
0x4CBE13
0x4CBF04
0x4CBF20
0x4CBF90
0x4CC160
0x4CC190
0x4CC192
0x4CC2B0
0x4CC4D8
0x4CC537
0x4CC980
0x4CCF00
0x4CCFC2
0x4CD0D0
0x4CD100
0x4CD10B
0x4CD237
0x4CD25E
0x4CD2D7
0x4CD2F8
0x4CD340
0x4CD62B
0x4CD712
0x4CD9D0
0x4CD9D6
0x4CDBC0
0x4CDBD5
0x4CE030
0x4CE034
0x4CE160
0x4CE2B4
0x4CE310
0x4CE312
0x4CE316
0x4CE336
0x4CE345
0x4CE5AF
0x4CE6C0
0x4CE6C4
0x4CE6CD
0x4CE816
0x4CE8C4
0x4CE9B2
0x4CE9BE
0x4CEC40
0x4CED50
0x4CEEC0
0x4CEF20
0x4CEF24
0x4CEFC0
0x4CF35C
0x4CF5F4
0x4CF701
0x4CFAEB
0x4CFD64
0x4D0010
0x4D00A7
0x4D0630
0x4D07B5
0x4D07BD
0x4D07BF
0x4D0B60
0x4D0BDA
0x4D1130
0x4D11B1
0x4D11C8
0x4D18D4
0x4D1A10
0x4D1B40
0x4D1B44
0x4D1B80
0x4D1BA0
0x4D1BC0
0x4D1CD4
0x4D1F90
0x4D2600
0x4D26C1
0x4D2714
0x4D2719
0x4D2852
0x4D288C
0x4D2940
0x4D2953
0x4D2AF0
0x4D2D90
0x4D319A
0x4D31C0
0x4D3720
0x4D3729
0x4D3A10
0x4D3A1B
0x4D3FA3
0x4D401F
0x4D40D0
0x4D41E0
0x4D44C8
0x4D4710
0x4D4D1D
0x4D4D29
0x4D5071
0x4D50C1
0x4D5118
0x4D51B0
0x4D525C
0x4D5350
0x4D57B0
0x4D5AA0
0x4D5B17
0x4D5DE0
0x4D62E0
0x4D63A0
0x4D63C0
0x4D65A0
0x4D65EE
0x4D6AE6
0x4D6B20
0x4D6B2E
0x4D70A0
0x4D70B7
0x4D70CE
0x4D71C9
0x4D71DE
0x4D7A83
0x4D7AAD
0x4D7AB5
0x4D7BB0
0x4D7BB2
0x4D7BBC
0x4D7FBA
0x4D81F5
0x4D8240
0x4D89A0
0x4D89A2
0x4D89A6
0x4D9337
0x4D9540
0x4D9560
0x4D9A8D
0x4D9A95
0x4D9D70
0x4D9D78
0x4D9D7A
0x4DA214
0x4DA3D1
0x4DA9F0
0x4DA9F4
0x4DADB0
0x4DADBF
0x4DB040
0x4DB047
0x4DB050
0x4DB247
0x4DB24A
0x4DB358
0x4DB5E1
0x4DB770
0x4DB9F0
0x4DBC0B
0x4DBDA0
0x4DBE9B
0x4DBE9F
0x4DBF62
0x4DC130
0x4DC140
0x4DC510
0x4DC920
0x4DCB00
0x4DD3A3
0x4DD3A7
0x4DD4B9
0x4DD520
0x4DD5F0
0x4DD890
0x4DD960
0x4DD964
0x4DD96D
0x4DDB94
0x4DDCC0
0x4DDCC7
0x4DDCC9
0x4DDCCE
0x4DDCD0
0x4DDE70
0x4DE000
0x4DE0C0
0x4DE5F0
0x4DE600
0x4DE9F3
0x4DEAB0
0x4DEAB3
0x4DEB30
0x4DEB49
0x4DF1E4
0x4DF757
0x4E0090
0x4E0098
0x4E0660
0x4E0856
0x4E08C0
0x4E0B70
0x4E1357
0x4E167F
0x4E16A0
0x4E1890
0x4E1892
0x4E1FF0
0x4E2E50
0x4E3940
0x4E40D7
0x4E4300
0x4E4610
0x4E4614
0x4E4C10
0x4E4C14
0x4E4F00
0x4E4FA7
0x4E5170
0x4E5266
0x4E558B
0x4E617D
0x4E6292
0x4E6320
0x4E6324
0x4E6327
0x4E6490
0x4E649E
0x4E6509
0x4E65B4
0x4E6E83
0x4E6E90
0x4E7030
0x4E71B9
0x4E852F
0x4E8C46
0x4E9040
0x4E9615
0x4E9843
0x4E98AE
0x4E99F8
0x4E9A31
0x4E9F98
0x4EA27E
0x4EA5FE
0x4EB840
0x4EBF98
0x4EBFAE
0x4EC170
0x4EC68D
0x4EC76E
0x4EC835
0x4EC846
0x4ECB20
0x4ECB2B
0x4ED49A
0x4EDAA0
0x4EDE63
0x4EF6A0
0x4F044E
0x4F04FF
0x4F1E10
0x4F1E12
0x4F1E13
0x4F1E68
0x4F2365
0x4F23B0
0x4F23C4
0x4F23FE
0x4F2640
0x4F2FC0
0x4F3810
0x4F39F0
0x4F3B80
0x4F3B82
0x4F3B86
0x4F3D26
0x4F40E0
0x4F40E6
0x4F4B90
0x4F4B99
0x4F57D0
0x4F588D
0x4F5967
0x4F5A40
0x4F5BE0
0x4F5BE2
0x4F5BE3
0x4F5BE9
0x4F5BEB
0x4F5BFC
0x4F5FB7
0x4F61A6
0x4F6247
0x4F6344
0x4F63F6
0x4F6CF0
0x4F6CF4
0x4F6CF6
0x4F6D50
0x4F6F90
0x4F70E2
0x4F7162
0x4F7570
0x4F7950
0x4F79D8
0x4F7A60
0x4F8330
0x4F90C0
0x4F92FA
0x4F92FF
0x4F9307
0x4F930B
0x4F9390
0x4F9569
0x4F9571
0x4F9636
0x4F97F0
0x4F99F0
0x5004C2
0x501982
0x501C58
0x501C60
0x501E20
0x502739
0x502D2A
0x502E10
0x50336A
0x503960
0x503D75
0x503E58
0x504040
0x504044
0x504047
0x504200
0x50460B
0x504BE0
0x504BE4
0x504CBA
0x5050F4
0x505403
0x505765
0x50584B
0x505F53
0x506010
0x506300
0x506304
0x506792
0x5068EB
0x506970
0x506AC0
0x506AD0
0x506B20
0x506BEF
0x506C82
0x506C91
0x506D38
0x506EE0
0x506F8D
0x506FF7
0x50708B
0x507096
0x50713A
0x5071EB
0x507201
0x5072AA
0x507570
0x507576
0x507580
0x5079D0
0x5079E0
0x507AE0
0x507B30
0x508150
0x5084BD
0x508BF0
0x508BFA
0x509020
0x509BE0
0x50A629
0x50A672
0x50A797
0x50A9C0
0x50AA25
0x50AACC
0x50AC80
0x50B080
0x50B2AF
0x50C05C
0x50C164
0x50C252
0x50C4D1
0x50CB25
0x50D260
0x50D293
0x50D37B
0x50E740
0x50EC80
0x50EC93
0x50EDB0
0x50F1F0
0x50F550
0x50FCE0
0x5103C0
0x511F70
0x5122F0
0x51231B
0x512DD0
0x513535
0x5135C0
0x5135C4
0x513B90
0x513B96
0x513C70
0x513C7E
0x513C83
0x513F46
0x513F4B
0x514053
0x514054
0x5140B3
0x5140B4
0x514110
0x514118
0x5142ED
0x5143D0
0x514690
0x514940
0x514944
0x51494D
0x51503E
0x51503F
0x515100
0x515290
0x515430
0x515432
0x5158E0
0x5158E2
0x515A40
0x515A46
0x515E04
0x516151
0x5161E0
0x5161F0
0x5164D2
0x5164D3
0x5168CD
0x516900
0x51690B
0x516910
0x516ED1
0x516FB0
0x517064
0x517069
0x5171B0
0x5171B2
0x5171C0
0x517300
0x517440
0x517740
0x517750
0x5178D2
0x5179F0
0x5179F4
0x517EC0
0x517F16
0x517FAE
0x518200
0x5183B0
0x518440
0x5184D0
0x5184D4
0x5184DF
0x5185B0
0x518636
0x5187B7
0x5187F0
0x518807
0x518A20
0x519316
0x5194C0
0x5194C3
0x51A883
0x51B167
0x51B3F0
0x51B3FB
0x51B6A1
0x51BAE2
0x51BAE4
0x51BB4E
0x51BBC3
0x51BDC2
0x51BDE8
0x51C0E0
0x51C251
0x51C5D0
0x51C848
0x51CA1C
0x51CA86
0x51CBA9
0x51CF8B
0x51D17D
0x51D395
0x51D3F3
0x51D5D3
0x51D770
0x51D77B
0x51DA00
0x51DB70
0x51DC27
0x51DCA0
0x51DDB4
0x51DDC3
0x51DE2E
0x51DEAB
0x51E038
0x51E1D8
0x51E30D
0x51E311
0x51E31E
0x51E522
0x51E6C2
0x51E7FF
0x51E863
0x51EF70
0x51EF7D
0x51F3CD
0x51F3D1
0x51F9DE
0x51FA69
0x52077E
0x520C47
0x520D57
0x521422
0x521480
0x521484
0x5216D0
0x521840
0x521943
0x521C00
0x521C0E
0x521CF0
0x521E40
0x522180
0x52222A
0x5222B3
0x5223AD
0x5223B3
0x5223B7
0x522760
0x5227BD
0x522E20
0x523141
0x523212
0x5235E2
0x5235EA
0x523650
0x5239A1
0x523A75
0x524170
0x524174
0x5243B0
0x524555
0x524590
0x524592
0x524593
0x5245A7
0x5246E5
0x5247EB
0x524800
0x524820
0x524824
0x52482F
0x524AF0
0x524AF6
0x524AFA
0x524EA1
0x524F50
0x524F5A
0x5250C0
0x525121
0x525190
0x525750
0x5257F6
0x52639C
0x526B68
0x526C58
0x526CE8
0x526D52
0x526D6A
0x526E50
0x526E57
0x526E5E
0x526F06
0x5277E0
0x5277E2
0x5277E6
0x527BAD
0x527CF0
0x527CF4
0x527E58
0x527E70
0x527F11
0x528966
0x528BEA
0x528CE0
0x528D26
0x528D82
0x528D90
0x528E2A
0x528E43
0x529210
0x529212
0x529214
0x529220
0x5295F1
0x529672
0x5296EA
0x529730
0x529A50
0x529A57
0x529A60
0x529D90
0x529D94
0x529D96
0x529DA0
0x52A0C0
0x52A0CE
0x52A4BD
0x52A4DC
0x52A50D
0x52A52C
0x52A5B0
0x52AC60
0x52ACF0
0x52AD40
0x52AD59
0x52AE00
0x52AF50
0x52AFC0
0x52B016
0x52B080
0x52B08A
0x52B1B5
0x52B300
0x52B31B
0x52B522
0x52B538
0x52B600
0x52B609
0x52B7F0
0x52B7F4
0x52B813
0x52B830
0x52B839
0x52BA30
0x52BDC6
0x52BDCD
0x52BEA6
0x52BF19
0x52C0C6
0x52C170
0x52C172
0x52C5F6
0x52C650
0x52C662
0x52CB80
0x52CF4D
0x52D349
0x52D480
0x52D57D
0x52D851
0x52D854
0x52D880
0x52D8F0
0x52DC30
0x52E265
0x52E299
0x52E29F
0x52E540
0x52E67B
0x52E7E0
0x52E7E2
0x52EAE0
0x52ED50
0x52ED6C
0x52EEE7
0x52EF70
0x52EF87
0x52F0E2
0x52F650
0x52F662
0x52F6B0
0x52F920
0x52F9D8
0x52FB90
0x52FD75
0x530170
0x5301A3
0x5301A9
0x530239
0x5302DD
0x530600
0x530608
0x53060A
0x530770
0x530772
0x530776
0x530B38
0x530CC9
0x530CCD
0x5312E0
0x5312E2
0x5312E6
0x5319B0
0x532712
0x53271D
0x532820
0x5329D6
0x532AA8
0x532B7E
0x532C30
0x532C39
0x5330B0
0x5339A0
0x5339F1
0x533A40
0x534141
0x534170
0x534238
0x5342C8
0x53435D
0x534390
0x534450
0x535750
0x535752
0x535756
0x535758
0x535D70
0x535D74
0x53643A
0x53651E
0x53705B
0x537593
0x5385CD
0x53861E
0x5388B2
0x538CB3
0x538CDA
0x538D42
0x538D5C
0x538F8B
0x538FE7
0x53923F
0x539456
0x539984
0x5399A7
0x539B14
0x539EC7
0x539F00
0x539FA6
0x53A178
0x53A226
0x53A298
0x53A3A0
0x53A3C0
0x53A3C4
0x53A3C6
0x53A78F
0x53AA45
0x53B2C0
0x53B2C4
0x53B2D1
0x53B590
0x53B5B3
0x53B9A0
0x53BA80
0x53BAA0
0x53BAAF
0x53BBC8
0x53BDC0
0x53BDC8
0x53C040
0x53C4B2
0x53C884
0x53CBC0
0x53D8C0
0x53DE10
0x53DE34
0x53DE60
0x53E500
0x53E8F0
0x53E8F2
0x53EBE0
0x53EFC0
0x53F100
0x53F6C0
0x53FB56
0x53FC60
0x53FC68
0x540030
0x540098
0x5407F0
0x5407F8
0x540F5E
0x540F90
0x541010
0x541026
0x541711
0x5417B0
0x5417B7
0x5417B9
0x541F00
0x541F80
0x541F82
0x542010
0x542220
0x542450
0x542560
0x5426D1
0x5426DA
0x542784
0x542960
0x542963
0x542986
0x542A2A
0x542A60
0x542B70
0x542BB5
0x542F10
0x542FF0
0x543450
0x5434C0
0x543950
0x54395A
0x544A81
0x5454DB
0x545740
0x545C24
0x545C7D
0x546139
0x546246
0x5462A7
0x546392
0x546740
0x546767
0x5468A9
0x546B80
0x546B82
0x546B96
0x5470E0
0x547110
0x5475D1
0x547841
0x547976
0x547B80
0x547B84
0x5482A9
0x548448
0x548698
0x5488A7
0x5488E0
0x5488E2
0x5488E6
0x548EF0
0x549280
0x549282
0x549292
0x549729
0x549983
0x549A90
0x549C74
0x549C77
0x54A340
0x54A344
0x54A520
0x54A740
0x54A748
0x54A987
0x54AA60
0x54AAC0
0x54AAC2
0x54AAC6
0x54AF96
0x54B07A
0x54B320
0x54B329
0x54B6E0
0x54B6EB
0x54B6ED
0x54B711
0x54B8E0
0x54B92B
0x54BF20
0x54C340
0x54C7CF
0x54C9C0
0x54CA10
0x54CA57
0x54CB20
0x54CB22
0x54CDF6
0x54D68C
0x54DA70
0x54DA79
0x54DC7B
0x54E2C9
0x54F957
0x54FA8D
0x54FC10
0x54FC12
0x54FC1F
0x54FC30
0x54FDC9
0x54FDCB
0x54FDD4
0x54FF60
0x54FF73
0x550030
0x550043
0x550113
0x550190
0x55021B
0x55038B
0x550530
0x5507A0
0x550CD3
0x550E10
0x551060
0x5513B0
0x5517A0
0x551910
0x551FA0
0x552190
0x5524E2
0x5524E3
0x5528D0
0x552990
0x552D60
0x552EA1
0x552EBF
0x553010
0x553051
0x55306F
0x5531D0
0x553211
0x55322F
0x553390
0x5533D0
0x554030
0x554376
0x554477
0x5556C2
0x5556C9
0x555920
0x555DF0
0x555EE6
0x55630F
0x556A42
0x556F67
0x5574BC
0x557550
0x5575C0
0x557620
0x5576A0
0x557727
0x557C80
0x557C82
0x557C96
0x557FDB
0x5580F9
0x558150
0x5583C0
0x5583C2
0x5583C3
0x5583CE
0x5584FC
0x5586D4
0x558984
0x558986
0x55898A
0x558D70
0x558D78
0x558EB5
0x559297
0x559370
0x5593F1
0x559448
0x559479
0x559626
0x5598B4
0x5598B6
0x559F17
0x559F50
0x55A2C0
0x55A2C2
0x55A7D0
0x55B180
0x55B340
0x55B390
0x55B3AA
0x55BA00
0x55BA04
0x55BB48
0x55BC87
0x55C290
0x55C670
0x55C8F0
0x55CB97
0x55D430
0x55D7F8
0x55D8BB
0x55D8FF
0x55DA57
0x55DAA2
0x55DACB
0x55DC7B
0x55DCBF
0x55DE17
0x55DE62
0x55DE8B
0x55E080
0x55E084
0x55E2FB
0x55E3F9
0x55E550
0x55E5E0
0x55E5E6
0x55EA59
0x55EBE5
0x55EC0E
0x55EC4E
0x55F0C0
0x55F27E
0x55F53A
0x55F961
0x55FA3B
0x55FAD1
0x55FADE
0x55FB70
0x55FF51
0x5602D1
0x560390
0x56039A
0x560511
0x561361
0x56136E
0x561401
0x56140E
0x5614A1
0x5614AE
0x561541
0x56154E
0x5615E0
0x561773
0x56189D
0x561C09
0x561F27
0x56237A
0x5624A0
0x562AD5
0x562D90
0x5630F9
0x563680
0x563DD0
0x564176
0x56458E
0x564802
0x5650A7
0x565AB0
0x565AB2
0x565AB6
0x565F60
0x5663BC
0x5669B0
0x566A50
0x566AF9
0x566B7E
0x566CA9
0x566CF0
0x566CF8
0x566D20
0x566D28
0x566E10
0x567431
0x567620
0x567870
0x567872
0x567876
0x5678F3
0x5687D0
0x568CFF
0x569060
0x5691D0
0x569363
0x5697E4
0x569832
0x5698D0
0x5698D2
0x569D38
0x56A060
0x56A062
0x56A4B0
0x56ACD0
0x56AD50
0x56ADD6
0x56AE98
0x56AF50
0x56AF57
0x56AF5C
0x56B080
0x56B0AA
0x56B1E0
0x56B6A7
0x56B6A9
0x56B7B5
0x56B7B7
0x56B7C4
0x56BA82
0x56BA97
0x56BB90
0x56BE00
0x56C029
0x56C0E0
0x56C131
0x56C18D
0x56C2BC
0x56C3EC
0x56C4B0
0x56C508
0x56C588
0x56C678
0x56C67C
0x56C8D0
0x56D0F0
0x56D2B0
0x56D320
0x56D390
0x56D80C
0x56D9CC
0x56DAD8
0x56DB48
0x56DC17
0x56DDE0
0x56DDE2
0x56E0B7
0x56E0DB
0x56E150
0x56E153
0x56E328
0x56E398
0x56E430
0x56E558
0x56E560
0x56E6F0
0x56E940
0x56ED04
0x56EE00
0x56EE0B
0x56F230
0x56F4C0
0x56FB70
0x56FE29
0x56FFD8
0x5701C8
0x5701D5
0x570470
0x570479
0x570874
0x570A46
0x570C64
0x570CBB
0x570F50
0x570FA0
0x570FE0
0x570FE8
0x571590
0x571599
0x57240B
0x572573
0x572630
0x572638
0x5728C0
0x5728C8
0x572B20
0x572B95
0x572BA0
0x572C43
0x572DAB
0x572E73
0x572F50
0x572F58
0x5731F0
0x5731F4
0x5731F8
0x573510
0x573A70
0x573CAA
0x573D00
0x573D3B
0x573DA2
0x574140
0x57417E
0x574180
0x5743D0
0x574450
0x574457
0x574677
0x57467A
0x5746B0
0x574757
0x574759
0x574850
0x574854
0x574930
0x574934
0x574CC6
0x574DDF
0x575258
0x575660
0x57572D
0x575760
0x5757C7
0x5757FB
0x57580F
0x575823
0x575837
0x575892
0x5758A6
0x575950
0x575CE0
0x575CE2
0x575CE9
0x575D01
0x5760F0
0x5761D7
0x5763E0
0x5765E4
0x5765E6
0x576786
0x576910
0x576C79
0x5770F2
0x577140
0x5771DE
0x577317
0x57731A
0x577610
0x577986
0x578300
0x578302
0x578584
0x57866D
0x578850
0x578852
0x578915
0x578B8A
0x578CE0
0x579010
0x579290
0x5793D5
0x5795A4
0x5795B0
0x579994
0x579DEF
0x579E01
0x57A0A0
0x57A17E
0x57A1F0
0x57A2CE
0x57A340
0x57A343
0x57A349
0x57A930
0x57A9BF
0x57A9CD
0x57A9CF
0x57AAC4
0x57AAC6
0x57AB2B
0x57AB2D
0x57AC4A
0x57AC4C
0x57AC77
0x57ACAB
0x57ACAD
0x57AD29
0x57AD2F
0x57AD62
0x57AF70
0x57AFAC
0x57B022
0x57B02C
0x57B030
0x57B0D7
0x57B162
0x57B16C
0x57B170
0x57B215
0x57B292
0x57B2B3
0x57B349
0x57B3CD
0x57B4EB
0x57B502
0x57B503
0x57B532
0x57B5F5
0x57B699
0x57B69D
0x57B6D3
0x57B83D
0x57B841
0x57B877
0x57B8B0
0x57B8B4
0x57B8B8
0x57C0F0
0x57C1DB
0x57C4C6
0x57C51A
0x57C6EA
0x57C7D0
0x57CA40
0x57CD10
0x57CD18
0x57CD1A
0x57CF57
0x57D270
0x57D274
0x57D277
0x57D288
0x57D520
0x57D522
0x57D5A0
0x57D5B3
0x57DBC0
0x57DBC8
0x57DC35
0x57DC50
0x57DE05
0x57DE20
0x57DF15
0x57DF30
0x57E1D2
0x57E2E0
0x57E2E4
0x57E5B7
0x57E610
0x57E6E0
0x57E6E4
0x57E6ED
0x57E8C8
0x57EAE4
0x57ED40
0x57ED42
0x57EE3D
0x57F1B0
0x57F1B4
0x57F3C0
0x57F3C4
0x57F5EC
0x57F647
0x57F7B1
0x57F877
0x57F9A0
0x57F9A4
0x57FB00
0x57FF88
0x5800A8
0x5801C0
0x5801C2
0x5806C0
0x5807A2
0x580860
0x580862
0x580D20
0x580F50
0x58104A
0x5812DA
0x58131D
0x581582
0x5815CD
0x58184A
0x58188D
0x582190
0x582360
0x582D50
0x582EE0
0x582EE3
0x582F4A
0x583130
0x583300
0x5833D0
0x5837C0
0x583927
0x583A37
0x583FB5
0x5840D7
0x5841F7
0x584305
0x584425
0x5845D2
0x584855
0x5849E0
0x5849EB
0x584B90
0x584D33
0x584F20
0x585023
0x58505F
0x585457
0x58575D
0x585766
0x5857A0
0x5857A3
0x585822
0x58585A
0x5858E4
0x585903
0x585960
0x585963
0x585A09
0x585A12
0x585A19
0x585AC0
0x585AC9
0x585BC0
0x585BEA
0x585C60
0x585D01
0x585D12
0x585E80
0x586178
0x586226
0x58623E
0x58648C
0x5867D0
0x586919
0x586AD0
0x586B00
0x586B30
0x586B90
0x586BF0
0x586C78
0x586F10
0x5871B1
0x5871B7
0x5872B9
0x587351
0x5873A1
0x587806
0x587988
0x587BF0
0x587CC9
0x587CD5
0x587D6B
0x587DB1
0x587F18
0x587F22
0x587F48
0x587F70
0x587FA0
0x587FAC
0x587FD0
0x588000
0x588030
0x58803A
0x5880E8
0x588179
0x588279
0x588304
0x5883B0
0x5883BA
0x5885F0
0x5885F6
0x588987
0x588BFC
0x588EA0
0x589237
0x589250
0x58948C
0x589739
0x58973B
0x589741
0x589940
0x58A1D0
0x58A330
0x58A520
0x58A529
0x58A536
0x58A7FC
0x58A803
0x58A9A9
0x58AA10
0x58AA1C
0x58AB30
0x58AC6E
0x58B52A
0x58B5D8
0x58B75B
0x58B7D0
0x58B7DA
0x58BAE6
0x58BAF0
0x58BC30
0x58BC39
0x58BE88
0x58BEE8
0x58BF61
0x58C1A0
0x58C1AA
0x58C600
0x58D528
0x58D5C8
0x58D618
0x58D697
0x58D850
0x58D852
0x58DA60
0x58DA6C
0x58E040
0x58E1A4
0x58E319
0x58E479
0x58E526
0x58E650
0x58E700
0x58E70E
0x58E7B0
0x58E7B2
0x58E874
0x58E8A7
0x58E901
0x58E950
0x58E9B5
0x58E9E3
0x58EBA7
0x58EBD5
0x58EC80
0x58EC90
0x58ECB0
0x58ED30
0x58EE60
0x58EE88
0x58EED0
0x58EED2
0x58EED6
0x58F287
0x58F2D1
0x58F371
0x58F488
0x58F740
0x58F79C
0x58F7BC
0x58FA10
0x58FA26
0x58FA28
0x58FC40
0x58FCA0
0x58FCA4
0x58FCAA
0x5908A0
0x5908D0
0x5909D0
0x590E80
0x59141E
0x591A10
0x591C10
0x591C12
0x593AB0
0x593F93
0x594300
0x594303
0x5944D0
0x594512
0x5945F1
0x594680
0x5946A7
0x5946B2
0x5946BD
0x5946C8
0x59490F
0x594AD6
0x594FC0
0x594FCE
0x594FD3
0x5954D0
0x595720
0x595A30
0x595C50
0x596200
0x5962F0
0x596349
0x5963B8
0x5963D4
0x59660D
0x596720
0x596AD8
0x596AE6
0x596C70
0x596C90
0x596CC0
0x596CE0
0x596D20
0x596D50
0x596D80
0x596D84
0x596E19
0x596E40
0x596E44
0x596EB9
0x596EE0
0x596EE4
0x596F40
0x596F4A
0x596FE9
0x597029
0x597060
0x597064
0x5970D9
0x597159
0x597199
0x5971C0
0x5972C9
0x597399
0x5973AF
0x597595
0x597630
0x59769D
0x5976F6
0x597AD7
0x597AE2
0x597B60
0x597B65
0x597B77
0x597BE4
0x597C00
0x597C24
0x597C50
0x597E10
0x597F20
0x597F50
0x597F60
0x597FA0
0x598002
0x5981B0
0x5981B4
0x5981F9
0x5981FD
0x598554
0x598559
0x598570
0x5986A0
0x598858
0x5989C4
0x598B64
0x598B69
0x598F90
0x598FC4
0x5990D0
0x599200
0x599206
0x599213
0x599850
0x59985C
0x599913
0x599B7C
0x599CDC
0x599F2A
0x59A140
0x59A4D0
0x59A4DC
0x59A766
0x59A79D
0x59A840
0x59A8C2
0x59A8C9
0x59AB49
0x59AB80
0x59AEC2
0x59B2F0
0x59B303
0x59B370
0x59B3B0
0x59B4F0
0x59B4F5
0x59B4FD
0x59B501
0x59B505
0x59B51F
0x59B5D5
0x59B753
0x59BAE6
0x59BC80
0x59BCF0
0x59BD18
0x59BD32
0x59BDB8
0x59BE66
0x59BF06
0x59BF15
0x59BF90
0x59C0B7
0x59C185
0x59C240
0x59C249
0x59C469
0x59C600
0x59C60B
0x59C89F
0x59CADB
0x59CAF1
0x59CB86
0x59CC65
0x59CD30
0x59CE85
0x59CF30
0x59CF3A
0x59D1F1
0x59D370
0x59D4D9
0x59D617
0x59D7E2
0x59D875
0x59DD29
0x59DD3F
0x59DDC9
0x59DDDF
0x59DE69
0x59DE7F
0x59DF09
0x59DF1F
0x59DFA0
0x59DFA2
0x59DFC3
0x59E550
0x59E554
0x59E68D
0x59E838
0x59E978
0x59EA70
0x59EC14
0x59EE42
0x59F0B0
0x59F2A0
0x59F439
0x59F587
0x59F620
0x59F623
0x59F75D
0x59F76E
0x59F9A2
0x59FA54
0x59FAB4
0x5A0065
0x5A0090
0x5A009B
0x5A009D
0x5A0351
0x5A06B0
0x5A0BE0
0x5A0BE2
0x5A0BE6
0x5A1372
0x5A1700
0x5A1750
0x5A18A0
0x5A1A80
0x5A1A8A
0x5A1B05
0x5A1BC9
0x5A21B0
0x5A21B6
0x5A3CB0
0x5A3CBD
0x5A41F4
0x5A4304
0x5A4324
0x5A4558
0x5A46E4
0x5A4860
0x5A4D53
0x5A52D0
0x5A6020
0x5A6230
0x5A6443
0x5A64B1
0x5A6868
0x5A6940
0x5A6956
0x5A6C70
0x5A6C72
0x5A6C78
0x5A6E60
0x5A71D0
0x5A71DC
0x5A71E8
0x5A7E10
0x5A8009
0x5A8208
0x5A8399
0x5A8A27
0x5A8BE2
0x5A8CB3
0x5A8CBD
0x5A9140
0x5A914D
0x5A9510
0x5A9514
0x5A96F0
0x5A96F4
0x5A9740
0x5A98F0
0x5A98F4
0x5A9AEA
0x5A9E50
0x5AA556
0x5AA64D
0x5AA689
0x5AA920
0x5AA92D
0x5AAAA5
0x5AB1DA
0x5AB480
0x5AB4D0
0x5ABAD5
0x5ABC00
0x5ACB86
0x5ACCE0
0x5ACE20
0x5ACEDC
0x5AD1F2
0x5AD8AD
0x5ADB50
0x5ADB5D
0x5ADCA0
0x5ADCDD
0x5ADD60
0x5AE2D0
0x5AEAD0
0x5AEB23
0x5AEBF6
0x5AEE70
0x5AEF22
0x5AEFCA
0x5AFEF2
0x5B02B2
0x5B02F4
0x5B04B0
0x5B0580
0x5B05D1
0x5B0664
0x5B07F8
0x5B0802
0x5B0840
0x5B0880
0x5B0882
0x5B0A20
0x5B0A30
0x5B0A33
0x5B0BD0
0x5B0BD1
0x5B0C02
0x5B0CE0
0x5B164B
0x5B1656
0x5B18F0
0x5B18F4
0x5B2E30
0x5B2EE4
0x5B3036
0x5B3110
0x5B3117
0x5B311F
0x5B3360
0x5B3393
0x5B33D2
0x5B34F1
0x5B3700
0x5B39A2
0x5B3F95
0x5B42CC
0x5B4560
0x5B4CF0
0x5B5080
0x5B53D5
0x5B5410
0x5B5769
0x5B5C00
0x5B5C09
0x5B5D00
0x5B62F0
0x5B62F2
0x5B62F6
0x5B666D
0x5B67F3
0x5B6C58
0x5B71A9
0x5B7CB4
0x5B83F4
0x5B83F6
0x5B8530
0x5B8537
0x5B8680
0x5B8CB2
0x5B97A8
0x5B97AA
0x5B99AD
0x5B9CA0
0x5B9CE0
0x5B9D20
0x5B9D8A
0x5B9DF4
0x5B9E63
0x5B9ED3
0x5B9F42
0x5BA210
0x5BA256
0x5BA2F0
0x5BA390
0x5BA3CA
0x5BA3CF
0x5BA630
0x5BA720
0x5BAB3C
0x5BACE0
0x5BAD16
0x5BAD8E
0x5BAE0E
0x5BAE8A
0x5BB049
0x5BB166
0x5BB200
0x5BB203
0x5BB3C0
0x5BB3CD
0x5BB3FA
0x5BB531
0x5BB5A4
0x5BB612
0x5BB67A
0x5BB6DB
0x5BB8A2
0x5BB8B2
0x5BB8BA
0x5BBA80
0x5BBB60
0x5BBE55
0x5BBFF4
0x5BC136
0x5BC1B2
0x5BC1BB
0x5BC1C1
0x5BC5C0
0x5BC632
0x5BC63A
0x5BC6C2
0x5BC6CA
0x5BC752
0x5BC75A
0x5BC7E2
0x5BC7EA
0x5BC87E
0x5BC90E
0x5BC998
0x5BC9B2
0x5BCA30
0x5BCB5A
0x5BCBE0
0x5BCC00
0x5BCC10
0x5BCC60
0x5BCC66
0x5BCCD6
0x5BCD30
0x5BCDE8
0x5BCE83
0x5BCF49
0x5BD000
0x5BD006
0x5BD044
0x5BD106
0x5BD2B0
0x5BD2B4
0x5BD3D0
0x5BD435
0x5BD630
0x5BD633
0x5BD638
0x5BD89A
0x5BD9C0
0x5BDB30
0x5BDC66
0x5BDE40
0x5BDE42
0x5BE200
0x5BE860
0x5BEDA0
0x5BEDF4
0x5BF150
0x5BF152
0x5BF5ED
0x5BF6B6
0x5BF6C5
0x5BF760
0x5BFB15
0x5BFB25
0x5BFC80
0x5BFC82
0x5BFC83
0x5BFEC0
0x5BFF60
0x5BFFB5
0x5BFFBB
0x5C0050
0x5C012C
0x5C02C0
0x5C0380
0x5C0F20
0x5C1132
0x5C13A0
0x5C13C0
0x5C13F2
0x5C13F3
0x5C143B
0x5C14B2
0x5C14B3
0x5C1519
0x5C1520
0x5C15A3
0x5C1715
0x5C1761
0x5C18D9
0x5C1912
0x5C1CF5
0x5C1D82
0x5C1E46
0x5C1E4E
0x5C2109
0x5C21AC
0x5C236D
0x5C2398
0x5C2450
0x5C29E0
0x5C29E5
0x5C2A20
0x5C2A2B
0x5C2BC0
0x5C2BC9
0x5C2BCE
0x5C2BD3
0x5C2E24
0x5C2F76
0x5C33A0
0x5C33B0
0x5C33DB
0x5C3441
0x5C3451
0x5C3470
0x5C34E1
0x5C34E6
0x5C34F0
0x5C357D
0x5C3611
0x5C3620
0x5C3640
0x5C36B0
0x5C36D8
0x5C3712
0x5C38A0
0x5C38A9
0x5C3A38
0x5C3B9E
0x5C3DA0
0x5C3DAE
0x5C3DB0
0x5C3E5C
0x5C4020
0x5C4022
0x5C402C
0x5C4390
0x5C4394
0x5C43F0
0x5C44E6
0x5C46C3
0x5C4779
0x5C477B
0x5C477F
0x5C4786
0x5C4850
0x5C4878
0x5C4B90
0x5C4B94
0x5C5598
0x5C55A4
0x5C56B0
0x5C5978
0x5C5A70
0x5C61BA
0x5C6248
0x5C6630
0x5C6664
0x5C68F4
0x5C692A
0x5C6A2F
0x5C6D92
0x5C7032
0x5C72D2
0x5C7606
0x5C7CEA
0x5C7D56
0x5C7FF0
0x5C852F
0x5C88FC
0x5C8C1C
0x5C8F2C
0x5C90C0
0x5C90C8
0x5C90CA
0x5C9445
0x5C944F
0x5C9470
0x5C96C0
0x5C96D3
0x5C99E6
0x5C9ADD
0x5C9C1D
0x5C9E30
0x5C9E43
0x5CA176
0x5CA250
0x5CA252
0x5CA380
0x5CA382
0x5CA4E0
0x5CA4E5
0x5CA61A
0x5CA6C3
0x5CA730
0x5CA8B0
0x5CAB50
0x5CAFC0
0x5CB380
0x5CB590
0x5CBAB0
0x5CBE60
0x5CC060
0x5CC36D
0x5CC5A7
0x5CC647
0x5CC6F0
0x5CC8F0
0x5CC909
0x5CCD9A
0x5CD160
0x5CD162
0x5CD168
0x5CD171
0x5CD40F
0x5CDA2C
0x5CE3C6
0x5CE772
0x5CE893
0x5CE982
0x5CEA21
0x5CEB51
0x5CED10
0x5CED70
0x5CED77
0x5CED7A
0x5CEF04
0x5CF09A
0x5CF3AD
0x5CF550
0x5CF5B0
0x5CF5C5
0x5CF5CF
0x5CF710
0x5CF716
0x5CFDA4
0x5D0073
0x5D01C6
0x5D03B0
0x5D0786
0x5D07E7
0x5D08C0
0x5D0CF0
0x5D0CF2
0x5D0CF8
0x5D0D00
0x5D1852
0x5D1860
0x5D18A0
0x5D19B5
0x5D1A2A
0x5D1A85
0x5D1AFD
0x5D1BF0
0x5D1C00
0x5D1C78
0x5D1E51
0x5D1F45
0x5D1FF4
0x5D2005
0x5D23B9
0x5D23F0
0x5D23F2
0x5D23F8
0x5D28A0
0x5D2911
0x5D294B
0x5D29FD
0x5D2A63
0x5D2B30
0x5D2B56
0x5D2C06
0x5D2CC0
0x5D2D60
0x5D2E20
0x5D2E7C
0x5D2EC0
0x5D3810
0x5D3892
0x5D3970
0x5D3ED0
0x5D3F60
0x5D3FF2
0x5D4230
0x5D4270
0x5D42A0
0x5D438F
0x5D4431
0x5D4439
0x5D4470
0x5D44E0
0x5D44F0
0x5D4564
0x5D4566
0x5D4800
0x5D480D
0x5D4AF0
0x5D4B65
0x5D4B70
0x5D4D90
0x5D4D97
0x5D4D9A
0x5D4F04
0x5D4F09
0x5D51C6
0x5D5230
0x5D526D
0x5D5540
0x5D5546
0x5D5575
0x5D5876
0x5D5950
0x5D5954
0x5D5957
0x5D5C30
0x5D6120
0x5D6171
0x5D61F6
0x5D626F
0x5D648A
0x5D6491
0x5D6570
0x5D6671
0x5D668A
0x5D66F1
0x5D670A
0x5D6A47
0x5D6B30
0x5D6B40
0x5D6B47
0x5D6CB1
0x5D6ED0
0x5D6F62
0x5D6FD6
0x5D701C
0x5D7059
0x5D70E6
0x5D7122
0x5D7177
0x5D721C
0x5D7240
0x5D727D
0x5D7310
0x5D73C4
0x5D73CB
0x5D758B
0x5D75D2
0x5D76F0
0x5D774C
0x5D77A5
0x5D7980
0x5D7984
0x5D7F75
0x5D8003
0x5D88F0
0x5D88F2
0x5D8BC0
0x5D8BC2
0x5D8C4E
0x5D8F03
0x5D91F0
0x5D9204
0x5D988C
0x5D98DA
0x5D9962
0x5D9AB0
0x5D9B00
0x5D9B70
0x5D9B76
0x5DA3AA
0x5DA580
0x5DA59C
0x5DA610
0x5DA669
0x5DA718
0x5DA790
0x5DA7A5
0x5DA810
0x5DA88F
0x5DA8C0
0x5DA970
0x5DAB97
0x5DABFE
0x5DADD0
0x5DB0DF
0x5DB942
0x5DC180
0x5DC2C5
0x5DC681
0x5DC757
0x5DCB70
0x5DCB7F
0x5DCB85
0x5DD746
0x5DD8A0
0x5DD8F0
0x5DDC90
0x5DDF13
0x5DE040
0x5DE0F5
0x5DE4A0
0x5DE540
0x5DE5C0
0x5DE670
0x5DE7DE
0x5DE7E0
0x5DE7E4
0x5DE88B
0x5DE8C8
0x5DE8F3
0x5DE9D0
0x5DE9E8
0x5DEBB7
0x5DECAB
0x5DECF5
0x5DEDFE
0x5DEE90
0x5DF372
0x5DF3C0
0x5DF3F0
0x5DF46D
0x5DFAAC
0x5DFAD3
0x5DFAE8
0x5DFBC2
0x5DFBF3
0x5DFC0E
0x5DFDB7
0x5DFFC3
0x5DFFC7
0x5E00EF
0x5E011E
0x5E01A5
0x5E0215
0x5E0266
0x5E028F
0x5E0308
0x5E0352
0x5E0383
0x5E03B0
0x5E04C0
0x5E05D5
0x5E0667
0x5E06D8
0x5E0978
0x5E0999
0x5E09B0
0x5E0AE0
0x5E0AE2
0x5E0C3A
0x5E0E70
0x5E1223
0x5E153E
0x5E17E7
0x5E181D
0x5E1AFF
0x5E1B74
0x5E1C5D
0x5E1D0C
0x5E1D2F
0x5E1D89
0x5E1DB0
0x5E1DDB
0x5E1EE5
0x5E1FB0
0x5E201F
0x5E2023
0x5E20A9
0x5E21D2
0x5E21F5
0x5E224F
0x5E2276
0x5E22A1
0x5E2403
0x5E24F0
0x5E260A
0x5E26B1
0x5E2704
0x5E2782
0x5E278F
0x5E27C0
0x5E27F7
0x5E28A8
0x5E2908
0x5E2915
0x5E293B
0x5E2977
0x5E2A12
0x5E2C1B
0x5E2CC2
0x5E2D15
0x5E2D93
0x5E2DA0
0x5E2DD1
0x5E2E08
0x5E2F4D
0x5E3366
0x5E33A1
0x5E34E7
0x5E351D
0x5E3587
0x5E368C
0x5E3841
0x5E38DE
0x5E3960
0x5E3995
0x5E3BA0
0x5E3BA2
0x5E3D02
0x5E3D03
0x5E3D0F
0x5E3E70
0x5E3E81
0x5E40F8
0x5E41AF
0x5E41DA
0x5E42D0
0x5E45E0
0x5E45E2
0x5E467D
0x5E47F0
0x5E47F2
0x5E47F8
0x5E4AF0
0x5E4B20
0x5E4BE0
0x5E4BE4
0x5E4D10
0x5E4EE0
0x5E4F70
0x5E4F78
0x5E51B0
0x5E528F
0x5E537F
0x5E53F0
0x5E5584
0x5E55E4
0x5E5730
0x5E5A80
0x5E5A8D
0x5E5B97
0x5E60C9
0x5E61A0
0x5E61A1
0x5E6235
0x5E6284
0x5E62D0
0x5E62DB
0x5E62DD
0x5E62FA
0x5E6314
0x5E6611
0x5E690D
0x5E6911
0x5E69A6
0x5E6E52
0x5E6E56
0x5E8FDB
0x5E95EE
0x5E9DA8
0x5E9E53
0x5E9ED4
0x5E9EE0
0x5EA068
0x5EA07A
0x5EA110
0x5EA116
0x5EA32D
0x5EA400
0x5EAA7F
0x5EAAC1
0x5EACF0
0x5EAEF0
0x5EB070
0x5EB530
0x5EB532
0x5EB533
0x5EC0D6
0x5EC5C0
0x5EC5C9
0x5EC670
0x5EC820
0x5ECABF
0x5ECB76
0x5ECD40
0x5ED030
0x5ED2D0
0x5ED900
0x5ED909
0x5ED91D
0x5EDA37
0x5EDAF8
0x5EDB04
0x5EDCE7
0x5EDE27
0x5EDE30
0x5EDFB6
0x5EDFF7
0x5EE150
0x5EE153
0x5EE210
0x5EE410
0x5EE426
0x5EE6D3
0x5EE859
0x5EE9D4
0x5EE9DF
0x5EEB4D
0x5EEC40
0x5EEDFB
0x5EEE7A
0x5EEFF8
0x5EF17D
0x5EF184
0x5EF29D
0x5EF2A4
0x5EF390
0x5EF3A9
0x5EF4D3
0x5EF4DE
0x5EF4DF
0x5EF56A
0x5EF577
0x5EF940
0x5EFD12
0x5EFF40
0x5F02A3
0x5F04F0
0x5F0864
0x5F0A80
0x5F1080
0x5F1084
0x5F1720
0x5F1733
0x5F2130
0x5F2145
0x5F2480
0x5F2489
0x5F248E
0x5F26F0
0x5F26FE
0x5F2BD8
0x5F2D4F
0x5F2DB9
0x5F30F0
0x5F3650
0x5F3FAE
0x5F44B0
0x5F58B0
0x5F58F8
0x5F5902
0x5F5E50
0x5F6250
0x5F65E2
0x5F65E7
0x5F6840
0x5F6842
0x5F6AF0
0x5F77BA
0x5F7C53
0x5F7E1A
0x5F8B3F
0x5F8E6A
0x5F9876
0x5F98F2
0x5F9A22
0x5F9CC0
0x5F9CCF
0x5F9D96
0x5F9DA1
0x5FA3F0
0x5FA650
0x5FA860
0x5FA968
0x5FAA00
0x5FAAD6
0x5FAC1B
0x5FAD10
0x5FAD15
0x5FADE0
0x5FAE83
0x5FAED4
0x5FAF5D
0x5FAFEA
0x5FB08F
0x5FB178
0x5FB19D
0x5FB3D0
0x5FB534
0x5FB5D5
0x5FB5E2
0x5FB89E
0x5FB960
0x5FBF7E
0x5FBF90
0x5FC2A3
0x5FC2F0
0x5FC330
0x5FC360
0x5FC3F0
0x5FC458
0x5FC9B0
0x5FCA18
0x5FD070
0x5FD482
0x5FD4C3
0x5FD6E8
0x5FD774
0x5FD802
0x5FD84D
0x5FD8A0
0x5FDAF1
0x5FDAF2
0x5FDBF0
0x5FDC10
0x5FDC52
0x5FDCF0
0x5FDDD5
0x5FE059
0x5FE0B0
0x5FE3D0
0x6015DA
0x6024E2
0x602CE0
0x602CE8
0x602FE0
0x602FEF
0x603970
0x603A08
0x603AE7
0x60449D
0x604530
0x604536
0x604980
0x604984
0x604990
0x6049AB
0x60515C
0x605171
0x605300
0x605434
0x605555
0x605A18
0x605D08
0x605DB7
0x605E70
0x605E73
0x606209
0x606222
0x606350
0x60642E
0x6064A4
0x6065FD
0x606603
0x606772
0x606B80
0x606BE2
0x606C01
0x606CC5
0x606D60
0x606DC1
0x606DCF
0x606DEE
0x606EC5
0x607000
0x60700F
0x607098
0x6071E4
0x607219
0x6072CA
0x6075C0
0x607B3A
0x607D0B
0x607D70
0x607E19
0x607F77
0x60801D
0x60807E
0x6080B5
0x608580
0x6085DA
0x6086D8
0x6086E2
0x60879B
0x6087A9
0x608A10
0x608A12
0x608B40
0x608CD0
0x608E88
0x609010
0x609012
0x609190
0x609192
0x6098F0
0x609EA0
0x609EA4
0x609EA9
0x60A188
0x60A219
0x60A2A1
0x60A3F1
0x60AB55
0x60B162
0x60B270
0x60B4D2
0x60B7A9
0x60CADA
0x60CB57
0x60CB6F
0x60CF99
0x60DE3E
0x60DE70
0x60DE9B
0x60DEA0
0x60DF72
0x60E055
0x60E0FA
0x60E3B5
0x60E726
0x60E9D0
0x60EAF1
0x60EBBB
0x60EDEF
0x60F107
0x60F186
0x60F1C0
0x60F20F
0x60F3D9
0x60F3F2
0x60F45F
0x60F530
0x60F720
0x60F952
0x60FBE5
0x6100B0
0x6101A0
0x6101B6
0x610A72
0x610AE2
0x610B18
0x610C10
0x610CC0
0x610CE0
0x610CF9
0x6113C0
0x6113CE
0x6113D0
0x6117B2
0x6119C7
0x611A00
0x611A0B
0x611A0F
0x611F29
0x611FA9
0x612071
0x6120E9
0x612208
0x612238
0x612268
0x6122B8
0x612826
0x612865
0x612960
0x612B71
0x612DA0
0x6130F1
0x613181
0x6131E0
0x613200
0x613238
0x613625
0x613BC4
0x613EB7
0x613F10
0x6143A0
0x6143F8
0x61446E
0x614569
0x6148E0
0x614A31
0x614ABF
0x614C9E
0x614F39
0x615440
0x61567F
0x616C80
0x616CC0
0x616CC4
0x616CC7
0x616D00
0x616D02
0x616D06
0x616D08
0x616DD0
0x616DE6
0x617080
0x617780
0x617916
0x6179DC
0x6183E3
0x6184A2
0x6185F5
0x619A38
0x619AD6
0x619C45
0x619CDF
0x619D66
0x619DB2
0x61A71F
0x61A7AD
0x61A849
0x61A896
0x61A925
0x61AA0E
0x61AAA9
0x61ABC0
0x61B112
0x61F4E6
0x620562
0x625E80
0x626F21
0x6270E0
0x6274D0
0x628A70
0x628A7A
0x6294E0
0x6294E7
0x6294E9
0x6297C0
0x6297C4
0x6297C7
0x6297CA
0x629800
0x629802
0x629806
0x629808
0x6298F9
0x629905
0x629AB0
0x629E96
0x62A0D0
0x62AF20
0x62B340
0x62C318
0x62C703
0x62C8B1
0x62C96E
0x62CB85
0x62CC42
0x62CC5A
0x62CDF7
0x62CF90
0x62CF98
0x62CF9A
0x62D0F0
0x62D18B
0x62D3A0
0x62D550
0x62D6D9
0x62DA20
0x62DE70
0x62E475
0x62E478
0x62E4F0
0x62E4F9
0x6305A0
0x6305A9
0x631730
0x63174B
0x6317E0
0x6317E4
0x631A40
0x631B80
0x631EE0
0x6322C0
0x6326C0
0x632AC0
0x632AC4
0x632AC7
0x634050
0x6345B0
0x634BD9
0x635470
0x63547A
0x635602
0x635670
0x6356BD
0x635701
0x63590E
0x63610F
0x636696
0x636776
0x63690D
0x636B43
0x636BA9
0x636C43
0x636D40
0x6371A0
0x6371A6
0x637CD0
0x637E13
0x63809F
0x638473
0x63861E
0x638858
0x638986
0x63898F
0x63899E
0x638CFD
0x639110
0x63A3C0
0x63A3D3
0x63A790
0x63A7B0
0x63A7C0
0x63A7CE
0x63A7E0
0x63A800
0x63A810
0x63A879
0x63A8B9
0x63A8CF
0x63A950
0x63A9B1
0x63A9E0
0x63A9E4
0x63AF27
0x63B01D
0x63B114
0x63B1F0
0x63B1F3
0x63B250
0x63B252
0x63B7E7
0x63B7FB
0x63BD30
0x63CA98
0x63CAB1
0x63CAE0
0x63CBB0
0x63CC28
0x63CC30
0x63CC90
0x63CD40
0x63D350
0x63D8A0
0x63DF32
0x63DF63
0x63E1E3
0x63E221
0x63E3B5
0x63E7DA
0x63EA60
0x63EA68
0x63EA6A
0x63ED08
0x63ED40
0x63EEEE
0x63F23C
0x63F380
0x63FAA9
0x63FC05
0x63FEBC
0x63FED0
0x640080
0x6403D0
0x6406C0
0x640760
0x640810
0x640D60
0x6411C0
0x641C32
0x6430F3
0x643210
0x643360
0x643440
0x643478
0x643590
0x6435B0
0x643710
0x6439F1
0x643A34
0x643A3C
0x643A80
0x643AFC
0x643BB4
0x643C00
0x643C17
0x643C1C
0x643D38
0x643D40
0x643DB0
0x643DB3
0x643E98
0x643E9C
0x643F48
0x643F50
0x643FCC
0x644108
0x644160
0x644165
0x6442BC
0x6442C4
0x644330
0x644332
0x644450
0x644480
0x644483
0x64491C
0x644924
0x644990
0x644994
0x644A20
0x644B50
0x644B54
0x6450B0
0x64515A
0x645160
0x645167
0x6451C0
0x6451CA
0x6452B0
0x645660
0x645665
0x6456D7
0x645776
0x645880
0x6458E0
0x6458E3
0x6459D8
0x645C20
0x645C2B
0x645C33
0x6468C2
0x6468CA
0x646E40
0x646E8A
0x646F30
0x646F39
0x646F4C
0x647640
0x6476FE
0x647820
0x6478CF
0x647D58
0x647E40
0x647E44
0x647E46
0x647F58
0x647F80
0x647F8E
0x647F90
0x6484D0
0x6484D6
0x648568
0x648980
0x6491B0
0x6491B2
0x6499B3
0x649AB0
0x649AB2
0x64A076
0x64A291
0x64A3CB
0x64A3E0
0x64A470
0x64A479
0x64A6C0
0x64A6C3
0x64A770
0x64A823
0x64A880
0x64A898
0x64A9B0
0x64A9C8
0x64AB20
0x64AB62
0x64AC30
0x64AC3E
0x64AC40
0x64AD70
0x64ADD0
0x64B0F0
0x64B240
0x64B3A0
0x64B790
0x64B950
0x64B959
0x64B970
0x64BAE9
0x64BAF0
0x64BAF9
0x64BCF0
0x64D870
0x64D878
0x64D8D9
0x64DC7A
0x64DEB0
0x64DEC6
0x64E0C0
0x64E0CA
0x64EEF0
0x64EEF7
0x64EEFC
0x64EF03
0x64F29F
0x64F3A0
0x64F3A3
0x64F594
0x64F5E0
0x64F6A0
0x64FE56
0x64FE5C
0x64FEE8
0x64FF18
0x65002D
0x650180
0x6509C2
0x650D80
0x652990
0x653699
0x6536B9
0x653F55
0x6544E0
0x654567
0x6548F0
0x654907
0x654932
0x654967
0x6549E7
0x654A17
0x654A72
0x654B56
0x654C52
0x654E00
0x654FD0
0x655000
0x655051
0x6550B1
0x6550F0
0x6551D2
0x655265
0x655281
0x6552AB
0x6552C5
0x6552E1
0x65530B
0x6555AB
0x655609
0x655630
0x655660
0x6556B7
0x6556C0
0x655795
0x655799
0x655C32
0x655D7F
0x655EF0
0x6563B0
0x6568CD
0x656E40
0x656FB0
0x657692
0x657820
0x657834
0x657E18
0x657E8D
0x657EA0
0x657FC0
0x658CF2
0x658D30
0x658E30
0x658E34
0x659047
0x6591E0
0x6592A5
0x659AF0
0x659AFF
0x659BE0
0x659CE4
0x659CE9
0x659F10
0x659F26
0x65A390
0x65A3C0
0x65A3CB
0x65A560
0x65A562
0x65A566
0x65A850
0x65A880
0x65A88B
0x65A88D
0x65AA80
0x65AD20
0x65AD3C
0x65AF5D
0x65B270
0x65B280
0x65B4F0
0x65B4F2
0x65B4F3
0x65B4F7
0x65B500
0x65B930
0x65B960
0x65B990
0x65BA30
0x65BA36
0x65BB60
0x65BF90
0x65BF9D
0x65BFD0
0x65C080
0x65C130
0x65C370
0x65C519
0x65C525
0x65C52C
0x65C696
0x65C6E1
0x65C729
0x65C7E0
0x65C850
0x65C880
0x65C8B0
0x65C8F0
0x65C951
0x65C990
0x65C9C1
0x65C9CD
0x65CA00
0x65CA40
0x65CB30
0x65CB35
0x65CC03
0x65CD13
0x65CDD0
0x65CDDD
0x65D028
0x65D0C0
0x65D0C3
0x65D427
0x65D440
0x65D448
0x65D467
0x65D4CC
0x65D550
0x65D552
0x65D556
0x65D778
0x65D900
0x65DB14
0x65DC78
0x65DC86
0x65DD60
0x65DE20
0x65DE2D
0x65E1E0
0x65E860
0x65E884
0x65E8AD
0x65EB90
0x65EB94
0x65EB97
0x65EBB2
0x65F010
0x65F016
0x65F0B0
0x65F0B6
0x65F1B0
0x65F2DA
0x65F4BC
0x65F5DC
0x65F683
0x65F718
0x65F7C0
0x65F860
0x65F8B0
0x65F8B5
0x65FB3D
0x65FB50
0x65FB60
0x65FC00
0x65FC09
0x660480
0x6608B0
0x6608B5
0x660B60
0x660BF0
0x660BF2
0x660E20
0x660E25
0x660EAE
0x661186
0x6612D5
0x661360
0x661365
0x661760
0x661767
0x661770
0x661D38
0x6622EE
0x6623FC
0x6624EE
0x662520
0x6625B0
0x6625B5
0x6627B3
0x662803
0x6628A0
0x662A74
0x662BF0
0x662BF4
0x662C09
0x6637B9
0x6637D3
0x6637D9
0x6638D0
0x663E50
0x663E59
0x663FD0
0x664013
0x6642A3
0x664498
0x664650
0x664659
0x664665
0x664770
0x664AA2
0x664AA4
0x664AAC
0x664AC9
0x664BC0
0x664BCD
0x664BD3
0x664CF0
0x664CFD
0x664D03
0x664E20
0x665010
0x665020
0x665032
0x665036
0x6652C2
0x6652C6
0x665343
0x6654C0
0x6658B4
0x665914
0x665A2A
0x665A90
0x665B20
0x665B26
0x666171
0x666230
0x6667F0
0x666920
0x666EF8
0x6670DD
0x667173
0x6671AB
0x667220
0x667229
0x667230
0x667450
0x667CFE
0x667D08
0x668D14
0x668F53
0x668F5F
0x669139
0x669428
0x669C90
0x669D07
0x669D69
0x669DF0
0x669DF5
0x669E70
0x669E75
0x669FD0
0x669FD4
0x669FD6
0x66A45D
0x66A470
0x66A488
0x66A555
0x66B190
0x66B490
0x66BC18
0x66C12B
0x66C180
0x66C1B0
0x66C324
0x66C434
0x66C5A0
0x66C5AB
0x66C734
0x66C7E4
0x66C980
0x66CB69
0x66CE80
0x66CE82
0x66CE86
0x66CE88
0x66D130
0x66D132
0x66D136
0x66D138
0x66D3E4
0x66D3F2
0x66D460
0x66D630
0x66D640
0x66D940
0x66D948
0x66DEC0
0x66E0C9
0x66E0F7
0x66E210
0x66E212
0x66E213
0x66E21D
0x66E68A
0x66E872
0x66E9B2
0x66EA52
0x66EAE0
0x66EB04
0x66EB68
0x66EBE7
0x66ECE7
0x66EDA0
0x66F0B0
0x66F300
0x66F330
0x66F5F7
0x66F5FC
0x66F7A0
0x66F7A8
0x66F7AA
0x66FB4D
0x66FBC0
0x670068
0x6700C0
0x670340
0x6706D8
0x6708C4
0x6713BA
0x67167F
0x671918
0x671A67
0x671D68
0x672382
0x672D60
0x672FBC
0x673260
0x673292
0x673B88
0x673BA0
0x673BCD
0x673CE0
0x6741C0
0x6741C2
0x6741C8
0x6745FC
0x674620
0x674624
0x6749E4
0x674C57
0x674EBE
0x675020
0x67502C
0x6751A3
0x675551
0x675590
0x675592
0x675FF0
0x676240
0x676AFD
0x676D90
0x676DA0
0x676FB0
0x676FB2
0x6777D9
0x677820
0x677CC0
0x678180
0x678B10
0x678C86
0x678E64
0x678E96
0x679194
0x6792CB
0x6794C2
0x679510
0x679719
0x67971F
0x6797D4
0x679AC3
0x67A39D
0x67A3CA
0x67A450
0x67A454
0x67A58D
0x67A70F
0x67A8C0
0x67AA74
0x67AB68
0x67ABC0
0x67AE90
0x67AE94
0x67AF3C
0x67AFA0
0x67AFA4
0x67B1F6
0x67B2C0
0x67B2C2
0x67BA16
0x67BA34
0x67BA80
0x67BA98
0x67BEC0
0x67C060
0x67C064
0x67C0D0
0x67C0D4
0x67C120
0x67C124
0x67C189
0x67C1D9
0x67C222
0x67C2C9
0x67C309
0x67C349
0x67C380
0x67C384
0x67C3E9
0x67C430
0x67C434
0x67C4F0
0x67C4F4
0x67C559
0x67C599
0x67C670
0x67C674
0x67C6D9
0x67C719
0x67C750
0x67C754
0x67C809
0x67C830
0x67C834
0x67C919
0x67C969
0x67C9A9
0x67CA29
0x67CA76
0x67CAE0
0x67CAE4
0x67CB49
0x67CBB0
0x67CBB4
0x67CC19
0x67CC59
0x67CCD9
0x67CD19
0x67CD80
0x67CD84
0x67CDE0
0x67CDE4
0x67CE40
0x67CE44
0x67CEA9
0x67CF30
0x67CF34
0x67CF99
0x67CFF9
0x67D039
0x67D079
0x67D0B9
0x67D0F9
0x67D159
0x67D199
0x67D1CD
0x67D1DB
0x67D62D
0x67D7D9
0x67D808
0x67D8E9
0x67D989
0x67D99F
0x67DC13
0x67DC23
0x67DE60
0x67DFA0
0x67E2B0
0x67E4AA
0x67E5B0
0x67E600
0x67E603
0x67E666
0x67E6B6
0x67E700
0x67E703
0x67E768
0x67E840
0x67E84B
0x67E853
0x67E85A
0x67E9B8
0x67EA18
0x67EA68
0x67EAB8
0x67EB60
0x67EB70
0x67EB90
0x67EBB0
0x67EBD8
0x67ECA6
0x67ED40
0x67ED90
0x67EDCF
0x67EE1C
0x67EE69
0x67EEBA
0x67EF0A
0x67EF59
0x67F1B0
0x67F227
0x67F2B0
0x67F300
0x67F350
0x67F390
0x67F3D0
0x67F420
0x67F4D0
0x67F510
0x67F513
0x67F576
0x67F600
0x67F636
0x67F686
0x67F6D0
0x68099D
0x680AF0
0x680C20
0x680D00
0x680D50
0x680E30
0x680E77
0x680EF0
0x680F40
0x680F96
0x680FF6
0x681040
0x681063
0x6810A0
0x681100
0x681217
0x68127F
0x6812C0
0x681466
0x6814A0
0x6814B4
0x6814B7
0x6819B0
0x6819F0
0x681A2C
0x681AB7
0x681B30
0x681C70
0x681CF0
0x681D34
0x681D36
0x681DF0
0x681E2A
0x681F04
0x682036
0x682080
0x682083
0x682149
0x6822B0
0x6822ED
0x682450
0x682520
0x682523
0x6826D0
0x682710
0x68275A
0x682765
0x6829F0
0x682A36
0x682A80
0x682BE0
0x682BE3
0x682C90
0x682C93
0x682DD0
0x682FB0
0x683276
0x6832C0
0x683546
0x6835E0
0x683610
0x6836C6
0x683776
0x6838B6
0x683956
0x683A06
0x683BE6
0x683C86
0x683CD9
0x683DC0
0x683E70
0x683EA6
0x683EF9
0x683F40
0x683F43
0x683FC0
0x683FCB
0x68449B
0x6844C0
0x6844CD
0x6844F9
0x68455F
0x6845A6
0x6845F1
0x684641
0x684685
0x684841
0x6848F2
0x6848FA
0x684BF8
0x684C58
0x684D20
0x684D78
0x6850A2
0x685B82
0x685D3B
0x686670
0x6866C8
0x6868E3
0x686C08
0x686C50
0x686C64
0x686C67
0x6873B6
0x687442
0x68744A
0x687510
0x6875F2
0x687718
0x687768
0x687822
0x68782A
0x687836
0x687900
0x68790B
0x687913
0x687ED0
0x687EDB
0x687EE3
0x6880E0
0x6880EB
0x6880F3
0x6880FA
0x688240
0x68824B
0x688253
0x68825A
0x6884AC
0x6884CE
0x688510
0x688598
0x6887D0
0x688AC8
0x688C20
0x688C2B
0x688C33
0x688D92
0x688D9A
0x688DA6
0x688EC0
0x688F38
0x688FE8
0x689150
0x6892B5
0x689320
0x689568
0x6895E0
0x689640
0x689837
0x6898B8
0x6899B2
0x6899BA
0x689AC8
0x689B80
0x689B8B
0x689B93
0x689D68
0x689E08
0x689EC8
0x689F68
0x68A008
0x68A182
0x68A228
0x68A442
0x68A44A
0x68A542
0x68A54B
0x68A551
0x68A7F3
0x68A8E0
0x68A8E5
0x68A9A7
0x68A9AA
0x68AAB0
0x68AAB4
0x68AAB6
0x68AC1C
0x68AD02
0x68AD44
0x68ADA3
0x68AE43
0x68AFC6
0x68B322
0x68B4B0
0x68B4B2
0x68B4B6
0x68B976
0x68BCA1
0x68BDD8
0x68BE3C
0x68BF80
0x68BF82
0x68C3A0
0x68C427
0x68C669
0x68CF80
0x68D836
0x68DC70
0x68DC78
0x68DDF7
0x68DED0
0x68DED2
0x68DEDE
0x68DF34
0x68DF3E
0x68E590
0x68E594
0x68E8C1
0x68E8F0
0x68EF41
0x68F38B
0x68F3D7
0x68F440
0x68F450
0x68F752
0x68F930
0x68FA13
0x68FA70
0x68FB2D
0x68FF02
0x68FF04
0x6901C0
0x690580
0x6906B8
0x6907F0
0x6907F2
0x6907F6
0x690D10
0x6912B0
0x691A28
0x691FA4
0x6920B2
0x692290
0x692670
0x692672
0x692680
0x693320
0x693400
0x693404
0x693407
0x6934F1
0x693540
0x693544
0x6937EE
0x694648
0x695375
0x69577F
0x6961AE
0x696506
0x696720
0x696733
0x696924
0x696990
0x6969F4
0x696A60
0x696AF7
0x696B20
0x696B30
0x696B32
0x696B4F
0x696D80
0x696D90
0x696DA0
0x696EE0
0x697040
0x697060
0x6971A0
0x6972E0
0x6972E7
0x697560
0x697574
0x697650
0x69765F
0x697663
0x697740
0x697749
0x697930
0x69793F
0x697943
0x697B30
0x697B39
0x697B43
0x697D80
0x697E33
0x697ED0
0x6984D0
0x6984E0
0x698A60
0x698B38
0x698C72
0x698F04
0x698FA0
0x699080
0x699176
0x6993D0
0x699786
0x699890
0x699894
0x699C20
0x699C24
0x699D22
0x699D2A
0x699EA7
0x699F30
0x69A067
0x69A0C0
0x69A3C0
0x69A4E0
0x69A4F8
0x69A920
0x69A922
0x69A924
0x69A941
0x69AA10
0x69AA12
0x69AA19
0x69AA29
0x69AAE0
0x69AB3B
0x69ABA2
0x69ABB1
0x69B040
0x69B6B0
0x69B7D8
0x69B850
0x69B857
0x69BD11
0x69BD67
0x69BE2E
0x69BE8F
0x69BF1C
0x69BFD0
0x69C040
0x69C310
0x69C330
0x69C3B0
0x69CA00
0x69CAFD
0x69CAFF
0x69CB98
0x69CC50
0x69CC52
0x69CD28
0x69CD92
0x69CDA0
0x69CFA3
0x69D2E2
0x69D382
0x69D387
0x69D489
0x69D500
0x69D60A
0x69D6D0
0x69E12F
0x69E135
0x69E146
0x69E15D
0x69E241
0x69E3DC
0x69E3E7
0x69E3F4
0x69E40C
0x69E4E3
0x69E570
0x69EBC7
0x69EC43
0x69ECC1
0x69ECC8
0x69ED10
0x69ED19
0x69FB50
0x69FC38
0x69FEC0
0x69FEC9
0x69FED1
0x6A0140
0x6A0142
0x6A017C
0x6A01BC
0x6A02E1
0x6A0575
0x6A0660
0x6A09E0
0x6A0C40
0x6A0DF1
0x6A0FC5
0x6A1130
0x6A1330
0x6A1530
0x6A15E4
0x6A1820
0x6A1822
0x6A182E
0x6A18EF
0x6A1C40
0x6A1C42
0x6A1C46
0x6A1C48
0x6A1C4C
0x6A1D69
0x6A1E40
0x6A1F44
0x6A3606
0x6A3753
0x6A39B0
0x6A3E85
0x6A4098
0x6A421D
0x6A43BC
0x6A5090
0x6A509F
0x6A50E9
0x6A512B
0x6A521C
0x6A525C
0x6A5313
0x6A53DF
0x6A5420
0x6A54E3
0x6A55EA
0x6A56CC
0x6A570A
0x6A57AD
0x6A57F2
0x6A5970
0x6A59C4
0x6A5C9B
0x6A60E7
0x6A62B0
0x6A62B4
0x6A6400
0x6A652A
0x6A6A9C
0x6A6ADE
0x6A6BB0
0x6A6BB6
0x6A6C0B
0x6A71D0
0x6A7284
0x6A7470
0x6A7F35
0x6A7F67
0x6A7F99
0x6A8CEC
0x6A8D1F
0x6A8D52
0x6A8F80
0x6A9280
0x6A93A0
0x6A9459
0x6A94F0
0x6A95D0
0x6A96E2
0x6A9842
0x6A9AC0
0x6A9EA0
0x6A9FB2
0x6AA18C
0x6AA500
0x6AA502
0x6AB0AB
0x6AB563
0x6AB9B0
0x6AC1F1
0x6AC29B
0x6AC2AC
0x6AC4C7
0x6AC4D2
0x6AC857
0x6AC9A0
0x6ACFE2
0x6AD310
0x6AD460
0x6AD9C4
0x6ADD93
0x6ADF37
0x6ADF39
0x6ADF4B
0x6ADFF0
0x6AE000
0x6AE19C
0x6AE1A6
0x6AED20
0x6AED2F
0x6AED98
0x6AF21A
0x6AF383
0x6AF760
0x6AFB81
0x6B03A0
0x6B06B0
0x6B0804
0x6B0AD6
0x6B0D83
0x6B1740
0x6B1898
0x6B1B5A
0x6B2580
0x6B279A
0x6B2F46
0x6B30A0
0x6B30F0
0x6B31F5
0x6B3211
0x6B32D0
0x6B3630
0x6B3633
0x6B3B90
0x6B3C60
0x6B3C64
0x6B568A
0x6B5E90
0x6B6000
0x6B6004
0x6B6162
0x6B64A7
0x6B6659
0x6B6797
0x6B687A
0x6B6C52
0x6B6C54
0x6B6EC8
0x6B6F35
0x6B70F5
0x6B72E0
0x6B72F6
0x6B7584
0x6B7A50
0x6B7C19
0x6B7CC0
0x6B7D10
0x6B7DAA
0x6B7E64
0x6B7ED0
0x6B7ED8
0x6B813C
0x6B829A
0x6B8330
0x6B8332
0x6B833B
0x6B833D
0x6B8393
0x6B8428
0x6B84BF
0x6B8640
0x6B864E
0x6B885A
0x6B885F
0x6B89F0
0x6B8C1E
0x6B8D04
0x6B8E82
0x6B8E86
0x6B91D6
0x6B9258
0x6B94D6
0x6B94D8
0x6B9A00
0x6B9EAD
0x6B9EE4
0x6B9F02
0x6B9FCF
0x6BA0F0
0x6BA2F0
0x6BA521
0x6BA59C
0x6BA6EA
0x6BA8E4
0x6BAA8E
0x6BAB04
0x6BAB30
0x6BAC81
0x6BACD5
0x6BAD12
0x6BAF6F
0x6BB140
0x6BB2CE
0x6BB550
0x6BB55B
0x6BB860
0x6BBBAA
0x6BBCE0
0x6BBCEB
0x6BBED7
0x6BBFF0
0x6BBFF4
0x6BC220
0x6BCF42
0x6BD3B2
0x6BD6ED
0x6BD740
0x6BDE5A
0x6BDF40
0x6BE13B
0x6BE859
0x6BEB95
0x6BEC38
0x6BECFF
0x6BEED0
0x6BEED7
0x6BF216
0x6BF3A8
0x6BF7C5
0x6BF864
0x6BF9A1
0x6BFAB8
0x6BFBE8
0x6BFC08
0x6C00AC
0x6C0168
0x6C0340
0x6C0466
0x6C05AC
0x6C06AF
0x6C0BE6
0x6C0D52
0x6C0EA5
0x6C0F98
0x6C12D0
0x6C1320
0x6C13D2
0x6C14E0
0x6C1548
0x6C174E
0x6C18E0
0x6C1940
0x6C1942
0x6C1E70
0x6C21C0
0x6C2290
0x6C2360
0x6C241F
0x6C2AE0
0x6C3479
0x6C347E
0x6C35CE
0x6C3A5B
0x6C3CCC
0x6C3EE9
0x6C41B0
0x6C41BF
0x6C4319
0x6C4390
0x6C4396
0x6C46E0
0x6C4AB5
0x6C50C0
0x6C5474
0x6C54F0
0x6C5530
0x6C5590
0x6C55D0
0x6C55D2
0x6C55D6
0x6C5645
0x6C5750
0x6C5763
0x6C5846
0x6C58A0
0x6C59C3
0x6C5B60
0x6C61EA
0x6C6289
0x6C62E4
0x6C6300
0x6C6564
0x6C6572
0x6C69A8
0x6C69F0
0x6C6F30
0x6C6F33
0x6C6F38
0x6C7076
0x6C744D
0x6C7720
0x6C84CA
0x6C9D60
0x6C9D6F
0x6C9DEA
0x6C9DF1
0x6C9E50
0x6C9F66
0x6CA0C0
0x6CA340
0x6CA34F
0x6CA500
0x6CA50F
0x6CA930
0x6CAACA
0x6CAB20
0x6CAB33
0x6CAB94
0x6CABF0
0x6CAC91
0x6CACB2
0x6CAD30
0x6CAD3F
0x6CAD66
0x6CADD5
0x6CAF1B
0x6CB040
0x6CB1EC
0x6CB3B0
0x6CB3BB
0x6CB45D
0x6CB4EE
0x6CB652
0x6CB730
0x6CB950
0x6CB952
0x6CB9F6
0x6CBAE9
0x6CBBA0
0x6CBBE5
0x6CBC9E
0x6CBEC6
0x6CBF00
0x6CBF52
0x6CBF56
0x6CC6F0
0x6CD620
0x6CD622
0x6CDDD0
0x6CE0F0
0x6CE100
0x6CE222
0x6CE227
0x6CE342
0x6CE349
0x6CE380
0x6CE440
0x6CE4B3
0x6CE5A0
0x6CE5B7
0x6CE80E
0x6CE9F6
0x6CEA80
0x6CEAD0
0x6CED31
0x6CED75
0x6CEE25
0x6CEE57
0x6CEE70
0x6CEE89
0x6CF280
0x6CF34F
0x6CF5A0
0x6CFC50
0x6D0187
0x6D02DD
0x6D08DC
0x6D0907
0x6D0D6E
0x6D0D72
0x6D0DAD
0x6D12CA
0x6D1867
0x6D196B
0x6D1A14
0x6D1BF9
0x6D1CF8
0x6D1F75
0x6D1F82
0x6D2040
0x6D204A
0x6D27DA
0x6D2EA0
0x6D35EE
0x6D36DC
0x6D3970
0x6D3980
0x6D39A0
0x6D39B9
0x6D3C40
0x6D3D90
0x6D3DB0
0x6D3DF8
0x6D3E80
0x6D4540
0x6D4542
0x6D47E0
0x6D4A20
0x6D4A21
0x6D4AB0
0x6D4BD0
0x6D4D80
0x6D4D81
0x6D5080
0x6D5081
0x6D5130
0x6D5131
0x6D51F0
0x6D51F1
0x6D5290
0x6D5291
0x6D5300
0x6D5301
0x6D5420
0x6D5421
0x6D6620
0x6D6621
0x6D6E50
0x6D7680
0x6D7681
0x6D7EA0
0x6D8778
0x6D89D0
0x6D89D1
0x6D8A28
0x6D8E78
0x6D9078
0x6D91A5
0x6D99F0
0x6D99F1
0x6D9B28
0x6D9C20
0x6D9C21
0x6D9DFD
0x6DA097
0x6DA7A0
0x6DA7A1
0x6DACF0
0x6DACF1
0x6DAD80
0x6DAD81
0x6DB728
0x6DB7B0
0x6DCB46
0x6DCC46
0x6DCDC0
0x6DD528
0x6DDA40
0x6DDA41
0x6DE330
0x6DE331
0x6DFED0
0x6DFED1
0x6E0028
0x6E0078
0x6E0128
0x6E0470
0x6E0471
0x6E0E90
0x6E0E91
0x6E1348
0x6E1520
0x6E1523
0x6E1524
0x6E1728
0x6E1820
0x6E1880
0x6E1A78
0x6E1D40
0x6E1D43
0x6E1D44
0x6E1E28
0x6E2005
0x6E2078
0x6E2580
0x6E2581
0x6E2650
0x6E2C00
0x6E2C01
0x6E51F8
0x6E54F8
0x6E550E
0x6E62A8
0x6E63E5
0x6E67F8
0x6E7820
0x6E7AF8
0x6E94A8
0x6EB511
0x6EBF61
0x6EC2F8
0x6EC9A8
0x6ECBA8
0x6EF03E
0x6F00D2
0x6F0716
0x6F16D8
0x6F2F75
0x6F4708
0x6F7EA8
0x6F9EF8
0x6FA6EF
0x6FA9E6
0x6FAB83
0x6FBD3B
0x6FBEA8
0x6FE5C2
0x6FECA8
0x6FF5A8
0x6FFAF8
0x700105
0x70288B
0x703802
0x703A06
0x705BD3
0x708070
0x70B0DC
0x70B488
0x70B750
0x70BDA8
0x70E8B5
0x713457
0x714164
0x714E6F
0x715D31
0x716A07
0x7171E4
0x71D365
0x71DB3C
0x71E5EB
0x71E8F8
0x71EBC1
0x720345
0x720AD0
0x721E9E
0x7253E0
0x725C52
0x725EEB
0x727752
0x727C1D
0x72821E
0x728311
0x7288E7
0x728AD5
0x728BA1
0x72AA68
0x72BFA0
0x72DE78
0x72FBA2
0x730605
0x732D8F
0x73366F
0x733960
0x735B26
0x7374BB
0x7374C0
0x73ADE0
0x73B3A4
0x73CB50
0x73E0A0
0x7401A8
0x742EA8
0x744930
0x744AF8
0x7454F8
0x745F7B
0x74A4F8
0x74BAF8
0x74C9BC
0x74D696
0x74DFF8
0x74EFE6
0x7511E1
0x7515A8
0x753EF8
0x754DE0
0x755780
0x755B68
0x756E49
0x757799
0x758B90
0x75A262
0x75ACF9
0x75B200
0x75B61F
0x75C0E9
0x75CCE2
0x75E4AA
0x75EC26
0x75F45F
0x75F526
0x7640E0
0x7646E2
0x764F06
0x765041
0x76518E
0x7654A8
0x76619D
0x7668F7
0x7689A8
0x768E1E
0x7690A8
0x769426
0x76B4C0
0x76B5F8
0x76CEA8
0x76D40A
0x76F722
0x77050A
0x770868
0x7741C0
0x774220
0x774E00
0x7756D8
0x7775B2
0x779C2A
0x77B0F8
0x77BEB6
0x77C39F
0x77C412
0x77E2E6
0x77E3B8
0x780386
0x780AD8
0x782BA8
0x782D25
0x7837F9
0x787ABF
0x7880D9
0x788D28
0x788F9B
0x789859
0x789D80
0x78AF0B
0x78B1F8
0x78C2F0
0x78C936
0x78DDD5
0x78E84B
0x78F0F4
0x78F9E6
0x790357
0x790AC3
0x791318
0x791872
0x791A83
0x793191
0x794010
0x79469B
0x795D8A
0x796230
0x7970F4
0x797B61
0x799A63
0x79C780
0x79CFB7
0x7A0947
0x7A09F7
0x7A0B3C
0x7A0C8F
0x7A0D23
0x7A0E92
0x7A0EB7
0x7A0FEF
0x7A2266
0x7A2268
0x7A226C
0x7A24B7
0x7A256A
0x7A267A
0x7A2760
0x7A29F0
0x7A2A00
0x7A3FA8
0x7A458C
0x7A4998
0x7A4ACD
0x7A4D2A
0x7A4E50
0x7A4E70
0x7A4F13
0x7A4FC0
0x7A5090
0x7A5130
0x7A5180
0x7A5287
0x7A52C6
0x7A5410
0x7A5440
0x7A5470
0x7A54A0
0x7A54D0
0x7A5500
0x7A5530
0x7A5560
0x7A5590
0x7A55C0
0x7A58C9
0x7A595D
0x7A5A00
0x7A5A0F
0x7A5A20
0x7A5AE4
0x7A5B74
0x7A5D30
0x7A5D80
0x7A5DDD
0x7A5E9D
0x7A5F5D
0x7A6360
0x7A63A0
0x7A63E0
0x7A6420
0x7A6422
0x7A64D0
0x7A64D2
0x7A6580
0x7A6582
0x7A67DD
0x7A687D
0x7A6913
0x7A6940
0x7A6973
0x7A69B7
0x7A6A10
0x7A6A60
0x7A6AC0
0x7A6B33
0x7A6C82
0x7A6C85
0x7A6FB2
0x7A7090
0x7A70A2
0x7A70AA
0x7A70B3
0x7A7182
0x7A7188
0x7A7230
0x7A7270
0x7A72B0
0x7A72E0
0x7A7320
0x7A7360
0x7A7369
0x7A736F
0x7A74A0
0x7A74A9
0x7A74AF
0x7A7782
0x7A7806
0x7A7896
0x7A8060
0x7A80A0
0x7A80E0
0x7A81C9
0x7A8260
0x7A82A0
0x7A8474
0x7A850D
0x7A85C0
0x7A85CF
0x7A85E0
0x7A86C4
0x7A8764
0x7A8A04
0x7A8A9D
0x7A8B50
0x7A8B5F
0x7A8B70
0x7A8C54
0x7A8CF4
0x7A8F94
0x7A90B4
0x7A9140
0x7A9180
0x7A91C0
0x7A9200
0x7A9240
0x7A9280
0x7A92B0
0x7A92E0
0x7A9310
0x7A9340
0x7A937D
0x7A9428
0x7A97E0
0x7A9820
0x7A9860
0x7A98A7
0x7A98F0
0x7A9930
0x7A9970
0x7A99B0
0x7A99F0
0x7A9A30
0x7A9A86
0x7A9BE6
0x7A9D30
0x7A9DB0
0x7A9DE0
0x7A9E10
0x7A9E40
0x7A9E90
0x7A9EE0
0x7A9F80
0x7A9FB0
0x7A9FE0
0x7AA010
0x7AA040
0x7AA070
0x7AA0A0
0x7AA0D0
0x7AA100
0x7AA130
0x7AA160
0x7AA1A0
0x7AA1F0
0x7AA240
0x7AA286
0x7AA2E6
0x7AA346
0x7AA770
0x7AA7E0
0x7AA8A0
0x7AA8E0
0x7AA9A0
0x7AA9E0
0x7AAA20
0x7AAA60
0x7AAB10
0x7AAB50
0x7AAB90
0x7AABD0
0x7AAC10
0x7AAC50
0x7AAC90
0x7AACD0
0x7AAD10
0x7AAD50
0x7AAD90
0x7AADD0
0x7AAE10
0x7AAE50
0x7AAE90
0x7AAED0
0x7AAF10
0x7AAF50
0x7AAF90
0x7AAF9C
0x7AAFF0
0x7AAFFC
0x7AB050
0x7AB05C
0x7AB0B0
0x7AB0BC
0x7AB110
0x7AB11C
0x7AB170
0x7AB17C
0x7AB1D0
0x7AB200
0x7AB230
0x7AB260
0x7AB290
0x7AB2C0
0x7AB2F0
0x7AB2FC
0x7AB350
0x7AB35C
0x7AB3B0
0x7AB3F0
0x7AB430
0x7AB4A0
0x7AB4D0
0x7AB500
0x7AB530
0x7AB560
0x7AB5C0
0x7AB620
0x7AB660
0x7AB6A0
0x7AB710
0x7AB71C
0x7AB770
0x7AB77C
0x7AB7D0
0x7AB7DC
0x7AB830
0x7AB83C
0x7AB910
0x7AB990
0x7ABA10
0x7ABA9C
0x7ABD2C
0x7ABFB0
0x7ABFB2
0x7ABFCA
0x7AC4C0
0x7AC4C2
0x7AC4DA
0x7AC9DC
0x7ACC6C
0x7ACF06
0x7AD066
0x7AD1B0
0x7AD1F0
0x7AD230
0x7AD270
0x7AD2B0
0x7AD320
0x7AD450
0x7AD456
0x7AD4B0
0x7AD4B6
0x7AD511
0x7AD51F
0x7AD5D1
0x7AD5DF
0x7AD691
0x7AD69F
0x7AD751
0x7AD75F
0x7AD820
0x7AD870
0x7AD8C0
0x7AD910
0x7AD960
0x7AD9B0
0x7ADA00
0x7ADA50
0x7ADAA0
0x7ADAF0
0x7ADB40
0x7ADB90
0x7ADBD6
0x7ADC36
0x7ADCA0
0x7ADCF0
0x7ADD40
0x7ADD90
0x7ADEC0
0x7ADF10
0x7ADF60
0x7ADFB0
0x7AE0E0
0x7AE130
0x7AE180
0x7AE1D0
0x7AE2F6
0x7AE356
0x7AE3B6
0x7AE416
0x7AE478
0x7AE508
0x7AE5A0
0x7AE620
0x7AE6A0
0x7AE720
0x7AE7A0
0x7AE820
0x7AE896
0x7AE926
0x7AE9C0
0x7AEA40
0x7AEAC0
0x7AEB40
0x7AEBC0
0x7AEC40
0x7AECB6
0x7AED46
0x7AF138
0x7AF1E8
0x7AF290
0x7AF2AA
0x7AF350
0x7AF369
0x7AF400
0x7AF419
0x7AF4B0
0x7AF4C9
0x7AF560
0x7AF57A
0x7AF620
0x7AF639
0x7AF6D0
0x7AF6E9
0x7AF780
0x7AF799
0x7AF830
0x7AF84A
0x7AF910
0x7AF929
0x7AF9F0
0x7AFA09
0x7AFAD0
0x7AFAE9
0x7AFBB0
0x7AFBCA
0x7AFC90
0x7AFCA9
0x7AFD70
0x7AFD89
0x7AFE50
0x7AFE69
0x7AFF30
0x7AFFA3
0x7B0022
0x7B0033
0x7B00A0
0x7B010F
0x7B0190
0x7B01DF
0x7B0240
0x7B0270
0x7B02A0
0x7B02D0
0x7B0310
0x7B0350
0x7B0390
0x7B03C0
0x7B03F0
0x7B0420
0x7B0450
0x7B0490
0x7B04C0
0x7B052F
0x7B05B0
0x7B05FF
0x7B0660
0x7B0710
0x7B0750
0x7B0780
0x7B0880
0x7B08B0
0x7B0D40
0x7B0DE0
0x7B0DEC
0x7B0E60
0x7B0F00
0x7B0F0C
0x7B1037
0x7B10C7
0x7B11B5
0x7B11C7
0x7B12A5
0x7B12B7
0x7B1350
0x7B13A0
0x7B13F0
0x7B1B17
0x7B1CC7
0x7B1D47
0x7B1DBF
0x7B1E1F
0x7B1E70
0x7B1E7D
0x7B1EE0
0x7B1EED
0x7B1F80
0x7B1FB0
0x7B1FE0
0x7B2010
0x7B2040
0x7B2070
0x7B20A0
0x7B20D0
0x7B2100
0x7B2130
0x7B2160
0x7B2190
0x7B21C0
0x7B21F0
0x7B2220
0x7B2250
0x7B2280
0x7B22C0
0x7B2310
0x7B2360
0x7B23B0
0x7B23F6
0x7B2456
0x7B24B6
0x7B2980
0x7B2AD0
0x7B2B2F
0x7B2B80
0x7B2BB0
0x7B2BF0
0x7B2C30
0x7B2C70
0x7B2CB0
0x7B2CF0
0x7B2D33
0x7B2D67
0x7B2DB3
0x7B2DE3
0x7B2E13
0x7B2E50
0x7B2E52
0x7B2E6A
0x7B3278
0x7B336C
0x7B35FC
0x7B3896
0x7B39E0
0x7B39E2
0x7B39FA
0x7B3EFC
0x7B4180
0x7B4182
0x7B419A
0x7B469C
0x7B492C
0x7B4BC6
0x7B4D10
0x7B4D12
0x7B4D2A
0x7B522C
0x7B554C
0x7B55E3
0x7B5665
0x7B5910
0x7B5950
0x7B5990
0x7B59D0
0x7B5A10
0x7B5A50
0x7B5A90
0x7B5AD0
0x7B5B10
0x7B5B50
0x7B5B90
0x7B5BC0
0x7B5BF0
0x7B5C20
0x7B5C50
0x7B5C80
0x7B5CB0
0x7B5CF0
0x7B5D3F
0x7B5DCF
0x7B5E50
0x7B5E90
0x7B5ED0
0x7B5F10
0x7B6010
0x7B6050
0x7B6090
0x7B60D0
0x7B6170
0x7B61B0
0x7B61F0
0x7B6230
0x7B6270
0x7B62B0
0x7B62F0
0x7B6330
0x7B6370
0x7B63B0
0x7B63F6
0x7B6450
0x7B64C0
0x7B6D60
0x7B6DA0
0x7B6DE0
0x7B6E20
0x7B6E60
0x7B6ED0
0x7B6F40
0x7B7110
0x7B7240
0x7B7370
0x7B7379
0x7B7381
0x7B7460
0x7B75D0
0x7B75D9
0x7B76D0
0x7B76D9
0x7B77D2
0x7B77D3
0x7B78B0
0x7B7900
0x7B7950
0x7B79A0
0x7B7CD5
0x7B7CE7
0x7B7EB5
0x7B7EC7
0x7B81D0
0x7B81E0
0x7B81ED
0x7B831A
0x7B832A
0x7B83E0
0x7B83F0
0x7B83FD
0x7B85FF
0x7B862F
0x7B865F
0x7B868F
0x7B86BF
0x7B86EF
0x7B871F
0x7B874F
0x7B877F
0x7B87AF
0x7B87DF
0x7B880F
0x7B8832
0x7B8835
0x7B88C7
0x7B8977
0x7B8B60
0x7B8B70
0x7B8EB0
0x7B8EC6
0x7B8FB7
0x7B917C
0x7B9252
0x7B9255
0x7B92E7
0x7B9397
0x7B9580
0x7B9590
0x7B98D0
0x7B98E6
0x7B99D7
0x7B9B9C
0x7B9C72
0x7B9C75
0x7B9D07
0x7B9DB0
0x7B9DC6
0x7B9EBC
0x7B9F90
0x7B9FE4
0x7BA084
0x7BA124
0x7BA1B0
0x7BA1E0
0x7BA210
0x7BA240
0x7BA270
0x7BA2A0
0x7BA2D0
0x7BA300
0x7BA489
0x7BA669
0x7BA989
0x7BAAB0
0x7BAAF0
0x7BAB30
0x7BABA0
0x7BAC10
0x7BAC50
0x7BAF50
0x7BAF90
0x7BAFD0
0x7BB010
0x7BB050
0x7BB090
0x7BB0D0
0x7BB110
0x7BB150
0x7BB190
0x7BB1D0
0x7BB210
0x7BB250
0x7BB290
0x7BB2D0
0x7BB310
0x7BB340
0x7BB370
0x7BB3A0
0x7BB3D0
0x7BB400
0x7BB430
0x7BB460
0x7BB490
0x7BB4C0
0x7BB4F0
0x7BB530
0x7BB570
0x7BB5B0
0x7BB5F5
0x7BB607
0x7BB675
0x7BB687
0x7BB6F5
0x7BB707
0x7BB775
0x7BB787
0x7BB7F0
0x7BB880
0x7BB910
0x7BB913
0x7BB9A0
0x7BBA36
0x7BBAA6
0x7BBAE6
0x7BBB96
0x7BBC76
0x7BBD50
0x7BBD90
0x7BBDD0
0x7BBE10
0x7BBE50
0x7BBE90
0x7BBED0
0x7BBF10
0x7BBF50
0x7BBF90
0x7BBFD0
0x7BC010
0x7BC050
0x7BC090
0x7BC0D1
0x7BC160
0x7BC2D8
0x7BC3A8
0x7BC478
0x7BC6F6
0x7BC796
0x7BC836
0x7BC8D6
0x7BC976
0x7BCA16
0x7BCAB6
0x7BCB56
0x7BCBF6
0x7BCC96
0x7BCD36
0x7BCDD6
0x7BCE76
0x7BCF16
0x7BCFB6
0x7BD058
0x7BD062
0x7BD0D8
0x7BD158
0x7BD162
0x7BD1D8
0x7BD262
0x7BD362
0x7BD3D0
0x7BD417
0x7BD5D2
0x7BD622
0x7BD8F3
0x7BD9F0
0x7BDA19
0x7BDA60
0x7BDA89
0x7BDB70
0x7BDB99
0x7BDC80
0x7BDCA9
0x7BDCF0
0x7BDD20
0x7BDD50
0x7BDD79
0x7BDE50
0x7BDE88
0x7BDEE0
0x7BDF09
0x7BDF50
0x7BE050
0x7BE079
0x7BE1B0
0x7BE1E0
0x7BE209
0x7BE250
0x7BE360
0x7BE389
0x7BE3D0
0x7BE4C0
0x7BE4F0
0x7BE5B0
0x7BE8C9
0x7BE940
0x7BE976
0x7BEA53
0x7BEC33
0x7BED45
0x7BEE13
0x7BEF40
0x7BF0D9
0x7BF1E7
0x7BF7A1
0x7BFAC1
0x7BFB91
0x7C0076
0x7C01B6
0x7C02F3
0x7C0373
0x7C04B6
0x7C0596
0x7C0676
0x7C0756
0x7C0836
0x7C0949
0x7C09C6
0x7C0B56
0x7C0C36
0x7C0D16
0x7C0DF2
0x7C0DF6
0x7C0F27
0x7C0F62
0x7C0F66
0x7C10D0
0x7C1100
0x7C12B0
0x7C1717
0x7C1867
0x7C19B7
0x7C1D43
0x7C1DD3
0x7C1E63
0x7C1EF0
0x7C1EFD
0x7C2090
0x7C2230
0x7C2390
0x7C2490
0x7C2560
0x7C2640
0x7C2727
0x7C27D7
0x7C2880
0x7C28B0
0x7C28E0
0x7C2913
0x7C29B3
0x7C2A53
0x7C2AF3
0x7C2B73
0x7C2BF3
0x7C2D30
0x7C2D96
0x7C2E76
0x7C2F48
0x7C2FA6
0x7C3133
0x7C31D3
0x7C32E3
0x7C3383
0x7C3493
0x7C3533
0x7C3645
0x7C3703
0x7C3783
0x7C3929
0x7C39D9
0x7C3B39
0x7C3CD9
0x7C40A9
0x7C43B0
0x7C4473
0x7C44F3
0x7C4633
0x7C46B3
0x7C4733
0x7C47B3
0x7C4833
0x7C48B3
0x7C4930
0x7C4AB0
0x7C5145
0x7C5445
0x7C5622
0x7C5732
0x7C5943
0x7C59C3
0x7C5A43
0x7C5AC3
0x7C5B10
0x7C5E43
0x7C5F10
0x7C5FD3
0x7C6053
0x7C60D3
0x7C6153
0x7C61A0
0x7C6350
0x7C6410
0x7C64D0
0x7C6590
0x7C6650
0x7C6710
0x7C67D0
0x7C6890
0x7C6950
0x7C6980
0x7C69B0
0x7C69E0
0x7C6A10
0x7C6A40
0x7C6E83
0x7C6FB3
0x7C70D0
0x7C7100
0x7C7130
0x7C7160
0x7C7190
0x7C73E0
0x7C7590
0x7C78E0
0x7C7A20
0x7C7C21
0x7C7C32
0x7C7CA0
0x7C7E67
0x7C8013
0x7C8093
0x7C8113
0x7C8160
0x7C81C0
0x7C8222
0x7C8573
0x7C85F3
0x7C8673
0x7C86F3
0x7C8773
0x7C87F3
0x7C8C57
0x7C8D60
0x7C8D8E
0x7C8DD0
0x7C8DFE
0x7C8E40
0x7C8E6E
0x7C8EB0
0x7C8EDE
0x7C8F27
0x7C9130
0x7C915E
0x7C91A0
0x7C91CE
0x7C9210
0x7C923E
0x7C9280
0x7C92AE
0x7C92F0
0x7C931E
0x7C9360
0x7C938E
0x7C93D0
0x7C93FE
0x7C9440
0x7C946E
0x7C9513
0x7C95E3
0x7C96D3
0x7C97C3
0x7C98D9
0x7C9949
0x7C99B9
0x7C9A00
0x7C9A30
0x7C9A60
0x7C9A90
0x7C9AC0
0x7C9AF0
0x7C9B20
0x7C9B4E
0x7C9B90
0x7C9BBE
0x7C9C00
0x7C9C2E
0x7C9C77
0x7C9D57
0x7C9E37
0x7C9F17
0x7C9FF7
0x7CA123
0x7CA200
0x7CA513
0x7CA630
0x7CA703
0x7CA783
0x7CA803
0x7CAA30
0x7CACB3
0x7CAD33
0x7CADB3
0x7CAE33
0x7CAF10
0x7CAF73
0x7CAFF3
0x7CB073
0x7CB0CA
0x7CB1A0
0x7CB3E3
0x7CB463
0x7CB4B3
0x7CB583
0x7CB5DA
0x7CB6B0
0x7CB8F3
0x7CB973
0x7CB9C3
0x7CBA93
0x7CBAF2
0x7CBCD3
0x7CBDA3
0x7CBE30
0x7CBE70
0x7CBF45
0x7CBFD3
0x7CC056
0x7CC390
0x7CC3E0
0x7CC430
0x7CC4C0
0x7CC550
0x7CC5C1
0x7CC600
0x7CC671
0x7CC6EB
0x7CC793
0x7CC833
0x7CC9B2
0x7CCA62
0x7CCBA0
0x7CCC30
0x7CCCC0
0x7CCCE0
0x7CCD10
0x7CCD30
0x7CCDC0
0x7CCDF0
0x7CCFE2
0x7CD0D7
0x7CD386
0x7CD522
0x7CD672
0x7CD736
0x7CDBBD
0x7CDF02
0x7CE100
0x7CE106
0x7CE200
0x7CE216
0x7CE3A0
0x7CE5A0
0x7CE5A2
0x7CE5A6
0x7CE790
0x7CE810
0x7CE910
0x7CE9A0
0x7CEA30
0x7CED60
0x7CEE10
0x7CEE23
0x7CEF40
0x7CF070
0x7CF083
0x7CF120
0x7CF1FC
0x7CF250
0x7CF4A8
0x7CF528
0x7CFEA0
0x7CFEA2
0x7CFEA6
0x7CFEA8
0x7CFECD
0x7D0230
0x7D0232
0x7D0236
0x7D0238
0x7D025D
0x7D06AD
0x7D07CD
0x7D09CD
0x7D0AED
0x7D0CED
0x7D0E0D
0x7D10B6
0x7D1490
0x7D14C4
0x7D1FC0
0x7D1FC2
0x7D1FC6
0x7D1FC8
0x7D1FF4
0x7D255C
0x7D2A00
0x7D2B00
0x7D2C06
0x7D3167
0x7D32D9
0x7D33A3
0x7D3443
0x7D34F3
0x7D35A3
0x7D3633
0x7D3730
0x7D37A0
0x7D37E0
0x7D3820
0x7D3860
0x7D38A0
0x7D3987
0x7D3A86
0x7D3EE0
0x7D40B0
0x7D4340
0x7D4450
0x7D445D
0x7D4540
0x7D4630
0x7D4727
0x7D47E7
0x7D4AA7
0x7D4BA6
0x7D5000
0x7D51D0
0x7D53A0
0x7D5460
0x7D5570
0x7D5660
0x7D5750
0x7D575D
0x7D5847
0x7D5907
0x7D5B48
0x7D5BC7
0x7D5CC6
0x7D6107
0x7D64A3
0x7D6553
0x7D6600
0x7D660E
0x7D6610
0x7D6860
0x7D6B00
0x7D6E44
0x7D6ED2
0x7D6F40
0x7D71A0
0x7D7260
0x7D7372
0x7D7727
0x7D7889
0x7D7950
0x7D79A0
0x7D7B20
0x7D7DB2
0x7D7EC0
0x7D7ECA
0x7D8010
0x7D8014
0x7D801A
0x7D81DC
0x7D826C
0x7D82FC
0x7D8350
0x7D84FC
0x7D858C
0x7D861C
0x7D8670
0x7D87A3
0x7D888C
0x7D891C
0x7D89AC
0x7D8AA1
0x7D8B00
0x7D8BA7
0x7D8C80
0x7D8E83
0x7D8F30
0x7D9048
0x7D9108
0x7D91C8
0x7D9288
0x7D9348
0x7D9502
0x7D9612
0x7D9962
0x7D996A
0x7D9A53
0x7D9AE3
0x7D9B73
0x7D9C00
0x7D9D00
0x7D9E00
0x7D9F62
0x7DA082
0x7DA08E
0x7DA322
0x7DA32E
0x7DA472
0x7DA47E
0x7DA653
0x7DA786
0x7DA823
0x7DA8D6
0x7DA973
0x7DAA23
0x7DAAD3
0x7DB1B2
0x7DBB17
0x7DC1F2
0x7DCB59
0x7DCBF6
0x7DCCB2
0x7DCDC2
0x7DCED2
0x7DCFF8
0x7DD138
0x7DD278
0x7DD3B0
0x7DD3B2
0x7DD3C0
0x7DD4DA
0x7DD5D7
0x7DD5D9
0x7DD6BD
0x7DD8B0
0x7DD910
0x7DD91A
0x7DDA53
0x7DDA80
0x7DDC20
0x7DDC49
0x7DDC90
0x7DDCB9
0x7DDD00
0x7DDD29
0x7DDD70
0x7DDD99
0x7DDDE0
0x7DDE09
0x7DDE50
0x7DDEB0
0x7DDEE0
0x7DDF10
0x7DDF40
0x7DDF70
0x7DDFA0
0x7DDFD0
0x7DE000
0x7DE030
0x7DE059
0x7DE0A0
0x7DE0C9
0x7DE110
0x7DE139
0x7DE180
0x7DE1A9
0x7DE1F0
0x7DE219
0x7DE293
0x7DE310
0x7DE3A3
0x7DE450
0x7DE520
0x7DE5F3
0x7DE6B0
0x7DE710
0x7DE813
0x7DE8C3
0x7DE973
0x7DEA23
0x7DEAD3
0x7DEB83
0x7DEC33
0x7DECE3
0x7DED93
0x7DEE43
0x7DEEF3
0x7DEFA3
0x7DF053
0x7DF103
0x7DF1B3
0x7DF263
0x7DF313
0x7DF3CE
0x7DF4DE
0x7DF5F0
0x7DF800
0x7DF845
0x7DF9CC
0x7DFB13
0x7DFBC3
0x7DFC73
0x7DFD23
0x7DFDD3
0x7DFE83
0x7DFF33
0x7DFFE3
0x7E0093
0x7E0143
0x7E01F3
0x7E02A3
0x7E0353
0x7E0403
0x7E04B3
0x7E0563
0x7E05F2
0x7E0690
0x7E069C
0x7E06A3
0x7E07B0
0x7E0810
0x7E0A47
0x7E0AA0
0x7E0C00
0x7E0D10
0x7E0D53
0x7E0E33
0x7E0F10
0x7E0F39
0x7E0F80
0x7E0FA9
0x7E0FF0
0x7E1019
0x7E1060
0x7E1089
0x7E10D0
0x7E10F9
0x7E1140
0x7E1169
0x7E11B0
0x7E11D9
0x7E1220
0x7E1249
0x7E1290
0x7E12B9
0x7E1300
0x7E1329
0x7E1370
0x7E1399
0x7E13E0
0x7E1409
0x7E1450
0x7E1479
0x7E16D3
0x7E1770
0x7E17E0
0x7E1810
0x7E1840
0x7E1870
0x7E18A0
0x7E18D0
0x7E1900
0x7E1930
0x7E1960
0x7E1990
0x7E19C0
0x7E19F0
0x7E1A20
0x7E1A50
0x7E1A79
0x7E1AC0
0x7E1AE9
0x7E1B30
0x7E1B59
0x7E1BA0
0x7E1BC9
0x7E1C10
0x7E1C39
0x7E1C80
0x7E1CA9
0x7E1CF0
0x7E1D19
0x7E1D60
0x7E1D89
0x7E1DD0
0x7E1DF9
0x7E1E40
0x7E1E69
0x7E1EB0
0x7E1ED9
0x7E1F20
0x7E1F49
0x7E1F90
0x7E1FB9
0x7E2000
0x7E2040
0x7E2080
0x7E20C0
0x7E2100
0x7E2140
0x7E2180
0x7E21AE
0x7E21F0
0x7E221E
0x7E2260
0x7E228E
0x7E22D0
0x7E22FE
0x7E2373
0x7E2423
0x7E24D3
0x7E2583
0x7E2633
0x7E26E3
0x7E2793
0x7E2843
0x7E28F3
0x7E29A3
0x7E2A53
0x7E2B0C
0x7E2C23
0x7E2D60
0x7E2FC0
0x7E3090
0x7E3160
0x7E3230
0x7E3300
0x7E33D0
0x7E3476
0x7E34F0
0x7E35B0
0x7E3600
0x7E3660
0x7E36B0
0x7E3743
0x7E37F3
0x7E38A3
0x7E3953
0x7E3A03
0x7E3AB3
0x7E3B63
0x7E3C13
0x7E3CC3
0x7E3D73
0x7E3E23
0x7E3ED3
0x7E3F50
0x7E4080
0x7E41B0
0x7E41B2
0x7E41B6
0x7E41B8
0x7E41EB
0x7E43B6
0x7E4436
0x7E44A6
0x7E4A51
0x7E4BB0
0x7E4BB2
0x7E4BB6
0x7E4BB8
0x7E4BF0
0x7E4CB7
0x7E4E80
0x7E4E82
0x7E4E86
0x7E4E88
0x7E4EC0
0x7E50D0
0x7E50E3
0x7E5270
0x7E5283
0x7E5430
0x7E5443
0x7E565B
0x7E576B
0x7E5840
0x7E5920
0x7E5924
0x7E59C0
0x7E5AF9
0x7E5BE9
0x7E5CA0
0x7E6060
0x7E60C6
0x7E6146
0x7E6177
0x7E6276
0x7E6366
0x7E6436
0x7E6526
0x7E65F0
0x7E67F9
0x7E68E0
0x7E68F6
0x7E6A46
0x7E6B30
0x7E6BC0
0x7E6C40
0x7E7220
0x7E7319
0x7E73D0
0x7E7469
0x7E7520
0x7E7773
0x7E7823
0x7E78D3
0x7E7983
0x7E7A33
0x7E7AE3
0x7E7B93
0x7E7C43
0x7E7CF3
0x7E7DA3
0x7E7E53
0x7E7F03
0x7E7FB3
0x7E8063
0x7E8113
0x7E81C3
0x7E8240
0x7E84E3
0x7E859E
0x7E86AE
0x7E8729
0x7E87BC
0x7E891C
0x7E8A80
0x7E8D80
0x7E9070
0x7E94B6
0x7E95B0
0x7E969C
0x7E9770
0x7E985C
0x7E9930
0x7E9A1C
0x7E9AF0
0x7E9BDC
0x7E9CB0
0x7E9CC0
0x7E9E40
0x7E9E50
0x7E9FD0
0x7E9FE3
0x7EA140
0x7EA312
0x7EA3B0
0x7EA416
0x7EA41B
0x7EA590
0x7EAA63
0x7EAB13
0x7EABC3
0x7EAC73
0x7EAD28
0x7EAD67
0x7EADD7
0x7EAF01
0x7EAF23
0x7EB041
0x7EB063
0x7EB18C
0x7EB1A3
0x7EB231
0x7EB253
0x7EB37C
0x7EB393
0x7EB421
0x7EB448
0x7EB561
0x7EB588
0x7EB6A7
0x7EB6C3
0x7EB751
0x7EB778
0x7EB891
0x7EB8B8
0x7EB9D7
0x7EB9F3
0x7EBA83
0x7EBB33
0x7EBBE3
0x7EBC93
0x7EBD10
0x7EBD60
0x7EBDC0
0x7EBE10
0x7EBE70
0x7EBEC0
0x7EBF20
0x7EBF70
0x7EBFD0
0x7EC020
0x7EC080
0x7EC0D0
0x7EC130
0x7EC180
0x7EC1E0
0x7EC230
0x7EC543
0x7EC5F3
0x7EC6A3
0x7EC753
0x7EC803
0x7EC8B3
0x7EC963
0x7ECA13
0x7ECAC3
0x7ECB73
0x7ECC23
0x7ECCD3
0x7ECD83
0x7ECE33
0x7ECEE3
0x7ED080
0x7ED08C
0x7ED160
0x7ED16C
0x7ED260
0x7ED26C
0x7ED2D7
0x7ED2F3
0x7ED2F5
0x7ED2F6
0x7ED400
0x7ED450
0x7ED4AF
0x7ED500
0x7ED550
0x7ED581
0x7ED5D0
0x7ED5FE
0x7ED650
0x7ED67E
0x7ED6D0
0x7ED700
0x7ED750
0x7ED781
0x7ED7D0
0x7ED7FE
0x7ED850
0x7ED87E
0x7ED8D0
0x7ED900
0x7ED950
0x7ED981
0x7ED9D0
0x7ED9FE
0x7EDA50
0x7EDA7E
0x7EDAD0
0x7EDB00
0x7EDB90
0x7EDBD4
0x7EDD00
0x7EDE20
0x7EDE60
0x7EDEF0
0x7EDF80
0x7EE010
0x7EE052
0x7EE190
0x7EE1D2
0x7EE305
0x7EE422
0x7EE7ED
0x7EE7F1
0x7EE99D
0x7EE9A1
0x7EEB3D
0x7EEB41
0x7EECE0
0x7EECEC
0x7EEE6D
0x7EEE71
0x7EF08D
0x7EF091
0x7EF29D
0x7EF2A1
0x7EF4B0
0x7EF4BC
0x7EF892
0x7EFB68
0x7EFC28
0x7EFCE8
0x7EFDA8
0x7F0588
0x7F0648
0x7F0708
0x7F07C0
0x7F0930
0x7F0943
0x7F0AAD
0x7F0AB1
0x7F0CB0
0x7F0D00
0x7F0F14
0x7F0F16
0x7F0FD3
0x7F1086
0x7F1136
0x7F11E6
0x7F1296
0x7F1346
0x7F1416
0x7F1516
0x7F1600
0x7F1760
0x7F18C0
0x7F1A26
0x7F1C76
0x7F1E40
0x7F1F0E
0x7F20D2
0x7F21F2
0x7F2448
0x7F2548
0x7F25C0
0x7F26E0
0x7F2850
0x7F29C0
0x7F2B30
0x7F2C20
0x7F2C25
0x7F3468
0x7F3800
0x7F3937
0x7F3DE8
0x7F3EA0
0x7F3EA1
0x7F3EEE
0x7F422E
0x7F4857
0x7F48FD
0x7F7BFD
0x7F9FB3
0x7FBAD8
0x7FBD98
0x7FC658
0x7FEB18
0x7FEF10
0x7FF520
0x7FF5C1
0x7FF5E1
0x7FF601
0x7FF621
0x7FF624
0x7FF7F0
0x7FF820
0x7FF850
0x7FF880
0x7FF8B0
0x7FF8E0
0x7FF910
0x7FF940
0x7FFA30
0x7FFA60
0x7FFA90
0x7FFAF0
0x7FFB40
0x7FFB90
0x7FFBC0
0x7FFBF0
0x7FFC20
0x7FFCB0
0x7FFD10
0x7FFD60
0x7FFE00
0x7FFE50
0x7FFE80
0x7FFEB0
0x7FFEE0
0x7FFF10
0x7FFF40
0x7FFF80
0x7FFFC0
0x800000
0x800040
0x800080
0x8000B0
0x8001E5
0x8002DD
0x800330
0x800360
0x800390
0x8003D0
0x800410
0x800456
0x8004C6
0x8006B5
0x80084D
0x800920
0x800950
0x800AC0
0x800AC2
0x800C90
0x800D08
0x800D16
0x800DBB
0x800EE0
0x800F25
0x800F40
0x800F48
0x800F50
0x800FDF
0x80104F
0x8010AF
0x80110F
0x80116F
0x8011CF
0x80122F
0x801280
0x801319
0x801357
0x8013A7
0x8013F0
0x801480
0x80148A
0x801500
0x80150A
0x8015FC
0x801660
0x8016E0
0x801800
0x801850
0x801970
0x8019C0
0x801AE0
0x801C38
0x801CF0
0x801DD0
0x801E28
0x801E60
0x80227A
0x8022FF
0x8024A0
0x8025D1
0x8025F1
0x802719
0x802B01
0x802C49
0x802DA1
0x802EE9
0x802FF0
0x803070
0x80316F
0x803500
0x803590
0x8035F0
0x803610
0x803620
0x803630
0x803640
0x803650
0x803660
0x803670
0x803680
0x803690
0x8036A0
0x8036B0
0x803865
0x803885
0x8038A5
0x8038C5
0x8038E5
0x803960
0x8039A6
0x8039D6
0x803A06
0x803A36
0x803A66
0x803A96
0x803AC6
0x803AF6
0x803B26
0x803B56
0x803B86
0x803D10
0x803D60
0x803DBF
0x803E2F
0x803E9F
0x803F0F
0x803F7F
0x803FE0
0x803FEA
0x804060
0x80406A
0x8040E0
0x8040EA
0x804160
0x80416A
0x8041E0
0x8041EA
0x804260
0x80426A
0x8042E0
0x8042EA
0x804370
0x80437A
0x804400
0x80440A
0x804490
0x80449A
0x804520
0x80452A
0x8045B0
0x8045BA
0x804640
0x80464A
0x8046D0
0x8046DA
0x804760
0x80476A
0x8047F0
0x8047FA
0x804880
0x80488A
0x804910
0x80491A
0x8049C0
0x804B20
0x804B70
0x804C40
0x804C70
0x804CD0
0x804EF6
0x805000
0x8050D5
0x805185
0x805271
0x8052B7
0x805360
0x8053C7
0x805460
0x805513
0x8055BC
0x805670
0x8057B3
0x805840
0x80584C
0x805970
0x8059A0
0x8059D0
0x805A00
0x805A30
0x805A60
0x805A90
0x805AC0
0x805AF0
0x805BB7
0x805BF0
0x805C40
0x805E3A
0x806260
0x806295
0x806457
0x80656B
0x8065B2
0x806631
0x806637
0x8068E0
0x8068E3
0x806ADB
0x806C9E
0x8070B0
0x8070F0
0x8072C8
0x8074C8
0x8075B8
0x8075F4
0x807600
0x807634
0x809677
0x80967D
0x80A600
0x80BE66
0x80EC3A
0x80EE52
0x8111B0
0x814E32
0x814FE0
0x815430
0x815ABC
0x815EBC
0x81684C
0x817240
0x81D650
0x81D927
0x81E288
0x81E6B8
0x81EF40
0x820F42
0x820F4D
0x821FD0
0x821FDB
0x8223A1
0x82459A
0x8246D7
0x8246DD
0x824F18
0x8250D0
0x8250E4
0x825286
0x8272D0
0x8272E4
0x829240
0x82925B
0x82925D
0x82925E
0x829B29
0x82BDEA
0x82C0C4
0x82CE40
0x82D437
0x82DC5B
0x82E8F8
0x82FCAA
0x82FE05
0x83010C
0x830EA8
0x8311D8
0x831A05
0x833006
0x833428
0x83353A
0x833FA4
0x8374C8
0x839FBC
0x83CA05
0x83CBB2
0x83FBE5
0x841488
0x841BE5
0x843590
0x845E10
0x846627
0x8471EB
0x849A24
0x84A708
0x84D470
0x84E7CA
0x84F0F0
0x84F0F2
0x84F0F4
0x84F0FB
0x84F5A9
0x850F40
0x853A94
0x853CA4
0x8543B0
0x8547CC
0x8573FC
0x857C28
0x859D24
0x85A823
0x85ACBA
0x85CAFB
0x85ECAB
0x85EE29
0x85EED0
0x85F0D0
0x85F0D2
0x85F0D6
0x85FA17
0x85FB27
0x85FB64
0x85FBE0
0x85FBE2
0x85FBE7
0x85FF46
0x85FFD8
0x8600A2
0x8601C0
0x8601C2
0x8601C9
0x86032A
0x860710
0x860920
0x8609CB
0x860ABD
0x860C20
0x860C58
0x860EDA
0x86100D
0x86100E
0x8610D0
0x8610D2
0x8610D3
0x861F7E
0x862660
0x862818
0x862900
0x86291D
0x862AC0
0x862E57
0x862F20
0x86338F
0x8635E0
0x863A60
0x863C9D
0x863FB0
0x86433E
0x8644F0
0x8645FD
0x864740
0x8649C0
0x864ACB
0x86535A
0x865440
0x865442
0x865443
0x865449
0x865A89
0x865D10
0x866044
0x86604F
0x866472
0x8667A4
0x866966
0x86699A
0x866C40
0x8670F2
0x8671B3
0x867712
0x867715
0x8679F9
0x867B40
0x867BE0
0x867BE2
0x867BE6
0x867D00
0x867D50
0x867D63
0x868056
0x8680B8
0x8681A0
0x868280
0x868287
0x86828E
0x868410
0x868419
0x86842A
0x8684E0
0x8684EB
0x868837
0x868910
0x868940
0x8689D0
0x8689D8
0x8689DA
0x868ABA
0x868BB0
0x868BB2
0x868BB6
0x868BC3
0x868E61
0x868EB0
0x869455
0x8698B0
0x8698B8
0x869FAC
0x869FF0
0x86A031
0x86A0B0
0x86A12D
0x86A200
0x86A651
0x86A6B0
0x86A710
0x86AC4D
0x86AC51
0x86B4B0
0x86B4B9
0x86B55C
0x86B9B0
0x86B9B9
0x86B9C3
0x86BC60
0x86C0F0
0x86C370
0x86CB74
0x86CB81
0x86CCEA
0x86CE70
0x86CE72
0x86CE73
0x86D2C0
0x86D634
0x86D7A0
0x86D830
0x86D940
0x86DA50
0x86DB13
0x86DC3D
0x86E456
0x86E4A7
0x86E670
0x86E768
0x86E917
0x86E91B
0x86EAA0
0x86ECA4
0x86ED94
0x86ED97
0x86EEA0
0x86F040
0x86F164
0x86F187
0x86F230
0x86F31D
0x86F620
0x86F622
0x86F631
0x86F750
0x86FCA0
0x86FCF8
0x86FDA5
0x86FE93
0x86FFC8
0x870050
0x870052
0x870410
0x870418
0x8706E2
0x870920
0x870922
0x870923
0x871930
0x871EEC
0x871F01
0x87234B
0x872454
0x87246D
0x872630
0x8726F0
0x8727B4
0x872930
0x872B04
0x872BE0
0x872F92
0x8730DF
0x8731B5
0x873336
0x8733F0
0x8733F2
0x8733F6
0x8735B8
0x8735BD
0x8738E0
0x8738EC
0x873AA9
0x873AAB
0x873AAF
0x873AB6
0x873AC6
0x873CC4
0x873CC6
0x873E10
0x873E12
0x873E16
0x873F85
0x874035
0x87417E
0x874220
0x87451B
0x87458D
0x874591
0x874597
0x87460C
0x874631
0x87546D
0x875471
0x875477
0x8759B5
0x8764B0
0x8764BA
0x87690A
0x876C53
0x876D85
0x876FA0
0x8772E6
0x8773F4
0x8773F8
0x8773FE
0x8783E8
0x878575
0x8789C0
0x878F20
0x879F70
0x87A1C8
0x87A520
0x87A522
0x87A6D0
0x87A6D2
0x87A6DB
0x87A920
0x87A927
0x87AEA5
0x87AFD1
0x87AFD3
0x87AFE2
0x87B090
0x87B270
0x87B272
0x87B342
0x87B7C0
0x87B7C2
0x87B7CB
0x87BC10
0x87BC17
0x87C020
0x87C028
0x87C02A
0x87C3A0
0x87C3A4
0x87C680
0x87C7A0
0x87C907
0x87CCF8
0x87CE10
0x87CE12
0x87CE13
0x87D27F
0x87D600
0x87D64B
0x87D662
0x87E7F0
0x87EA12
0x87EA20
0x87EA90
0x87EE03
0x87EEB8
0x87EEBA
0x87EEBC
0x87EEF0
0x87F537
0x87F660
0x87F8C2
0x87FAA5
0x87FFA0
0x880095
0x8800D2
0x8800D3
0x8801D2
0x880350
0x880360
0x8804F0
0x880550
0x880559
0x880560
0x880760
0x88079C
0x8807E0
0x8807EA
0x881280
0x8818A8
0x881A2B
0x881AA2
0x881AA3
0x881AA9
0x881AAF
0x881C00
0x881C0F
0x881CD0
0x881E60
0x881E62
0x882524
0x8826A7
0x882D20
0x882D24
0x882DD0
0x882E70
0x882EA0
0x883040
0x883523
0x8840F8
0x8841BE
0x884594
0x8848AF
0x884AA0
0x884B19
0x885618
0x88588F
0x885AD6
0x885ADA
0x885C80
0x885D87
0x885DB0
0x886171
0x8863F0
0x8866E2
0x8866E9
0x886725
0x886A70
0x886AA9
0x886B50
0x886B5B
0x886B5D
0x886C04
0x886DA9
0x886F07
0x886F64
0x8870E5
0x8872A0
0x8872A2
0x8872A6
0x8872F8
0x8872FC
0x887333
0x88736F
0x8873AB
0x8873E7
0x887830
0x887833
0x8878F0
0x8878F2
0x8878F6
0x8878F8
0x887E70
0x888306
0x888432
0x8888D9
0x8888DC
0x88897D
0x888AA0
0x888AA2
0x888B1B
0x888B40
0x888D67
0x8891CF
0x889347
0x889865
0x889890
0x8898F0
0x88994D
0x889965
0x889A30
0x889A66
0x889A7A
0x889B26
0x889B50
0x889B59
0x889C61
0x889D60
0x889D63
0x889D82
0x889D86
0x889D8A
0x889E4A
0x889E4E
0x889E52
0x889E90
0x889E9D
0x889EF4
0x889F30
0x889FB0
0x889FC3
0x88A120
0x88A122
0x88A126
0x88A128
0x88A8FC
0x88A901
0x88AB01
0x88ABB5
0x88AD77
0x88B0A0
0x88B849
0x88B954
0x88BD27
0x88BD8C
0x88BED2
0x88BEEA
0x88BFBA
0x88BFBE
0x88BFC2
0x88C13D
0x88C174
0x88C360
0x88C7F0
0x88C7FA
0x88DC40
0x88DC55
0x88E04C
0x88E0D0
0x88E0D8
0x88E363
0x88E5E0
0x88E5E4
0x88E5E8
0x88E900
0x88EA64
0x88EB65
0x88EECA
0x88F790
0x88F792
0x88F79C
0x88FA26
0x88FAA1
0x88FAD0
0x88FAD2
0x88FADC
0x88FC98
0x88FCA7
0x88FD80
0x88FFBA
0x8901C6
0x8903B0
0x8907CE
0x8908A0
0x890FD0
0x891100
0x891390
0x89153A
0x89155E
0x891829
0x8918A0
0x8918D3
0x8919C0
0x8919E0
0x891C3B
0x891D20
0x892050
0x892053
0x892330
0x892333
0x892610
0x892A7D
0x892B1B
0x892B31
0x892DE5
0x892ED0
0x89320E
0x893436
0x8934F0
0x8934F2
0x8934F3
0x893EE0
0x893EE2
0x893EE3
0x89484C
0x894BD4
0x894E00
0x894E1B
0x895130
0x895132
0x895133
0x8951AD
0x895395
0x895779
0x897230
0x897600
0x897610
0x897809
0x89782C
0x897844
0x897B38
0x897B48
0x897C2F
0x897EB0
0x897EE5
0x8982F0
0x8983CA
0x8983F0
0x898402
0x8988B0
0x8988B8
0x898ABA
0x898D50
0x898D66
0x899020
0x899022
0x8993C3
0x899A49
0x899A53
0x899B70
0x899B72
0x899D00
0x899E69
0x899E90
0x89A117
0x89A1CD
0x89A2C7
0x89A42A
0x89AA79
0x89AA89
0x89B020
0x89B03F
0x89B209
0x89B6B0
0x89B6B5
0x89B6CF
0x89B77F
0x89B781
0x89B78B
0x89C199
0x89C348
0x89C432
0x89C840
0x89C9E0
0x89C9E8
0x89CDF2
0x89D010
0x89D014
0x89D4F4
0x89D588
0x89D59A
0x89D634
0x89DB50
0x89DEA0
0x89DEAA
0x89E960
0x89F2B0
0x89F2BF
0x89F35B
0x89F450
0x89F480
0x89F4D0
0x89F4D5
0x89F590
0x89F659
0x89F7C6
0x89FB70
0x89FBF0
0x89FE20
0x8A0207
0x8A0410
0x8A041B
0x8A041D
0x8A0A87
0x8A0CED
0x8A1040
0x8A1240
0x8A12B8
0x8A1338
0x8A136C
0x8A1910
0x8A1C52
0x8A1CF0
0x8A1CF2
0x8A1CFE
0x8A1F00
0x8A1F09
0x8A1F0D
0x8A21D0
0x8A2410
0x8A2418
0x8A2430
0x8A2501
0x8A2B50
0x8A2B90
0x8A2B92
0x8A2B99
0x8A2F31
0x8A30C2
0x8A30C4
0x8A30CC
0x8A31D0
0x8A32F6
0x8A3419
0x8A376F
0x8A37FB
0x8A3855
0x8A3866
0x8A38A6
0x8A3924
0x8A39CC
0x8A3A3F
0x8A3A8B
0x8A3B25
0x8A3B50
0x8A3B52
0x8A40A0
0x8A40B3
0x8A4230
0x8A439F
0x8A45F0
0x8A45F2
0x8A45F3
0x8A4E10
0x8A4FDB
0x8A52D7
0x8A62A9
0x8A690C
0x8A6F40
0x8A7030
0x8A7032
0x8A7033
0x8A7040
0x8A7157
0x8A71E9
0x8A723A
0x8A7381
0x8A785D
0x8A7861
0x8A9244
0x8A95DD
0x8A95E1
0x8A95E7
0x8AA0D6
0x8AA4A2
0x8AAD13
0x8AB540
0x8AB9F0
0x8AB9F4
0x8AB9F6
0x8ABB90
0x8ABB92
0x8ABB94
0x8ABB9B
0x8ABCC7
0x8ABCF9
0x8ABF72
0x8ABF83
0x8AC1A3
0x8AC1A7
0x8AC222
0x8AC368
0x8AC4F5
0x8AC540
0x8ACAF8
0x8ACAFA
0x8ACB04
0x8ACE50
0x8ACE56
0x8ACE5F
0x8AD0A0
0x8AD3D0
0x8AD548
0x8AD74A
0x8AD8C7
0x8AD940
0x8AD944
0x8AD94D
0x8ADA42
0x8ADA49
0x8ADAA6
0x8ADBD0
0x8ADCE0
0x8ADD50
0x8ADD56
0x8ADD97
0x8ADE40
0x8ADE77
0x8ADF20
0x8ADF28
0x8AE330
0x8AE450
0x8AE570
0x8AE588
0x8AE5E0
0x8AE630
0x8AE660
0x8AE664
0x8AE66D
0x8AE9A0
0x8AE9A4
0x8AE9AD
0x8AECF0
0x8AF580
0x8AF589
0x8AFEB8
0x8B0010
0x8B021E
0x8B02C0
0x8B0370
0x8B03B0
0x8B0650
0x8B0690
0x8B0694
0x8B0697
0x8B06E0
0x8B07B0
0x8B07B3
0x8B08C4
0x8B09F0
0x8B0BC0
0x8B0BC3
0x8B0FFF
0x8B1166
0x8B12B0
0x8B1426
0x8B14B0
0x8B19F0
0x8B1C28
0x8B1DA0
0x8B1DA8
0x8B26C0
0x8B26C6
0x8B2C10
0x8B2EEC
0x8B34B0
0x8B34B2
0x8B3760
0x8B37D6
0x8B4BF0
0x8B4C00
0x8B4D70
0x8B4D76
0x8B5217
0x8B521B
0x8B5347
0x8B54B0
0x8B56F6
0x8B5707
0x8B5A7C
0x8B5C22
0x8B5C24
0x8B5DDC
0x8B600A
0x8B61F0
0x8B62E2
0x8B6410
0x8B6419
0x8B6B00
0x8B6B18
0x8B70F0
0x8B7172
0x8B7210
0x8B7214
0x8B7490
0x8B7892
0x8B7A30
0x8B7DC8
0x8B80D4
0x8B82F0
0x8B8EF4
0x8B99DA
0x8B9FC0
0x8B9FD1
0x8BA100
0x8BA120
0x8BA130
0x8BA132
0x8BA596
0x8BA932
0x8BAB60
0x8BAB68
0x8BAD78
0x8BAD7A
0x8BAD7E
0x8BAEB2
0x8BAEBC
0x8BB040
0x8BB394
0x8BB500
0x8BB502
0x8BB506
0x8BB65F
0x8BB81D
0x8BBA10
0x8BBA81
0x8BBB42
0x8BBE48
0x8BC063
0x8BC40C
0x8BC622
0x8BC738
0x8BCA74
0x8BCB0B
0x8BCD2C
0x8BD03D
0x8BD1A8
0x8BD28F
0x8BD62B
0x8BD7AC
0x8BDCCF
0x8BE44A
0x8BE480
0x8BE650
0x8BEB3A
0x8BEFBD
0x8BF014
0x8BF150
0x8BF675
0x8BF820
0x8BF822
0x8BF823
0x8BFB5D
0x8BFC9F
0x8BFE10
0x8BFF2C
0x8BFF60
0x8C0485
0x8C10D5
0x8C1170
0x8C1180
0x8C11B8
0x8C134C
0x8C1354
0x8C1359
0x8C14E0
0x8C1510
0x8C1540
0x8C1547
0x8C154C
0x8C15E0
0x8C1620
0x8C1629
0x8C1B23
0x8C1FEC
0x8C212D
0x8C22F0
0x8C2346
0x8C23D0
0x8C28FB
0x8C29F1
0x8C2AF0
0x8C2E98
0x8C3010
0x8C3140
0x8C3144
0x8C3340
0x8C355A
0x8C3600
0x8C5A20
0x8C6358
0x8C6D9A
0x8C7CED
0x8C7DA7
0x8C7EE0
0x8C7F80
0x8C7FD7
0x8C8020
0x8C8050
0x8C8360
0x8C83BC
0x8C85E0
0x8C87B0
0x8C8870
0x8C8B09
0x8C8B11
0x8C8C40
0x8C8DF0
0x8CAB90
0x8CB090
0x8CC262
0x8CC4E0
0x8CC4E2
0x8CC4F1
0x8CCFE0
0x8CD000
0x8CD004
0x8CD066
0x8CD0C6
0x8CD126
0x8CD190
0x8CD1C0
0x8CD2D2
0x8CD349
0x8CD4F0
0x8CD610
0x8CD630
0x8CD634
0x8CD650
0x8CD670
0x8CD6E8
0x8CD6ED
0x8CD737
0x8CD7D8
0x8CD886
0x8CD936
0x8CD9E2
0x8CD9EC
0x8CDAD0
0x8CDC60
0x8CDC64
0x8CDCB0
0x8CDCB4
0x8CDD00
0x8CDD04
0x8CDD50
0x8CDD54
0x8CDDA0
0x8CDDA4
0x8CDDF0
0x8CDE99
0x8CE072
0x8CE078
0x8CE180
0x8CE19C
0x8CE1C3
0x8CE23C
0x8CE280
0x8CE2A9
0x8CE2E9
0x8CE2FF
0x8CE380
0x8CE396
0x8CE3F0
0x8CE450
0x8CE490
0x8CEC28
0x8CECF0
0x8CEF76
0x8CF1C0
0x8CF386
0x8CF3E8
0x8CF63C
0x8CF6BC
0x8CF737
0x8CF9B0
0x8CF9B2
0x8CF9B8
0x8CF9C1
0x8CFD80
0x8CFD95
0x8CFF60
0x8CFF62
0x8D0184
0x8D0200
0x8D0202
0x8D0206
0x8D0208
0x8D06D8
0x8D0713
0x8D098E
0x8D0C00
0x8D0C04
0x8D0C30
0x8D0DA9
0x8D0E50
0x8D0F72
0x8D0F77
0x8D113B
0x8D1192
0x8D119A
0x8D12A6
0x8D12C8
0x8D13E5
0x8D15B0
0x8D15E0
0x8D17F0
0x8D1972
0x8D1AC0
0x8D1AC2
0x8D1AC3
0x8D1CA0
0x8D1CA4
0x8D2258
0x8D246A
0x8D2660
0x8D2671
0x8D2758
0x8D2820
0x8D2840
0x8D285C
0x8D2875
0x8D2960
0x8D29DD
0x8D2DA0
0x8D3020
0x8D3028
0x8D302A
0x8D3780
0x8D3A32
0x8D3E60
0x8D3E66
0x8D4ECE
0x8D4F66
0x8D5495
0x8D56A0
0x8D5960
0x8D613D
0x8D6141
0x8D6147
0x8D6CFC
0x8D6EB1
0x8D7B8D
0x8D7B91
0x8D7B97
0x8D7FC8
0x8D837E
0x8D84C7
0x8D8A41
0x8D8EA9
0x8D948F
0x8D94C4
0x8D9524
0x8D974F
0x8D9B6B
0x8D9F30
0x8DA400
0x8DA402
0x8DA403
0x8DA6A8
0x8DA8FE
0x8DAD72
0x8DAEFC
0x8DAF66
0x8DB138
0x8DB17E
0x8DB280
0x8DBA3E
0x8DC70B
0x8DC710
0x8DD033
0x8DD043
0x8DD927
0x8DD92C
0x8DD9E0
0x8DD9F3
0x8DDCD0
0x8DDD42
0x8DDD99
0x8DE120
0x8DE33E
0x8DE430
0x8DE437
0x8DE570
0x8DE572
0x8DEC23
0x8DEC5B
0x8DEE3E
0x8DF1E0
0x8DF1EA
0x8DF320
0x8DF353
0x8DF358
0x8DF490
0x8DF499
0x8DF610
0x8DFC60
0x8DFC64
0x8DFC66
0x8E03AC
0x8E03D4
0x8E03DB
0x8E0710
0x8E077E
0x8E0A92
0x8E0BA0
0x8E0BFD
0x8E1C20
0x8E1C22
0x8E1DD8
0x8E1E81
0x8E1EFD
0x8E2220
0x8E252D
0x8E254A
0x8E2718
0x8E27C7
0x8E28F2
0x8E29BA
0x8E384B
0x8E3AA0
0x8E3B00
0x8E3B08
0x8E3C05
0x8E3C09
0x8E3C40
0x8E3C42
0x8E3C46
0x8E3C51
0x8E3C55
0x8E3D66
0x8E3E59
0x8E3F78
0x8E3FF0
0x8E4018
0x8E4117
0x8E43D0
0x8E43DD
0x8E46E7
0x8E4AA0
0x8E4AB3
0x8E4DB0
0x8E4DC3
0x8E5166
0x8E5246
0x8E5310
0x8E5323
0x8E539E
0x8E570A
0x8E5900
0x8E5904
0x8E5AF0
0x8E6296
0x8E6351
0x8E6C98
0x8E6F28
0x8E70B0
0x8E70B8
0x8E70BD
0x8E7780
0x8E7792
0x8E7A67
0x8E7F70
0x8E7F72
0x8E7F7F
0x8E8260
0x8E82A4
0x8E8510
0x8E851F
0x8E88C0
0x8E88C2
0x8E88D0
0x8E8BF4
0x8E8D02
0x8E8D5A
0x8E8F97
0x8E9110
0x8E9119
0x8E9C30
0x8E9C33
0x8E9C3B
0x8EA1ED
0x8EA253
0x8EA271
0x8EA3A3
0x8EA3A6
0x8EA51B
0x8EA7B0
0x8EA7C9
0x8EA86E
0x8EAAB0
0x8EAC90
0x8EAD40
0x8EAF5E
0x8EB0BC
0x8EB0C2
0x8EB0C3
0x8EB315
0x8EB434
0x8EB4F9
0x8ECDC6
0x8ECF83
0x8ED10A
0x8ED119
0x8ED2B0
0x8ED775
0x8EDF60
0x8EE480
0x8EE9A3
0x8EEC48
0x8EF5F0
0x8F02B5
0x8F0647
0x8F064A
0x8F0A60
0x8F0BE0
0x8F0C60
0x8F0CA0
0x8F0D30
0x8F0DAE
0x8F0FC7
0x8F1456
0x8F155B
0x8F19B0
0x8F19BD
0x8F1F68
0x8F232A
0x8F24CC
0x8F26B0
0x8F2790
0x8F28B9
0x8F3082
0x8F3119
0x8F3660
0x8F3790
0x8F3792
0x8F37A0
0x8F39C0
0x8F39D8
0x8F39F9
0x8F3CFF
0x8F3E10
0x8F3E14
0x8F4012
0x8F42E6
0x8F44C0
0x8F4510
0x8F46EA
0x8F4D14
0x8F4E80
0x8F4F21
0x8F4F86
0x8F5740
0x8F574D
0x8F5977
0x8F6537
0x8F6A84
0x8F6BB0
0x8F6BB4
0x8F6C13
0x8F8482
0x8F851D
0x8F8521
0x8F8527
0x8F85D2
0x8F85DD
0x8F862B
0x8F871C
0x8FA7E0
0x8FA7EA
0x8FBA05
0x8FBD23
0x8FBE1D
0x8FC002
0x8FC145
0x8FCD22
0x8FCEF0
0x8FCF0B
0x8FD890
0x8FD8A0
0x8FD8B8
0x8FE157
0x8FE6E0
0x8FE778
0x8FE7C5
0x8FEA30
0x8FEA32
0x8FEDB0
0x8FEDBB
0x8FF8C0
0x8FF962
0x8FF967
0x8FFE6F
0x9022E0
0x902417
0x902740
0x902778
0x902A00
0x902A04
0x902B44
0x902DD0
0x902DF5
0x90309B
0x9031C0
0x903219
0x90322F
0x9032B0
0x903586
0x903675
0x903760
0x9037AE
0x903888
0x903936
0x9039C6
0x903A81
0x903B45
0x904680
0x904B50
0x904D50
0x904D52
0x904D54
0x904D5B
0x904F30
0x904F32
0x904F3B
0x905220
0x905224
0x905398
0x905555
0x9055F0
0x905720
0x905880
0x905A2E
0x905AF0
0x905BD8
0x905D10
0x905D12
0x905E13
0x90683E
0x9069B0
0x906A66
0x906C00
0x906D80
0x906D82
0x906D95
0x906EE9
0x906F80
0x907138
0x9071F7
0x907230
0x907237
0x907239
0x90724C
0x907307
0x907570
0x9075DC
0x9075DE
0x90770F
0x90775D
0x9077E7
0x90789A
0x907904
0x907BA0
0x907DF0
0x908076
0x90835D
0x90843F
0x9084B0
0x908654
0x908691
0x9086CA
0x9087B7
0x908A1C
0x908C33
0x908F36
0x908FA2
0x909200
0x909266
0x9092E0
0x9094B2
0x909530
0x909A60
0x909AC8
0x909AFD
0x909B2A
0x909B70
0x909BD4
0x909C5F
0x909C6C
0x909C95
0x909CC6
0x909CF2
0x909CFF
0x909D24
0x909DA0
0x909DAD
0x909DCD
0x909E00
0x909E0D
0x909E31
0x90A084
0x90A08C
0x90A35A
0x90A3B0
0x90A3B2
0x90A3B8
0x90A6D0
0x90A6E2
0x90A900
0x90AC04
0x90AC0D
0x90AF00
0x90B232
0x90B30C
0x90B431
0x90B517
0x90B707
0x90B880
0x90B889
0x90B890
0x90BA0A
0x90BA64
0x90BA66
0x90BA99
0x90BCF2
0x90BDA6
0x90BE35
0x90BF10
0x90BF1B
0x90BF1D
0x90BF6D
0x90C023
0x90C060
0x90C0BE
0x90C1EC
0x90C40A
0x90C4E5
0x90C537
0x90C6C6
0x90C8E0
0x90C8E2
0x90CA0A
0x90CA90
0x90CA92
0x90CB77
0x90CC1C
0x90CC57
0x90CCD7
0x90CE30
0x90CE41
0x90CEAB
0x90CEE9
0x90CF1E
0x90CF71
0x90CFE2
0x90D090
0x90D2A0
0x90D2A7
0x90D2A9
0x90D2BC
0x90D378
0x90D6B9
0x90D8A9
0x90DA70
0x90DA76
0x90DD89
0x90E00D
0x90E120
0x90E539
0x90E675
0x90E810
0x90E8BB
0x90EA20
0x90EA2B
0x90EB67
0x90EC60
0x90EC64
0x90EE80
0x90EFC0
0x90EFD9
0x90F077
0x90F117
0x90F1B0
0x90F1C9
0x90F320
0x90F338
0x90F400
0x90F4F0
0x90F4F4
0x90F920
0x90F924
0x90FCA0
0x90FCA6
0x90FCAD
0x90FDC0
0x90FDC6
0x90FDCD
0x90FFB0
0x90FFB2
0x910061
0x91009F
0x9101D7
0x9101DF
0x91021F
0x910359
0x910EDC
0x9110F8
0x9113BB
0x9113CD
0x911528
0x9120C0
0x912340
0x912480
0x912870
0x9129C0
0x912BCE
0x912BD2
0x912D3D
0x912FA0
0x912FA7
0x912FAC
0x9130E5
0x91323F
0x913408
0x9135B0
0x9135C3
0x91367D
0x913730
0x914832
0x914BA8
0x9166B6
0x916EFA
0x916F30
0x916F60
0x916F90
0x916FC8
0x917000
0x917030
0x917060
0x917090
0x9170C8
0x917100
0x917130
0x917160
0x917190
0x9171C8
0x917200
0x917230
0x917260
0x917290
0x9172C8
0x917300
0x917330
0x917360
0x917390
0x9173C8
0x917400
0x917430
0x917460
0x917490
0x9174C8
0x917500
0x917530
0x917560
0x917590
0x9175C8
0x917600
0x917630
0x917660
0x917690
0x9176C8
0x917700
0x917730
0x917760
0x917790
0x9177C8
0x917800
0x917830
0x917860
0x917890
0x9178C8
0x917900
0x917930
0x917960
0x917990
0x9179C8
0x917A00
0x917A30
0x917A60
0x917A90
0x917AC8
0x917B00
0x917B30
0x917B60
0x917B90
0x917BC8
0x917C00
0x917C30
0x917C60
0x917C90
0x917CC8
0x917D00
0x917D30
0x917D60
0x917D90
0x917DC8
0x917E00
0x917E30
0x917E60
0x917E90
0x917EC8
0x917F00
0x917F30
0x917F60
0x917F90
0x917FC8
0x918000
0x918030
0x918060
0x918090
0x9180C8
0x918100
0x918130
0x918160
0x918190
0x9181C8
0x918200
0x918230
0x918260
0x918290
0x9182C8
0x918300
0x918330
0x918360
0x918390
0x9183C8
0x918400
0x918430
0x918460
0x918490
0x9184C8
0x918500
0x918530
0x918560
0x918590
0x9185C8
0x918600
0x918630
0x918660
0x918690
0x9186C8
0x918700
0x918730
0x918760
0x918790
0x9187C8
0x918800
0x918830
0x918860
0x918890
0x9188C8
0x918900
0x918930
0x918960
0x918990
0x9189C8
0x918A00
0x918A30
0x918A60
0x918A90
0x918AC8
0x918B00
0x918B30
0x918B60
0x918B8B
0x918B90
0x918BC8
0x918C00
0x918C30
0x918C60
0x918C90
0x918CC8
0x918D00
0x918D30
0x918D60
0x918D90
0x918DC8
0x918E00
0x918E30
0x918E60
0x918E90
0x918EC8
0x918F00
0x918F30
0x918F60
0x918F97
0x918FF6
0x919038
0x919069
0x9190B0
0x9190BF
0x9191A0
0x91921E
0x91938B
0x919640
0x91972B
0x919778
0x9197E9
0x9197ED
0x9198A4
0x919A00
0x919A04
0x919BB0
0x91A414
0x91A9B0
0x91B030
0x91BAA5
0x91BAC7
0x91C46B
0x91C58A
0x91CBAC
0x91CCC7
0x91D575
0x91D759
0x91D950
0x91D9D0
0x91D9DE
0x91DB32
0x91DC59
0x91DD70
0x91E081
0x91E420
0x91E830
0x91EAD5
0x91EB30
0x91EB32
0x91EC70
0x91ECA0
0x91ECA2
0x91ECA6
0x91EE30
0x91EE3A
0x91F402
0x91F408
0x91FA99
0x920276
0x920359
0x920362
0x920460
0x9204B9
0x920593
0x920700
0x920704
0x920707
0x920978
0x920B26
0x920CE0
0x920CE2
0x920CE3
0x921130
0x921500
0x921521
0x92152F
0x9216E1
0x9218A7
0x9219A0
0x921A50
0x921A70
0x921A90
0x921AF2
0x921BC2
0x921CB0
0x921CBA
0x921F17
0x921F1A
0x921F45
0x92211A
0x92231A
0x922378
0x9224E8
0x922505
0x922595
0x922676
0x922780
0x922830
0x922870
0x9228F0
0x9229E8
0x922A57
0x922AA0
0x922AF0
0x922B1E
0x922B80
0x922C6F
0x922C90
0x922DA9
0x922F00
0x923060
0x9230B0
0x92319D
0x923431
0x9235C0
0x923882
0x92388E
0x923990
0x924FA9
0x924FF2
0x924FF5
0x925120
0x925470
0x9258C1
0x925D5D
0x925D67
0x925DC0
0x9260D0
0x926111
0x926770
0x926772
0x926774
0x92677B
0x926780
0x926970
0x926974
0x927100
0x927102
0x92710E
0x927350
0x9273B0
0x927610
0x927D10
0x927D12
0x927EA0
0x927EA7
0x928029
0x92802B
0x928250
0x928810
0x928819
0x928EC7
0x929000
0x929057
0x9291D7
0x9292AF
0x929360
0x9293A7
0x92945D
0x9294A7
0x929580
0x929737
0x929DF7
0x929E74
0x929EC7
0x929F10
0x92A133
0x92A1F2
0x92A2C0
0x92A2C3
0x92A363
0x92A3E0
0x92A3E4
0x92A3E8
0x92A3F1
0x92A571
0x92AC77
0x92AC79
0x92AD44
0x92B01E
0x92B360
0x92B362
0x92B418
0x92D2E3
0x92D306
0x92D4E3
0x92D4F0
0x92D56A
0x92D5AB
0x92D5D0
0x92D5DC
0x92D654
0x92D802
0x92D805
0x92D9D0
0x92DB3D
0x92DDC0
0x92E186
0x92E729
0x92F420
0x92F424
0x92F510
0x92F514
0x92F51D
0x92F630
0x92F636
0x92F640
0x92F830
0x92FA10
0x92FAE0
0x92FAE4
0x92FDE0
0x92FDE2
0x92FDE6
0x9303B0
0x930D81
0x9310CE
0x9311E0
0x931212
0x931250
0x931290
0x931295
0x9314DC
0x9314F5
0x93159B
0x93160F
0x9316E0
0x931C60
0x93227B
0x9342D0
0x934410
0x934412
0x935600
0x935602
0x935699
0x935EC0
0x93623F
0x9369A6
0x936B01
0x936E48
0x936FD0
0x9370A2
0x9371F0
0x937280
0x937282
0x937283
0x937BB0
0x937DF0
0x937E10
0x937F50
0x937F55
0x938091
0x9380B2
0x938117
0x938189
0x938417
0x938636
0x938780
0x938AB8
0x938AD0
0x939D60
0x939F20
0x93A0E0
0x93A0E9
0x93A2B0
0x93A2B9
0x93A2CB
0x93A700
0x93AAF1
0x93AB20
0x93AE90
0x93B7B8
0x93B835
0x93BA3A
0x93BA77
0x93BD56
0x93C0C2
0x93C0C9
0x93C200
0x93C208
0x93C35A
0x93C35E
0x93C3C0
0x93C405
0x93CA56
0x93CACE
0x93CB0C
0x93CC70
0x93CD90
0x93CEB0
0x93CEB1
0x93CEB9
0x93CF48
0x93D000
0x93D001
0x93D009
0x93D00D
0x93D160
0x93D161
0x93D165
0x93D16E
0x93D2C0
0x93D2C1
0x93D2C9
0x93D420
0x93D427
0x93D499
0x93D510
0x93D6E0
0x93D6F0
0x93D700
0x93D710
0x93D766
0x93D7F8
0x93D8D0
0x93D8F6
0x93DC30
0x93DEC0
0x93DEC3
0x93E1B0
0x93E2D0
0x93E2D4
0x93EA10
0x93F750
0x93F75A
0x9402E0
0x9402E8
0x940400
0x940960
0x940ED0
0x941C80
0x941C87
0x941DF6
0x9425BC
0x9429C0
0x9429CD
0x943070
0x943087
0x943760
0x944345
0x944872
0x944A99
0x944D4D
0x945165
0x945273
0x9452B5
0x945410
0x945731
0x945740
0x945889
0x946460
0x946483
0x946790
0x9468B0
0x946C6A
0x946D6A
0x94721E
0x947226
0x947360
0x947430
0x947710
0x947722
0x947830
0x947918
0x947B60
0x947B67
0x947E01
0x947E60
0x947E78
0x947EF0
0x948F72
0x94910E
0x94912A
0x949220
0x949223
0x9493E0
0x94946B
0x9494FC
0x949508
0x9499B0
0x949A60
0x949CCA
0x94B039
0x94B517
0x94B670
0x94C868
0x94CC40
0x94CC49
0x94CC4B
0x94D080
0x94D087
0x94D3D8
0x94E1AD
0x94EAEA
0x94EC3C
0x94EF6E
0x94F2E0
0x94F353
0x94F72D
0x94F732
0x94F742
0x94F7E0
0x94F7E9
0x94F820
0x94F828
0x94F9BD
0x94FA96
0x94FB08
0x94FBD4
0x94FBD6
0x94FC50
0x94FCB0
0x94FCD0
0x94FD10
0x94FD1E
0x94FFD0
0x950188
0x950247
0x950468
0x9507F3
0x950800
0x950AC0
0x950AC2
0x950AC6
0x950AC8
0x950B09
0x951008
0x9512E0
0x9512F0
0x951340
0x9513F0
0x9513F3
0x951402
0x951838
0x951966
0x9519C0
0x951A2A
0x951A87
0x951B90
0x951C99
0x951D90
0x951DC0
0x951E19
0x952570
0x952C31
0x952EE0
0x9531DB
0x9535A8
0x953A40
0x953F40
0x953FF8
0x9540B0
0x9540CD
0x954460
0x9548AB
0x954A50
0x954E00
0x9553C0
0x955510
0x955512
0x955513
0x9555B4
0x955622
0x9556E2
0x955B39
0x956A1D
0x956DAC
0x9577C0
0x957980
0x957982
0x957A2A
0x957A53
0x958650
0x9586D0
0x9586D2
0x958B60
0x958D40
0x958D48
0x958D4A
0x958EA0
0x958EA8
0x959050
0x959059
0x9591E3
0x959412
0x959416
0x959850
0x959B87
0x95A150
0x95A152
0x95A15D
0x95A187
0x95A770
0x95B956
0x95BAE0
0x95BE50
0x95BE52
0x95BE56
0x95BE58
0x95C3D0
0x95C6EE
0x95C838
0x95C960
0x95C965
0x95CAC2
0x95CAC4
0x95CACC
0x95CD50
0x95CD56
0x95CDCB
0x95D22B
0x95D813
0x95D95D
0x95DB60
0x95DB62
0x95DB73
0x95DD95
0x95E06B
0x95E57F
0x95E593
0x95F09A
0x95F14A
0x95FC49
0x95FC70
0x95FC78
0x95FED4
0x95FED6
0x96012D
0x960180
0x9602CC
0x960872
0x960941
0x960A2F
0x960A48
0x960EEA
0x9610CA
0x9610D7
0x961183
0x9611A0
0x961368
0x961840
0x9619E0
0x961DA9
0x961DD5
0x961DE1
0x961EDD
0x961F20
0x961F2C
0x961FBA
0x9622B5
0x9622C0
0x962612
0x9627C0
0x9627C2
0x962CFE
0x962EAA
0x962F30
0x962FA0
0x9630B0
0x9633AD
0x963409
0x963412
0x963640
0x964D03
0x965B89
0x965EFC
0x966C07
0x966D09
0x967019
0x967131
0x96724E
0x967302
0x967439
0x967467
0x967621
0x9676C0
0x968192
0x9688AD
0x9688B9
0x9688C5
0x9688D1
0x9688E0
0x968F10
0x968F67
0x968F6A
0x9690A0
0x969350
0x969358
0x9696C0
0x969DC8
0x96A210
0x96A2BC
0x96A323
0x96A326
0x96A466
0x96A5F0
0x96A5F3
0x96A670
0x96A7C2
0x96A7CC
0x96A7D5
0x96AA20
0x96AD50
0x96AD54
0x96AD57
0x96AEC0
0x96B382
0x96B38F
0x96B4BD
0x96B9CF
0x96BDE0
0x96BE9A
0x96BF0C
0x96C050
0x96C05C
0x96C7B0
0x96C7B4
0x96D530
0x96D537
0x96D53D
0x96DEB0
0x96DEB2
0x96DEB3
0x96E1E2
0x96E970
0x96F280
0x96FA30
0x96FA35
0x96FD40
0x96FE29
0x9704A6
0x970A10
0x970C3C
0x970EC4
0x970FD5
0x971238
0x9712E8
0x971C8B
0x9723AA
0x972632
0x972B0F
0x972CC2
0x972E11
0x972F52
0x9730A0
0x9731B0
0x9731C0
0x973320
0x973322
0x9739E0
0x9739E3
0x973A9D
0x973C00
0x973D03
0x973F67
0x9740F0
0x9740F9
0x97496E
0x9749B0
0x9749BA
0x974FFD
0x9752B3
0x9754B0
0x9754B2
0x9754BB
0x9754C3
0x9761D9
0x976223
0x97624E
0x976279
0x9762D0
0x9765E0
0x976DE3
0x9770C4
0x9772FE
0x97734E
0x977654
0x9776D1
0x9776E0
0x978033
0x9781C3
0x978C92
0x979AC0
0x979BD0
0x979EC0
0x97A040
0x97A046
0x97A490
0x97B237
0x97B434
0x97B51C
0x97B630
0x97B780
0x97B8D8
0x97BAC0
0x97BE70
0x97BE75
0x97BF22
0x97BF51
0x97C1E8
0x97C230
0x97C23E
0x97C2F8
0x97C369
0x97C585
0x97C599
0x97C770
0x97C774
0x97C911
0x97CB66
0x97CCD0
0x97CCD4
0x97CEF0
0x97D0C0
0x97D9D0
0x97E290
0x97E292
0x97EC20
0x97F037
0x97F530
0x97F541
0x97F82C
0x97FD2B
0x97FD60
0x97FD62
0x97FD80
0x9800E0
0x980110
0x980148
0x9801D9
0x9801E4
0x9801E6
0x980320
0x980358
0x980390
0x980460
0x9805F2
0x9805FA
0x9805FC
0x980770
0x98082D
0x980B6E
0x980BDC
0x980F27
0x98106C
0x9812D0
0x98131F
0x981340
0x981360
0x981364
0x98136D
0x9813B0
0x981430
0x9814E0
0x9814E4
0x9814E7
0x981600
0x981604
0x981607
0x981720
0x981724
0x981F78
0x9820A0
0x982290
0x9823E4
0x9823E6
0x9823FF
0x9825D9
0x9825E2
0x9825E8
0x982AF6
0x982AF8
0x9832B1
0x9835A9
0x9837B0
0x98390F
0x983969
0x983DD0
0x983ED0
0x984010
0x984E40
0x9851A5
0x9851E9
0x985FF0
0x9866A9
0x9867C0
0x986AF0
0x986DD6
0x986FC0
0x98700D
0x987180
0x987280
0x988096
0x988280
0x988600
0x988C3C
0x988D25
0x988E30
0x989041
0x9890A6
0x9891C4
0x9891C6
0x9892C0
0x989360
0x989362
0x989363
0x989418
0x98950D
0x9898A1
0x9898AB
0x9898F2
0x989A50
0x989A52
0x989C20
0x989F0A
0x989F7D
0x98A1BD
0x98A284
0x98A2C0
0x98A2C4
0x98A2F0
0x98A352
0x98A431
0x98A437
0x98A481
0x98A48A
0x98A599
0x98A59C
0x98A73F
0x98A7BF
0x98A83D
0x98A8C0
0x98AF4F
0x98AFCF
0x98B03F
0x98B0B8
0x98B0F0
0x98B176
0x98B330
0x98B3B3
0x98B560
0x98B6F0
0x98B8F0
0x98B970
0x98B972
0x98B97F
0x98B98D
0x98BA82
0x98BB62
0x98BC40
0x98BC42
0x98BC46
0x98BC65
0x98BDE2
0x98C000
0x98C003
0x98C72D
0x98C820
0x98C832
0x98CB68
0x98CCF0
0x98CD00
0x98D259
0x98D49E
0x98D550
0x98D552
0x98D553
0x98D559
0x98DA99
0x98DAA3
0x98DC94
0x98DC9A
0x98DD82
0x98DE50
0x98DE54
0x98E3C0
0x98E843
0x98EA80
0x98EA89
0x98EA99
0x98F063
0x98F0A1
0x98F0E5
0x98F11D
0x98F161
0x98F560
0x990524
0x99074D
0x990B58
0x991C10
0x991C16
0x991DB0
0x992077
0x992160
0x992174
0x99247E
0x9924B0
0x9924B4
0x992528
0x992BF0
0x993200
0x993204
0x99320B
0x9936E4
0x993992
0x993DB6
0x993EDE
0x9941F0
0x994E4C
0x994F50
0x994FC3
0x995500
0x995620
0x995623
0x9956B0
0x9956BB
0x995840
0x995C20
0x995C24
0x995F60
0x9960C0
0x9961D0
0x996420
0x9964F0
0x9964FF
0x9968E7
0x9968EB
0x996B00
0x996D60
0x996F16
0x996F8E
0x997164
0x997166
0x997270
0x997330
0x997450
0x997950
0x998000
0x998002
0x998009
0x998230
0x998260
0x9983C2
0x9983C8
0x998401
0x9984B9
0x9984C9
0x99876F
0x998900
0x998903
0x9989D0
0x998C5E
0x999040
0x9991C5
0x999390
0x99948A
0x999800
0x999C67
0x999C6F
0x999D90
0x999E80
0x999ED0
0x999ED2
0x99A0C0
0x99A0C9
0x99B03A
0x99B0A0
0x99B423
0x99B51F
0x99B520
0x99B534
0x99B584
0x99B9A0
0x99C450
0x99C452
0x99C456
0x99C540
0x99C98C
0x99CD8E
0x99CFB8
0x99D02C
0x99D305
0x99DBEA
0x99E040
0x99E200
0x99E204
0x99E9F0
0x99F270
0x99F272
0x99F27B
0x99F66A
0x99F85B
0x99FA20
0x99FA80
0x99FBC0
0x99FBDE
0x99FEE0
0x9A0208
0x9A0360
0x9A11C2
0x9A1BDB
0x9A1BE9
0x9A1DD0
0x9A1DD2
0x9A2850
0x9A29D0
0x9A29D4
0x9A29D8
0x9A2BD0
0x9A2C1D
0x9A2CE0
0x9A2DE0
0x9A2EF0
0x9A2FD8
0x9A3009
0x9A3040
0x9A30C7
0x9A3300
0x9A3330
0x9A33D0
0x9A33E4
0x9A3400
0x9A34F0
0x9A3580
0x9A3622
0x9A3629
0x9A3780
0x9A37E0
0x9A3904
0x9A3A20
0x9A3A29
0x9A3A70
0x9A3AD0
0x9A3AD3
0x9A3B25
0x9A3B62
0x9A3B67
0x9A3CDC
0x9A3DC0
0x9A3E52
0x9A3FF3
0x9A40F0
0x9A437F
0x9A44F0
0x9A49A0
0x9A4A3A
0x9A4A78
0x9A4AD0
0x9A4C76
0x9A4CA9
0x9A4E80
0x9A4E83
0x9A50B0
0x9A50E4
0x9A5140
0x9A575D
0x9A5A60
0x9A5A75
0x9A5B3C
0x9A5C00
0x9A5C30
0x9A5D10
0x9A5D50
0x9A5D70
0x9A5EF0
0x9A5F10
0x9A5F21
0x9A5F39
0x9A5F6A
0x9A5FB0
0x9A618D
0x9A62E0
0x9A6520
0x9A6528
0x9A6670
0x9A6690
0x9A66C4
0x9A6700
0x9A674B
0x9A684C
0x9A68C0
0x9A68C8
0x9A6939
0x9A69A6
0x9A6B00
0x9A6B0B
0x9A6C78
0x9A6F40
0x9A6F80
0x9A7064
0x9A70B0
0x9A71B0
0x9A7360
0x9A7702
0x9A7852
0x9A79D0
0x9A79D8
0x9A79DA
0x9A7B66
0x9A7CD4
0x9A7D9A
0x9A7E09
0x9A81C0
0x9A82E0
0x9A8600
0x9A8680
0x9A86F0
0x9A87B0
0x9A8AB1
0x9A8C60
0x9A8CA6
0x9A8CD8
0x9A8E90
0x9A8F70
0x9A8F90
0x9A8FE0
0x9A9320
0x9A9324
0x9A95A2
0x9A95E2
0x9A9798
0x9A979F
0x9A97A8
0x9A9AA9
0x9A9B1D
0x9A9B21
0x9A9B2E
0x9A9BAA
0x9AA316
0x9AA361
0x9AA365
0x9AA369
0x9AA440
0x9AA444
0x9AA449
0x9AA61E
0x9AA629
0x9AA64C
0x9AA800
0x9AAA60
0x9AAB09
0x9AAED3
0x9AB1E0
0x9AB460
0x9AB480
0x9AB4C6
0x9ABC20
0x9ABF20
0x9ABF26
0x9AC047
0x9AC0AA
0x9AC15D
0x9AC280
0x9AC288
0x9AC35D
0x9AC4F5
0x9AC550
0x9AC630
0x9AC638
0x9AC68D
0x9AC691
0x9AC695
0x9AC697
0x9ACB61
0x9ACDA0
0x9AD010
0x9AD1E0
0x9AD21B
0x9AD410
0x9AD412
0x9AD6C0
0x9AD6C4
0x9AD6C7
0x9AD8E7
0x9AD8EC
0x9AD9F4
0x9ADAF2
0x9ADAFF
0x9ADD82
0x9ADD89
0x9AE011
0x9AE01D
