0x402340
0x402346
0x4027BF
0x4027CB
0x4029AB
0x4029AE
0x402C60
0x402EB7
0x402F9E
0x402FA7
0x4030DD
0x403159
0x4031FB
0x403247
0x403250
0x4033B3
0x40359E
0x4035A2
0x40370F
0x4037EE
0x40392A
0x40394B
0x40401E
0x404B0B
0x404B0D
0x404B11
0x4058D3
0x4058D7
0x406645
0x408F64
0x409CA0
0x40B7E8
0x40BA88
0x40BBC8
0x40BD08
0x40CDA1
0x40D5C2
0x40E22C
0x40E905
0x4105C9
0x410A10
0x4118C9
0x4125A7
0x41266B
0x412820
0x412C65
0x412CCA
0x412CD0
0x412F82
0x41300A
0x413085
0x413087
0x413780
0x413788
0x41378F
0x413851
0x413A6F
0x413C3D
0x413CF4
0x413F55
0x413FC2
0x414046
0x41407E
0x414478
0x4144D8
0x4145A1
0x4145B8
0x4145BF
0x4145FE
0x414683
0x414698
0x414778
0x4147B2
0x41480D
0x414810
0x414A88
0x414B25
0x414B74
0x414BDA
0x414CC0
0x414CCA
0x414D60
0x414D80
0x414DAD
0x414E55
0x4150AC
0x415640
0x415676
0x4156C0
0x415750
0x4158B4
0x415918
0x41591A
0x41591F
0x415A1A
0x415B20
0x415B22
0x415D90
0x415D95
0x415E7A
0x415EFE
0x416240
0x416260
0x416265
0x416374
0x416376
0x41637A
0x41637C
0x416760
0x4167C0
0x416F90
0x41718D
0x417A44
0x417CF0
0x417CFF
0x418003
0x418295
0x418380
0x418384
0x4183B0
0x4189E0
0x418A28
0x418BFF
0x418D50
0x418DC0
0x418F5B
0x419020
0x419024
0x419249
0x419370
0x419660
0x4197F0
0x419CA0
0x41A020
0x41A083
0x41A102
0x41A10B
0x41A3E0
0x41A45A
0x41A461
0x41A594
0x41A596
0x41A597
0x41A5A3
0x41AC2A
0x41AC31
0x41AF70
0x41AF7A
0x41B402
0x41BB22
0x41BB5B
0x41BC71
0x41BCA7
0x41BCF1
0x41BE6E
0x41C3C9
0x41C91F
0x41CD50
0x41D3A0
0x41D3B0
0x41D489
0x41DD30
0x41DDC1
0x41DEA0
0x41DED0
0x41DF02
0x41E3F1
0x41E61E
0x41E630
0x41E6B3
0x41E6B9
0x41E823
0x41E950
0x41EAA3
0x41ECB5
0x41ECE0
0x41ECFD
0x41EFD2
0x41F060
0x41F06C
0x41F208
0x41F20B
0x41F46A
0x41FB3C
0x41FC22
0x41FCA0
0x41FF2B
0x41FFDF
0x420024
0x42002D
0x4201C0
0x4204B4
0x42052A
0x420550
0x420570
0x42057A
0x4205B5
0x4205E0
0x420640
0x4206A0
0x4206A2
0x4206A3
0x420E30
0x420E3D
0x421090
0x421092
0x421098
0x4210A0
0x4210A7
0x4210D0
0x421149
0x4211C0
0x4211CC
0x421330
0x421388
0x42138F
0x421640
0x421651
0x421820
0x421A34
0x421B40
0x421D10
0x421D12
0x421D16
0x422BAA
0x423C90
0x423F62
0x423F80
0x423FE0
0x423FE9
0x424472
0x424775
0x424786
0x4247A2
0x4247B9
0x4247CD
0x4247DE
0x424804
0x424820
0x424827
0x425130
0x4252E9
0x4253CD
0x4253D1
0x4254E0
0x42585E
0x425BF9
0x425C70
0x425E20
0x426060
0x426270
0x426570
0x4266E6
0x426720
0x4269D0
0x4269D4
0x426BE0
0x426CBF
0x426F59
0x426FD0
0x4270E8
0x427140
0x427280
0x427284
0x4273AA
0x427657
0x427800
0x427AE0
0x427AEA
0x427BA9
0x427C49
0x427C99
0x427CE9
0x427F50
0x427F54
0x428035
0x428048
0x428120
0x428164
0x4282B0
0x4282BB
0x428E1F
0x428EA0
0x429070
0x4290EE
0x429CCF
0x42ABC0
0x42AD50
0x42AD98
0x42ADF0
0x42ADF2
0x42AF64
0x42B050
0x42B638
0x42B810
0x42BAE0
0x42C195
0x42C370
0x42C375
0x42C3CA
0x42C6CA
0x42C789
0x42C877
0x42CA50
0x42CD10
0x42CD50
0x42CD90
0x42CEDC
0x42CF20
0x42CFD0
0x42D010
0x42D011
0x42D110
0x42D113
0x42D1C0
0x42D1C3
0x42D262
0x42D266
0x42D903
0x42D910
0x42E340
0x42E440
0x42EF96
0x42F2A9
0x42F849
0x4300BB
0x430DBC
0x430F19
0x4310E5
0x4310FA
0x4311B0
0x4317C0
0x43186C
0x431A40
0x431A42
0x431F80
0x431F82
0x4321B0
0x432412
0x43243D
0x432590
0x432E41
0x433100
0x4336F8
0x433E80
0x4346B0
0x434741
0x434957
0x434B60
0x434C40
0x434C41
0x434C80
0x434D00
0x434E0D
0x434F0D
0x43511C
0x435230
0x4353C1
0x436580
0x4365A0
0x436E80
0x436EDC
0x437EE2
0x437F80
0x437FF2
0x4380B0
0x438106
0x438150
0x4381EA
0x438232
0x43823C
0x439458
0x439600
0x439606
0x4398CD
0x439D40
0x439DBC
0x439E70
0x439ED4
0x439FF6
0x43A070
0x43A07E
0x43A480
0x43A540
0x43A6F5
0x43A720
0x43A7DB
0x43A977
0x43AAC8
0x43AC20
0x43AD40
0x43AD48
0x43B033
0x43B083
0x43B4A7
0x43B580
0x43B5B9
0x43B630
0x43B7B0
0x43B918
0x43B9AD
0x43B9CB
0x43BB90
0x43BE18
0x43C069
0x43C20F
0x43C469
0x43C46B
0x43C76C
0x43C7A0
0x43C7A5
0x43C8C0
0x43CA98
0x43CF4F
0x43DCF0
0x43DF40
0x43E290
0x43E412
0x43E710
0x43E714
0x43EB10
0x43EB19
0x43EE29
0x43EE9D
0x43F170
0x43F1D6
0x43F1DB
0x43F2C0
0x43F68B
0x43F694
0x43F760
0x43F790
0x43F8A0
0x43F8A2
0x43F8B1
0x43FCD0
0x43FD50
0x43FD58
0x4402F0
0x440300
0x4404D0
0x4404D2
0x4404D6
0x4405B0
0x440B75
0x440C10
0x440DE0
0x440E10
0x440E16
0x4410F0
0x4410F4
0x4410F7
0x44110D
0x4412E0
0x44167A
0x44172E
0x442000
0x442D70
0x443519
0x443D36
0x444736
0x445193
0x445520
0x445529
0x44562D
0x445850
0x445852
0x44585F
0x4458E7
0x445A09
0x445A8A
0x445B68
0x445CF0
0x445CFD
0x445F22
0x44615E
0x446233
0x446630
0x446901
0x446C78
0x447360
0x44736A
0x4474D5
0x447750
0x447CF0
0x447E8E
0x447EFF
0x447FA4
0x448003
0x4480DA
0x448930
0x448932
0x448936
0x448AFD
0x448E50
0x448E52
0x448E56
0x448E74
0x448EBD
0x4495A7
0x4497AD
0x449EFA
0x44A1FF
0x44A755
0x44AC31
0x44ACC2
0x44AD99
0x44AFC0
0x44AFC6
0x44B0E0
0x44B0E9
0x44B0EE
0x44B254
0x44B3E0
0x44B3E9
0x44B3EB
0x44BDA0
0x44BDAA
0x44BE10
0x44BE1A
0x44BE8A
0x44BEF1
0x44BF41
0x44BF98
0x44C031
0x44C090
0x44C099
0x44C0DC
0x44C1B0
0x44C5A4
0x44C8F2
0x44C8F7
0x44C8F9
0x44CB9D
0x44CC90
0x44CC99
0x44CC9E
0x44CCA3
0x44CED0
0x44CED4
0x44D500
0x44D540
0x44D640
0x44D739
0x44D7E2
0x44D960
0x44D966
0x44DB17
0x44DC34
0x44DD0B
0x44DEFD
0x44DF13
0x44DF8B
0x44DFFB
0x44E060
0x44E066
0x44E140
0x44E14A
0x44E410
0x44E4B0
0x44E4DD
0x44E570
0x44E72D
0x44E758
0x44E770
0x44EE71
0x44EFC6
0x44F008
0x44F050
0x44F2C9
0x44F309
0x44F349
0x44F389
0x44F3B9
0x44F3F9
0x44F420
0x44F474
0x44F4F9
0x44F539
0x44F579
0x44F5A0
0x44F5B0
0x44F5E3
0x44F660
0x44F7E0
0x44F810
0x44F819
0x44FA38
0x44FA7D
0x44FB16
0x44FB60
0x44FCD3
0x44FDF5
0x44FE01
0x44FEC0
0x4500A0
0x45067C
0x4506F4
0x450724
0x45078C
0x450EBD
0x451051
0x4514A0
0x451630
0x451A38
0x451AC2
0x452470
0x452528
0x452690
0x4526D0
0x452734
0x452CED
0x452CF0
0x453470
0x4536BD
0x4536C1
0x453D70
0x453F71
0x454000
0x454210
0x454238
0x454ADE
0x454C50
0x454F18
0x4550CB
0x455191
0x4556CD
0x455820
0x455998
0x4559A5
0x455A70
0x455B8C
0x456150
0x456190
0x456EAB
0x458341
0x458467
0x458908
0x45A1E2
0x45D328
0x4600DA
0x462B47
0x463DFB
0x463E47
0x463E93
0x463EDF
0x463F08
0x463F2B
0x463F7B
0x463FC9
0x464017
0x464065
0x4640B1
0x4640FD
0x464149
0x464197
0x4641E3
0x464231
0x464281
0x4642CF
0x46431B
0x464367
0x4643B3
0x4643FF
0x46444B
0x46449B
0x4644E9
0x464537
0x464585
0x4645D1
0x46461D
0x464669
0x4646B7
0x464703
0x464751
0x4647A1
0x4647EF
0x46483B
0x464887
0x4648D3
0x46491F
0x46496B
0x4649BB
0x464A09
0x464A57
0x464AA5
0x464AF1
0x464B3D
0x464B89
0x464BD7
0x464C23
0x464C6A
0x464C71
0x464CC1
0x464D0F
0x464D5B
0x464DA7
0x464DF3
0x464E3F
0x464E8B
0x464EDB
0x464F29
0x464F77
0x464FC1
0x465009
0x465045
0x465557
0x4655A6
0x465670
0x465690
0x4656A4
0x465837
0x465840
0x465860
0x465862
0x465E50
0x465E63
0x465E79
0x465EBC
0x465EDC
0x465FB4
0x46604E
0x466470
0x466475
0x466580
0x466584
0x46666F
0x466769
0x46676A
0x466971
0x466A00
0x466BA0
0x466BA8
0x466BDF
0x466E1E
0x466FC0
0x467066
0x4671B0
0x4672DA
0x467340
0x467370
0x467390
0x467410
0x46741B
0x46741D
0x467790
0x4677C9
0x467A38
0x467AA0
0x467B74
0x46803A
0x468080
0x46809C
0x46845B
0x46845C
0x468590
0x4685CA
0x468665
0x468687
0x4686B0
0x4686C0
0x4686D0
0x468776
0x4687C6
0x468808
0x468858
0x4688A0
0x4688AD
0x468940
0x4689E0
0x468A16
0x468B30
0x468C50
0x468C89
0x468DF7
0x468F36
0x469318
0x4693D8
0x469ED8
0x46A156
0x46A4D8
0x46ADBC
0x46AF48
0x46AF90
0x46B020
0x46B024
0x46B09C
0x46B136
0x46B250
0x46B264
0x46B280
0x46B320
0x46B322
0x46B3F6
0x46B480
0x46B483
0x46B4F0
0x46B4F2
0x46B4FD
0x46B790
0x46B792
0x46B797
0x46D1C2
0x46DAB0
0x46DD9E
0x46DDE0
0x46DE40
0x46E0F0
0x46E117
0x46E566
0x46E7F8
0x46EE90
0x46F120
0x46F124
0x46F4B0
0x46F4B2
0x46F5DA
0x46F610
0x46F640
0x46F6A5
0x46F6AC
0x46F720
0x46F7D1
0x46F8C6
0x46FEB0
0x46FF55
0x470010
0x470230
0x4702B0
0x470420
0x470487
0x470491
0x4706A1
0x470770
0x470779
0x470880
0x470940
0x470A09
0x470AB1
0x470B3C
0x470BCB
0x470DAB
0x470E10
0x470E19
0x470F2E
0x4710A6
0x471173
0x4711F0
0x4711F9
0x471290
0x471299
0x471370
0x47140D
0x471411
0x471417
0x4714CF
0x471572
0x471607
0x47169D
0x471755
0x4717EF
0x471955
0x471A05
0x471A9D
0x47209D
0x4720A1
0x4720C8
0x472B40
0x472FB5
0x473619
0x47369A
0x4737DE
0x473BE0
0x473C00
0x474502
0x47450E
0x4746CE
0x474B68
0x474BFD
0x474C01
0x474C41
0x474D54
0x474E1D
0x474E21
0x474E27
0x4750EE
0x475325
0x475984
0x475EAD
0x475EB1
0x475F64
0x476085
0x47633D
0x476341
0x476415
0x4765AF
0x4765B3
0x476621
0x47671D
0x476721
0x476723
0x4768F0
0x476A0D
0x476A13
0x476A5C
0x476AF9
0x476B81
0x476BED
0x476BF1
0x476C28
0x476DC8
0x476E7E
0x476EFD
0x476F01
0x47748A
0x4775B9
0x4779A0
0x4779C6
0x477CDD
0x477CE1
0x477D5E
0x477D9D
0x477DDE
0x477ECE
0x477FD9
0x4780CA
0x478117
0x47862D
0x478633
0x4786A0
0x478718
0x478790
0x478830
0x4788EA
0x478955
0x478A40
0x479B80
0x479BA1
0x47A1A0
0x47A1A8
0x47A1B1
0x47A4A0
0x47A4C7
0x47A975
0x47A9C5
0x47B07A
0x47B1D4
0x47BD40
0x47BE23
0x47C48D
0x47C491
0x47C497
0x47D3D4
0x47D46D
0x47D471
0x47D4A5
0x47D838
0x47D849
0x47D939
0x47DA19
0x47DC24
0x47DC3F
0x47DF80
0x47DFF3
0x47E05D
0x47E061
0x47E2EC
0x47E455
0x47E651
0x47EC66
0x47ED40
0x47EE34
0x47EE3D
0x47FAD4
0x47FAD6
0x47FF7A
0x4800D7
0x4800D9
0x4800F8
0x480220
0x480288
0x480360
0x480456
0x4805B2
0x480720
0x480725
0x480951
0x480958
0x4809B0
0x4809B2
0x480A51
0x480A58
0x480AC8
0x480B20
0x480B40
0x480B60
0x480B80
0x480BA0
0x480BC0
0x480BE0
0x480C00
0x480C20
0x480C40
0x480C60
0x480C80
0x480CA0
0x480CC0
0x480CF0
0x480DE8
0x480E38
0x480E80
0x480E83
0x480F80
0x480F84
0x480F87
0x481188
0x4814C0
0x481500
0x481508
0x4815A0
0x4815E5
0x481719
0x481726
0x4817E0
0x4817E6
0x481856
0x481AE0
0x481B40
0x481B42
0x481D10
0x481E89
0x481E90
0x481FE0
0x481FE8
0x4820D5
0x482170
0x4821A0
0x4821A8
0x482740
0x482742
0x482970
0x482973
0x482C24
0x482C26
0x482CC0
0x483052
0x483721
0x4838E0
0x483900
0x483AA0
0x483AC0
0x483E61
0x4840C9
0x484176
0x4841AB
0x48443B
0x484530
0x484540
0x484542
0x484544
0x484760
0x4847D0
0x4849BC
0x484A60
0x484A62
0x484C30
0x484C34
0x484F1D
0x484F29
0x485040
0x485280
0x4855F6
0x4857DD
0x485B83
0x485BA4
0x485D28
0x485D4D
0x485E90
0x485FB5
0x486750
0x486789
0x48678D
0x486790
0x486AEE
0x486C99
0x486D30
0x486D3F
0x487306
0x487710
0x48779E
0x487880
0x487889
0x487898
0x487CD0
0x487CD4
0x487E86
0x487FB9
0x487FC0
0x488556
0x4888BE
0x488E3E
0x489130
0x4892B0
0x48938D
0x4893C0
0x4893C4
0x489584
0x489C79
0x48ADDC
0x48B012
0x48BCAD
0x48D070
0x48D0E0
0x48D1B0
0x48D217
0x48D23E
0x48D2C0
0x48D320
0x48D3C0
0x48D691
0x48D6A1
0x48D6B0
0x48D7B1
0x48D7C0
0x48D84F
0x48D872
0x48D9C0
0x48D9E2
0x48DB7E
0x48DBD0
0x48E260
0x48E290
0x48E292
0x48E296
0x48E43A
0x48E639
0x48E6A3
0x48E880
0x48E899
0x48EF50
0x48F137
0x48F420
0x48F4C7
0x48F710
0x48F897
0x48F910
0x48FA20
0x48FC00
0x48FC02
0x48FC03
0x48FF20
0x48FFC0
0x490080
0x490150
0x490290
0x490330
0x490375
0x4905E2
0x49078D
0x4907A0
0x4907A2
0x4907AF
0x490EC0
0x490EC8
0x491050
0x491055
0x491093
0x4911A0
0x4911A8
0x491468
0x4916B9
0x4916C2
0x491790
0x491900
0x491908
0x491B80
0x491BB0
0x491DE3
0x491F20
0x4924F0
0x4924F9
0x492500
0x492646
0x4927B7
0x492910
0x492912
0x492916
0x49291D
0x492F80
0x492F8B
0x492F93
0x493340
0x493355
0x493370
0x4933A0
0x493500
0x493523
0x493982
0x493D4E
0x493DA8
0x493E8A
0x493F35
0x4941B0
0x494410
0x49441F
0x494880
0x494896
0x494A00
0x494FCD
0x495FA5
0x495FAB
0x495FB2
0x4961CA
0x496223
0x4962B0
0x496490
0x496492
0x496496
0x496861
0x496B2F
0x497901
0x497EF1
0x498130
0x4981C8
0x498210
0x498380
0x498385
0x4983E0
0x498460
0x4984B0
0x498580
0x4987D0
0x498852
0x4988F2
0x498992
0x4989F0
0x4989F2
0x4989F3
0x498AE0
0x498B80
0x498BE0
0x498C00
0x498C28
0x498CA2
0x498CA3
0x498D09
0x498D1C
0x498FF1
0x499050
0x499058
0x499206
0x49920C
0x499491
0x499650
0x4998B6
0x499980
0x499A50
0x499D90
0x49A494
0x49A760
0x49A764
0x49A768
0x49AD20
0x49AD22
0x49AD23
0x49ADD7
0x49AE0F
0x49B08F
0x49B2D8
0x49B30A
0x49B420
0x49B581
0x49B9D2
0x49BC79
0x49BE99
0x49BEA1
0x49BEC5
0x49C0F9
0x49C3CF
0x49C7BF
0x49C930
0x49C938
0x49C93D
0x49DFEB
0x49E290
0x49E292
0x49F768
0x49FD47
0x49FF87
0x49FFC0
0x4A07E0
0x4A07E4
0x4A0F87
0x4A1090
0x4A1092
0x4A109D
0x4A1920
0x4A19AC
0x4A1D05
0x4A1D07
0x4A1D96
0x4A1E20
0x4A1E33
0x4A20C7
0x4A2117
0x4A2167
0x4A2212
0x4A23B3
0x4A2480
0x4A248D
0x4A24DF
0x4A2561
0x4A2562
0x4A25E0
0x4A26A0
0x4A279F
0x4A294A
0x4A2A44
0x4A2AEB
0x4A2AEE
0x4A2B40
0x4A2C8B
0x4A2E79
0x4A2F5D
0x4A2FE2
0x4A3132
0x4A313D
0x4A3239
0x4A3610
0x4A3612
0x4A4018
0x4A401B
0x4A4020
0x4A4032
0x4A4035
0x4A414F
0x4A4160
0x4A4162
0x4A4469
0x4A44F0
0x4A4520
0x4A45C2
0x4A4610
0x4A4770
0x4A47D0
0x4A48A0
0x4A4B95
0x4A4BC8
0x4A4BE0
0x4A4C20
0x4A4D20
0x4A4D2C
0x4A5064
0x4A51E0
0x4A59C0
0x4A5AF4
0x4A5F85
0x4A6090
0x4A609B
0x4A609D
0x4A6310
0x4A631B
0x4A64F7
0x4A65A8
0x4A6630
0x4A6652
0x4A6662
0x4A6842
0x4A6940
0x4A6948
0x4A6C50
0x4A6C80
0x4A6C85
0x4A6D00
0x4A6D55
0x4A6FF5
0x4A7285
0x4A7C74
0x4A7EB1
0x4A7F00
0x4A7F08
0x4A8004
0x4A82D0
0x4A8360
0x4A8420
0x4A842B
0x4A85F0
0x4A8652
0x4A8653
0x4A8661
0x4A885E
0x4A89A1
0x4A89CA
0x4A8B20
0x4A8B66
0x4A8BA0
0x4A8BAB
0x4A8D90
0x4A8EF0
0x4A8F49
0x4A939A
0x4A9490
0x4A9BC0
0x4A9C00
0x4A9DC0
0x4A9E32
0x4A9E83
0x4AA050
0x4AA2A2
0x4AA2AE
0x4AA500
0x4AA6C8
0x4AA7D0
0x4AA840
0x4AA842
0x4AA843
0x4AA84D
0x4AAD5C
0x4AB02A
0x4AB8A0
0x4ABDC4
0x4ABEA8
0x4ABF40
0x4AC300
0x4AC30B
0x4AC3E4
0x4AC920
0x4AC931
0x4AC943
0x4ACA34
0x4ACA50
0x4ACAC0
0x4ACC9E
0x4ACD30
0x4ACD32
0x4AD088
0x4AD0E7
0x4AD520
0x4ADAA0
0x4ADB62
0x4ADC70
0x4ADCD7
0x4ADCF8
0x4ADD77
0x4ADD9E
0x4ADDE0
0x4ADF34
0x4ADF92
0x4AE0D0
0x4AE0DE
0x4AE0E4
0x4AE350
0x4AE380
0x4AE3C0
0x4AE3C4
0x4AE460
0x4AE462
0x4AE464
0x4AE71B
0x4AE8E8
0x4AEA56
0x4AEC20
0x4AEC35
0x4AF000
0x4AF004
0x4AF130
0x4AF13B
0x4AF1E0
0x4AF1EF
0x4AF4AB
0x4AF694
0x4AFB5B
0x4AFDD0
0x4AFE20
0x4AFEB7
0x4B0206
0x4B0515
0x4B051D
0x4B051F
0x4B0720
0x4B079A
0x4B0CF0
0x4B0D71
0x4B0D88
0x4B0E00
0x4B0E09
0x4B0E60
0x4B0E64
0x4B0E6D
0x4B0FB6
0x4B16F4
0x4B18FA
0x4B19C0
0x4B1AE0
0x4B1C10
0x4B1C14
0x4B1C50
0x4B1C70
0x4B1C90
0x4B1DA0
0x4B1E9D
0x4B2070
0x4B2362
0x4B2364
0x4B2490
0x4B2551
0x4B25A4
0x4B25A9
0x4B27EC
0x4B2940
0x4B2BE0
0x4B2BE2
0x4B2BF9
0x4B2E60
0x4B303A
0x4B3230
0x4B3239
0x4B3520
0x4B352B
0x4B3AB3
0x4B3B2F
0x4B3BE0
0x4B3E90
0x4B3ED8
0x4B3F70
0x4B401C
0x4B4110
0x4B42EB
0x4B4380
0x4B4680
0x4B46F7
0x4B4D4D
0x4B4D59
0x4B5041
0x4B52E0
0x4B55A0
0x4B5660
0x4B5680
0x4B56CB
0x4B5AE0
0x4B5D96
0x4B5DD0
0x4B5DDE
0x4B651D
0x4B6525
0x4B6620
0x4B6622
0x4B6880
0x4B6882
0x4B6886
0x4B7207
0x4B7240
0x4B7257
0x4B726E
0x4B7369
0x4B737E
0x4B7D74
0x4B7D76
0x4B8350
0x4B8409
0x4B8480
0x4B84A0
0x4B899D
0x4B89A5
0x4B8C80
0x4B8C88
0x4B8C8A
0x4B9124
0x4B9126
0x4B9900
0x4B9B00
0x4B9B0F
0x4B9D90
0x4B9D97
0x4B9DA0
0x4B9F97
0x4B9F9A
0x4BA0A8
0x4BA331
0x4BA4D1
0x4BA580
0x4BA800
0x4BAA1B
0x4BAB70
0x4BAC6F
0x4BAD30
0x4BAD32
0x4BB032
0x4BB200
0x4BB210
0x4BB510
0x4BB880
0x4BB9D0
0x4BBBB0
0x4BC183
0x4BC457
0x4BC590
0x4BC690
0x4BC930
0x4BCA00
0x4BCA04
0x4BCA0D
0x4BCC34
0x4BCD60
0x4BD210
0x4BD217
0x4BD219
0x4BD21E
0x4BD220
0x4BD3C0
0x4BD8A7
0x4BD940
0x4BD970
0x4BD976
0x4BD97E
0x4BDA20
0x4BDC68
0x4BDD50
0x4BDD58
0x4BE049
0x4BE200
0x4BE310
0x4BE508
0x4BE570
0x4BE820
0x4BE830
0x4BEC13
0x4BECD0
0x4BEFA0
0x4BEFA3
0x4BF022
0x4BF0B0
0x4BF0B4
0x4BF0B7
0x4BF1D0
0x4BF1D8
0x4BF1DD
0x4BF680
0x4BF684
0x4BF970
0x4BFC40
0x4C09F0
0x4C1500
0x4C1579
0x4C1D43
0x4C1D50
0x4C1D5B
0x4C1EF0
0x4C1F97
0x4C2160
0x4C2255
0x4C257B
0x4C3073
0x4C3180
0x4C3300
0x4C3489
0x4C3A51
0x4C3B7B
0x4C4774
0x4C4E88
0x4C5280
0x4C528B
0x4C61F0
0x4C67B3
0x4C6FCB
0x4C7950
0x4C83E0
0x4C8BA0
0x4C8BB9
0x4C9274
0x4C9330
0x4C9A2F
0x4CA160
0x4CA50A
0x4CB0B1
0x4CB1A0
0x4CB297
0x4CB610
0x4CB736
0x4CC3F5
0x4CC4D6
0x4CC7B4
0x4CC7F0
0x4CDBE0
0x4CDBE2
0x4CDBE3
0x4CDC38
0x4CE125
0x4CE184
0x4CE1BE
0x4CE22C
0x4CE8E6
0x4CEC00
0x4CF886
0x4CFC40
0x4CFC46
0x4D0710
0x4D0719
0x4D0A38
0x4D1350
0x4D13EB
0x4D140D
0x4D14E7
0x4D15C0
0x4D15D0
0x4D1686
0x4D1812
0x4D1817
0x4D181B
0x4D1A37
0x4D1C10
0x4D1C30
0x4D1C37
0x4D1C3D
0x4D1CD6
0x4D1D80
0x4D1DC0
0x4D1E10
0x4D1E40
0x4D1F30
0x4D1F34
0x4D1F36
0x4D2190
0x4D22E2
0x4D2362
0x4D26C0
0x4D2AB8
0x4D2C6F
0x4D2C90
0x4D39EA
0x4D39EF
0x4D39F7
0x4D39FB
0x4D3A80
0x4D3B24
0x4D3DE5
0x4D3DED
0x4D3F40
0x4D3F44
0x4D5735
0x4D6A80
0x4D6ABA
0x4D71A0
0x4D75A0
0x4D75AB
0x4D7B62
0x4D7E38
0x4D7E40
0x4D801A
0x4D8100
0x4D8A00
0x4D8DF0
0x4D8F60
0x4D8FD0
0x4D8FD6
0x4D986B
0x4D9CF0
0x4D9E20
0x4DA480
0x4DA484
0x4DA740
0x4DA7E2
0x4DA8AB
0x4DA910
0x4DA9A0
0x4DA9E0
0x4DA9F0
0x4DAA40
0x4DAB0F
0x4DABA2
0x4DABB1
0x4DAC58
0x4DAE80
0x4DAF50
0x4DB0E0
0x4DB0F0
0x4DB110
0x4DB250
0x4DB2DF
0x4DB320
0x4DB466
0x4DB4A0
0x4DB50C
0x4DB5BE
0x4DB5F0
0x4DB5F2
0x4DB5F6
0x4DB5F8
0x4DB600
0x4DB916
0x4DB9A0
0x4DB9B0
0x4DBAB0
0x4DBB00
0x4DC02A
0x4DC5A0
0x4DC5AD
0x4DC740
0x4DC742
0x4DCF30
0x4DD450
0x4DD4D8
0x4DD7C9
0x4DE200
0x4DE233
0x4DE4D2
0x4DE9F8
0x4DEA70
0x4DEA79
0x4DEF39
0x4DF0CD
0x4DF5BB
0x4DF610
0x4DF619
0x4DFC00
0x4DFC12
0x4E0630
0x4E0800
0x4E0E60
0x4E15D0
0x4E1765
0x4E17F0
0x4E17F4
0x4E1A78
0x4E1AF0
0x4E1AF2
0x4E1AF8
0x4E1B02
0x4E1DF6
0x4E1F91
0x4E2000
0x4E2190
0x4E21A0
0x4E21F0
0x4E2261
0x4E2302
0x4E2420
0x4E242E
0x4E2433
0x4E26F7
0x4E27B1
0x4E27BA
0x4E2C50
0x4E2E34
0x4E2EC0
0x4E3090
0x4E3096
0x4E3140
0x4E3146
0x4E322A
0x4E3260
0x4E3871
0x4E38D2
0x4E38D3
0x4E3DB0
0x4E3E75
0x4E3EB0
0x4E3ED2
0x4E3F90
0x4E40D0
0x4E4290
0x4E42A0
0x4E4422
0x4E4510
0x4E4514
0x4E4840
0x4E489D
0x4E4920
0x4E4AD0
0x4E4B60
0x4E4BF0
0x4E4BF4
0x4E4BFF
0x4E4CD0
0x4E4D28
0x4E4D90
0x4E4E2D
0x4E4E91
0x4E4E9A
0x4E4FA6
0x4E5353
0x4E5686
0x4E5837
0x4E5AC0
0x4E5AC4
0x4E5ACA
0x4E5DC7
0x4E5E15
0x4E5E1F
0x4E5E60
0x4E5E81
0x4E5F27
0x4E6042
0x4E6068
0x4E6360
0x4E64D1
0x4E6580
0x4E65C0
0x4E66F0
0x4E680D
0x4E6850
0x4E6DC9
0x4E7220
0x4E7FD0
0x4E7FF0
0x4E8152
0x4E815B
0x4E8250
0x4E82C0
0x4E82C9
0x4E8390
0x4E8447
0x4E84C0
0x4E8683
0x4E8B82
0x4E8BD7
0x4E8C68
0x4E8D0D
0x4E8D11
0x4E8E9E
0x4E8EE8
0x4E9153
0x4E9860
0x4E986D
0x4E9CCD
0x4E9CD1
0x4E9CD7
0x4EA2B0
0x4EA369
0x4EA71A
0x4EA921
0x4EABD9
0x4EABEA
0x4EAD76
0x4EB155
0x4EB53E
0x4EB976
0x4EBB92
0x4EBBF0
0x4EBBF4
0x4EBD60
0x4EBEA0
0x4EBF0B
0x4EBFAB
0x4EBFDA
0x4EC110
0x4EC11E
0x4EC200
0x4EC350
0x4EC560
0x4EC60A
0x4EC693
0x4EC78D
0x4EC793
0x4EC797
0x4ECB40
0x4ED050
0x4ED059
0x4ED2D1
0x4ED752
0x4ED75A
0x4ED7C0
0x4EDBB0
0x4EDBB4
0x4EDDF0
0x4EDF95
0x4EE011
0x4EE01E
0x4EE070
0x4EE185
0x4EE27B
0x4EE287
0x4EE330
0x4EE336
0x4EE33A
0x4EE6C9
0x4EE780
0x4EE78A
0x4EE911
0x4EE980
0x4EE9B0
0x4EEAC8
0x4EEB58
0x4EEBB0
0x4EEBB4
0x4EEBBF
0x4EED70
0x4EF95B
0x4EFE50
0x4EFE53
0x4EFE64
0x4F01B8
0x4F0272
0x4F028A
0x4F0370
0x4F0377
0x4F037E
0x4F0426
0x4F0C70
0x4F0C72
0x4F0C76
0x4F10E0
0x4F1100
0x4F1103
0x4F115D
0x4F13A0
0x4F13A4
0x4F1510
0x4F15D8
0x4F15F0
0x4F15F2
0x4F1689
0x4F20A0
0x4F20E6
0x4F2142
0x4F2150
0x4F21E2
0x4F2205
0x4F2442
0x4F2444
0x4F2446
0x4F244A
0x4F25A1
0x4F2666
0x4F2690
0x4F29B0
0x4F29BD
0x4F2B82
0x4F2D10
0x4F2D1E
0x4F310D
0x4F312C
0x4F315D
0x4F317C
0x4F3200
0x4F352C
0x4F38B0
0x4F3940
0x4F3990
0x4F39A9
0x4F3A50
0x4F3B90
0x4F3C00
0x4F3C56
0x4F3CC0
0x4F3EF0
0x4F3F0B
0x4F4112
0x4F4128
0x4F41F0
0x4F41F9
0x4F4380
0x4F4384
0x4F43A3
0x4F43C0
0x4F43C6
0x4F45C0
0x4F4956
0x4F495D
0x4F4A36
0x4F4AA9
0x4F4C56
0x4F4D00
0x4F4D02
0x4F5186
0x4F51E0
0x4F51F2
0x4F5710
0x4F5AE1
0x4F5EC9
0x4F6000
0x4F6054
0x4F60FD
0x4F63D1
0x4F63D4
0x4F6409
0x4F6600
0x4F6613
0x4F6723
0x4F689D
0x4F68A1
0x4F6900
0x4F6970
0x4F6A00
0x4F6DC0
0x4F6DCE
0x4F6E30
0x4F6E32
0x4F7078
0x4F7357
0x4F73E0
0x4F73F7
0x4F7552
0x4F7AC0
0x4F7AD2
0x4F7B20
0x4F7D90
0x4F7E48
0x4F8000
0x4F8008
0x4F800A
0x4F88F0
0x4F89D2
0x4F89DD
0x4F8A82
0x4F8A85
0x4F8EF0
0x4F8EF2
0x4F8EF3
0x4F8EF9
0x4F8EFB
0x4F8EFF
0x4F91A0
0x4F9258
0x4F9518
0x4FA639
0x4FA641
0x4FAB60
0x4FAB62
0x4FAB66
0x4FB210
0x4FB212
0x4FB290
0x4FB299
0x4FB2C0
0x4FB6C5
0x4FB712
0x4FB990
0x4FB994
0x4FCC46
0x4FE2A0
0x4FFCC0
0x5006D0
0x500B10
0x501560
0x501564
0x501567
0x5017C0
0x5017E3
0x501B00
0x501BE0
0x501C00
0x501C0F
0x501F20
0x501F28
0x502190
0x5029A4
0x502CE0
0x502CE8
0x502CEA
0x502F70
0x5030C0
0x5030C9
0x503810
0x503A80
0x503E16
0x503F20
0x503F28
0x504260
0x504661
0x5046B0
0x5046B9
0x504890
0x5049D0
0x5049D2
0x504F70
0x505000
0x505002
0x5051B0
0x505320
0x5053E0
0x50540F
0x5054F0
0x505661
0x50566A
0x505714
0x5058F0
0x5058F3
0x505916
0x5059BA
0x505B00
0x505B45
0x505EE8
0x5060C8
0x506335
0x506570
0x5065A0
0x506730
0x506797
0x506897
0x5068F7
0x506981
0x506991
0x506AF0
0x506F8A
0x5071D3
0x5080B1
0x50833A
0x508B0B
0x509254
0x5092F6
0x509370
0x509372
0x509386
0x5097D1
0x509917
0x509A20
0x509A24
0x509F25
0x50A114
0x50A27B
0x50A2C8
0x50A4E8
0x50A687
0x50A970
0x50ABEC
0x50AD50
0x50AF80
0x50B160
0x50B162
0x50B360
0x50B4F0
0x50B5B0
0x50B5B4
0x50B790
0x50B880
0x50B9A7
0x50BA80
0x50BAE0
0x50BAE2
0x50BAE6
0x50BFE3
0x50C0F2
0x50C430
0x50C43B
0x50C43D
0x50C640
0x50C648
0x50C875
0x50CA40
0x50D500
0x50D570
0x50D5C0
0x50D6E7
0x50D8D0
0x50D8D2
0x50DA70
0x50DA7C
0x50DC54
0x50E7A7
0x50E9D0
0x50E9D2
0x50E9DF
0x50E9F0
0x50EB89
0x50EB8B
0x50EB94
0x50ED20
0x50ED33
0x50EDF0
0x50EE03
0x50EED3
0x50EF50
0x50EFDB
0x50F14B
0x50F2F0
0x50F560
0x50FA73
0x50FBB0
0x50FE00
0x510150
0x51015B
0x510570
0x5105B0
0x510C50
0x510EC0
0x511030
0x5110A0
0x5110F0
0x5119F0
0x511AE0
0x511B40
0x511CD0
0x512190
0x51219C
0x512AC0
0x512BB0
0x512C20
0x512DB0
0x512DB2
0x512DC6
0x51311B
0x513239
0x513290
0x5136AB
0x513844
0x513AD4
0x513AD6
0x513ADA
0x513EC0
0x513ECD
0x513FAE
0x514065
0x514447
0x514520
0x5145A1
0x5145F0
0x514629
0x514B31
0x514B5B
0x515070
0x5150C0
0x5150DA
0x5156E0
0x5156E4
0x5156ED
0x5158C0
0x515960
0x515B00
0x515B04
0x515B0D
0x515CE0
0x515E00
0x515E04
0x515E0D
0x515FE0
0x516160
0x516369
0x516410
0x516412
0x516891
0x51689E
0x516901
0x51690E
0x516971
0x51697E
0x5169E1
0x5169EE
0x516A51
0x516A5E
0x516AC1
0x516ACE
0x516B31
0x516B3E
0x516BA0
0x516BA3
0x517348
0x5173A0
0x5173A6
0x517A20
0x517BD1
0x517EFE
0x518271
0x51831B
0x518381
0x51838E
0x5183F0
0x518661
0x518941
0x5189D0
0x518C40
0x518C4A
0x5190CA
0x5198D0
0x519BA1
0x519BAE
0x519C11
0x519C1E
0x519C81
0x519C8E
0x519CF1
0x519CFE
0x519D60
0x519EF3
0x51A01D
0x51A389
0x51A600
0x51A610
0x51AAB9
0x51AEC0
0x51B2B0
0x51B712
0x51BC40
0x51C24A
0x51C4F0
0x51C7CB
0x51C831
0x51C83E
0x51C8D5
0x51C8F0
0x51C9C1
0x51CA65
0x51CA67
0x51CB99
0x51CBE0
0x51CBE8
0x51CC50
0x51CED0
0x51CED8
0x51CF90
0x51D660
0x51D6D6
0x51D760
0x51D903
0x51DC90
0x51DDC0
0x51DF53
0x51E422
0x51E4C8
0x51E858
0x51EAE0
0x51EAE2
0x51EF30
0x51F240
0x51F2C0
0x51F346
0x51F420
0x51F427
0x51F42C
0x51F550
0x51F57A
0x51F6B0
0x51FBA0
0x51FC10
0x51FCF5
0x51FCF7
0x51FD04
0x51FE32
0x51FE47
0x51FEF7
0x520020
0x5200D0
0x520177
0x52020E
0x520319
0x5203D0
0x520470
0x520538
0x5205B8
0x5206A8
0x5206AC
0x520BA0
0x520BA2
0x520E10
0x520E12
0x521024
0x521120
0x5212E0
0x521350
0x5213C0
0x52183C
0x5219FC
0x521B08
0x521B78
0x521C47
0x521E10
0x521E12
0x5220E7
0x52210B
0x522180
0x522183
0x522358
0x5223C8
0x522498
0x5224A0
0x522630
0x522724
0x522820
0x52282B
0x5230D0
0x523389
0x523538
0x523728
0x523735
0x523850
0x523A80
0x523A89
0x523E84
0x524056
0x524200
0x5243A4
0x5243FB
0x524690
0x5246E0
0x524720
0x524970
0x524A00
0x524A09
0x525348
0x525652
0x525659
0x525760
0x525768
0x525CFA
0x525D40
0x525D44
0x525D48
0x526010
0x526240
0x5262B0
0x5262B8
0x5264F0
0x526900
0x526902
0x526906
0x526B60
0x526B9B
0x526C25
0x526C30
0x526E4C
0x526FE2
0x527310
0x527590
0x5275CE
0x5275D0
0x527820
0x5278A0
0x5278A7
0x527AC7
0x527ACA
0x527B00
0x527BA7
0x527BA9
0x527CA0
0x527CA4
0x527D80
0x527D84
0x528116
0x528226
0x5284E0
0x528960
0x528A2D
0x528A60
0x528AC0
0x528AD3
0x528B37
0x528B73
0x528B87
0x528B9B
0x528C12
0x528C26
0x529060
0x529062
0x529069
0x529081
0x5294C5
0x529510
0x529518
0x529720
0x529732
0x5297A2
0x529856
0x5298F3
0x5298F7
0x529AD5
0x529B10
0x529E00
0x529FF0
0x52A1B0
0x52A347
0x52A34A
0x52A6EE
0x52A879
0x52A881
0x52A883
0x52AB82
0x52ABD7
0x52AC50
0x52AD95
0x52AF80
0x52B0DC
0x52B0DF
0x52B0E5
0x52B0E7
0x52B290
0x52B2BF
0x52B33D
0x52B4D0
0x52B4D2
0x52B4DE
0x52B4E9
0x52B5D0
0x52B65F
0x52B66D
0x52B66F
0x52B764
0x52B766
0x52B7CB
0x52B7CD
0x52B8EA
0x52B8EC
0x52B917
0x52B94B
0x52B94D
0x52B9C9
0x52B9CF
0x52BA02
0x52BBF0
0x52BDCD
0x52BF45
0x52BF6A
0x52BF85
0x52BFB4
0x52C142
0x52C162
0x52C220
0x52C600
0x52C8ED
0x52CCD8
0x52CFD0
0x52D1A1
0x52D290
0x52D292
0x52D47F
0x52D491
0x52D595
0x52D697
0x52D750
0x52DA30
0x52DA38
0x52DC70
0x52DC72
0x52DCF7
0x52DFA0
0x52DFA2
0x52DFEF
0x52E01D
0x52E32F
0x52E38F
0x52E3C0
0x52E472
0x52E737
0x52E860
0x52E864
0x52E86D
0x52EAD0
0x52EE70
0x52EE72
0x52F2E0
0x52F2E4
0x52F4F0
0x52F4F4
0x52F71C
0x52F777
0x52F8E1
0x52F986
0x52FA30
0x52FA34
0x52FD08
0x52FE18
0x52FF38
0x530070
0x530110
0x530112
0x530582
0x530640
0x5307D0
0x530A70
0x530BD9
0x530BEA
0x530BFB
0x530C13
0x530CD0
0x530D3D
0x530DBD
0x530E3D
0x530EBD
0x530F3D
0x530FCD
0x5312A5
0x531360
0x5313F0
0x531B10
0x531C60
0x531C63
0x531EB0
0x532080
0x532150
0x532550
0x5326B7
0x5327C7
0x532D45
0x532E67
0x532F87
0x533095
0x5331B5
0x5332F0
0x533312
0x533535
0x5336C0
0x533793
0x533980
0x533A85
0x533AC1
0x533EA7
0x534195
0x53419E
0x5341D0
0x5341D3
0x534252
0x53428A
0x534314
0x534333
0x534390
0x534393
0x534431
0x53443A
0x534441
0x5344F0
0x534580
0x534589
0x534658
0x534680
0x5346AA
0x534720
0x534739
0x53477B
0x5347F0
0x534891
0x5348A2
0x534A10
0x534D08
0x534DB2
0x534DC5
0x535004
0x5352C2
0x5352DB
0x5352DD
0x5353A9
0x535449
0x5355C8
0x5355F8
0x535650
0x535680
0x5356B0
0x5356E0
0x535BD9
0x535BDB
0x535BE1
0x535DE0
0x535E60
0x535F80
0x535F88
0x535F8D
0x5360BE
0x5361A1
0x536420
0x536429
0x536436
0x5366EC
0x5366F3
0x5368A8
0x536BEA
0x536C88
0x536DDC
0x536E50
0x536E5A
0x537056
0x537060
0x537189
0x53718D
0x537348
0x537398
0x5373FE
0x537560
0x537573
0x537760
0x538288
0x538318
0x538358
0x5383B7
0x538490
0x53849C
0x5384A3
0x538A00
0x538B64
0x538CD9
0x538E39
0x538EB0
0x538EF0
0x538FA0
0x538FAE
0x539050
0x539052
0x539114
0x539147
0x5391A1
0x5391F0
0x539255
0x539283
0x53938F
0x5393BD
0x539470
0x539520
0x5395A0
0x539710
0x539860
0x539888
0x5398D0
0x5398D2
0x5398D6
0x539CC1
0x539D61
0x539D67
0x53A049
0x53A05C
0x53A370
0x53A3CC
0x53A3EC
0x53A730
0x53A8F0
0x53AD40
0x53AD56
0x53AD58
0x53AF70
0x53AFD0
0x53B430
0x53B983
0x53C0A0
0x53C110
0x53C112
0x53C51D
0x53C658
0x53D7F3
0x53DA50
0x53DEAB
0x53E232
0x53E340
0x53E370
0x53E3B2
0x53E491
0x53E522
0x53E525
0x53E77E
0x53E8DA
0x53E9F7
0x53EC30
0x53EC3E
0x53EC43
0x53F140
0x53F390
0x53F6A0
0x53FD00
0x53FDF0
0x53FE49
0x53FEB8
0x53FED4
0x54010D
0x540220
0x5405D8
0x5405E6
0x540770
0x540790
0x5407C0
0x5407E0
0x540820
0x540850
0x540880
0x54088A
0x540939
0x540960
0x54096A
0x5409F9
0x540A20
0x540A2A
0x540AA0
0x540AAA
0x540B49
0x540B89
0x540BC0
0x540BCA
0x540C59
0x540CD9
0x540D19
0x540D40
0x540E49
0x540F19
0x541145
0x5411E0
0x54124D
0x5412A6
0x541769
0x541837
0x5418C0
0x5418C5
0x5418D7
0x541944
0x541978
0x541A60
0x541A84
0x541AB0
0x541AD0
0x541E62
0x541F14
0x541F74
0x5422A0
0x542380
0x5423E0
0x542450
0x542520
0x542582
0x542730
0x542734
0x542779
0x54277D
0x542AD7
0x542B40
0x542B48
0x542B4D
0x542E98
0x5431A4
0x5431A9
0x5435D0
0x543604
0x543690
0x5437C0
0x5437C6
0x5437D3
0x543E00
0x543E0C
0x543EC3
0x5440FC
0x54425C
0x5446E5
0x544820
0x544AB0
0x544ABC
0x544B90
0x544B98
0x544C00
0x544C08
0x544C75
0x544CD0
0x544D70
0x544FD6
0x54500D
0x545335
0x545360
0x54536B
0x54536D
0x545600
0x545682
0x545689
0x545830
0x545A07
0x545C90
0x546010
0x5460A3
0x546110
0x546380
0x546388
0x54638A
0x546548
0x54667C
0x5466E0
0x546970
0x5469C0
0x546AF2
0x546C80
0x546D20
0x546EB6
0x546F00
0x547040
0x547045
0x54704D
0x547051
0x547055
0x54706F
0x5471BA
0x547230
0x54724C
0x547273
0x54728B
0x5472A1
0x547336
0x547410
0x547416
0x5477A7
0x5478A0
0x5478A9
0x547A91
0x547DF0
0x547DF9
0x547E0B
0x548319
0x5484BC
0x5484BE
0x5484C2
0x548660
0x548662
0x548683
0x548C17
0x548D30
0x548D41
0x548D79
0x548E32
0x548EA0
0x548EA4
0x548FD0
0x548FD2
0x548FD6
0x549760
0x549764
0x5498E0
0x5498E4
0x549A80
0x549A83
0x549BB5
0x549C0F
0x549C20
0x549DC7
0x54A0C3
0x54A123
0x54A12D
0x54A1E3
0x54A21F
0x54A2F0
0x54A334
0x54A3CB
0x54A3E0
0x54A5B0
0x54A5B6
0x54C0C0
0x54C684
0x54C7C4
0x54C7E4
0x54C864
0x54CA40
0x54D073
0x54D4C0
0x54D5E0
0x54E19D
0x54E390
0x54E3A6
0x54E690
0x54E6B5
0x54E6B9
0x54E6BD
0x54E6CE
0x54E766
0x54E830
0x54E992
0x54EAB0
0x54F05D
0x54F860
0x54F86C
0x54F878
0x54FFCC
0x550023
0x5500EF
0x550353
0x5504D1
0x550530
0x550534
0x550537
0x55066B
0x5506C6
0x550706
0x550820
0x550870
0x550973
0x550A10
0x550B60
0x550B64
0x550D1D
0x550EC3
0x551100
0x55113C
0x551510
0x551704
0x551805
0x5518CD
0x551B96
0x551CA6
0x551D70
0x551E9C
0x551ED7
0x551F50
0x551FFD
0x552083
0x552485
0x5524D6
0x5525D4
0x5526B9
0x55288D
0x552A17
0x552AEA
0x552B70
0x553070
0x5540E0
0x554220
0x5542DC
0x5547CD
0x554A80
0x554BD0
0x554BDD
0x554CD0
0x5551E0
0x5559E0
0x555B50
0x556170
0x556208
0x55666B
0x5566E4
0x5568A0
0x556931
0x5569C4
0x556BA0
0x556BE0
0x556BE3
0x556DE2
0x556DE6
0x556F90
0x556F93
0x557166
0x5571A5
0x5571EB
0x557222
0x5574D0
0x557628
0x557632
0x557810
0x557998
0x557A35
0x557ADE
0x557C30
0x557D2C
0x558130
0x5581DC
0x5581F7
0x55824C
0x558451
0x558667
0x55869F
0x5586DB
0x558CA0
0x558D2C
0x559570
0x559654
0x5597A8
0x559820
0x559F63
0x55A320
0x55A490
0x55A841
0x55A8FC
0x55AC05
0x55B284
0x55B286
0x55B390
0x55B5C6
0x55B9DE
0x55BDE0
0x55BEA8
0x55BF1F
0x55BFF0
0x55BFF4
0x55BFF6
0x55C106
0x55C164
0x55C1AB
0x55C26F
0x55C309
0x55C330
0x55C564
0x55C5F6
0x55C654
0x55C7A0
0x55C7AF
0x55C8C8
0x55CA08
0x55CB5A
0x55CBEF
0x55CCCD
0x55CED9
0x55CEE1
0x55D147
0x55D1FC
0x55D581
0x55D5C1
0x55D601
0x55D675
0x55D712
0x55D8D0
0x55DD02
0x55DD8C
0x55DE7D
0x55DFC9
0x55E41F
0x55EA10
0x55EA43
0x55EA82
0x55EBA1
0x55EC67
0x55ED48
0x55EDE0
0x55F217
0x55F4B0
0x55F62C
0x55F740
0x5610B4
0x5610CA
0x561B70
0x561C20
0x561CE0
0x561D80
0x562020
0x562090
0x562093
0x5622C0
0x5622C3
0x562320
0x562323
0x562376
0x5623D0
0x5623D3
0x562426
0x562480
0x562483
0x5624E5
0x562620
0x5626A2
0x5627D0
0x5629C0
0x562A45
0x562B20
0x562D42
0x562D4A
0x562FD8
0x563038
0x563090
0x5630E8
0x563140
0x563198
0x5633D2
0x56359A
0x563620
0x563640
0x563650
0x5636A0
0x5636A6
0x563716
0x563773
0x563830
0x563849
0x563900
0x563910
0x563916
0x563954
0x563A16
0x563BC0
0x563BC4
0x563CE0
0x563D45
0x563F40
0x563F43
0x563F48
0x5641AA
0x5643B0
0x5643C0
0x5644AE
0x56469B
0x5646A2
0x5649E0
0x565010
0x565550
0x5655A0
0x5658E0
0x5658E2
0x565E26
0x565E35
0x565ED0
0x565EF7
0x565EFA
0x565FC0
0x566395
0x5663A5
0x566500
0x56650A
0x56674A
0x5667AF
0x566960
0x566A00
0x566A55
0x566A5B
0x566AF0
0x566B60
0x566B70
0x566C00
0x566CD2
0x566F30
0x566F50
0x566F93
0x567105
0x567289
0x56750C
0x56776D
0x567798
0x567806
0x56780E
0x5679E0
0x567D80
0x567D85
0x567DA0
0x567DC0
0x567DCB
0x567F60
0x567F69
0x567F6E
0x567F73
0x5681C4
0x568316
0x568750
0x568760
0x56878B
0x568881
0x568891
0x568921
0x568926
0x568930
0x568A51
0x568A60
0x568A80
0x568AF0
0x568B18
0x568B52
0x568CE0
0x568CE9
0x568E7C
0x568FF0
0x568FFE
0x569000
0x5690AC
0x569350
0x569352
0x56935C
0x56936B
0x569590
0x569594
0x5695F1
0x5695FB
0x569833
0x569920
0x569969
0x56996B
0x56996F
0x569976
0x569A40
0x569A44
0x569B54
0x569B56
0x569C20
0x569C23
0x569C88
0x569D58
0x569E50
0x56A53A
0x56A5C8
0x56A9B0
0x56A9E4
0x56ACAA
0x56AD12
0x56AD1D
0x56AD50
0x56AE89
0x56AF09
0x56AF89
0x56B00A
0x56B076
0x56B0DC
0x56B160
0x56B16C
0x56B1D0
0x56B1DC
0x56B240
0x56B24C
0x56B326
0x56B382
0x56B400
0x56BAA2
0x56BB72
0x56BC32
0x56BCF2
0x56BEF0
0x56C0B0
0x56C3A0
0x56C3A5
0x56C400
0x56C540
0x56C590
0x56C5C0
0x56C660
0x56C690
0x56C729
0x56CAD0
0x56CF50
0x56CF52
0x56CF58
0x56CF61
0x56D1EB
0x56D8C6
0x56DBA2
0x56DBF0
0x56DD33
0x56DE22
0x56DEC1
0x56DFF1
0x56E140
0x56E1A0
0x56E1AA
0x56E2D4
0x56E450
0x56E5CD
0x56E770
0x56E7E0
0x56E7F0
0x56E8E0
0x56E915
0x56E91F
0x56EA40
0x56EA46
0x56F0C4
0x56F3A3
0x56F570
0x56F620
0x56F622
0x56F900
0x56F940
0x56FA16
0x56FACD
0x56FB64
0x56FB75
0x56FBB0
0x56FBB9
0x56FBC0
0x570060
0x570062
0x570068
0x570460
0x5704D1
0x57050B
0x5705BD
0x570623
0x5706F0
0x570716
0x570777
0x570820
0x570822
0x570828
0x570830
0x570E07
0x5711E0
0x5711E4
0x5711E7
0x5712E8
0x571400
0x571596
0x571626
0x5716A0
0x5716F0
0x571740
0x5718C0
0x571B70
0x571B73
0x571CC0
0x571D00
0x571D30
0x571E1F
0x571EC1
0x571EC9
0x571F00
0x571F70
0x571F80
0x571FF4
0x571FF6
0x572290
0x57229D
0x57229F
0x572580
0x5725F0
0x5725F4
0x572625
0x572630
0x572850
0x572855
0x572966
0x572C76
0x572D72
0x573070
0x5730C0
0x5733E6
0x573470
0x57349A
0x5734A1
0x573560
0x573621
0x57363A
0x5736A1
0x5736BA
0x573950
0x573960
0x573967
0x573AD1
0x573CA0
0x573D50
0x573D5D
0x573EA0
0x573F14
0x573F1B
0x5740DC
0x574123
0x574240
0x574295
0x5744D6
0x5753C0
0x5753C2
0x5756B0
0x5756B2
0x57573E
0x575A25
0x575AA0
0x575AB4
0x57613C
0x57618A
0x576212
0x576360
0x5763B0
0x576420
0x576426
0x576C5A
0x576E30
0x5771A0
0x577277
0x5772E4
0x5774CB
0x577506
0x577520
0x577880
0x577920
0x577AB0
0x577ABF
0x578740
0x578780
0x578A74
0x579650
0x579652
0x5798B0
0x579D00
0x579DB5
0x57A232
0x57A280
0x57A2B0
0x57A2C6
0x57A3B0
0x57A3C8
0x57A596
0x57A63B
0x57A68D
0x57A796
0x57A800
0x57A802
0x57AA23
0x57ACA0
0x57ACA2
0x57AEED
0x57AF1B
0x57B3BE
0x57B3C9
0x57B40C
0x57B446
0x57B5C2
0x57B5FC
0x57B720
0x57BB6C
0x57BB90
0x57BCE0
0x57BCE2
0x57BE3A
0x57C070
0x57C079
0x57C477
0x57C74F
0x57C841
0x57C8B1
0x57CAB5
0x57CAC1
0x57CD57
0x57CDD4
0x57CDE0
0x57CF4E
0x57CF71
0x57CFCB
0x57D0E3
0x57D199
0x57D19D
0x57D1FE
0x57D291
0x57D3C2
0x57D3E5
0x57D43F
0x57D5AE
0x57D6AB
0x57D75F
0x57D7F7
0x57D8CF
0x57D8FB
0x57D964
0x57D968
0x57D9FC
0x57DABD
0x57DB30
0x57DD52
0x57DDAB
0x57DE06
0x57DE2B
0x57DEBE
0x57E005
0x57E45E
0x57E58D
0x57E5C8
0x57E7DD
0x57E85D
0x57E8A1
0x57EA65
0x57EB48
0x57EC60
0x57ED80
0x57ED82
0x57EEE0
0x57EFF2
0x57EFF3
0x57EFFF
0x57F160
0x57F171
0x57F3E8
0x57F49F
0x57F4CA
0x57F5C0
0x57F5C2
0x57F5C8
0x57F896
0x57F8C0
0x57F8F0
0x57F8F5
0x57F8F9
0x57F9B0
0x57F9B4
0x57FAE0
0x57FC4A
0x57FCA0
0x57FCA8
0x57FEF0
0x57FFCF
0x5800BF
0x580130
0x580135
0x5802C4
0x580324
0x580470
0x580899
0x580970
0x580971
0x580A05
0x580A54
0x580AA0
0x580F1B
0x580F1D
0x580F3A
0x581380
0x581550
0x581A15
0x581A1A
0x58356F
0x58364D
0x5837E3
0x583F99
0x5843B8
0x584463
0x5844E4
0x5844F0
0x58472D
0x5847A0
0x584E1F
0x584E61
0x584FD7
0x585210
0x5852D0
0x585790
0x58579F
0x5862FD
0x5867E2
0x5867F0
0x5867F9
0x5868A0
0x586A50
0x586CE2
0x586D86
0x586F40
0x587570
0x587586
0x587634
0x5876D0
0x5876D9
0x5876ED
0x587807
0x5878C8
0x5878D4
0x587AB7
0x587BF7
0x587C00
0x587EC0
0x587EC4
0x58857B
0x5886A0
0x5886B8
0x588736
0x588777
0x5889C0
0x5889D6
0x588C83
0x588E09
0x588F84
0x588F8F
0x5890FD
0x5891F0
0x5891F7
0x589203
0x589363
0x589A9A
0x589B20
0x589B29
0x589B2E
0x589DB0
0x589DBF
0x589E90
0x589E96
0x589FB0
0x58A11B
0x58A19A
0x58A456
0x58A490
0x58A49E
0x58A998
0x58AB14
0x58AB7E
0x58AEB0
0x58B430
0x58B436
0x58C1D0
0x58CEDF
0x58D393
0x58D56A
0x58E2FE
0x58E5EF
0x58F190
0x590410
0x59041E
0x590740
0x590798
0x5907A2
0x590892
0x590AE0
0x590AEF
0x590BC2
0x590BCD
0x590FC1
0x591020
0x5910B9
0x5910C0
0x5910CE
0x591480
0x591632
0x5918A0
0x5919E0
0x591B44
0x591BE5
0x591BF2
0x591EE0
0x591F10
0x591FDE
0x5920A0
0x5922C0
0x5922CB
0x592C00
0x592C68
0x5930B0
0x593118
0x593660
0x593997
0x593AE0
0x593C3C
0x593C7C
0x593D02
0x593D48
0x593DA9
0x593E19
0x593FD0
0x594012
0x5940B0
0x594195
0x5943F9
0x594450
0x5946B0
0x5947E3
0x594A50
0x594AB0
0x594AB8
0x594DB0
0x5953D0
0x5953D6
0x595820
0x595824
0x595830
0x59584B
0x595F46
0x595FB4
0x595FC9
0x5963D4
0x596690
0x5968A8
0x596A37
0x596AF3
0x596DD9
0x596DF2
0x596F20
0x596FFE
0x597074
0x5971CD
0x5971D3
0x597342
0x597750
0x5977B2
0x5977D1
0x597895
0x597930
0x59799F
0x5979BE
0x597A95
0x597BD0
0x597BDF
0x597C6D
0x597DCC
0x597E09
0x597EBA
0x5981B0
0x5988FB
0x598960
0x598A09
0x598B67
0x598C07
0x598C68
0x598C9F
0x599180
0x5991DA
0x5992D8
0x5992E2
0x59939B
0x5993A9
0x599610
0x599612
0x599740
0x5998D0
0x599A88
0x599CB2
0x599D20
0x59A072
0x59A120
0x59A4B5
0x59A9F0
0x59AC23
0x59AC90
0x59AD10
0x59AD4C
0x59AE7A
0x59AEEF
0x59AF07
0x59B022
0x59B100
0x59B1FE
0x59B230
0x59B2A0
0x59B4B5
0x59B680
0x59B684
0x59B747
0x59B868
0x59B8A8
0x59C550
0x59C610
0x59C6D0
0x59C7F1
0x59CA8F
0x59CDB2
0x59CFD0
0x59D229
0x59E500
0x59EAF2
0x59EB70
0x59EB8A
0x59EBC8
0x59ECC0
0x59ED70
0x59ED90
0x59EDA9
0x59F470
0x59F47E
0x59F480
0x59F6A3
0x59F882
0x59FAD0
0x59FADB
0x59FADF
0x5A0AFF
0x5A0F35
0x5A1030
0x5A1221
0x5A1400
0x5A1701
0x5A1791
0x5A17F8
0x5A1810
0x5A1830
0x5A1950
0x5A1CC0
0x5A1CD2
0x5A222C
0x5A223E
0x5A2350
0x5A24C0
0x5A24F9
0x5A2870
0x5A2A80
0x5A2A95
0x5A2F70
0x5A4627
0x5A46C1
0x5A4750
0x5A4A92
0x5A4A93
0x5A4AE0
0x5A4AE2
0x5A4F1A
0x5A642B
0x5AA2F0
0x5AC8A2
0x5AE550
0x5AECEC
0x5AEE28
0x5B0FAA
0x5B1599
0x5B18DC
0x5B1AF0
0x5B1AFD
0x5B26C0
0x5B26D7
0x5B2C6D
0x5B35FE
0x5B36B3
0x5B3831
0x5B38B7
0x5B3990
0x5B3A30
0x5B3BB9
0x5B3F2E
0x5B4090
0x5B40E0
0x5B4130
0x5B41D4
0x5B4447
0x5B4646
0x5B4766
0x5B4963
0x5B4982
0x5B499A
0x5B4B27
0x5B4B2E
0x5B4B30
0x5B4C80
0x5B4C86
0x5B4C92
0x5B4D88
0x5B4ED0
0x5B4ED4
0x5B4ED7
0x5B5D67
0x5B6485
0x5B6488
0x5B6500
0x5B6519
0x5B6780
0x5B68C2
0x5B6B0F
0x5B6C4C
0x5B7240
0x5B72F0
0x5B77E1
0x5B7876
0x5B79A0
0x5B79AA
0x5B8410
0x5B8426
0x5B8A80
0x5B8D50
0x5B9311
0x5B9B10
0x5B9CC0
0x5B9D5B
0x5B9F30
0x5B9F39
0x5BBF70
0x5BBF79
0x5BD100
0x5BD11B
0x5BD1B0
0x5BD1BE
0x5BD430
0x5BD711
0x5BD7A0
0x5BD7A2
0x5BD7AC
0x5BD830
0x5BD83A
0x5BDA5B
0x5BDAC9
0x5BDB13
0x5BDB5D
0x5BE8D0
0x5BEBAA
0x5BEBCE
0x5BEC60
0x5BEED7
0x5BEEE0
0x5BF194
0x5BF848
0x5BF92F
0x5BFB74
0x5C10CD
0x5C115F
0x5C17A3
0x5C1828
0x5C19FD
0x5C1A82
0x5C1ACF
0x5C1B8F
0x5C1C93
0x5C1D93
0x5C1E2D
0x5C1EB4
0x5C1F00
0x5C1F87
0x5C20B0
0x5C20B4
0x5C2310
0x5C2318
0x5C231A
0x5C2460
0x5C2464
0x5C2467
0x5C246A
0x5C24A0
0x5C24C0
0x5C24C4
0x5C24C7
0x5C2550
0x5C2560
0x5C256E
0x5C2581
0x5C2610
0x5C263D
0x5C26B0
0x5C26C0
0x5C2729
0x5C2769
0x5C27F0
0x5C29A0
0x5C2AD1
0x5C2B50
0x5C2BF7
0x5C2C90
0x5C2C93
0x5C2D00
0x5C2D04
0x5C327B
0x5C32D7
0x5C3390
0x5C3393
0x5C33AC
0x5C33B4
0x5C33E2
0x5C345D
0x5C3554
0x5C3631
0x5C36B0
0x5C38A0
0x5C42C0
0x5C4370
0x5C439B
0x5C4660
0x5C4DA1
0x5C4DC0
0x5C4DC2
0x5C4F56
0x5C4FD6
0x5C5058
0x5C5090
0x5C5125
0x5C52E0
0x5C57CB
0x5C58FE
0x5C5BE8
0x5C5E50
0x5C6140
0x5C61E0
0x5C6270
0x5C6279
0x5C6480
0x5C6740
0x5C6BA0
0x5C7511
0x5C84E6
0x5C8773
0x5C8855
0x5C8880
0x5C8940
0x5C8980
0x5C8AB0
0x5C8BA0
0x5C8C21
0x5C8C2C
0x5C8CA0
0x5C8D37
0x5C8D3C
0x5C8EBD
0x5C8F30
0x5C8F90
0x5C8FD0
0x5C8FD3
0x5C9050
0x5C9052
0x5C9170
0x5C91A0
0x5C91A3
0x5C9550
0x5C95B4
0x5C9640
0x5C9700
0x5C9770
0x5C97A0
0x5C97A4
0x5C9C6A
0x5C9C70
0x5C9C77
0x5C9CD7
0x5C9D10
0x5C9D18
0x5C9FE0
0x5C9FE5
0x5CA057
0x5CA0F6
0x5CA1C0
0x5CA220
0x5CA470
0x5CA55A
0x5CA600
0x5CA609
0x5CA61C
0x5CAE30
0x5CB080
0x5CB270
0x5CB32E
0x5CB450
0x5CB4FF
0x5CB720
0x5CBC20
0x5CC0E8
0x5CC1D0
0x5CC270
0x5CC290
0x5CC312
0x5CC340
0x5CC344
0x5CC346
0x5CC458
0x5CC487
0x5CC6F0
0x5CC94B
0x5CC960
0x5CC9F0
0x5CC9F9
0x5CCCA4
0x5CCD64
0x5CCDE0
0x5CCDE3
0x5CCE90
0x5CCF20
0x5CCFB0
0x5CCFC8
0x5CD0E0
0x5CD0F8
0x5CD250
0x5CD286
0x5CD2CC
0x5CD382
0x5CD450
0x5CD45E
0x5CD460
0x5CD590
0x5CD74C
0x5CD819
0x5CD82C
0x5CDA09
0x5CDA10
0x5CDA19
0x5CDB90
0x5CDC30
0x5CDD07
0x5CDD0A
0x5CDDE0
0x5CDE7A
0x5CDF80
0x5CE0D0
0x5CE140
0x5CE242
0x5CE4B0
0x5CE670
0x5CE678
0x5CEA9A
0x5CECD0
0x5CECE6
0x5CEED0
0x5CEED9
0x5CEEDF
0x5CF21F
0x5CF500
0x5CFA1D
0x5CFB77
0x5CFBB4
0x5CFC90
0x5D0690
0x5D0DD2
0x5D0DDD
0x5D0E31
0x5D19E0
0x5D1FFE
0x5D246D
0x5D2897
0x5D2C10
0x5D2C97
0x5D2CB7
0x5D3097
0x5D30B6
0x5D3167
0x5D31E2
0x5D33C2
0x5D3402
0x5D3530
0x5D3700
0x5D3728
0x5D3780
0x5D37D1
0x5D3831
0x5D3900
0x5D39E2
0x5D3A75
0x5D3A91
0x5D3ABB
0x5D3AD5
0x5D3AF1
0x5D3B1B
0x5D3D1B
0x5D3D80
0x5D3DB0
0x5D3E07
0x5D3E10
0x5D3EE5
0x5D3EE9
0x5D4372
0x5D4610
0x5D47F0
0x5D4980
0x5D4E04
0x5D5350
0x5D54C0
0x5D5BA2
0x5D5D30
0x5D5D44
0x5D629D
0x5D62B0
0x5D6360
0x5D6398
0x5D639C
0x5D70B0
0x5D7120
0x5D7270
0x5D7334
0x5D78C0
0x5D78CF
0x5D79B0
0x5D79B4
0x5D7BC7
0x5D7DA2
0x5D7E40
0x5D7E4B
0x5D7FC0
0x5D7FC2
0x5D7FC6
0x5D82C0
0x5D82F0
0x5D85C0
0x5D85DC
0x5D87D6
0x5D8866
0x5D88F0
0x5D8990
0x5D8A9F
0x5D8ED0
0x5D8F10
0x5D8FC0
0x5D9070
0x5D90A0
0x5D9280
0x5D9429
0x5D9435
0x5D943C
0x5D9570
0x5D959D
0x5D96A1
0x5D96E9
0x5D9767
0x5D97A0
0x5D9810
0x5D9840
0x5D9870
0x5D98B0
0x5D9911
0x5D9950
0x5D9981
0x5D99C0
0x5D9A00
0x5D9A3B
0x5D9B00
0x5D9B05
0x5D9B94
0x5D9C44
0x5D9CE5
0x5D9ED8
0x5D9F70
0x5D9F73
0x5DA2E7
0x5DA300
0x5DA308
0x5DA327
0x5DA38C
0x5DA410
0x5DA788
0x5DA792
0x5DAA26
0x5DABC0
0x5DABE0
0x5DB300
0x5DB374
0x5DB39D
0x5DB680
0x5DB684
0x5DB687
0x5DB6A2
0x5DBB00
0x5DBB80
0x5DBC9D
0x5DBE18
0x5DBE8C
0x5DC048
0x5DC160
0x5DC200
0x5DC250
0x5DC310
0x5DC320
0x5DC370
0x5DC379
0x5DCDE9
0x5DCF30
0x5DCFC0
0x5DCFC2
0x5DD1F9
0x5DD3C5
0x5DD450
0x5DD455
0x5DD5C0
0x5DD5C7
0x5DD5D0
0x5DDB78
0x5DE12E
0x5DE23C
0x5DE32E
0x5DE360
0x5DE3F0
0x5DE3F5
0x5DE5F3
0x5DE643
0x5DE6A0
0x5DE810
0x5DE8B4
0x5DEA30
0x5DEA34
0x5DF5C9
0x5DF5E3
0x5DF5E9
0x5DF6E0
0x5DF7E0
0x5DFB63
0x5DFE98
0x5E0291
0x5E029B
0x5E02C1
0x5E02CB
0x5E03A0
0x5E03B0
0x5E051A
0x5E06B0
0x5E0742
0x5E0744
0x5E0762
0x5E0C60
0x5E0D90
0x5E0F3D
0x5E0FD7
0x5E1578
0x5E15B0
0x5E15B6
0x5E1C01
0x5E1CD7
0x5E1D50
0x5E1D59
0x5E1D60
0x5E1F80
0x5E2AAF
0x5E38B0
0x5E38E8
0x5E3940
0x5E3ABF
0x5E3ACB
0x5E48C0
0x5E4929
0x5E4D00
0x5E4D18
0x5E4DE5
0x5E5A20
0x5E5D30
0x5E5D39
0x5E5E42
0x5E64C8
0x5E694B
0x5E69A0
0x5E6A80
0x5E6BF4
0x5E6D04
0x5E6E70
0x5E6E7B
0x5E7004
0x5E70B4
0x5E7156
0x5E71C6
0x5E7230
0x5E7380
0x5E7580
0x5E7630
0x5E7669
0x5E76A0
0x5E77D0
0x5E7A70
0x5E7A78
0x5E7EFE
0x5E8130
0x5E81B8
0x5E8237
0x5E82DA
0x5E8337
0x5E845F
0x5E8490
0x5E8495
0x5E85C0
0x5E8685
0x5E86A0
0x5E86D0
0x5E8B30
0x5E8B3A
0x5E8F31
0x5E9107
0x5E910C
0x5E9290
0x5E92B0
0x5E92B8
0x5E92BA
0x5E9960
0x5E9A50
0x5E9CD0
0x5EADFF
0x5EB1DD
0x5EC04A
0x5EC9A0
0x5ECF1C
0x5ECF70
0x5ED1E0
0x5ED43C
0x5ED6E0
0x5ED713
0x5EDE47
0x5EDEB0
0x5EE4C0
0x5EE4C2
0x5EED30
0x5EF1F0
0x5EF9C0
0x5EF9C2
0x5EF9C8
0x5EFDD0
0x5EFDD4
0x5F01C5
0x5F0546
0x5F0660
0x5F066C
0x5F07DB
0x5F0BC0
0x5F0BC2
0x5F0BC8
0x5F0E80
0x5F1130
0x5F14C0
0x5F16C7
0x5F1703
0x5F1932
0x5F1980
0x5F1B89
0x5F1B8F
0x5F1ED3
0x5F275D
0x5F278A
0x5F2810
0x5F2826
0x5F2855
0x5F2858
0x5F28C3
0x5F2920
0x5F2924
0x5F2A4D
0x5F2D51
0x5F2EF1
0x5F30E0
0x5F30E4
0x5F318C
0x5F31F0
0x5F31F4
0x5F3446
0x5F3510
0x5F3C29
0x5F3C90
0x5F3CA3
0x5F3FD0
0x5F4140
0x5F414A
0x5F41D0
0x5F41DA
0x5F4240
0x5F424A
0x5F42C9
0x5F4319
0x5F4362
0x5F4409
0x5F4449
0x5F4489
0x5F44C0
0x5F44CA
0x5F4549
0x5F4590
0x5F459A
0x5F4670
0x5F467A
0x5F46F9
0x5F4739
0x5F4810
0x5F481A
0x5F4899
0x5F48D9
0x5F4910
0x5F491A
0x5F49E9
0x5F4A10
0x5F4A1A
0x5F4B19
0x5F4B69
0x5F4BA9
0x5F4C29
0x5F4C76
0x5F4CE0
0x5F4CEA
0x5F4D69
0x5F4DD0
0x5F4DDA
0x5F4E59
0x5F4E99
0x5F4F19
0x5F4F59
0x5F4FC0
0x5F4FCA
0x5F5040
0x5F504A
0x5F50C0
0x5F50CA
0x5F5149
0x5F51D0
0x5F51DA
0x5F5259
0x5F52B9
0x5F52F9
0x5F5339
0x5F5379
0x5F53B9
0x5F5419
0x5F5459
0x5F548D
0x5F54A3
0x5F58EA
0x5F595D
0x5F5B09
0x5F5B38
0x5F5C19
0x5F5CF9
0x5F5F70
0x5F5F7E
0x5F62D0
0x5F6410
0x5F6720
0x5F691A
0x5F6A10
0x5F6A60
0x5F6A63
0x5F6AC6
0x5F6B16
0x5F6B60
0x5F6B63
0x5F6BC8
0x5F6CA0
0x5F6CAB
0x5F6CB3
0x5F6CBA
0x5F6E08
0x5F6E68
0x5F6EB8
0x5F6F08
0x5F7010
0x5F7080
0x5F70D6
0x5F7120
0x5F71F0
0x5F7230
0x5F7270
0x5F72C0
0x5F7370
0x5F73B0
0x5F73B3
0x5F7416
0x5F74A0
0x5F74D6
0x5F7526
0x5F7570
0x5F883D
0x5F8990
0x5F8AC0
0x5F8BA0
0x5F8C00
0x5F8CE6
0x5F8D36
0x5F8D80
0x5F8DD0
0x5F8E30
0x5F8E86
0x5F8EF0
0x5F8F36
0x5F8F96
0x5F8FE0
0x5F9003
0x5F9040
0x5F90A0
0x5F90F0
0x5F9176
0x5F91B6
0x5F9316
0x5F9360
0x5F9446
0x5F9490
0x5F94F0
0x5F94F3
0x5F99D6
0x5F9A20
0x5F9AD0
0x5F9C00
0x5F9D10
0x5F9D70
0x5F9D73
0x5F9F20
0x5F9F60
0x5FA020
0x5FA023
0x5FA0D0
0x5FA0D3
0x5FA216
0x5FA256
0x5FA2A6
0x5FA2F6
0x5FA3C0
0x5FA3F0
0x5FA7A0
0x5FA9C0
0x5FA9F0
0x5FAAA0
0x5FAC50
0x5FAD16
0x5FAD60
0x5FADA6
0x5FADF0
0x5FAFD0
0x5FB0A0
0x5FB150
0x5FB338
0x5FB628
0x5FB688
0x5FB750
0x5FB7A8
0x5FBAD2
0x5FC5B2
0x5FC76B
0x5FCFA8
0x5FCFF8
0x5FD140
0x5FD1F0
0x5FD248
0x5FD408
0x5FD450
0x5FD598
0x5FD6D8
0x5FD788
0x5FDC98
0x5FE048
0x5FE280
0x5FE2F8
0x5FE3A8
0x5FE500
0x5FE540
0x5FE590
0x5FE5F0
0x5FEFD2
0x5FF048
0x5FF0D8
0x5FF563
0x5FF650
0x5FF655
0x5FF715
0x5FF7D9
0x5FF7E6
0x5FF996
0x5FFA08
0x5FFAD7
0x5FFADA
0x5FFCD0
0x5FFCD4
0x5FFCD6
0x5FFF70
0x5FFF76
0x5FFFDC
0x6000B2
0x60035C
0x6003B2
0x6003F4
0x600453
0x6004F3
0x600680
0x600682
0x600686
0x600B30
0x600B32
0x6011B8
0x601207
0x6012E0
0x6012EE
0x601454
0x601456
0x601890
0x601C0B
0x601CB1
0x601CF8
0x601E50
0x601E54
0x6023E6
0x602670
0x60267D
0x602A37
0x602AE0
0x602AF0
0x602CC0
0x602DB2
0x602F93
0x602FF0
0x6030AD
0x603442
0x603444
0x603874
0x6038AE
0x603987
0x603AB2
0x603C20
0x603CF0
0x603D30
0x603E10
0x603E12
0x603E16
0x604780
0x605360
0x605364
0x605367
0x605451
0x605553
0x605554
0x6057A0
0x6057B8
0x605A60
0x605A62
0x605A70
0x606700
0x606704
0x606860
0x6078B8
0x60811B
0x608378
0x608648
0x608F84
0x608FF0
0x609054
0x6090C0
0x609150
0x609347
0x609370
0x609380
0x609382
0x609411
0x609440
0x609447
0x60944F
0x6094D8
0x609600
0x609610
0x609620
0x6096E0
0x6097B0
0x609810
0x609817
0x6099F0
0x609A04
0x609B10
0x609B19
0x609D10
0x609D41
0x609DB0
0x609E63
0x609F00
0x60A500
0x60A510
0x60AC82
0x60AF14
0x60AFB0
0x60B090
0x60B186
0x60B3E0
0x60B876
0x60B980
0x60B984
0x60BA04
0x60BCE0
0x60BCE4
0x60BDC6
0x60BDCA
0x60BEC7
0x60C022
0x60C02A
0x60C1A1
0x60C1A7
0x60C387
0x60C3E1
0x60C470
0x60C5A7
0x60C600
0x60C900
0x60CA20
0x60CA38
0x60CE60
0x60CE62
0x60CE64
0x60CE81
0x60CF50
0x60CF52
0x60CF59
0x60CF69
0x60D020
0x60D07B
0x60D0E2
0x60D0F1
0x60D580
0x60D597
0x60D59B
0x60DB36
0x60DBBF
0x60DC30
0x60DC4F
0x60DCB0
0x60DDD8
0x60DE50
0x60DE57
0x60E211
0x60E30C
0x60E362
0x60E416
0x60E47F
0x60E4FC
0x60E5B0
0x60E68C
0x60E6D3
0x60E6DE
0x60E740
0x60E7B0
0x60EA50
0x60EA66
0x60EB30
0x60EB50
0x60EBEF
0x60F280
0x60F3ED
0x60F3EF
0x60F520
0x60F522
0x60F5F8
0x60F662
0x60F670
0x60F8D3
0x60FAD0
0x60FDF0
0x60FDF2
0x60FE9B
0x6100A8
0x610430
0x6104ED
0x610640
0x61064C
0x610750
0x61075C
0x610845
0x610880
0x610926
0x610AC4
0x610CB2
0x610D52
0x610D57
0x610E43
0x610E59
0x610EE8
0x611030
0x611080
0x6111F9
0x611380
0x611389
0x611A00
0x611B04
0x612057
0x612098
0x6120D3
0x612151
0x612158
0x6121A0
0x6121CA
0x6122F0
0x6122F9
0x613130
0x613218
0x6132B0
0x6133F0
0x6133F9
0x613401
0x613660
0x613662
0x61369C
0x6136DC
0x613801
0x613840
0x613A40
0x6143D0
0x6144F0
0x6145A9
0x614640
0x614720
0x614830
0x614834
0x61494C
0x614978
0x614AC4
0x61540E
0x615BB0
0x6161EE
0x616280
0x6165C0
0x6165C2
0x616AE5
0x6173C0
0x617A70
0x617BD3
0x617BF0
0x617FEB
0x617FFC
0x618217
0x618222
0x618226
0x6185E7
0x618730
0x618739
0x6187A9
0x618AC1
0x618AC7
0x618C90
0x618D90
0x618E61
0x618ED0
0x618F30
0x619290
0x619800
0x61980F
0x619878
0x619CFA
0x619E63
0x61A2C0
0x61A5D0
0x61A724
0x61A9F6
0x61B1B0
0x61B460
0x61B682
0x61BF30
0x61C0B0
0x61C2CA
0x61C4DC
0x61C88A
0x61C8A0
0x61C8B8
0x61C940
0x61C970
0x61CCD0
0x61CDA0
0x61CDA4
0x61E7AA
0x61EFB0
0x61F120
0x61F124
0x61F282
0x61F62B
0x61FA47
0x61FF02
0x61FF04
0x620178
0x620443
0x620890
0x620A59
0x620B00
0x620BA4
0x620C10
0x620C18
0x620E7C
0x620FDA
0x621070
0x621072
0x62107B
0x62107D
0x6210D3
0x621168
0x6211FF
0x62138A
0x62138F
0x6214F0
0x621640
0x62164E
0x621904
0x621A82
0x621A86
0x621DD6
0x621E58
0x622057
0x622130
0x622605
0x622634
0x622705
0x622A46
0x622A48
0x622EB0
0x622EB6
0x623265
0x62329C
0x62337F
0x6234B0
0x6236E1
0x62375C
0x6238AA
0x623AA4
0x623C4E
0x623CC4
0x623CF0
0x623E3B
0x623E8F
0x623ECC
0x624114
0x6242E4
0x624493
0x624497
0x624520
0x624522
0x624526
0x6248A0
0x6248A7
0x6248AB
0x6249D7
0x624AF0
0x624AF4
0x624D20
0x624D22
0x624D28
0x6259F2
0x625E82
0x6261BD
0x6261C6
0x626210
0x6262D3
0x6263DA
0x6264BC
0x6264FA
0x62656C
0x6265B4
0x6266E0
0x626774
0x6267D0
0x6267D2
0x6267DE
0x626AF0
0x626BB9
0x626C46
0x626CE0
0x626CE6
0x6273CB
0x6274B2
0x627610
0x627671
0x627D1B
0x62810B
0x6281D3
0x628390
0x628790
0x628BB8
0x628D99
0x628EA8
0x629580
0x6296A6
0x6297EC
0x6298EF
0x629919
0x629E26
0x629F92
0x62A0E5
0x62A1D2
0x62A1E2
0x62A4A0
0x62A4F0
0x62A522
0x62A9C7
0x62AB79
0x62ACB0
0x62ACB3
0x62B292
0x62B3A0
0x62B408
0x62B60E
0x62B790
0x62B7F0
0x62B7F2
0x62BC30
0x62BFA0
0x62BFF0
0x62C0B0
0x62C16F
0x62C7D0
0x62D100
0x62D109
0x62D10E
0x62D4E0
0x62D950
0x62D95F
0x62DAB9
0x62DB30
0x62DB36
0x62DDF0
0x62DE80
0x62E255
0x62E6C8
0x62E878
0x62E9E4
0x62EAA0
0x62EB00
0x62EB40
0x62EB42
0x62EB46
0x62EBB5
0x62ECC0
0x62ECD3
0x62EF33
0x62F0D0
0x62F3A0
0x62F75A
0x62F7F9
0x62F854
0x62F870
0x62FAD4
0x62FAE2
0x62FF18
0x62FF60
0x630330
0x630333
0x630338
0x630476
0x630848
0x630AE0
0x632C50
0x632C5F
0x632C68
0x632CDA
0x632CE1
0x632D40
0x632E56
0x632F80
0x633100
0x63310F
0x6332A0
0x6332AF
0x633739
0x633790
0x6337A3
0x633804
0x633860
0x6338C2
0x6338E3
0x633960
0x6339C9
0x633A48
0x633AD2
0x633B80
0x633CA6
0x633D90
0x633DFB
0x634020
0x634170
0x6341D6
0x6341F7
0x634292
0x634330
0x6343F1
0x634576
0x6345B0
0x634600
0x634609
0x634F50
0x634F60
0x635050
0x6350C0
0x635272
0x635277
0x635392
0x635399
0x6353D0
0x635490
0x635503
0x6355F0
0x635607
0x63585E
0x635A62
0x635AF6
0x635B80
0x635BD1
0x635E11
0x635E55
0x635F05
0x635F37
0x635F50
0x635F69
0x636310
0x636990
0x636E23
0x636E2D
0x6371C3
0x63764B
0x637676
0x637710
0x637BAD
0x637BB1
0x637BEC
0x637F1C
0x6381D2
0x638298
0x6382A5
0x6383D5
0x63847E
0x638556
0x63859B
0x6387B6
0x6387D4
0x6387EF
0x638809
0x638904
0x638B50
0x638B5A
0x6392DF
0x6392E9
0x639870
0x639D17
0x639D6A
0x639D90
0x639F1C
0x63A030
0x63A1E0
0x63A1F0
0x63A270
0x63A289
0x63A510
0x63A550
0x63A598
0x63A62A
0x63A6F0
0x63A6F2
0x63A6FE
0x63ABD0
0x63ABD2
0x63AE70
0x63AF88
0x63B0B0
0x63B0B1
0x63B140
0x63B260
0x63B410
0x63B411
0x63B710
0x63B711
0x63B7C0
0x63B7C1
0x63B880
0x63B881
0x63B920
0x63B921
0x63B990
0x63B991
0x63BAB0
0x63BAB1
0x63CCB0
0x63CCB1
0x63CF30
0x63D4E0
0x63DD10
0x63DD11
0x63E628
0x63F060
0x63F061
0x63F228
0x63F6A8
0x63F835
0x63FA78
0x640080
0x640081
0x640128
0x6402B0
0x6402B1
0x64048D
0x640727
0x640E30
0x640E31
0x641380
0x641381
0x641410
0x641411
0x641528
0x641B78
0x641D28
0x641E40
0x642578
0x642978
0x643450
0x6440D0
0x6440D1
0x6446C8
0x6446EA
0x6449C0
0x6449C1
0x646560
0x646561
0x646A70
0x646A71
0x647490
0x647491
0x647B20
0x647B23
0x647B24
0x647D28
0x648078
0x648340
0x648343
0x648344
0x648428
0x648605
0x648678
0x648A58
0x648B80
0x648B81
0x649200
0x649201
0x64B7F8
0x64BB0E
0x64C8A8
0x64C9E5
0x64CDF8
0x64E0F8
0x64F312
0x64FAA8
0x651B11
0x652561
0x6528F8
0x652FA8
0x6531A8
0x65563E
0x659575
0x65A9B7
0x65B105
0x65E4A8
0x6604F8
0x660BD8
0x660FE6
0x661183
0x661C00
0x661FF1
0x66233B
0x6624A8
0x664BC2
0x6652A8
0x665BA8
0x6660F8
0x668E8B
0x66B986
0x66C1D3
0x66E670
0x6716DC
0x671D50
0x671DB9
0x6723A8
0x674EB5
0x6756CC
0x679A57
0x67C331
0x67D007
0x67D948
0x67F523
0x681EB7
0x683965
0x68413C
0x684BEB
0x684EF8
0x6851C1
0x686945
0x68849E
0x689A0F
0x68B0B1
0x68C252
0x68C4EB
0x68D174
0x68DD52
0x68E21D
0x68E81E
0x68E911
0x68EEE7
0x68F08E
0x68F0D5
0x68F1A1
0x690B8E
0x691068
0x6925A0
0x694478
0x694787
0x6961A2
0x696C05
0x69938F
0x699C6F
0x69C126
0x69C516
0x69DABB
0x69DC0A
0x69FFB0
0x6A16F8
0x6A1C00
0x6A2820
0x6A2B08
0x6A4DA8
0x6A58CC
0x6A7EF8
0x6A9028
0x6A926C
0x6AB0A8
0x6AD9A8
0x6ADB61
0x6ADB6E
0x6ADB89
0x6ADBAD
0x6ADBC5
0x6ADBEE
0x6ADC12
0x6ADC2F
0x6ADC3C
0x6ADC56
0x6AE7F8
0x6AEAA8
0x6B132E
0x6B28BA
0x6B57E2
0x6B5EA8
0x6B6780
0x6B75EF
0x6B77F1
0x6B79BC
0x6B9A0F
0x6BA403
0x6BA470
0x6BB22A
0x6BB3F0
0x6BDDA9
0x6C1084
0x6C1309
0x6C270A
0x6C37A8
0x6C4684
0x6C54DF
0x6C5A6F
0x6C72B0
0x6C7F8A
0x6C90EB
0x6CA330
0x6CACF2
0x6CB514
0x6CC3F8
0x6CC7AD
0x6CD174
0x6D1A00
0x6D2B28
0x6D4BA8
0x6D4DF0
0x6D5CEC
0x6D7704
0x6D7B3E
0x6D888D
0x6D9490
0x6D9E70
0x6DBCD0
0x6DC553
0x6DD5A8
0x6E11C9
0x6E2997
0x6E2A0A
0x6E33F0
0x6E364D
0x6E4244
0x6E47A4
0x6E49B0
0x6E7300
0x6E76F0
0x6E79E1
0x6E7CD5
0x6E8017
0x6E84C0
0x6E8DF8
0x6E9450
0x6E9650
0x6E9DF1
0x6EAF17
0x6EC02E
0x6EE0B7
0x6EE1AF
0x6EE6D1
0x6EF320
0x6EF593
0x6EFDCE
0x6F0CA0
0x6F1428
0x6F1503
0x6F3A7A
0x6F3ABC
0x6F400E
0x6F43CD
0x6F49A8
0x6F4E43
0x6F537C
0x6F56EC
0x6F694F
0x6F70BB
0x6F7E6A
0x6F807B
0x6F82D3
0x6F9789
0x6F9F7C
0x6FD6EC
0x6FDEEA
0x6FE159
0x6FF522
0x6FFF27
0x70005B
0x7007F8
0x700C0A
0x701C96
0x703428
0x7035AF
0x706660
0x70701A
0x708856
0x708858
0x70885C
0x708A30
0x708BC5
0x708C2A
0x708C65
0x708CD9
0x708DC9
0x708EEC
0x70AEF0
0x70AEF7
0x70B0CA
0x70B0E0
0x70B190
0x70B1B0
0x70B253
0x70B300
0x70B3D0
0x70B470
0x70B4C0
0x70B5C7
0x70B606
0x70B6E0
0x70B710
0x70B750
0x70B780
0x70B7B0
0x70B7E0
0x70B830
0x70B9F9
0x70BBCD
0x70BC70
0x70BC7F
0x70BC90
0x70BD54
0x70BDE4
0x70BFA0
0x70BFF0
0x70C04D
0x70C10D
0x70C1CD
0x70C292
0x70C4A9
0x70C5D0
0x70C610
0x70C650
0x70C690
0x70C692
0x70C740
0x70C742
0x70C7F0
0x70C7F2
0x70C989
0x70CA4D
0x70CAED
0x70CB83
0x70CBB0
0x70CBE3
0x70CC27
0x70CC80
0x70CCF0
0x70CD63
0x70CEB2
0x70CEB5
0x70D1E2
0x70D2D2
0x70D2DA
0x70D2E3
0x70D3B2
0x70D3B8
0x70D460
0x70D4A0
0x70D4E0
0x70D510
0x70D560
0x70D569
0x70D56F
0x70D6A0
0x70D6A9
0x70D6AF
0x70D982
0x70DA06
0x70DCF9
0x70DFE0
0x70E020
0x70E060
0x70E374
0x70E40D
0x70E4C0
0x70E4CF
0x70E4E0
0x70E5C4
0x70E664
0x70E904
0x70E99D
0x70EA50
0x70EA5F
0x70EA70
0x70EB54
0x70EBF4
0x70EE94
0x70EFB4
0x70F040
0x70F0A0
0x70F0F0
0x70F120
0x70F150
0x70F180
0x70F1B0
0x70F1ED
0x70F298
0x70F2A6
0x70F3A6
0x70F650
0x70F6B7
0x70F6EC
0x70F700
0x70F740
0x70F780
0x70F7C0
0x70F800
0x70F840
0x70F896
0x70F9F6
0x70FB40
0x70FBC0
0x70FBF0
0x70FC40
0x70FC90
0x70FD30
0x70FD60
0x70FD90
0x70FDC0
0x70FDF0
0x70FE20
0x70FE50
0x70FE80
0x70FEB0
0x70FEE0
0x70FF10
0x70FF60
0x70FFB0
0x710000
0x710046
0x7100A6
0x710106
0x710530
0x7105A0
0x710660
0x710720
0x710760
0x710810
0x710860
0x7108B0
0x7108F0
0x710940
0x710980
0x7109C0
0x710A00
0x710A40
0x710A90
0x710A9C
0x710AF0
0x710AFC
0x710B50
0x710B5C
0x710BB0
0x710BBC
0x710C10
0x710C1C
0x710C70
0x710C7C
0x710CD0
0x710D00
0x710D30
0x710D70
0x710D7C
0x710DD0
0x710DDC
0x710E30
0x710E70
0x710EB0
0x710F20
0x710F50
0x710F80
0x710FB0
0x710FE0
0x711040
0x7110A0
0x7110E0
0x711120
0x711190
0x71119C
0x7111F0
0x7111FC
0x711250
0x71125C
0x7112B0
0x7112BC
0x711390
0x711410
0x711490
0x71151C
0x7117AC
0x711A30
0x711A32
0x711A4A
0x711F40
0x711F42
0x711F5A
0x71245C
0x7126EC
0x712986
0x712AE6
0x712C30
0x712C70
0x712CB0
0x712CF0
0x712D30
0x712DA0
0x712ED0
0x712ED6
0x712F30
0x712F36
0x712F91
0x712F9F
0x713051
0x71305F
0x713111
0x71311F
0x7131D1
0x7131DF
0x7132A0
0x7132F0
0x713340
0x7133A0
0x713400
0x713450
0x7134A0
0x7134F0
0x713540
0x713590
0x7135D6
0x713636
0x7136A0
0x7136F0
0x713740
0x713790
0x7138C0
0x713910
0x713960
0x7139B0
0x713AE0
0x713B30
0x713B80
0x713BD0
0x713CF6
0x713D56
0x713DB6
0x713E16
0x713E78
0x713F08
0x713FA0
0x714020
0x7140A0
0x714120
0x7141A0
0x714220
0x714296
0x714326
0x7143C0
0x714440
0x7144C0
0x714540
0x7145C0
0x714640
0x7146B6
0x714746
0x714B38
0x714BE8
0x714C90
0x714CAA
0x714D50
0x714D69
0x714E00
0x714E19
0x714EB0
0x714EC9
0x714F60
0x714F7A
0x715020
0x715039
0x7150D0
0x7150E9
0x715180
0x715199
0x715230
0x71524A
0x715310
0x715329
0x7153F0
0x715409
0x7154D0
0x7154E9
0x7155B0
0x7155CA
0x715690
0x7156A9
0x715770
0x715789
0x715850
0x715869
0x715930
0x7159A3
0x715A22
0x715A33
0x715AA0
0x715B0F
0x715B9F
0x715C00
0x715C30
0x715C70
0x715CB0
0x715CE0
0x715D10
0x715D50
0x715D90
0x715DFF
0x715E8F
0x715EF0
0x715F20
0x715F80
0x715FD0
0x7160D0
0x716100
0x716510
0x7165B0
0x7165BC
0x716630
0x7166D0
0x7166DC
0x716807
0x716897
0x716985
0x716997
0x716A75
0x716A87
0x716B20
0x716B70
0x716F68
0x7171D9
0x717297
0x717447
0x7174C7
0x71753F
0x71759F
0x7175F0
0x7175FD
0x717660
0x71766D
0x717700
0x717730
0x717760
0x717790
0x7177C0
0x7177F0
0x717820
0x717850
0x717880
0x7178B0
0x7178E0
0x717910
0x717940
0x717970
0x7179A0
0x7179D0
0x717A00
0x717A40
0x717A90
0x717AE0
0x717B30
0x717B76
0x717BD6
0x717C36
0x718100
0x718250
0x7182BF
0x718310
0x718340
0x718380
0x718413
0x718447
0x718493
0x7184C3
0x7184F3
0x718530
0x718532
0x71854A
0x718A4C
0x718CDC
0x718F76
0x7190C0
0x7190C2
0x7190DA
0x7195DC
0x719860
0x719862
0x71987A
0x719D7C
0x71A00C
0x71A2A6
0x71A3F0
0x71A3F2
0x71A40A
0x71A90C
0x71AC2C
0x71ACC3
0x71AD45
0x71AE82
0x71AFF0
0x71B030
0x71B070
0x71B0B0
0x71B0F0
0x71B130
0x71B170
0x71B1B0
0x71B1F0
0x71B230
0x71B270
0x71B2A0
0x71B2D0
0x71B300
0x71B330
0x71B360
0x71B39F
0x71B42F
0x71B4B0
0x71B4F0
0x71B530
0x71B570
0x71B610
0x71B650
0x71B710
0x71B760
0x71B7B0
0x71B7F0
0x71B830
0x71B880
0x71B8D0
0x71B910
0x71B956
0x71B9B0
0x71BA20
0x71C1C0
0x71C200
0x71C240
0x71C280
0x71C2C0
0x71C330
0x71C3A0
0x71C570
0x71C6A0
0x71C7D0
0x71C7D9
0x71C7E1
0x71C8C0
0x71CA30
0x71CA39
0x71CB30
0x71CB39
0x71CC32
0x71CC33
0x71CD10
0x71CD60
0x71CDB0
0x71CE00
0x71D135
0x71D147
0x71D22A
0x71D315
0x71D327
0x71D630
0x71D640
0x71D64D
0x71D840
0x71D850
0x71D85D
0x71DA5F
0x71DA8F
0x71DABF
0x71DAEF
0x71DB1F
0x71DB4F
0x71DB7F
0x71DBAF
0x71DBDF
0x71DC0F
0x71DC3F
0x71DC6F
0x71DC92
0x71DC95
0x71DD27
0x71DDD7
0x71DFC0
0x71DFD0
0x71E310
0x71E326
0x71E417
0x71E5DC
0x71E62A
0x71E6B2
0x71E6B5
0x71E747
0x71E7F7
0x71E9E0
0x71E9E2
0x71E9F0
0x71ED30
0x71ED46
0x71EE37
0x71EFFC
0x71F0D2
0x71F0D5
0x71F167
0x71F210
0x71F226
0x71F31C
0x71F3F0
0x71F444
0x71F4E4
0x71F584
0x71F610
0x71F640
0x71F670
0x71F6A0
0x71F6D0
0x71F700
0x71F730
0x71F760
0x71FF10
0x71FF50
0x71FF90
0x720000
0x720070
0x7200B0
0x720330
0x720370
0x7203B0
0x7203F0
0x720430
0x720470
0x7204B0
0x7204F0
0x720530
0x720570
0x7205B0
0x7205F0
0x720630
0x720670
0x7206B0
0x7206F0
0x720720
0x720750
0x720780
0x7207B0
0x7207E0
0x720810
0x720840
0x720870
0x7208A0
0x7208D0
0x720910
0x720950
0x720990
0x7209D5
0x7209E7
0x720A55
0x720A67
0x720AD5
0x720AE7
0x720B55
0x720B67
0x720BD0
0x720C60
0x720CF0
0x720D80
0x720E16
0x720EC6
0x720F76
0x721056
0x721072
0x721130
0x721170
0x7211B0
0x7211F0
0x721230
0x721270
0x7212B0
0x7212F0
0x721330
0x721370
0x7213B0
0x7213F0
0x721430
0x721470
0x7214B1
0x721540
0x7216B8
0x721788
0x721858
0x721AD6
0x721B76
0x721C16
0x721CB6
0x721D56
0x721DF6
0x721E96
0x721F36
0x721FD6
0x722076
0x722116
0x7221B6
0x722256
0x7222F6
0x722396
0x722438
0x7224B8
0x722538
0x7225B8
0x7227B0
0x7227F7
0x7228F2
0x722B53
0x722C50
0x722C79
0x722CC0
0x722CE9
0x722DD0
0x722DF9
0x722E48
0x722EE0
0x722F09
0x722F50
0x722F79
0x7230B0
0x7230D9
0x723120
0x723220
0x723249
0x723350
0x723379
0x7234A0
0x7234C9
0x7235D0
0x7239A3
0x723AB0
0x723B13
0x723DA3
0x723E48
0x7243D1
0x7244B0
0x724641
0x724648
0x724711
0x7247E3
0x724B26
0x724C26
0x724D23
0x724DA3
0x724EE6
0x724FA6
0x725076
0x725136
0x725276
0x7253B6
0x725492
0x725496
0x725602
0x725606
0x725770
0x725C70
0x725CE0
0x725D50
0x726003
0x726093
0x726123
0x7261B0
0x726270
0x726330
0x7263F0
0x7264F0
0x7264FD
0x7265C0
0x7266A0
0x726787
0x726837
0x7268E0
0x726910
0x726940
0x726973
0x726A13
0x726AB3
0x726BB8
0x726C16
0x726CA6
0x726D36
0x726DE3
0x726E83
0x726F93
0x727033
0x727143
0x7271E3
0x7273B9
0x7275A0
0x727633
0x7276F3
0x7277B3
0x727F45
0x728122
0x728232
0x728443
0x7284C3
0x728543
0x7285C3
0x728610
0x728943
0x728A10
0x728AD3
0x728B53
0x728BD3
0x728C53
0x728CA0
0x728E50
0x728F10
0x728FD0
0x729090
0x729150
0x729210
0x7292D0
0x729390
0x729450
0x729480
0x7294B0
0x7294E0
0x729510
0x729540
0x729589
0x729689
0x7297A9
0x729983
0x729AB3
0x729BD0
0x729C00
0x729C30
0x729C60
0x729C90
0x729EE0
0x72A090
0x72A3E0
0x72A520
0x72A721
0x72A732
0x72A7A0
0x72A967
0x72AB13
0x72AB93
0x72AC13
0x72AC60
0x72ACC0
0x72AD22
0x72B073
0x72B0F3
0x72B173
0x72B1F3
0x72B273
0x72B2F3
0x72B757
0x72B860
0x72B88E
0x72B8D0
0x72B8FE
0x72B940
0x72B96E
0x72B9B0
0x72B9DE
0x72BA27
0x72BC30
0x72BC5E
0x72BCA0
0x72BCCE
0x72BD10
0x72BD3E
0x72BD80
0x72BDAE
0x72BDF0
0x72BE1E
0x72BE60
0x72BE8E
0x72BED0
0x72BEFE
0x72BF40
0x72BF6E
0x72C013
0x72C0E3
0x72C1D3
0x72C2C3
0x72C3D9
0x72C440
0x72C490
0x72C4E0
0x72C50E
0x72C550
0x72C57E
0x72C5C0
0x72C5EE
0x72C637
0x72C717
0x72C7F7
0x72C8D7
0x72C9B7
0x72CAE3
0x72CBC0
0x72CE83
0x72CFA0
0x72D073
0x72D0F3
0x72D173
0x72D350
0x72D400
0x72D713
0x72D793
0x72D813
0x72D893
0x72D970
0x72D9D3
0x72DA53
0x72DAD3
0x72DB26
0x72DB80
0x72DDC3
0x72DE43
0x72DEC3
0x72DF16
0x72DF70
0x72E1B3
0x72E233
0x72E283
0x72E363
0x72E462
0x72E583
0x72E653
0x72E6E0
0x72E7D3
0x72E856
0x72EB90
0x72EBE0
0x72EC30
0x72ECD0
0x72ED41
0x72EDB8
0x72EDCB
0x72EE73
0x72F002
0x72F062
0x72F0B2
0x72F1D0
0x72F223
0x72F260
0x72F2C0
0x72F2E0
0x72F310
0x72F330
0x72F3C0
0x72F3F0
0x72F5E2
0x72F6D7
0x72F986
0x72FAEA
0x72FBB6
0x72FD06
0x72FFC3
0x730132
0x730330
0x730336
0x730430
0x7305D0
0x730760
0x730762
0x730766
0x7308F0
0x730970
0x7309E0
0x730D40
0x730DF0
0x730EF0
0x730FF0
0x7310A0
0x7310B3
0x7311A0
0x7311B3
0x731A70
0x731A72
0x731A76
0x731A78
0x731A9D
0x731DE0
0x731DE2
0x731DE6
0x731DE8
0x731E0D
0x7328A6
0x732BD0
0x732C04
0x733460
0x733462
0x733466
0x733468
0x733494
0x733E20
0x733F00
0x733FE6
0x734440
0x7344B9
0x734583
0x734620
0x734670
0x7346C3
0x734753
0x7348C0
0x734910
0x734960
0x7349A0
0x734A70
0x734DC0
0x734F40
0x735000
0x735110
0x735200
0x7352F0
0x7352FD
0x7353E7
0x7354A7
0x735730
0x735B40
0x735C00
0x735CC0
0x735DD0
0x735EC0
0x735FB0
0x7360A7
0x736167
0x7363F0
0x736720
0x7368F3
0x7369A3
0x736A50
0x736A5E
0x736A60
0x736B60
0x736CC0
0x736EE2
0x736F50
0x737010
0x737200
0x737312
0x737667
0x7377C9
0x737890
0x7378E0
0x737A60
0x737D60
0x737D6A
0x737EB0
0x737EB4
0x737EBA
0x73807C
0x7380F0
0x73829C
0x738310
0x738443
0x73852C
0x738600
0x738650
0x738687
0x738760
0x738963
0x738A10
0x738B28
0x738BE8
0x738CA8
0x738D68
0x738E28
0x738FE2
0x7390F2
0x739442
0x73944A
0x739533
0x7395C3
0x739653
0x7396E0
0x7397E0
0x7398E0
0x739A42
0x739B62
0x739B6E
0x739E02
0x739E0E
0x739F52
0x739F5E
0x73A133
0x73A266
0x73A303
0x73A3B6
0x73A453
0x73A503
0x73A5B3
0x73AC92
0x73B5F7
0x73BCD2
0x73C6D6
0x73C792
0x73C8A2
0x73C9B2
0x73CAD8
0x73CC18
0x73CD58
0x73CE90
0x73CE92
0x73CEA0
0x73CFBA
0x73D0B0
0x73D250
0x73D2B0
0x73D2BA
0x73D3F3
0x73D420
0x73D590
0x73D690
0x73D6C0
0x73D6F0
0x73D720
0x73D750
0x73D780
0x73D7A9
0x73D800
0x73D829
0x73D880
0x73D8A9
0x73D900
0x73D929
0x73D980
0x73D9A9
0x73DA33
0x73DAB0
0x73DB43
0x73DBF0
0x73DCC0
0x73DD93
0x73DE10
0x73DE93
0x73DF43
0x73DFF3
0x73E0A3
0x73E153
0x73E203
0x73E2B3
0x73E363
0x73E413
0x73E4C3
0x73E573
0x73E623
0x73E6D3
0x73E783
0x73E833
0x73E8E3
0x73E993
0x73EA4E
0x73EB5E
0x73EC70
0x73EE80
0x73EEC5
0x73F04C
0x73F193
0x73F243
0x73F2F3
0x73F3A3
0x73F453
0x73F503
0x73F5B3
0x73F663
0x73F713
0x73F7C3
0x73F873
0x73F923
0x73F9D3
0x73FA83
0x73FB33
0x73FBE3
0x73FD10
0x73FD1C
0x73FD23
0x73FDC0
0x73FE20
0x73FEB0
0x740010
0x740120
0x740163
0x740243
0x740320
0x740349
0x740390
0x7403B9
0x740400
0x740429
0x740470
0x740499
0x7404E0
0x740509
0x740550
0x740579
0x7405C0
0x7405E9
0x740630
0x740659
0x7406A0
0x7406C9
0x740710
0x740739
0x740780
0x7407A9
0x7407F0
0x740819
0x740860
0x740889
0x7408D3
0x7409F3
0x740A90
0x740B00
0x740B30
0x740B60
0x740B90
0x740BC0
0x740BF0
0x740C20
0x740C50
0x740C80
0x740CB0
0x740CE0
0x740D10
0x740D40
0x740D70
0x740D99
0x740DE0
0x740E09
0x740E50
0x740E79
0x740EC0
0x740EE9
0x740F30
0x740F59
0x740FA0
0x740FC9
0x741010
0x741039
0x741080
0x7410A9
0x7410F0
0x741119
0x741160
0x741189
0x7411D0
0x7411F9
0x741240
0x741269
0x7412B0
0x7412D9
0x741320
0x741380
0x7413E0
0x741430
0x741480
0x7414E0
0x741530
0x74155E
0x7415A0
0x7415CE
0x741610
0x74163E
0x741680
0x7416AE
0x741723
0x7417D3
0x741883
0x741933
0x7419E3
0x741A93
0x741B43
0x741BF3
0x741CA3
0x741D53
0x741E03
0x741EBC
0x741FD3
0x742110
0x742390
0x742460
0x742530
0x742600
0x7426D0
0x7427A0
0x742846
0x7428C0
0x742948
0x742980
0x7429D0
0x742A30
0x742A80
0x742B13
0x742BC3
0x742C73
0x742D23
0x742DD3
0x742E83
0x742F33
0x742FE3
0x743093
0x743143
0x7431F3
0x7432A3
0x743320
0x743450
0x743580
0x743582
0x743586
0x743588
0x7435BB
0x743786
0x743806
0x743876
0x743AE1
0x743C40
0x743ED9
0x743F90
0x743F92
0x743F96
0x743F98
0x743FD0
0x744097
0x744260
0x744262
0x744266
0x744268
0x7442A0
0x7446FB
0x74480B
0x7448E0
0x7449CB
0x744A10
0x744B09
0x744BF9
0x744CB0
0x744CB8
0x744E40
0x744EB6
0x744F36
0x744FB6
0x745036
0x7450B6
0x745136
0x7451B0
0x745309
0x7453F0
0x745406
0x745556
0x745645
0x7456D0
0x745750
0x745A00
0x745A60
0x745AF9
0x745BE9
0x745CA0
0x745F03
0x745FB3
0x746063
0x746113
0x7461C3
0x746273
0x746323
0x7463D3
0x746483
0x746533
0x7465E3
0x746693
0x746743
0x7467F3
0x7468A3
0x746953
0x746A03
0x746A80
0x746C5E
0x746D6E
0x746DD7
0x746E7C
0x746FDC
0x747140
0x747440
0x747610
0x7478A1
0x747BB0
0x747BC0
0x747CD0
0x747CE0
0x747F80
0x748273
0x748323
0x7483D3
0x748483
0x748641
0x748663
0x748781
0x7487A3
0x7488CC
0x7488E3
0x748971
0x748993
0x748ABC
0x748AD3
0x748B61
0x748B88
0x748CA1
0x748CC8
0x748DE7
0x748E03
0x748E91
0x748EB8
0x748FD1
0x748FF8
0x749117
0x749133
0x7491C3
0x749273
0x749323
0x7493D3
0x749450
0x7494A0
0x749500
0x749550
0x7495B0
0x749600
0x749660
0x7496B0
0x749710
0x749760
0x7497C0
0x749810
0x749870
0x7498C0
0x749920
0x749970
0x749C83
0x749D33
0x749DE3
0x749E93
0x749F43
0x749FF3
0x74A0A3
0x74A153
0x74A203
0x74A2B3
0x74A363
0x74A413
0x74A4C3
0x74A573
0x74A623
0x74A7C0
0x74A7CC
0x74A870
0x74A87C
0x74A883
0x74A920
0x74A92C
0x74AA60
0x74AAB0
0x74AB0F
0x74AB60
0x74ABB0
0x74ABE1
0x74ACB0
0x74ACDE
0x74ADB0
0x74ADDE
0x74AEB0
0x74AEE0
0x74AFF0
0x74B034
0x74B160
0x74B280
0x74B2C0
0x74B350
0x74B3E0
0x74B470
0x74B4B2
0x74B5F0
0x74B632
0x74B765
0x74B882
0x74BB7A
0x74C264
0x74C266
0x74C323
0x74C3D6
0x74C486
0x74C536
0x74C5E6
0x74C696
0x74C766
0x74C866
0x74C950
0x74CAB0
0x74CC10
0x74CD76
0x74CFC6
0x74D162
0x74D520
0x74D530
0x74D650
0x74D65C
0x74D780
0x74D78C
0x74D872
0x74D884
0x74D8A0
0x74D8AC
0x74D8ED
0x74D9E0
0x74DB10
0x74DB19
0x74DC50
0x74DC5C
0x74DD80
0x74DE80
0x74DF40
0x74E000
0x74E009
0x74E140
0x74E14C
0x74E2B0
0x74E350
0x74E4C0
0x74E630
0x74E7A0
0x74E890
0x74E895
0x74F0D8
0x74F470
0x74F5A7
0x74FA58
0x74FB10
0x74FB11
0x74FB5E
0x74FC5C
0x752601
0x75283F
0x753648
0x753666
0x753684
0x7536A6
0x7536CC
0x753719
0x75373B
0x753759
0x753797
0x7537B5
0x7537D3
0x7539B6
0x7539D4
0x7539F7
0x753A8A
0x753A96
0x753AA8
0x758798
0x759ED3
0x75A558
0x75B16F
0x75B2A0
0x75B341
0x75B361
0x75B381
0x75B3A1
0x75B570
0x75B5A0
0x75B5D0
0x75B600
0x75B630
0x75B660
0x75B690
0x75B6C0
0x75B7B0
0x75B7F0
0x75B820
0x75B880
0x75B8D0
0x75B920
0x75B950
0x75B980
0x75B9B0
0x75BA60
0x75BAC0
0x75BB20
0x75BBD0
0x75BC20
0x75BC50
0x75BC80
0x75BCB0
0x75BCE0
0x75BD10
0x75BD60
0x75BDA0
0x75BDE0
0x75BE20
0x75BE60
0x75BE90
0x75BFE5
0x75C0DD
0x75C130
0x75C160
0x75C190
0x75C2A0
0x75C2D6
0x75C2E0
0x75C326
0x75C396
0x75C635
0x75C7CD
0x75C8A0
0x75C8D0
0x75CA40
0x75CA42
0x75CC10
0x75CC88
0x75CC96
0x75CE60
0x75CEE5
0x75CF50
0x75CF58
0x75CFE0
0x75D028
0x75D080
0x75D0D0
0x75D120
0x75D170
0x75D1C0
0x75D1FF
0x75D25F
0x75D2BF
0x75D31F
0x75D370
0x75D37F
0x75D3DF
0x75D430
0x75D4C9
0x75D507
0x75D557
0x75D5A0
0x75D630
0x75D840
0x75D900
0x75DA10
0x75DD10
0x75DE9C
0x75DF00
0x75DF80
0x75E0A0
0x75E0F0
0x75E210
0x75E260
0x75E380
0x75E4D8
0x75E590
0x75E60A
0x75E63E
0x75E670
0x75E6C8
0x75E700
0x75EA40
0x75EC4A
0x75ECCF
0x75EE70
0x75EFA1
0x75F0E9
0x75F4D1
0x75F619
0x75F771
0x75F8B9
0x75F9C0
0x75FA40
0x75FB3F
0x760170
0x7601C0
0x760290
0x7602C0
0x760320
0x7604A0
0x760560
0x7605F0
0x760601
0x760695
0x760740
0x7607A1
0x7607A7
0x7607E7
0x760890
0x7608F7
0x760950
0x760A27
0x760A67
0x760AB0
0x760B33
0x760BC0
0x760BCC
0x760CF0
0x760D20
0x760D50
0x760D80
0x760DB0
0x760DE0
0x760E10
0x760E40
0x760E70
0x760F37
0x760F70
0x7610D7
0x761117
0x761167
0x761570
0x7616F5
0x761797
0x761911
0x761917
0x761956
0x761B90
0x761B93
0x7620F0
0x762130
0x762308
0x7624E8
0x7625E8
0x762624
0x762630
0x762664
0x76409E
0x7646A7
0x7646AD
0x765630
0x766E96
0x76762A
0x76C1E0
0x76CED0
0x76FE62
0x7707CC
0x770A38
0x772158
0x773A8A
0x77446F
0x7747B0
0x774F58
0x775103
0x775BE8
0x777358
0x778009
0x77830A
0x778680
0x778FAA
0x779F70
0x77B8BC
0x77BF72
0x77BF7D
0x77D000
0x77D00B
0x77F707
0x77F70D
0x780100
0x780114
0x781D24
0x781DD0
0x782300
0x782314
0x782D36
0x783060
0x783880
0x783EEB
0x78428B
0x78428D
0x78428E
0x784B0A
0x787C35
0x787E70
0x788467
0x788C8B
0x789928
0x789C98
0x789CAA
0x78B13C
0x78BED8
0x78E458
0x78EFD4
0x7900C8
0x790DDE
0x7943C9
0x794F25
0x795AEA
0x795FAA
0x796058
0x797BE2
0x79A608
0x79AC15
0x79B0CB
0x79CC9A
0x79E5C0
0x79EA36
0x7A0E40
0x7A1386
0x7A14C8
0x7A1657
0x7A28D8
0x7A5738
0x7A6D08
0x7A6DE9
0x7A77BC
0x7A84A0
0x7AA120
0x7AA122
0x7AA124
0x7AA12B
0x7AA5D9
0x7ABF70
0x7AE082
0x7AE88A
0x7AE8FA
0x7AFBD8
0x7B09EB
0x7B2286
0x7B242C
0x7B2C33
0x7B3150
0x7B4724
0x7B48F2
0x7B5A16
0x7B8E6B
0x7B9DE9
0x7B9E90
0x7B9F55
0x7B9FE7
0x7BA08A
0x7BA0B7
0x7BA1A4
0x7BA220
0x7BA222
0x7BA227
0x7BA4B0
0x7BA586
0x7BA618
0x7BA759
0x7BA7A2
0x7BA8C0
0x7BA8C2
0x7BA8C9
0x7BAA20
0x7BAB9A
0x7BAC7E
0x7BAC8C
0x7BAC8D
0x7BACEA
0x7BB0D0
0x7BB183
0x7BB26C
0x7BB3A0
0x7BB3D8
0x7BB6A0
0x7BB6A2
0x7BB6A3
0x7BC436
0x7BC816
0x7BC833
0x7BCB00
0x7BCBA0
0x7BCBA9
0x7BCBB2
0x7BCD90
0x7BCDB0
0x7BCDB2
0x7BCDCA
0x7BCF50
0x7BD468
0x7BD554
0x7BD650
0x7BD6BE
0x7BD870
0x7BD97A
0x7BDAB7
0x7BDB40
0x7BDD30
0x7BDD36
0x7BDE34
0x7BE316
0x7BE58A
0x7BE670
0x7BE672
0x7BE673
0x7BE679
0x7BECE7
0x7BF018
0x7BF1DE
0x7BF1E9
0x7BF710
0x7BFA40
0x7BFF12
0x7BFFD3
0x7C0500
0x7C0529
0x7C0612
0x7C0615
0x7C0890
0x7C0960
0x7C0A70
0x7C0A72
0x7C0A76
0x7C0B80
0x7C0B93
0x7C0E86
0x7C10B0
0x7C10C1
0x7C1232
0x7C1241
0x7C1450
0x7C1459
0x7C146A
0x7C1567
0x7C1640
0x7C1670
0x7C1700
0x7C1708
0x7C170A
0x7C17EA
0x7C18E0
0x7C18E2
0x7C18E6
0x7C18F3
0x7C1B91
0x7C1BE0
0x7C1CA4
0x7C1F45
0x7C2560
0x7C2568
0x7C25A9
0x7C262A
0x7C29F1
0x7C2A7C
0x7C2AC0
0x7C2B2C
0x7C2BA0
0x7C2C2C
0x7C2C6A
0x7C2CA0
0x7C2D50
0x7C2D70
0x7C2DB1
0x7C2E10
0x7C2E70
0x7C335D
0x7C3361
0x7C3BC0
0x7C3BC9
0x7C3C6C
0x7C40C0
0x7C40C2
0x7C40C6
0x7C40CD
0x7C4330
0x7C47A0
0x7C49E8
0x7C5034
0x7C5041
0x7C51BA
0x7C5330
0x7C5332
0x7C5333
0x7C5AC0
0x7C5B44
0x7C5CB0
0x7C5D40
0x7C5F20
0x7C6115
0x7C6660
0x7C693E
0x7C698F
0x7C6B30
0x7C6DE7
0x7C6DEB
0x7C6F40
0x7C7144
0x7C7234
0x7C7237
0x7C7340
0x7C7596
0x7C75D0
0x7C7640
0x7C76E0
0x7C77E8
0x7C78C4
0x7C78E7
0x7C79B0
0x7C7A18
0x7C7BB0
0x7C7BB2
0x7C7BC1
0x7C7D04
0x7C7EA0
0x7C81A8
0x7C81B2
0x7C8240
0x7C825E
0x7C868E
0x7C86B0
0x7C86D0
0x7C8738
0x7C8798
0x7C8840
0x7C8842
0x7C8B60
0x7C8B62
0x7C8B63
0x7C9850
0x7C9D84
0x7C9DBC
0x7C9DD1
0x7CA1AB
0x7CA200
0x7CA2B4
0x7CA2CD
0x7CA490
0x7CA55B
0x7CA562
0x7CA572
0x7CA678
0x7CA71C
0x7CA788
0x7CA7A0
0x7CA7A3
0x7CA7C0
0x7CA850
0x7CA914
0x7CAA90
0x7CAC64
0x7CAD40
0x7CAE5C
0x7CAE60
0x7CB1E2
0x7CB2B0
0x7CB2B2
0x7CB2B6
0x7CB400
0x7CB444
0x7CB471
0x7CB478
0x7CB540
0x7CB61D
0x7CB623
0x7CB910
0x7CB91B
0x7CB91D
0x7CBAF0
0x7CBAFC
0x7CBBAF
0x7CBC85
0x7CBE06
0x7CBFC4
0x7CBFC6
0x7CC110
0x7CC3FE
0x7CC760
0x7CC916
0x7CC94B
0x7CCBFF
0x7CD130
0x7CD35D
0x7CD361
0x7CD367
0x7CD3E4
0x7CDAF4
0x7CDED5
0x7CE01E
0x7CE0C0
0x7CE864
0x7CE868
0x7CE86E
0x7CF15C
0x7CF52A
0x7CF5F8
0x7CF786
0x7D0038
0x7D0D10
0x7D0D7D
0x7D0F92
0x7D0F93
0x7D0F9E
0x7D1200
0x7D1202
0x7D13B0
0x7D1417
0x7D16E0
0x7D1B19
0x7D1B90
0x7D1BA0
0x7D1C70
0x7D1C74
0x7D1E81
0x7D1FA0
0x7D1FA2
0x7D1FAB
0x7D1FB2
0x7D20C0
0x7D20C2
0x7D20CB
0x7D20D2
0x7D20D4
0x7D23B0
0x7D23CD
0x7D23CF
0x7D2517
0x7D2908
0x7D2A20
0x7D2A22
0x7D2A23
0x7D2AFC
0x7D31CD
0x7D3F70
0x7D4112
0x7D4120
0x7D4313
0x7D43C8
0x7D43CA
0x7D43CC
0x7D4400
0x7D4A37
0x7D4BB2
0x7D4DA5
0x7D52A0
0x7D5395
0x7D53D2
0x7D53D3
0x7D54D2
0x7D5610
0x7D5614
0x7D5617
0x7D5797
0x7D579A
0x7D58D0
0x7D58E0
0x7D5A70
0x7D5AD0
0x7D5AD9
0x7D5AE0
0x7D5D10
0x7D5E72
0x7D5E73
0x7D5E79
0x7D5E7F
0x7D5FDF
0x7D60A0
0x7D6230
0x7D6F90
0x7D6FB0
0x7D6FB4
0x7D70F8
0x7D7128
0x7D72C0
0x7D7713
0x7D832C
0x7D87A4
0x7D8AAA
0x7D9628
0x7D97F4
0x7D9BC0
0x7D9CC7
0x7D9CF0
0x7DA181
0x7DA407
0x7DA502
0x7DA509
0x7DA545
0x7DA6C2
0x7DA6C4
0x7DA968
0x7DAA30
0x7DAA69
0x7DAB10
0x7DAB1B
0x7DAB1D
0x7DABC4
0x7DAD69
0x7DAEC7
0x7DAF24
0x7DB0A5
0x7DB2C0
0x7DB2C3
0x7DB380
0x7DB3B0
0x7DB452
0x7DB669
0x7DB66C
0x7DB70D
0x7DB830
0x7DB8CD
0x7DBA90
0x7DBDD5
0x7DBECF
0x7DC005
0x7DC155
0x7DC180
0x7DC1E0
0x7DC23D
0x7DC255
0x7DC320
0x7DC356
0x7DC36A
0x7DC416
0x7DC440
0x7DC51E
0x7DC580
0x7DC58D
0x7DC5E4
0x7DC620
0x7DC6B3
0x7DC780
0x7DC782
0x7DC786
0x7DC788
0x7DCAD8
0x7DCF69
0x7DCF72
0x7DD0F1
0x7DD31A
0x7DD5E0
0x7DDD44
0x7DE262
0x7DE27A
0x7DE3E1
0x7DE418
0x7DE940
0x7DEB30
0x7DEB3A
0x7DECE7
0x7DFF60
0x7DFF76
0x7E0400
0x7E06A3
0x7E0910
0x7E0914
0x7E0918
0x7E0928
0x7E0BC2
0x7E0C3E
0x7E0DFD
0x7E1750
0x7E1820
0x7E1822
0x7E182C
0x7E1A46
0x7E1A80
0x7E1A82
0x7E1A8C
0x7E1C48
0x7E1C57
0x7E1D30
0x7E1F6A
0x7E20CC
0x7E2130
0x7E250F
0x7E25B0
0x7E2BC0
0x7E2EB6
0x7E2EE0
0x7E30B0
0x7E34DD
0x7E37B3
0x7E3830
0x7E3863
0x7E3950
0x7E3970
0x7E3C2B
0x7E3D50
0x7E3D97
0x7E3DF0
0x7E4120
0x7E4123
0x7E4126
0x7E4128
0x7E4410
0x7E4835
0x7E4AA0
0x7E4ABE
0x7E4EC0
0x7E4EC2
0x7E4EC3
0x7E4EC9
0x7E5428
0x7E573C
0x7E58B0
0x7E5DDE
0x7E61E4
0x7E6420
0x7E643B
0x7E65E6
0x7E6740
0x7E67BF
0x7E6D66
0x7E78AA
0x7E8600
0x7E8724
0x7E89D0
0x7E89E0
0x7E8B91
0x7E8BBC
0x7E8BD4
0x7E8E7A
0x7E8F6F
0x7E90E2
0x7E921A
0x7E9240
0x7E9710
0x7E9718
0x7E9932
0x7E9B80
0x7E9B96
0x7E9E10
0x7E9E50
0x7E9E52
0x7EA18D
0x7EA7E9
0x7EA7F3
0x7EA9A6
0x7EAA40
0x7EAAE0
0x7EAC38
0x7EAC60
0x7EAC62
0x7EADF6
0x7EADFC
0x7EAE99
0x7EAEA9
0x7EB350
0x7EB43D
0x7EB687
0x7EB829
0x7EB870
0x7EB88F
0x7EBA53
0x7EBA78
0x7EBCA0
0x7EBCA5
0x7EBCBF
0x7EBD6F
0x7EBD71
0x7EBD7B
0x7EC799
0x7EC948
0x7ECA32
0x7ED040
0x7ED048
0x7ED2C0
0x7ED2E5
0x7ED882
0x7EDE1C
0x7EDE9B
0x7EDE9F
0x7EDF7A
0x7EE1A4
0x7EE4B0
0x7EE4BA
0x7EEFC0
0x7EF073
0x7EF150
0x7EF180
0x7EF261
0x7EF2B0
0x7EF376
0x7EF670
0x7EF6F0
0x7EF9F0
0x7EFE00
0x7EFE78
0x7EFEF8
0x7EFF2C
0x7F04D0
0x7F0800
0x7F080B
0x7F080D
0x7F0C40
0x7F0F82
0x7F1020
0x7F1022
0x7F102E
0x7F11E4
0x7F1330
0x7F1338
0x7F1350
0x7F1421
0x7F18F0
0x7F1A30
0x7F1A32
0x7F1A39
0x7F1DD1
0x7F1F99
0x7F20B1
0x7F2140
0x7F2149
0x7F214F
0x7F2530
0x7F26B2
0x7F26B4
0x7F26BC
0x7F27D4
0x7F2980
0x7F2A50
0x7F2BB0
0x7F2BB2
0x7F2DF0
0x7F2E06
0x7F2E1D
0x7F3180
0x7F35EA
0x7F37DE
0x7F3F51
0x7F4769
0x7F4C60
0x7F4D50
0x7F4D52
0x7F4D53
0x7F4D60
0x7F4E83
0x7F5011
0x7F5062
0x7F51A9
0x7F55BD
0x7F55C1
0x7F5757
0x7F57BB
0x7F5DF5
0x7F691D
0x7F6921
0x7F6927
0x7F7049
0x7F707C
0x7F739E
0x7F7DAE
0x7F7E7B
0x7F7F93
0x7F8468
0x7F8BB0
0x7F8BB4
0x7F8BB6
0x7F8D50
0x7F8D57
0x7F8D5E
0x7F8D60
0x7F8DE9
0x7F9080
0x7F90E2
0x7F90F3
0x7F9313
0x7F9317
0x7F9392
0x7F9625
0x7F9670
0x7F9676
0x7F967C
0x7F991B
0x7F9C60
0x7F9C69
0x7F9C73
0x7FA0D9
0x7FA280
0x7FA286
0x7FA560
0x7FA6CD
0x7FA7D7
0x7FA850
0x7FA854
0x7FA85D
0x7FA950
0x7FA996
0x7FA9A0
0x7FABE0
0x7FACF0
0x7FAD60
0x7FAD66
0x7FADA7
0x7FAE50
0x7FAE87
0x7FAF30
0x7FAF38
0x7FB380
0x7FB398
0x7FB3F0
0x7FB440
0x7FB470
0x7FB474
0x7FB47D
0x7FB750
0x7FB754
0x7FB75D
0x7FBA40
0x7FC220
0x7FC229
0x7FC2B0
0x7FCA50
0x7FCAD8
0x7FCC30
0x7FCE7E
0x7FCEE0
0x7FCFE0
0x7FD220
0x7FD260
0x7FD264
0x7FD267
0x7FD2B0
0x7FD380
0x7FD383
0x7FD500
0x7FD5B0
0x7FD5B2
0x7FD6F0
0x7FD960
0x7FDCE0
0x7FDCE2
0x7FDE1A
0x7FDF80
0x7FDF93
0x7FDFC0
0x7FDFC3
0x7FE346
0x7FE490
0x7FE8B0
0x7FEC50
0x7FEDC6
0x7FEE50
0x7FEED7
0x7FF078
0x7FFF18
0x8005CE
0x8008D0
0x8008E0
0x800920
0x8009F3
0x800B80
0x800B86
0x801027
0x80102B
0x801157
0x8012C0
0x80148F
0x8014A0
0x8015FA
0x801730
0x8017A0
0x8017A3
0x8017F8
0x80181C
0x8019C2
0x8019C4
0x801B7C
0x801DA2
0x802060
0x802069
0x8023DA
0x8026C7
0x8026CB
0x802D00
0x802F42
0x8030E0
0x803880
0x80437F
0x804F33
0x805410
0x805421
0x805550
0x805570
0x805580
0x805600
0x805602
0x805A58
0x805DF0
0x805DF2
0x805DF6
0x805ED2
0x806170
0x8066F0
0x806A4A
0x806A80
0x806AF4
0x806BB4
0x806C0B
0x806E62
0x80706B
0x807415
0x80763E
0x807A40
0x807AC7
0x807BCC
0x807EAC
0x807FBE
0x8080C4
0x80847F
0x8084A9
0x808679
0x808B09
0x809240
0x809410
0x809440
0x809906
0x809D89
0x809DD4
0x80A3D8
0x80A496
0x80A4ED
0x80A510
0x80A538
0x80A5B0
0x80A5B3
0x80A700
0x80A730
0x80A760
0x80A762
0x80A763
0x80AA75
0x80ABBF
0x80ACF8
0x80ADAC
0x80ADE0
0x80B305
0x80B950
0x80BB5D
0x80BCC9
0x80BD60
0x80BD70
0x80BD90
0x80BDC0
0x80BDF0
0x80BDF7
0x80BDFC
0x80BE90
0x80BED0
0x80BEDC
0x80C3C3
0x80C841
0x80C95B
0x80CAA0
0x80CFAB
0x80D0A1
0x80D1A5
0x80D568
0x80D6B0
0x80D7E0
0x80D7E4
0x80D971
0x80DA86
0x80DB10
0x80DB19
0x80DE1A
0x80DEC0
0x80E258
0x80E39A
0x80FF20
0x80FF33
0x80FFA0
0x810040
0x810080
0x810084
0x810AA6
0x810C56
0x811FD0
0x811FF7
0x812040
0x812070
0x812370
0x8123CC
0x812720
0x81272E
0x81287E
0x812930
0x8129F0
0x8129F2
0x8129F6
0x812D0F
0x812E49
0x813D35
0x814829
0x814831
0x814960
0x814B1D
0x814B1F
0x814BC0
0x814BC9
0x814E40
0x815DC0
0x815E82
0x816100
0x816680
0x8166A0
0x8166A4
0x8167A0
0x8167D0
0x8168E2
0x816AA0
0x816BC0
0x816BE0
0x816BE4
0x816C00
0x816C80
0x816D18
0x816D1D
0x816D67
0x816DB4
0x816E2F
0x816E80
0x816ED0
0x816EDF
0x816FF0
0x816FF4
0x817040
0x817044
0x817090
0x817094
0x8170E0
0x8170E4
0x817130
0x817134
0x817180
0x8172F2
0x8172F8
0x817400
0x81741C
0x817443
0x8174BC
0x817500
0x817529
0x817569
0x8175F0
0x817606
0x817660
0x8176C0
0x817780
0x817A70
0x817AB0
0x8183B0
0x818440
0x818A30
0x818A32
0x818A38
0x818A41
0x818CB4
0x818CB6
0x818DC0
0x818DD5
0x818FA0
0x818FA2
0x819170
0x819244
0x819498
0x8194D3
0x8199C0
0x8199C4
0x8199F0
0x819B59
0x819C10
0x819CDB
0x819D32
0x819D3A
0x819DC8
0x819E46
0x819F45
0x81A110
0x81A140
0x81A372
0x81A4C0
0x81A630
0x81A632
0x81A633
0x81A639
0x81A7E0
0x81A7E7
0x81AC70
0x81AC80
0x81ACA8
0x81AEBA
0x81B0B0
0x81B0C1
0x81B1A8
0x81B270
0x81B290
0x81B2AC
0x81B2C5
0x81B420
0x81B49D
0x81B590
0x81B607
0x81B660
0x81BE2C
0x81C2A0
0x81C930
0x81CA70
0x81CB5D
0x81CB6D
0x81CCE1
0x81CCF1
0x81CCFF
0x81D6BC
0x81DAF0
0x81DD90
0x81E42A
0x81E54D
0x81E551
0x81E557
0x81F2DC
0x81F491
0x81F790
0x82003D
0x820041
0x820047
0x820464
0x820816
0x820967
0x820F01
0x821389
0x821A75
0x821C4E
0x821DE1
0x8220FB
0x8221DB
0x82235A
0x8225C0
0x8225D3
0x822761
0x8227B9
0x822860
0x822862
0x822863
0x822A09
0x822EBA
0x8230DE
0x8236BE
0x824553
0x824563
0x824E47
0x824E4C
0x824F00
0x824F13
0x8251F0
0x8253B0
0x8255CE
0x825700
0x825707
0x825840
0x825842
0x825F56
0x8263EA
0x8264E0
0x8264EA
0x826620
0x8267E3
0x8267E8
0x826926
0x826928
0x8269B0
0x8269B9
0x826B30
0x826B3A
0x826CF0
0x8275C3
0x82786D
0x8278F8
0x827980
0x828116
0x82828D
0x828730
0x82896D
0x828E20
0x828E22
0x828FD8
0x829072
0x8290EE
0x829316
0x8294C0
0x8294E2
0x8295F0
0x8296B3
0x829774
0x8298A6
0x829B85
0x829B92
0x82A23A
0x82A867
0x82A8CC
0x82A8E0
0x82A940
0x82A948
0x82AA45
0x82AA49
0x82AA80
0x82AA82
0x82AA86
0x82AA91
0x82AA95
0x82AB97
0x82AC99
0x82ADB8
0x82AE30
0x82AE58
0x82AF57
0x82B210
0x82B297
0x82B4B0
0x82B4BD
0x82B7C7
0x82BB6C
0x82BB80
0x82BB93
0x82BC0E
0x82BF76
0x82BF89
0x82C056
0x82C13A
0x82C340
0x82C344
0x82C530
0x82CCE3
0x82CDB4
0x82D738
0x82D9C8
0x82DB50
0x82DB58
0x82DB5D
0x82E220
0x82E22B
0x82E233
0x82E4EF
0x82E95D
0x82E9E0
0x82E9E2
0x82E9EF
0x82ECD0
0x82ED14
0x82EF80
0x82EF8F
0x82F330
0x82F332
0x82F340
0x82F664
0x82F772
0x82F7CA
0x82FA07
0x82FB80
0x82FB89
0x8306A0
0x8306A3
0x8306AB
0x830C5D
0x830CC3
0x830CE1
0x830E13
0x830E16
0x830F8B
0x831012
0x831092
0x8310D0
0x8310D9
0x831132
0x8311D0
0x831460
0x83167E
0x8317DC
0x8317E2
0x8317E3
0x831A55
0x831A9B
0x831B74
0x831C39
0x8321A8
0x832650
0x833540
0x8336B2
0x8336C1
0x8337FE
0x8339F0
0x833E68
0x833EBA
0x834A68
0x834BF0
0x83511B
0x835C28
0x835D60
0x836827
0x836A25
0x836A2E
0x836C89
0x836DB7
0x836DBA
0x8371D0
0x8371D5
0x837236
0x837270
0x8373F0
0x837470
0x8374B0
0x837540
0x837661
0x837C5A
0x837D63
0x8381D0
0x8381DD
0x838B80
0x838CA0
0x838CA2
0x838CA3
0x838DD1
0x8395F5
0x83961D
0x8397F0
0x839B30
0x839C60
0x839C62
0x839C70
0x839E98
0x839F30
0x839F70
0x839F88
0x839FA9
0x83A2AF
0x83A3C0
0x83A3C4
0x83A692
0x83A755
0x83A758
0x83A7B0
0x83A840
0x83A844
0x83A9E0
0x83AA56
0x83AB10
0x83AB90
0x83ACC0
0x83AFFA
0x83B590
0x83B594
0x83B5F3
0x83CD42
0x83CDD0
0x83D006
0x83E086
0x83E154
0x83E1AD
0x83E1B1
0x83E25E
0x83E269
0x83E2B5
0x83E39C
0x8401F0
0x8401F4
0x841365
0x84167E
0x84177B
0x84195A
0x841A72
0x842644
0x8426EA
0x842840
0x8428D6
0x842920
0x842A26
0x842EF0
0x842F00
0x842F18
0x8436E8
0x843735
0x8438A1
0x843B93
0x843F80
0x843F87
0x843F8B
0x844820
0x8448C0
0x8448C5
0x846330
0x8464F0
0x847080
0x8470B8
0x847340
0x847344
0x847690
0x8476B5
0x847948
0x847971
0x847A50
0x847AA9
0x847B30
0x847B3E
0x847C80
0x847F20
0x847F58
0x847F62
0x847FE6
0x848145
0x848256
0x848311
0x8483D5
0x848F10
0x8493E0
0x8495E0
0x8495E2
0x8495E4
0x8495EB
0x8497C0
0x8497C2
0x8497CB
0x849AC0
0x849AC4
0x849C3D
0x849E05
0x849EA0
0x849FD0
0x84A000
0x84A1AE
0x84A270
0x84A303
0x84A530
0x84A536
0x84A5DA
0x84AD24
0x84ADFF
0x84AE07
0x84AEE2
0x84B050
0x84B210
0x84B2FE
0x84B387
0x84B3C0
0x84B3C7
0x84B3C9
0x84B3DC
0x84B497
0x84B700
0x84B766
0x84B768
0x84B7BE
0x84B86E
0x84B89C
0x84B8E7
0x84B924
0x84B971
0x84B9C0
0x84BA00
0x84BA64
0x84BBC0
0x84BDDA
0x84C021
0x84C310
0x84C3EF
0x84C460
0x84C60D
0x84C65A
0x84C692
0x84C69C
0x84C783
0x84C791
0x84CA01
0x84CC2F
0x84CEF8
0x84CF67
0x84D18C
0x84D1FE
0x84D27B
0x84D449
0x84D57B
0x84D582
0x84D589
0x84D5E4
0x84D622
0x84D6A0
0x84DA40
0x84DA51
0x84DAAD
0x84DABA
0x84DAE7
0x84DB18
0x84DB48
0x84DB82
0x84DBD8
0x84DC1C
0x84DC5F
0x84DC90
0x84DCF8
0x84DD2D
0x84DD5A
0x84DDA0
0x84DE04
0x84DE8F
0x84DE9C
0x84DEC5
0x84DEF6
0x84DF22
0x84DF2F
0x84DF54
0x84DFD0
0x84DFDD
0x84DFFD
0x84E030
0x84E03D
0x84E061
0x84E2B4
0x84E2BC
0x84E54C
0x84E5B0
0x84E5B3
0x84E795
0x84EBB0
0x84EC9B
0x84ED82
0x84EEC2
0x84EFBF
0x84F640
0x84F649
0x84F650
0x84F85B
0x84F8C6
0x84F962
0x84FA16
0x84FAA5
0x84FB80
0x84FB82
0x84FC18
0x84FC2B
0x84FC2C
0x84FCF0
0x84FCFB
0x84FCFD
0x84FD4D
0x84FD67
0x84FE03
0x84FE40
0x84FE9E
0x84FFD6
0x8501EA
0x8502C5
0x850315
0x850447
0x8505C0
0x8505C7
0x8505C9
0x8505DC
0x850698
0x8509D9
0x850BC9
0x850D90
0x851063
0x851268
0x851339
0x851380
0x85174F
0x85189D
0x8519F0
0x8519FA
0x851ABF
0x851AC9
0x851B70
0x851B7B
0x851E90
0x851E92
0x851F32
0x851F61
0x852000
0x852004
0x852130
0x852300
0x852672
0x8526A5
0x852740
0x852744
0x852A60
0x852A64
0x852CD0
0x852CD6
0x852CDD
0x852DF0
0x852DF6
0x852DFD
0x852F15
0x85315D
0x853280
0x853328
0x853B78
0x853E08
0x853E3B
0x8542A0
0x8542A6
0x8542B6
0x854400
0x854540
0x854960
0x854A7E
0x854A82
0x854AA8
0x854AED
0x854BDC
0x854EC4
0x85500E
0x855165
0x855270
0x855283
0x85533D
0x8553F0
0x8554F2
0x8565F2
0x8566B0
0x856794
0x858476
0x858CBA
0x858CF0
0x858D20
0x858D50
0x858D88
0x858DC0
0x858DF0
0x858E20
0x858E50
0x858E88
0x858EC0
0x858EF0
0x858F20
0x858F50
0x858F88
0x858FC0
0x858FF0
0x859020
0x859050
0x859088
0x8590C0
0x8590F0
0x859120
0x859150
0x859188
0x8591C0
0x8591F0
0x859220
0x859250
0x859288
0x8592C0
0x8592F0
0x859320
0x859350
0x859388
0x8593C0
0x8593F0
0x859420
0x859450
0x859488
0x8594C0
0x8594F0
0x859520
0x859550
0x859588
0x8595C0
0x8595F0
0x859620
0x859650
0x859688
0x8596C0
0x8596F0
0x859720
0x859750
0x859788
0x8597C0
0x8597F0
0x859820
0x859850
0x859888
0x8598C0
0x8598F0
0x859920
0x859950
0x859988
0x8599C0
0x8599F0
0x859A20
0x859A50
0x859A88
0x859AC0
0x859AF0
0x859B20
0x859B50
0x859B88
0x859BC0
0x859BF0
0x859C20
0x859C50
0x859C88
0x859CC0
0x859CF0
0x859D20
0x859D50
0x859D88
0x859DC0
0x859DF0
0x859E20
0x859E50
0x859E88
0x859EC0
0x859EF0
0x859F20
0x859F50
0x859F88
0x859FC0
0x859FF0
0x85A020
0x85A050
0x85A088
0x85A0C0
0x85A0F0
0x85A120
0x85A150
0x85A188
0x85A1C0
0x85A1F0
0x85A220
0x85A250
0x85A288
0x85A2C0
0x85A2F0
0x85A320
0x85A350
0x85A388
0x85A3C0
0x85A3F0
0x85A420
0x85A450
0x85A488
0x85A4C0
0x85A4F0
0x85A520
0x85A550
0x85A588
0x85A5C0
0x85A5F0
0x85A620
0x85A650
0x85A688
0x85A6C0
0x85A6F0
0x85A720
0x85A750
0x85A788
0x85A7C0
0x85A7CA
0x85A7F0
0x85A820
0x85A850
0x85A888
0x85A8C0
0x85A8F0
0x85A920
0x85A94B
0x85A950
0x85A988
0x85A9C0
0x85A9F0
0x85AA20
0x85AA50
0x85AA88
0x85AAC0
0x85AAF0
0x85AB20
0x85AB50
0x85AB88
0x85ABC0
0x85ABF0
0x85AC20
0x85AC50
0x85AC88
0x85ACC0
0x85ACF0
0x85AD20
0x85AD57
0x85ADB6
0x85ADF8
0x85AE29
0x85AE70
0x85AE7F
0x85AF60
0x85B260
0x85B2C0
0x85B3AB
0x85B3F8
0x85B464
0x85B466
0x85B630
0x85B68A
0x85B744
0x85B784
0x85BD25
0x85BEE0
0x85C101
0x85C164
0x85C770
0x85CB21
0x85CCD9
0x85DB0F
0x85DB26
0x85DC40
0x85E680
0x85E68E
0x85E812
0x85E939
0x85EA50
0x85EA53
0x85EBB0
0x85ED70
0x85EDC1
0x85F065
0x85F1F0
0x85F250
0x85F470
0x85F715
0x85F770
0x85F772
0x85F8B0
0x85F8E0
0x85F8E2
0x85F8E6
0x85FA72
0x85FCB2
0x85FCB8
0x860B26
0x860C00
0x860C59
0x860C62
0x860D25
0x860DD3
0x860F00
0x860F03
0x861226
0x861300
0x8614A0
0x8614C0
0x8615F0
0x861611
0x86161F
0x8617E7
0x861880
0x8618E0
0x861950
0x861970
0x861990
0x8619F2
0x861AC2
0x861BB0
0x861BBA
0x861E17
0x861E1A
0x861E45
0x86201A
0x86221A
0x862278
0x8623E8
0x862405
0x862495
0x862576
0x862730
0x862770
0x8627F0
0x8628E8
0x8629A0
0x8629F0
0x862A1E
0x862A80
0x862B6D
0x862DA0
0x862ED0
0x862ED9
0x863030
0x8630D0
0x863120
0x86320D
0x863450
0x8634A1
0x863630
0x863682
0x863688
0x8638E0
0x863906
0x864C29
0x864C72
0x864C75
0x864DA0
0x8650F0
0x865400
0x865402
0x865404
0x86540B
0x865410
0x865600
0x865604
0x865D70
0x865D72
0x865D7E
0x865FC0
0x866030
0x8669D9
0x866CA1
0x866E43
0x866FD0
0x867001
0x8670D0
0x8670E1
0x8670E5
0x8671A0
0x86772B
0x867910
0x867912
0x867AA9
0x867EB0
0x868438
0x868517
0x868650
0x8686A7
0x868980
0x8689F0
0x868BA3
0x868C02
0x868CD0
0x868CD3
0x868D73
0x868DF0
0x868DF4
0x868DF8
0x868E01
0x868E4F
0x869427
0x869429
0x8694E0
0x8694E4
0x8694E6
0x86956A
0x869628
0x86975E
0x869A40
0x869A42
0x86B186
0x86B22A
0x86B26B
0x86B291
0x86B2D2
0x86B2D5
0x86B3E0
0x86B410
0x86B450
0x86B570
0x86B5A0
0x86B756
0x86B8B0
0x86BC6F
0x86C1C9
0x86C24D
0x86CF60
0x86CF64
0x86D010
0x86D2A0
0x86D2C0
0x86D4A0
0x86D510
0x86D512
0x86D516
0x86E471
0x86E912
0x86E950
0x86E990
0x86E995
0x86EA60
0x86EACC
0x86EAE5
0x86EB8B
0x86EC30
0x86F170
0x86F1D8
0x86FE40
0x87030D
0x871510
0x871571
0x871572
0x87162B
0x8717E0
0x8717E2
0x872990
0x872992
0x872A29
0x873BD8
0x873D60
0x873DCC
0x873E32
0x873F80
0x874070
0x874072
0x874073
0x874900
0x874957
0x874B30
0x874B50
0x874CB1
0x874CD2
0x874DA9
0x874E30
0x874E57
0x8750F0
0x8750F5
0x875280
0x8757B0
0x875980
0x8759E0
0x875A40
0x875A53
0x875DC0
0x876059
0x876181
0x8761B0
0x876550
0x877067
0x877070
0x877186
0x877540
0x877548
0x8776BA
0x8776BE
0x877730
0x877775
0x877D78
0x877DB6
0x877E2E
0x877E40
0x877E43
0x877E70
0x877E77
0x877EA0
0x877EA3
0x877ED0
0x877ED3
0x877F2C
0x878090
0x878097
0x878109
0x878120
0x8782F0
0x878300
0x878310
0x878320
0x878376
0x878408
0x8784E0
0x878506
0x878840
0x878AD0
0x878AD3
0x878C40
0x878C44
0x878C47
0x878F40
0x878F45
0x879060
0x879157
0x879227
0x879280
0x87928B
0x87928D
0x879370
0x87953B
0x879670
0x879674
0x879A2E
0x879CB0
0x879D10
0x879D18
0x879E30
0x87A1E0
0x87A710
0x87A714
0x87AC74
0x87AFBD
0x87B026
0x87B160
0x87B5D0
0x87B86B
0x87C0C4
0x87C44C
0x87C862
0x87C8A3
0x87CA10
0x87CCC0
0x87CCC2
0x87CCC6
0x87D480
0x87D48A
0x87D4A3
0x87DFA0
0x87DFC8
0x87E0D4
0x87E188
0x87E210
0x87E228
0x87E2B1
0x87E3B0
0x87E3B2
0x87E3BC
0x87E600
0x87E612
0x87E808
0x87EA50
0x87ED19
0x87F7D5
0x87F800
0x87F803
0x87FA59
0x87FC66
0x87FE2A
0x880270
0x880277
0x8805A0
0x881A38
0x8823E0
0x882453
0x882720
0x882722
0x882723
0x8827FA
0x883F94
0x884075
0x8850C5
0x8850EC
0x8854D0
0x8854D8
0x8855DD
0x8855E2
0x885690
0x885699
0x8856D0
0x8856D8
0x8856E8
0x88586D
0x885946
0x8859B8
0x885A84
0x885A86
0x885B00
0x885B60
0x885B80
0x885BC0
0x885BCE
0x885E80
0x8860F7
0x8860FF
0x886101
0x88663A
0x886838
0x886910
0x886912
0x886916
0x886918
0x886959
0x886D86
0x886E00
0x886E50
0x886E52
0x886E67
0x886EF0
0x886EF3
0x886F02
0x887438
0x8875C0
0x88762A
0x887687
0x887790
0x887889
0x887940
0x887980
0x8879B0
0x887A10
0x888917
0x888A30
0x888D2D
0x889178
0x8896C0
0x889730
0x889960
0x88997D
0x889D10
0x889D1A
0x88A040
0x88A0FB
0x88A280
0x88A630
0x88A8F0
0x88AA40
0x88AA42
0x88AA43
0x88AAE4
0x88AB57
0x88B51C
0x88BE40
0x88BED0
0x88BFB0
0x88C000
0x88C002
0x88C0D3
0x88CCD0
0x88CD50
0x88CD52
0x88D1A0
0x88D1F0
0x88D3D0
0x88D3D8
0x88D3DA
0x88D5CD
0x88D800
0x88D808
0x88D9B0
0x88DE30
0x88DE32
0x88DE67
0x88E363
0x88E403
0x88E4A2
0x88E4A6
0x88EB20
0x88EC26
0x88EDB0
0x88F120
0x88F180
0x88F490
0x88F49E
0x88F5E0
0x88F700
0x88F705
0x88F862
0x88F864
0x88F86C
0x88FAF0
0x88FAF6
0x88FB6B
0x89025F
0x890380
0x890572
0x8906BD
0x8909C0
0x890D30
0x890FC0
0x890FE5
0x890FF1
0x891034
0x8910CA
0x891108
0x891114
0x89119F
0x8911D8
0x8914A2
0x891650
0x891652
0x891D4A
0x891DD0
0x891DD2
0x891DE3
0x8922DB
0x8927EF
0x892803
0x893136
0x893332
0x893430
0x893478
0x893883
0x893DB0
0x893E20
0x893F30
0x893F3D
0x894114
0x894118
0x8942FD
0x894318
0x894350
0x894359
0x89448F
0x894490
0x8945B1
0x89476F
0x8949E2
0x8949E3
0x894B5C
0x894B75
0x894B76
0x894BEC
0x894CDF
0x894DB1
0x894DE0
0x894E0B
0x894E45
0x894E73
0x895007
0x895188
0x895196
0x8951DB
0x89527F
0x89529C
0x89529D
0x8954B3
0x8954DE
0x895627
0x89566A
0x895694
0x8956B0
0x8956B2
0x8956B3
0x895B20
0x895B22
0x895B23
0x895C04
0x897BC9
0x897F3C
0x89893D
0x898CC9
0x898D17
0x898D42
0x89905F
0x899107
0x899257
0x899346
0x899767
0x899798
0x8999CB
0x899C32
0x89A084
0x89A086
0x89A29D
0x89A2A0
0x89A2A9
0x89A2B5
0x89A2C1
0x89A2D0
0x89A518
0x89A900
0x89A9A0
0x89A9A4
0x89A9A7
0x89AAB0
0x89ADB0
0x89ADB8
0x89B120
0x89BB50
0x89BBFC
0x89BC63
0x89BC66
0x89BCAF
0x89BD76
0x89BF40
0x89BF43
0x89BFC0
0x89C112
0x89C125
0x89C370
0x89C37C
0x89C627
0x89C860
0x89C862
0x89C930
0x89C93F
0x89CF30
0x89D260
0x89D264
0x89D267
0x89D3D0
0x89D640
0x89D8E2
0x89D8EF
0x89DD1F
0x89E33C
0x89E661
0x89E7A2
0x89E8F0
0x89EA00
0x89EA10
0x89EB70
0x89EB72
0x89F220
0x89F223
0x89F440
0x89F74C
0x8A0883
0x8A0D30
0x8A0D57
0x8A0D83
0x8A0DAE
0x8A0DD0
0x8A0DD7
0x8A0DDD
0x8A11F0
0x8A17E0
0x8A1E00
0x8A1E02
0x8A1E0B
0x8A1E13
0x8A1E19
0x8A2639
0x8A297C
0x8A2CE6
0x8A380C
0x8A431D
0x8A4490
0x8A46B6
0x8A481C
0x8A4E61
0x8A5084
0x8A50C9
0x8A5120
0x8A53F0
0x8A5B49
0x8A6228
0x8A636E
0x8A7454
0x8A84B0
0x8A85C0
0x8A8640
0x8A8930
0x8A8AB0
0x8A8AB6
0x8A8F00
0x8A9420
0x8A9C17
0x8A9E14
0x8A9EEC
0x8A9F50
0x8A9FF6
0x8AA040
0x8AA100
0x8AA1C8
0x8AA280
0x8AA350
0x8AA355
0x8AA400
0x8AA662
0x8AA691
0x8AA928
0x8AA970
0x8AA990
0x8AA9F0
0x8AAC7A
0x8AADB0
0x8AADB4
0x8AAF51
0x8AB160
0x8AB310
0x8ABBA0
0x8ABBEF
0x8ABC03
0x8ABD80
0x8ABD82
0x8AC617
0x8AC61A
0x8AC638
0x8AC730
0x8AC770
0x8AC778
0x8AC77A
0x8AC954
0x8AC96E
0x8AC9E0
0x8ACA10
0x8ACA48
0x8ACAD9
0x8ACAE4
0x8ACAE6
0x8ACC20
0x8ACC58
0x8ACC90
0x8ACD60
0x8ACEF2
0x8ACEFA
0x8ACEFC
0x8AD070
0x8AD0CD
0x8AD50C
0x8AD580
0x8AD583
0x8AD598
0x8AD76D
0x8AD8D0
0x8AD9DB
0x8ADA45
0x8ADBD0
0x8ADBD9
0x8ADBE0
0x8ADD60
0x8ADD80
0x8ADDA0
0x8ADE20
0x8ADED0
0x8ADED4
0x8ADED7
0x8ADFF0
0x8ADFF4
0x8ADFF7
0x8AE110
0x8AE114
0x8AE117
0x8AE218
0x8AE300
0x8AE302
0x8AE306
0x8AE430
0x8AE4A0
0x8AE6A9
0x8AE6B2
0x8AE6B8
0x8AEB70
0x8AEB74
0x8AEB77
0x8AEC69
0x8AEEA0
0x8AF000
0x8AF1E0
0x8AF1E8
0x8AF1EA
0x8AF2E8
0x8AF469
0x8AF5E0
0x8AFC99
0x8AFDB0
0x8B00F1
0x8B00F3
0x8B00F4
0x8B0104
0x8B037B
0x8B03F6
0x8B05E0
0x8B07EC
0x8B0990
0x8B0BA1
0x8B0C40
0x8B0CE0
0x8B0CE2
0x8B0CE3
0x8B0D98
0x8B0E8D
0x8B1221
0x8B122B
0x8B1300
0x8B1302
0x8B14D0
0x8B16F0
0x8B174A
0x8B17BD
0x8B197D
0x8B1A44
0x8B1A80
0x8B1A84
0x8B1AB0
0x8B1B12
0x8B1BF1
0x8B1BF7
0x8B1C41
0x8B1C4A
0x8B1D4F
0x8B1DCF
0x8B1E4D
0x8B1ED0
0x8B237F
0x8B23FF
0x8B246F
0x8B24E8
0x8B2A60
0x8B2AE0
0x8B2AE2
0x8B2AEF
0x8B2AFD
0x8B2D7B
0x8B2D81
0x8B2E98
0x8B2EFB
0x8B2F80
0x8B3020
0x8B3023
0x8B32E0
0x8B3408
0x8B3720
0x8B39E7
0x8B3A41
0x8B3AD4
0x8B3C20
0x8B3CA9
0x8B3CB3
0x8B3D80
0x8B3DD0
0x8B3DD4
0x8B3FF3
0x8B4031
0x8B4075
0x8B40AD
0x8B40F1
0x8B4240
0x8B45A0
0x8B45A6
0x8B4917
0x8B4A00
0x8B4A02
0x8B4B70
0x8B4BF0
0x8B4C82
0x8B5220
0x8B5293
0x8B54E0
0x8B5600
0x8B5603
0x8B5690
0x8B569B
0x8B5820
0x8B5C00
0x8B5C04
0x8B5D90
0x8B5F40
0x8B60A0
0x8B6150
0x8B6160
0x8B61B0
0x8B630C
0x8B63F2
0x8B64E0
0x8B64E4
0x8B6990
0x8B6E03
0x8B6E80
0x8B6F10
0x8B6F29
0x8B7240
0x8B86D8
0x8B8F04
0x8B91CA
0x8B950C
0x8B9620
0x8B9640
0x8B9710
0x8B9723
0x8B9860
0x8B9876
0x8BA080
0x8BA089
0x8BA0A0
0x8BA1C0
0x8BA250
0x8BA2F0
0x8BA496
0x8BA50A
0x8BA50C
0x8BA6B4
0x8BA6B6
0x8BA7C0
0x8BA880
0x8BA9A0
0x8BAEA0
0x8BB431
0x8BB43A
0x8BB5C0
0x8BB5C8
0x8BB5CA
0x8BB6A0
0x8BB6AE
0x8BB6B0
0x8BB710
0x8BB712
0x8BB719
0x8BB940
0x8BB970
0x8BBAD2
0x8BBAD8
0x8BBB11
0x8BBBC9
0x8BBBD9
0x8BBF40
0x8BBF7F
0x8BC1F4
0x8BC3D0
0x8BC555
0x8BC720
0x8BCB90
0x8BCF77
0x8BCF7F
0x8BD0A0
0x8BD1E0
0x8BD1E2
0x8BD3D0
0x8BD3D2
0x8BD3D3
0x8BD81A
0x8BE05A
0x8BE0C0
0x8BE3C3
0x8BE4BF
0x8BE4C0
0x8BE4D4
0x8BE524
0x8BE940
0x8BF3F0
0x8BF588
0x8BF5B0
0x8BF5B4
0x8BFDA0
0x8C0408
0x8C05D0
0x8C06D0
0x8C0910
0x8C0912
0x8C0916
0x8C11B6
0x8C120C
0x8C1485
0x8C2142
0x8C235B
0x8C2380
0x8C2382
0x8C2980
0x8C2A90
0x8C2A9E
0x8C2AA0
0x8C2CC0
0x8C3140
0x8C3F92
0x8C49AB
0x8C49B9
0x8C4C70
0x8C4DF0
0x8C4F10
0x8C4FC0
0x8C4FCF
0x8C5061
0x8C5130
0x8C51F0
0x8C5300
0x8C53E8
0x8C5419
0x8C5450
0x8C54D7
0x8C5507
0x8C5760
0x8C5790
0x8C5830
0x8C5844
0x8C5860
0x8C5950
0x8C59E0
0x8C5A82
0x8C5A89
0x8C5BE0
0x8C5C03
0x8C5C40
0x8C5D64
0x8C5D66
0x8C5E80
0x8C5E89
0x8C5ED0
0x8C5F30
0x8C5F33
0x8C5F85
0x8C6220
0x8C628C
0x8C6370
0x8C6378
0x8C6583
0x8C6712
0x8C6760
0x8C6980
0x8C6A4A
0x8C6DB0
0x8C6E4A
0x8C6E88
0x8C6EE0
0x8C7086
0x8C7117
0x8C7160
0x8C7260
0x8C7263
0x8C73C0
0x8C7485
0x8C7527
0x8C7570
0x8C75A4
0x8C7600
0x8C7B5D
0x8C7E60
0x8C7E75
0x8C7F3C
0x8C8000
0x8C8030
0x8C8110
0x8C81A0
0x8C8200
0x8C8300
0x8C8320
0x8C8331
0x8C8349
0x8C837A
0x8C83C9
0x8C83D3
0x8C8490
0x8C84A7
0x8C8600
0x8C8790
0x8C89D0
0x8C89D8
0x8C8B20
0x8C8B40
0x8C8B74
0x8C8BB0
0x8C8BB8
0x8C8C29
0x8C8C96
0x8C8CF4
0x8C8D60
0x8C8D80
0x8C8D81
0x8C8F00
0x8C8F40
0x8C9024
0x8C91E0
0x8C9582
0x8C96D2
0x8C9850
0x8C9858
0x8C985A
0x8C9C1A
0x8C9C89
0x8CA170
0x8CA1F0
0x8CA250
0x8CA280
0x8CA340
0x8CA344
0x8CA346
0x8CA468
0x8CA4EC
0x8CA550
0x8CA850
0x8CA870
0x8CA930
0x8CAC20
0x8CAC24
0x8CAE72
0x8CAEB2
0x8CB068
0x8CB06F
0x8CB078
0x8CB379
0x8CB3E0
0x8CBAFA
0x8CBC16
0x8CBC61
0x8CBC65
0x8CBC69
0x8CBDBD
0x8CBDF0
0x8CBE50
0x8CBEF4
0x8CBEF8
0x8CBEFD
0x8CBEFE
0x8CBF20
0x8CBF24
0x8CBF2D
0x8CC105
0x8CC1A0
0x8CC23C
0x8CC482
0x8CC74E
0x8CCB2D
0x8CCB31
0x8CCB3E
0x8CCB53
0x8CCDF0
0x8CCE10
0x8CCE30
0x8CCE76
0x8CCF91
0x8CD3E0
0x8CD4AA
0x8CDA97
0x8CDBBF
0x8CDE40
0x8CDED0
0x8CDF59
0x8CE1F0
0x8CEA00
0x8CEC10
0x8CEC16
0x8CED37
0x8CED9A
0x8CEE4D
0x8CEF70
0x8CEF78
0x8CF045
0x8CF0A0
0x8CF190
0x8CF198
0x8CF240
0x8CF246
0x8CF66E
0x8CFAF0
0x8CFC70
0x8CFC74
0x8CFC77
0x8CFE97
0x8CFE9C
0x8CFF70
0x8CFF84
0x8D0082
0x8D008F
0x8D0262
0x8D0269
0x8D0449
0x8D07B6
0x8D09D0
0x8D09D2
0x8D09DB
0x8D0A83
0x8D0BBF
0x8D0C70
0x8D0D11
0x8D0D80
0x8D0E00
0x8D1045
0x8D1141
0x8D114D
0x8D1180
0x8D1184
0x8D1186
0x8D1572
0x8D1760
0x8D17A0
0x8D18DD
0x8D1CE4
0x8D1F8D
0x8D2106
0x8D2152
0x8D238E
0x8D2700
0x8D2702
0x8D2C48
0x8D2C82
0x8D2CF0
0x8D2D00
0x8D2E10
0x8D2E14
0x8D2E18
0x8D3300
0x8D3416
0x8D3890
0x8D39A6
0x8D41D0
0x8D42E0
0x8D42E4
0x8D42E8
0x8D4701
0x8D4840
0x8D4950
0x8D4954
0x8D4AC0
0x8D4AC4
0x8D5040
0x8D5250
0x8D5360
0x8D5364
0x8D54C0
0x8D55B0
0x8D5610
0x8D5612
0x8D5618
0x8D5621
0x8D56A5
0x8D57C6
0x8D5B53
0x8D5D93
0x8D5E70
0x8D5EC7
0x8D5F80
0x8D6090
0x8D61B0
0x8D62C0
0x8D63D0
0x8D6500
0x8D65D0
0x8D668E
0x8D6790
0x8D679C
0x8D6812
0x8D684B
0x8D6851
0x8D6920
0x8D6960
0x8D69B4
0x8D6BA0
0x8D6BAD
0x8D6DC4
0x8D6F0D
0x8D6FA0
0x8D71D0
0x8D7360
0x8D7364
0x8D736A
0x8D7379
0x8D738F
0x8D7730
0x8D7760
0x8D7992
0x8D7C20
0x8D7C24
0x8D7FE0
0x8D8060
0x8D8212
0x8D8280
0x8D8460
0x8D8464
0x8D8782
0x8D8A80
0x8D9220
0x8D93EF
0x8D94C0
0x8D94C4
0x8D950A
0x8D97F0
0x8D9840
0x8D986C
0x8D9A90
0x8D9CAC
0x8D9F50
0x8DA137
0x8DA1A0
0x8DA580
0x8DA840
0x8DA86C
0x8DA8A0
0x8DA960
0x8DA964
0x8DA9B4
0x8DACB0
0x8DACB4
0x8DB040
0x8DB044
0x8DB053
0x8DB0B2
0x8DB370
0x8DB650
0x8DB654
0x8DB852
0x8DBA10
0x8DBA14
0x8DBA1D
0x8DBAF9
0x8DBB41
0x8DBC2C
0x8DBC90
0x8DC020
0x8DC024
0x8DC395
0x8DCC40
0x8DCC44
0x8DD540
0x8DD544
0x8DDC60
0x8DDC64
0x8DE010
0x8DE014
0x8DE2B2
0x8DE2B4
0x8DE2B8
0x8DE2C3
0x8DE987
0x8DEA20
0x8DEA24
0x8DFCA2
0x8DFEA8
0x8E0227
0x8E0230
0x8E0DDC
0x8E0EC2
0x8E0F1B
0x8E1086
0x8E17FE
0x8E2627
0x8E2EA8
0x8E3230
0x8E3234
0x8E3768
0x8E37CC
0x8E38A8
0x8E3950
0x8E3A0F
0x8E3B30
0x8E3D92
0x8E3E2F
0x8E3E9C
0x8E4070
0x8E41E8
0x8E4289
0x8E443B
0x8E4690
0x8E48D0
0x8E48D4
0x8E4BAE
0x8E4D37
0x8E4D39
0x8E5020
0x8E5240
0x8E52C0
0x8E52C4
0x8E5610
0x8E5614
0x8E5BF0
0x8E5D00
0x8E5D04
0x8E5D61
0x8E6210
0x8E6214
0x8E6440
0x8E6444
0x8E66E3
0x8E67A5
0x8E6AA0
0x8E6AC0
0x8E6EB0
0x8E6F16
0x8E7040
0x8E7044
0x8E7928
0x8E8150
0x8E81DE
0x8E8310
0x8E8440
0x8E845C
0x8E85C8
0x8E8610
0x8E87C6
0x8E8810
0x8E8920
0x8E90F0
0x8E91AD
0x8E931A
0x8E937A
0x8E9450
0x8E9460
0x8E9690
0x8E96D0
0x8E96D2
0x8E96D6
0x8E9910
0x8E9960
0x8E9BA2
0x8E9FB8
0x8EA150
0x8EA156
0x8EA910
0x8EAAC7
0x8EAB55
0x8EAED0
0x8EAEDB
0x8EB000
0x8EB014
0x8EB1F0
0x8EB1FC
0x8EB3B0
0x8EB469
0x8EB4AB
0x8EB519
0x8EB55B
0x8EB582
0x8EB5B2
0x8EB5C0
0x8EB5C6
0x8EB910
0x8ECE40
0x8ED150
0x8ED430
0x8ED460
0x8ED463
0x8EDD56
0x8EE0F0
0x8EE0F3
0x8EE1E4
0x8EE230
0x8EE960
0x8EE9B3
0x8EF72D
0x8EF731
0x8F02F8
0x8F0475
0x8F0481
0x8F04C1
0x8F07DD
0x8F0AA0
0x8F0FAA
0x8F3E21
0x8F3E90
0x8F3EA4
0x8F49C1
0x8F4B50
0x8F51A9
0x8F51FA
0x8F5249
0x8F52C2
0x8F543D
0x8F54A4
0x8F5930
0x8F61F0
0x8F6F30
0x8F6F4E
0x8F7690
0x8F7692
0x8F7740
0x8F7773
0x8F7803
0x8F7897
0x8F7C80
0x8F7C97
0x8F7C9A
0x8F7FB0
0x8F7FD5
0x8F8209
0x8F85D0
0x8F85DB
0x8F8910
0x8F8972
0x8F8B7C
0x8F8DA0
0x8F8EF2
0x8F8F42
0x8F8F46
0x8F8F65
0x8F9098
0x8F91E4
0x8F9288
0x8F92B1
0x8F93B0
0x8F9461
0x8F94DF
0x8F9520
0x8F9590
0x8F95A0
0x8F95E0
0x8F9600
0x8F9607
0x8F97B1
0x8F9945
0x8F9970
0x8F9AA0
0x8F9AA8
0x8F9C90
0x8F9C99
0x8F9E30
0x8FA0F0
0x8FA188
0x8FA1C0
0x8FA1C5
0x8FA265
0x8FA2C0
0x8FA435
0x8FA5E0
0x8FA6C8
0x8FA846
0x8FA92C
0x8FA9E9
0x8FAA5E
0x8FAAA2
0x8FAB43
0x8FABD4
0x8FADF2
0x8FAE8A
0x8FAEE4
0x8FAFCB
0x8FB000
0x8FB020
0x8FB024
0x8FB240
0x8FB24A
0x8FB510
0x8FB526
0x8FB860
0x8FB864
0x8FB87C
0x8FCCF0
0x8FCCF4
0x8FCCF6
0x8FD34D
0x8FD3B4
0x8FD3C0
0x8FD560
0x8FD580
0x8FD5C0
0x8FD5C4
0x8FDAB0
0x8FDAB3
0x8FDE60
0x8FDEA0
0x8FDEA4
0x8FEE8C
0x8FEF1A
0x8FF140
0x8FF210
0x8FF258
0x8FF280
0x8FF2A5
0x8FF3C2
0x8FF708
0x8FF784
0x8FF885
0x8FFAC1
0x8FFB17
0x8FFBF7
0x8FFCC0
0x8FFEF0
0x8FFEFA
0x900530
0x900532
0x90053A
0x9007A0
0x901652
0x901653
0x9018CA
0x9021B8
0x902508
0x9025F0
0x902660
0x9026AE
0x9026E7
0x9026E9
0x902980
0x902B33
0x902C30
0x902C60
0x902C68
0x902E30
0x902E60
0x9031C0
0x903780
0x903EA8
0x904000
0x904197
0x904C60
0x904C66
0x904D60
0x904D70
0x904EF0
0x904F28
0x904FA0
0x904FD0
0x904FD4
0x9050B0
0x905220
0x905260
0x905279
0x905304
0x9056C0
0x905700
0x905730
0x90578C
0x905840
0x905910
0x905D50
0x905D70
0x905DB9
0x905E70
0x905E90
0x905EE0
0x905FF0
0x906020
0x906040
0x906140
0x9064B0
0x9066B5
0x906786
0x9068F0
0x906A80
0x907031
0x9071B0
0x907290
0x9072D0
0x907420
0x907530
0x907E51
0x907EF9
0x908100
0x9081B0
0x9081B2
0x9081B3
0x9081BB
0x9083C0
0x908660
0x9087D3
0x9088E5
0x908B60
0x908B68
0x908C80
0x908C8B
0x908E85
0x908F7D
0x909070
0x909730
0x909739
0x9098E2
0x9098E3
0x9098ED
0x909AB0
0x909B4D
0x909C70
0x909D80
0x909D83
0x909FCD
0x909FD1
0x909FD3
0x90A63C
0x90AEFD
0x90AF11
0x90B195
0x90B1AA
0x90B3D0
0x90B444
0x90B490
0x90B4A1
0x90B4B3
0x90B600
0x90B76F
0x90BAB8
0x90C1B0
0x90C1B2
0x90C1B6
0x90C4A2
0x90C8A0
0x90C905
0x90C90D
0x90C90F
0x90CB25
0x90CBBC
0x90CCA0
0x90D030
0x90D038
0x90D04F
0x90D200
0x90D220
0x90D254
0x90D3B0
0x90D420
0x90D5B4
0x90D612
0x90D62B
0x90D800
0x90EAD0
0x90EB2C
0x90EB48
0x90EDA0
0x90F0F0
0x90F0F2
0x90F0F4
0x90F3BA
0x90F436
0x90F450
0x90F452
0x90F9B0
0x90FBB0
0x90FDB0
0x90FDF0
0x90FE35
0x90FF33
0x910100
0x910108
0x910212
0x910230
0x910232
0x910970
0x910A05
0x910BA2
0x910CF3
0x910E53
0x911120
0x9111D8
0x911260
0x91129B
0x91131C
0x911498
0x9115D0
0x911620
0x911632
0x9119F7
0x911A32
0x911A38
0x911B30
0x911BD0
0x911D20
0x911D40
0x911D43
0x911DD0
0x911E20
0x911E84
0x911EC0
0x911EF8
0x9121A3
0x912BA4
0x912BB0
0x912D70
0x913348
0x91334C
0x913E12
0x913EAA
0x913F0D
0x914230
0x9142FD
0x9149A3
0x914AD4
0x914AEB
0x914B24
0x914B74
0x914BF0
0x914C32
0x914CD6
0x914D30
0x914D97
0x9153C6
0x9153CC
0x915930
0x915A12
0x915BBC
0x915D56
0x915E50
0x915F00
0x916736
0x9167C1
0x91685D
0x916861
0x916D38
0x9178E0
0x9178FB
0x917DC6
0x917EA0
0x917EA4
0x9180F0
0x9180F4
0x918154
0x9183D0
0x9183DC
0x9189B0
0x9189BB
0x918A76
0x918D60
0x918D69
0x918D73
0x918FB7
0x91910A
0x9193B0
0x9193FF
0x919A7D
0x919A81
0x919A87
0x91AA47
0x91AA4B
0x91AEC5
0x91AF20
0x91B128
0x91B340
0x91B65B
0x91B67B
0x91B8F6
0x91BBD0
0x91BCE1
0x91BE61
0x91BE67
0x91BEBC
0x91BEFC
0x91BFC0
0x91C210
0x91C5C3
0x91C670
0x91C678
0x91D210
0x91D213
0x91DE90
0x91E000
0x91E004
0x91E2D4
0x91E2E0
0x91E2E7
0x91E4E8
0x91E506
0x91E570
0x91E5A1
0x91E5D0
0x91E666
0x91E870
0x91E88D
0x91E8D0
0x91E910
0x91E990
0x91E994
0x91EAE8
0x91EAEA
0x91EBB0
0x91EBB2
0x91EC37
0x91EDFD
0x91F0B6
0x91F191
0x91F250
0x91F960
0x91FBDA
0x91FC89
0x9225A0
0x922C70
0x922CD0
0x922CD5
0x922D1B
0x922DC3
0x922DCB
0x922DCD
0x922EBF
0x922F00
0x922F50
0x922F5E
0x9231B4
0x923200
0x923216
0x923320
0x92333C
0x923380
0x92348A
0x92349D
0x923603
0x923740
0x92386F
0x923AC0
0x923B46
0x923B70
0x923B78
0x923BF6
0x923C20
0x923C82
0x923D12
0x923E50
0x923F10
0x92423B
0x9242A2
0x9244EF
0x924546
0x9245E0
0x9245E2
0x9245E9
0x92493B
0x924A60
0x924A64
0x924A68
0x924A6D
0x924D80
0x9250FA
0x925581
0x925770
0x925790
0x925BE2
0x925BE6
0x925EAC
0x926010
0x926400
0x9266A6
0x926890
0x92689F
0x9268F0
0x926A8D
0x926ABF
0x926B2A
0x926E50
0x926E5E
0x92717A
0x9271AB
0x927264
0x9275E0
0x9276E3
0x928550
0x928834
0x928F40
0x929887
0x929B6A
0x929C18
0x929D30
0x929D39
0x929D40
0x929E3E
0x929F44
0x929FDA
0x92A03A
0x92A140
0x92A21E
0x92A2C0
0x92A392
0x92A3D2
0x92A5A5
0x92A600
0x92A602
0x92A9D0
0x92A9D5
0x92AA47
0x92AAEA
0x92AEB0
0x92AEB2
0x92AECC
0x92B090
0x92B210
0x92B240
0x92B242
0x92B243
0x92B875
0x92B8C0
0x92B8C9
0x92BA80
0x92BA8D
0x92BC70
0x92BC90
0x92BC94
0x92BD90
0x92BD93
0x92BFA0
0x92BFA2
0x92C018
0x92C4FA
0x92C6C2
0x92C980
0x92C9A6
0x92CD00
0x92D07A
0x92D350
0x92D4DC
0x92D5A0
0x92D641
0x92D6B0
0x92D6CA
0x92D820
0x92D8E0
0x92D8F1
0x92D8FA
0x92D9A0
0x92DF3D
0x92DFF0
0x92E185
0x92E2C0
0x92E430
0x92F4F0
0x92F6A8
0x92F7B2
0x92F7B6
0x92FA22
0x92FB35
0x92FBA0
0x92FC96
0x92FDA0
0x92FDE0
0x92FDE4
0x92FEA0
0x9301C0
0x9301E0
0x9302D0
0x930321
0x9304C9
0x930500
0x930520
0x930684
0x930B0E
0x930BD0
0x931010
0x931037
0x931039
0x931221
0x931323
0x93147B
0x931604
0x93160B
0x931650
0x931657
0x93190D
0x931911
0x931913
0x931FA0
0x932083
0x9325CD
0x9325D1
0x9325D7
0x932651
0x932C00
0x932D3D
0x932EC7
0x932FA6
0x9331D8
0x9337D8
0x9338DF
0x93392A
0x933C2D
0x933D70
0x933E30
0x933EB1
0x933EBA
0x933FE0
0x933FEC
0x9340B2
0x93415A
0x934162
0x9343E0
0x934470
0x93454C
0x9348D0
0x9349F4
0x9354C0
0x935768
0x9359ED
0x9363C1
0x936470
0x936507
0x9365B9
0x936650
0x936680
0x936694
0x9366BB
0x936704
0x936780
0x93678F
0x93679C
0x9368A0
0x9368AB
0x936AA4
0x936D7E
0x936EA0
0x936ED0
0x936EE9
0x937110
0x937315
0x937353
0x937828
0x937968
0x937A2D
0x937B0A
0x938B6F
0x938E14
0x938EEE
0x9391B0
0x9391E1
0x939298
0x939447
0x9394E9
0x939500
0x9396B0
0x939980
0x939989
0x939A47
0x939C50
0x939C70
0x939D44
0x93A270
0x93A2A1
0x93A2D4
0x93A350
0x93A3C6
0x93A810
0x93AD30
0x93AD34
0x93AD37
0x93AD9D
0x93AEA0
0x93AF80
0x93B050
0x93B068
0x93B11C
0x93B490
