0x404AC0
0x406D45
0x406D94
0x406DFA
0x406E30
0x406E40
0x406EF5
0x406F00
0x407030
0x407170
0x407174
0x4071D0
0x4071D4
0x407250
0x4072E0
0x407400
0x407402
0x407404
0x4074E0
0x407570
0x4075B0
0x407630
0x407721
0x407821
0x407A71
0x407B60
0x407BA0
0x407BE0
0x407C30
0x407C70
0x407CA0
0x407CA2
0x407CA4
0x407CF0
0x407DA0
0x407DD0
0x407DF0
0x4081A1
0x408780
0x408841
0x4088B0
0x4089B0
0x408A40
0x408AF0
0x408B00
0x408B23
0x408B50
0x408B80
0x408BD0
0x408CB0
0x408DE0
0x408E30
0x408E41
0x409090
0x409116
0x409130
0x409160
0x409170
0x4091C0
0x4091D0
0x4092D0
0x409336
0x409350
0x4093A0
0x409470
0x409580
0x4095E0
0x409640
0x409730
0x409760
0x409780
0x409782
0x4097F1
0x409890
0x4098B0
0x409970
0x4099F0
0x409A30
0x409A61
0x409A90
0x409AB1
0x409D10
0x409D12
0x409D14
0x409E01
0x409F60
0x409F62
0x40A490
0x40A904
0x40A910
0x40A931
0x40AC3F
0x40AC8C
0x40ACB1
0x40B022
0x40B071
0x40B1E0
0x40B221
0x40B2C0
0x40B2C2
0x40B2C4
0x40B370
0x40B39A
0x40B3C1
0x40B8A6
0x40B9FE
0x40BA80
0x40BB61
0x40BBBF
0x40BBE4
0x40BC21
0x40BF80
0x40BFF0
0x40C0F0
0x40C1D1
0x40C500
0x40C502
0x40C504
0x40C571
0x40C870
0x40CBC0
0x40CC9E
0x40CCF1
0x40CD40
0x40D1D1
0x40D320
0x40D330
0x40D360
0x40D3E1
0x40D3F0
0x40D451
0x40D480
0x40D4D0
0x40D530
0x40D630
0x40D740
0x40D770
0x40D772
0x40D774
0x40D7C0
0x40D871
0x40D901
0x40D980
0x40D9F0
0x40DC48
0x40DC70
0x40DCD0
0x40DD00
0x40DD02
0x40DD04
0x40DD50
0x40DD70
0x40DD72
0x40DD74
0x40DE30
0x40DF90
0x40DFC0
0x40DFC2
0x40DFC4
0x40E010
0x40E060
0x40E100
0x40E1B0
0x40E251
0x40E721
0x40EAC1
0x40F716
0x40F7A2
0x40F82A
0x40F8B6
0x40F93E
0x40F9BC
0x40FA11
0x40FBB0
0x40FBCC
0x40FC20
0x40FD47
0x40FE01
0x40FEB1
0x410070
0x410081
0x410169
0x410200
0x410220
0x410250
0x410260
0x410290
0x410292
0x410294
0x4102E0
0x4103A9
0x4103C0
0x410420
0x410450
0x410452
0x410454
0x4104A0
0x4104D0
0x410500
0x4105E0
0x410610
0x410612
0x410614
0x410660
0x4106A0
0x4106C3
0x4106E1
0x4109D8
0x410A3D
0x410A80
0x410AC1
0x410B40
0x410B70
0x410B72
0x410B74
0x410BC0
0x410BE0
0x410C30
0x410CD1
0x411231
0x411381
0x4113CF
0x411520
0x4115E7
0x41172D
0x4117A9
0x41182A
0x4118AA
0x411927
0x4119A6
0x411A27
0x411AA5
0x411B1F
0x411B91
0x411CB0
0x411CC3
0x411CE1
0x4120F8
0x4121BF
0x412280
0x41229C
0x412300
0x412520
0x412541
0x412750
0x4128D0
0x412950
0x412971
0x412A18
0x412B02
0x412B28
0x412B61
0x412CC4
0x412D03
0x412D41
0x412EC0
0x412EE1
0x412F51
0x413010
0x413150
0x413260
0x413290
0x413292
0x413294
0x4132E0
0x413300
0x4133A0
0x413440
0x413490
0x4134B0
0x413530
0x413540
0x413620
0x413660
0x413680
0x4136D1
0x413740
0x41381F
0x413870
0x4138F0
0x4139A0
0x4139A8
0x413B60
0x413C40
0x413C60
0x413C62
0x413C64
0x413D50
0x413D52
0x413D54
0x413E00
0x413E31
0x413E37
0x413FE0
0x414001
0x414210
0x414214
0x4142E0
0x414300
0x414320
0x414340
0x414370
0x4143B1
0x414881
0x414A90
0x414B30
0x414DD0
0x414E70
0x414E90
0x414F10
0x414F80
0x415020
0x4150A1
0x4150DC
0x4153B0
0x415471
0x415561
0x415970
0x4159A0
0x4159C0
0x415A90
0x415A94
0x415AE0
0x415B00
0x415B91
0x415CC0
0x415D51
0x415E21
0x415F21
0x4161E0
0x4161F0
0x416260
0x4162D0
0x416330
0x416460
0x4164B0
0x4164C0
0x4164E0
0x4164F1
0x416541
0x416550
0x416570
0x416600
0x416604
0x416680
0x4166D1
0x4166E1
0x416930
0x4169E0
0x4169F0
0x416A90
0x416AD0
0x416AE0
0x416B40
0x416B60
0x416B68
0x416C40
0x416CC1
0x416DD0
0x416E60
0x416E90
0x416EB0
0x416EE0
0x416EFC
0x416F30
0x416F70
0x416FD0
0x4170C7
0x417103
0x4171F0
0x417300
0x417312
0x417360
0x417490
0x4174C1
0x4174D0
0x417510
0x417540
0x4175B0
0x417690
0x417770
0x417782
0x4177B0
0x4178E0
0x417900
0x4179C0
0x417A00
0x417A25
0x417A60
0x417A90
0x417AF0
0x417B50
0x417BA0
0x417C70
0x417C74
0x417CC0
0x417CE0
0x417D71
0x417EE0
0x417F71
0x418091
0x418221
0x4183A0
0x4183D0
0x418400
0x418430
0x418460
0x4184F0
0x418570
0x4185D0
0x418700
0x418750
0x418760
0x418780
0x418791
0x4187E1
0x4187F0
0x418810
0x4188A0
0x4188A4
0x418920
0x4189B1
0x418C00
0x418C30
0x418CA0
0x418CC1
0x418D90
0x418DC0
0x418E70
0x418F50
0x418FD0
0x419000
0x419020
0x419050
0x41906C
0x4190B0
0x419110
0x419207
0x419243
0x419330
0x419440
0x419480
0x4194B0
0x4195D0
0x419640
0x419652
0x419680
0x4197A0
0x4197D0
0x419810
0x419840
0x4198B0
0x419990
0x419A70
0x419AB0
0x419AD5
0x419B10
0x419B40
0x419B52
0x419B80
0x419CB0
0x419CC0
0x419D20
0x419D80
0x419DD1
0x419E90
0x419EB8
0x419ED1
0x41A011
0x41A0F1
0x41A2AE
0x41A2D1
0x41A367
0x41A625
0x41A691
0x41A775
0x41A7D1
0x41A7DA
0x41A80D
0x41AD21
0x41AE61
0x41B010
0x41B0F0
0x41B130
0x41B150
0x41B1A1
0x41B210
0x41B271
0x41B2CE
0x41B2E1
0x41B340
0x41B350
0x41B3D0
0x41B420
0x41B4B0
0x41B530
0x41B5F0
0x41B610
0x41B660
0x41B760
0x41B781
0x41B860
0x41B8D0
0x41B980
0x41B9A0
0x41B9E1
0x41BB00
0x41BB21
0x41BB60
0x41BC71
0x41BC92
0x41BD70
0x41BF90
0x41BFC0
0x41BFE1
0x41C010
0x41C150
0x41C1A1
0x41C2B9
0x41C391
0x41C5A9
0x41C690
0x41C6A1
0x41C740
0x41C7C0
0x41C7E1
0x41C8A0
0x41C8D3
0x41C8E1
0x41C950
0x41C970
0x41C9A0
0x41C9C1
0x41CAB1
0x41CB80
0x41CC91
0x41CE31
0x41CED0
0x41CF10
0x41CF50
0x41CF60
0x41D0F0
0x41D0F2
0x41D250
0x41D252
0x41D311
0x41D3B0
0x41D3E0
0x41D420
0x41D440
0x41D460
0x41D4C0
0x41D820
0x41D8B0
0x41D940
0x41D991
0x41DB51
0x41DD61
0x41DE11
0x41DEF0
0x41DF10
0x41DF60
0x41DF70
0x41DF90
0x41E000
0x41E090
0x41E0B0
0x41E0E0
0x41E101
0x41E1E0
0x41E241
0x41E540
0x41E760
0x41E780
0x41E860
0x41E864
0x41E921
0x41EA20
0x41EAB0
0x41EB31
0x41EBE0
0x41EBE2
0x41EBE4
0x41EC41
0x41EE10
0x41EF01
0x41F300
0x41F302
0x41F304
0x41F3B1
0x41F4EA
0x41F870
0x41F8E0
0x41FBA0
0x41FBC0
0x41FC10
0x41FC30
0x41FC71
0x41FD61
0x41FF61
0x41FFF0
0x420041
0x420110
0x420201
0x4203B0
0x420431
0x420741
0x420792
0x420889
0x4208C0
0x4208E0
0x420A20
0x420A50
0x420A52
0x420A54
0x420AA0
0x420AC0
0x420B61
0x420C67
0x420C70
0x420D00
0x420D40
0x420D6E
0x420D91
0x420DF0
0x421366
0x421720
0x421D40
0x421E51
0x421EA1
0x421F00
0x4220D0
0x4220E8
0x422100
0x422291
0x422571
0x4225E1
0x422670
0x4228B1
0x422A91
0x422B30
0x422B50
0x422B70
0x422BE0
0x422C40
0x422D00
0x422E00
0x422E50
0x423021
0x423270
0x423280
0x423290
0x4232B7
0x4232C0
0x4232D0
0x423330
0x423340
0x423440
0x423470
0x423500
0x4235E0
0x4236D3
0x4236F0
0x4237B0
0x423840
0x423910
0x423950
0x423960
0x423981
0x423991
0x4239D0
0x423A10
0x423A20
0x423B50
0x423B60
0x423BB0
0x423C00
0x423DD1
0x424020
0x424030
0x424040
0x424067
0x424070
0x424080
0x4240D0
0x4240E0
0x4241E0
0x424210
0x4242A0
0x424320
0x4243C0
0x4244C0
0x424520
0x4245D3
0x424621
0x4246B1
0x424A9C
0x424BCD
0x424C7D
0x424CC4
0x4250AC
0x425102
0x425191
0x425220
0x42524A
0x425272
0x425320
0x425341
0x4253C2
0x425571
0x425721
0x425901
0x425B20
0x425C90
0x425CF1
0x425FB6
0x4260A1
0x4260C8
0x426140
0x426160
0x426190
0x4261C1
0x426300
0x426321
0x4264B0
0x426591
0x426670
0x426690
0x4266D0
0x426760
0x426809
0x4268D0
0x4268D2
0x42691D
0x426941
0x426A57
0x426A60
0x426AF0
0x426B20
0x426D30
0x426D38
0x426F40
0x426F56
0x427010
0x427030
0x427034
0x427090
0x4272B1
0x4274D0
0x427891
0x427BA1
0x427FDB
0x428155
0x428460
0x42850B
0x4286D1
0x42891F
0x428FE1
0x42904A
0x429510
0x429611
0x42961A
0x429831
0x429A11
0x429C71
0x429D20
0x429D91
0x429F81
0x42A2A7
0x42A344
0x42A37D
0x42A421
0x42A65C
0x42A695
0x42A6E1
0x42A6E7
0x42A773
0x42A7C0
0x42A7C5
0x42A801
0x42AB91
0x42AD1D
0x42AE91
0x42B271
0x42B27A
0x42B85D
0x42B8C0
0x42B92E
0x42B9EE
0x42BA10
0x42BA60
0x42BAC0
0x42BB00
0x42BC50
0x42BD84
0x42BE11
0x42BF20
0x42C081
0x42C0D1
0x42C111
0x42C180
0x42C290
0x42C330
0x42C348
0x42C361
0x42C3D1
0x42C4D1
0x42C550
0x42C5A0
0x42C5C0
0x42C651
0x42C731
0x42C8B0
0x42C920
0x42C930
0x42CA40
0x42CA70
0x42CA72
0x42CA74
0x42CAC0
0x42CAE1
0x42CB40
0x42CCA0
0x42CCD0
0x42CCD2
0x42CCD4
0x42CD20
0x42CD60
0x42CE80
0x42CF40
0x42CFB1
0x42D090
0x42D092
0x42D094
0x42D140
0x42D1E0
0x42D1E2
0x42D22D
0x42D251
0x42D357
0x42D360
0x42D3F0
0x42D3F2
0x42D43D
0x42D510
0x42D5A0
0x42D5D1
0x42D61D
0x42D651
0x42D751
0x42D7A2
0x42D7D7
0x42D7E0
0x42D870
0x42D920
0x42DA10
0x42DA40
0x42DAB0
0x42DAD0
0x42DB00
0x42DBF0
0x42DC80
0x42DCA1
0x42DE30
0x42DE40
0x42DF71
0x42E330
0x42E370
0x42E380
0x42E440
0x42E5B0
0x42E640
0x42E661
0x42E790
0x42E7E1
0x42E880
0x42E893
0x42E920
0x42E940
0x42EC21
0x42ED00
0x42ED21
0x42F010
0x42F1B0
0x42F350
0x42F530
0x42F630
0x42F6DE
0x42F756
0x42F7B0
0x42F7E0
0x42F831
0x42FBE1
0x42FF70
0x430090
0x430100
0x430120
0x430210
0x4309B1
0x4310F0
0x431200
0x431202
0x431300
0x4313A0
0x4313E0
0x431491
0x4315F0
0x431602
0x431691
0x43172C
0x431781
0x4318C0
0x431911
0x431A61
0x431C20
0x431C70
0x431F0E
0x4320E0
0x432101
0x4321B0
0x4322B0
0x4322F0
0x432391
0x432690
0x432870
0x432880
0x432AD0
0x432AF0
0x432BC0
0x432BF0
0x432C30
0x432C50
0x432C70
0x432CE0
0x432D90
0x432EA0
0x432EA2
0x432F31
0x433140
0x433161
0x4331C3
0x433257
0x433370
0x433441
0x4335E0
0x433620
0x433660
0x433700
0x433790
0x4337C0
0x433850
0x433971
0x433C10
0x433C20
0x433E1C
0x433E70
0x433F10
0x433F30
0x4342C0
0x434403
0x434570
0x4345D0
0x434660
0x434730
0x434750
0x434780
0x434850
0x434852
0x4349D0
0x4349D2
0x434A31
0x434AD0
0x434B00
0x434BC0
0x434EF0
0x434F20
0x435061
0x43540E
0x435510
0x435561
0x4356D0
0x4356E0
0x4356F0
0x4357D0
0x435810
0x435890
0x435930
0x4359E0
0x435A80
0x435AC0
0x435B60
0x435C00
0x435CA0
0x435D40
0x435DF0
0x435E31
0x435F60
0x435FBF
0x436131
0x436210
0x436220
0x4362F0
0x436410
0x4365C0
0x4365D0
0x436681
0x436740
0x436811
0x4369C0
0x436A70
0x436ACF
0x436B70
0x436EF0
0x436F40
0x437070
0x437090
0x437180
0x437182
0x437250
0x437252
0x437321
0x4375E8
0x437B01
0x437D31
0x437ED0
0x438050
0x438111
0x4381F0
0x438270
0x4382A0
0x4382F0
0x438340
0x438380
0x4383B0
0x438430
0x438500
0x438570
0x438572
0x438574
0x438641
0x438687
0x438695
0x4388C1
0x438940
0x438951
0x438997
0x438A71
0x438B30
0x438B51
0x438CC0
0x438DE1
0x438E34
0x438EC1
0x438F15
0x439121
0x439171
0x439370
0x439460
0x439462
0x4394AD
0x4394D0
0x439504
0x439512
0x439590
0x439660
0x4396D0
0x439928
0x439940
0x4399A0
0x4399D0
0x4399F1
0x439A90
0x439BD0
0x439C10
0x439C62
0x439C71
0x439CF0
0x439D60
0x439FB8
0x439FE0
0x43A000
0x43A002
0x43A004
0x43A0B1
0x43A130
0x43A1A0
0x43A3F8
0x43A420
0x43A440
0x43A442
0x43A444
0x43A590
0x43A5D4
0x43A651
0x43A771
0x43A7C2
0x43A7F1
0x43A8F7
0x43A900
0x43AA59
0x43AA90
0x43AB30
0x43AB90
0x43ABB1
0x43AC40
0x43AC90
0x43AC92
0x43AC94
0x43AD40
0x43AD61
0x43ADF0
0x43AE40
0x43AE42
0x43AE44
0x43B0B1
0x43B2E1
0x43B343
0x43B741
0x43B880
0x43B8B0
0x43B950
0x43BAD2
0x43BB40
0x43BB90
0x43BBE0
0x43BC30
0x43BE40
0x43BE50
0x43BF81
0x43C310
0x43C341
0x43C491
0x43C680
0x43C6B0
0x43C774
0x43C7D0
0x43C7D2
0x43C8A0
0x43CA70
0x43CB60
0x43CB62
0x43CC60
0x43CD60
0x43CEC0
0x43CEC2
0x43CEED
0x43CFE5
0x43D031
0x43D130
0x43D204
0x43D210
0x43D212
0x43D246
0x43D310
0x43D3B0
0x43D460
0x43D462
0x43D570
0x43D572
0x43D690
0x43D7B0
0x43D7B2
0x43D7B4
0x43D9C0
0x43D9D0
0x43DAF1
0x43DCA1
0x43DE10
0x43DE30
0x43DE80
0x43DEA0
0x43DEF1
0x43E1E0
0x43E371
0x43E6C0
0x43E8A0
0x43E8C0
0x43E981
0x43EA80
0x43EAB0
0x43EB20
0x43EB50
0x43EC20
0x43EC22
0x43ED10
0x43ED20
0x43ED40
0x43ED60
0x43ED80
0x43EF60
0x43EF90
0x43EFE0
0x43F1D0
0x43F1F0
0x43F221
0x43F381
0x43F501
0x43F5E0
0x43F610
0x43F760
0x43F940
0x43F950
0x43FA90
0x43FAB0
0x43FB11
0x43FB61
0x43FBB0
0x43FBE0
0x43FD00
0x43FD80
0x43FDC0
0x43FE30
0x43FE80
0x440121
0x440220
0x4402E0
0x440390
0x440440
0x4404F0
0x440580
0x440588
0x4406A0
0x4406F0
0x4406F4
0x440730
0x4409C3
0x440AA0
0x440AF0
0x440BC1
0x440C40
0x440CB0
0x440F08
0x440F30
0x440F50
0x440F52
0x440F54
0x441000
0x441031
0x441090
0x441110
0x441120
0x4411D0
0x441221
0x44126D
0x441390
0x4413F0
0x441471
0x441501
0x441711
0x4419D1
0x441A61
0x441B71
0x441BAA
0x441E81
0x442230
0x442251
0x4422F0
0x442441
0x4424E0
0x4425D0
0x442680
0x442770
0x442870
0x442880
0x442890
0x4428A0
0x4428F0
0x442900
0x442910
0x442BC0
0x442BD0
0x442BE0
0x442C70
0x442DE0
0x442E91
0x442EE0
0x442F00
0x443061
0x4430E7
0x443141
0x44314A
0x4431AA
0x443370
0x4433C1
0x4433CA
0x443575
0x443611
0x443930
0x4439A1
0x443B00
0x443CE0
0x443D8F
0x443F21
0x444030
0x44405B
0x444190
0x444192
0x4442C1
0x444460
0x4446F0
0x444930
0x4449B0
0x444A90
0x444B00
0x444B20
0x444BB0
0x444ED1
0x4452D1
0x445381
0x4453E0
0x445430
0x44553A
0x445570
0x445710
0x4457F0
0x445800
0x445871
0x445B10
0x445B31
0x445C50
0x445DE1
0x445E71
0x445FF0
0x4460E0
0x446127
0x4461E1
0x446260
0x4462E0
0x446301
0x4463A0
0x4464E0
0x446520
0x446572
0x446590
0x4465B0
0x4465B2
0x4465B4
0x446660
0x446690
0x446839
0x446850
0x446930
0x446932
0x44697D
0x4469A1
0x446AA7
0x446AB0
0x446B40
0x446BD0
0x446C40
0x446C60
0x446C64
0x446D00
0x446E80
0x446FA0
0x446FA2
0x447210
0x447230
0x4472A0
0x447300
0x447341
0x447880
0x447891
0x447910
0x447960
0x447C20
0x447CF0
0x447CF2
0x447E01
0x447F90
0x447F92
0x447F94
0x4480F0
0x4481B0
0x4489F4
0x448A00
0x448B39
0x448B60
0x448BB0
0x448BF1
0x448DA0
0x448E50
0x448F20
0x449020
0x449024
0x4490A1
0x449231
0x44928E
0x4498BF
0x449950
0x449A81
0x449E70
0x449E74
0x449F60
0x44A0A0
0x44A1C0
0x44A1C4
0x44A2D1
0x44A314
0x44A427
0x44A4B5
0x44A6C0
0x44AB30
0x44AF21
0x44AF91
0x44B0F1
0x44B1C0
0x44B250
0x44B350
0x44B401
0x44B4D0
0x44B570
0x44B5A0
0x44B610
0x44B630
0x44B640
0x44B790
0x44B79A
0x44B7B1
0x44BA70
0x44BA80
0x44BC30
0x44BC50
0x44BC80
0x44BD10
0x44BD30
0x44BE10
0x44C1B0
0x44C370
0x44C451
0x44C640
0x44C750
0x44C910
0x44C990
0x44CB40
0x44CCF0
0x44CFA0
0x44D161
0x44D331
0x44D690
0x44D6C0
0x44D721
0x44D950
0x44D980
0x44DB20
0x44DDE0
0x44DE71
0x44DF28
0x44DF53
0x44E08A
0x44E164
0x44E2E0
0x44E2E2
0x44E3B1
0x44E3B3
0x44E411
0x44E47A
0x44E4EA
0x44E5E3
0x44E671
0x44E6F4
0x44E7A1
0x44E814
0x44E8D1
0x44E8F0
0x44EAB0
0x44EB01
0x44EC81
0x44ED52
0x44EE11
0x44EE91
0x44F1C7
0x44F290
0x44F39B
0x44F431
0x44F4E1
0x44F570
0x44F572
0x44F6F0
0x44F950
0x44FB00
0x44FB20
0x44FB40
0x44FC40
0x44FC90
0x44FCC0
0x44FCF0
0x44FDA1
0x44FDCC
0x44FEF1
0x44FF91
0x450111
0x450231
0x450300
0x450320
0x450340
0x450360
0x450410
0x450440
0x450470
0x4504A0
0x4504D0
0x450520
0x450601
0x450670
0x450710
0x450731
0x450790
0x4507A0
0x450A00
0x450B50
0x450B90
0x450C20
0x450C80
0x450D70
0x450D90
0x450E00
0x450E20
0x450E30
0x450E60
0x450E80
0x451060
0x451070
0x451080
0x4510F1
0x4512F0
0x451361
0x451590
0x4515C5
0x4515E0
0x451700
0x451720
0x451722
0x451724
0x45179A
0x451800
0x451820
0x451891
0x451E0E
0x451E60
0x451E62
0x451EB0
0x451F21
0x451F71
0x452020
0x4520D0
0x452131
0x452181
0x452200
0x452260
0x4522C1
0x452340
0x4523A0
0x4523C1
0x452480
0x4524F0
0x452690
0x4526A1
0x4528C0
0x452920
0x452930
0x452940
0x452991
0x4529E0
0x452A30
0x452A50
0x452A60
0x452B31
0x452B70
0x452BD1
0x452C20
0x452CB1
0x452D40
0x452D61
0x452DF1
0x452E81
0x452F51
0x452FE1
0x453050
0x4530A0
0x453111
0x453350
0x453371
0x4536D3
0x4536E0
0x453720
0x453760
0x4537A0
0x4537E0
0x453873
0x4538C0
0x4538D3
0x453900
0x453A20
0x453A70
0x453AE1
0x453AF0
0x453B70
0x453CA0
0x453CF0
0x453E30
0x453E60
0x453F80
0x453FC0
0x453FD0
0x454000
0x454063
0x454080
0x454120
0x4541C1
0x4541E0
0x454280
0x454340
0x454381
0x4543DF
0x454450
0x4544D0
0x454520
0x454560
0x4545D0
0x454630
0x454632
0x454634
0x454681
0x454730
0x454750
0x454780
0x454831
0x454860
0x454890
0x4548A3
0x4548C3
0x4549C0
0x454A31
0x454A50
0x454A70
0x454A90
0x454AB0
0x454AD0
0x454AF0
0x454B10
0x454B30
0x454B60
0x454B80
0x454BE0
0x454CB0
0x454CD0
0x454CD4
0x454D00
0x454E60
0x454E90
0x454EA0
0x454F90
0x455030
0x4550C0
0x4550F0
0x455181
0x4554A0
0x455670
0x455680
0x45587C
0x4558C0
0x4558F1
0x455990
0x455AA0
0x455B30
0x455C10
0x455CE0
0x455D10
0x455D12
0x455DD0
0x455E00
0x455E02
0x455ECB
0x455F20
0x455FB0
0x456070
0x4560A0
0x4560F0
0x456130
0x4561A3
0x456274
0x456310
0x4563F0
0x456410
0x4565A1
0x456781
0x456900
0x4569F0
0x456A01
0x456BA0
0x456BA2
0x456C91
0x456C96
0x456D60
0x456E31
0x457667
0x458370
0x458372
0x4583D0
0x458470
0x458641
0x458861
0x458960
0x458971
0x458C70
0x458D40
0x458E30
0x458E70
0x458EA0
0x458EA2
0x458EA4
0x458EF1
0x458F70
0x458FF0
0x459011
0x4590B0
0x4591F0
0x459230
0x459282
0x4592A0
0x4592C0
0x4592F0
0x4592F2
0x4592F4
0x4593A0
0x4593A2
0x4593ED
0x459540
0x459563
0x459570
0x459590
0x4595F0
0x459650
0x459673
0x459690
0x4596B3
0x4596C3
0x4596D3
0x4596E3
0x459750
0x4597D7
0x4597E0
0x459911
0x459BA0
0x459CA1
0x459D90
0x459DE0
0x459E10
0x459E40
0x459E60
0x459E90
0x459EC0
0x459EF0
0x459F10
0x459F40
0x459F70
0x459FA0
0x459FD0
0x45A000
0x45A030
0x45A061
0x45A0E1
0x45A160
0x45A190
0x45A197
0x45A1C0
0x45A1F0
0x45A220
0x45A250
0x45A280
0x45A2B0
0x45A300
0x45A370
0x45A420
0x45A440
0x45A653
0x45A663
0x45A670
0x45A6A0
0x45A6A7
0x45A6D0
0x45A6D7
0x45A700
0x45A783
0x45A793
0x45A7A0
0x45A7D0
0x45A7D7
0x45A800
0x45A843
0x45A853
0x45A9B0
0x45A9D0
0x45A9F0
0x45AA20
0x45AA40
0x45AB70
0x45AB80
0x45AC90
0x45AC9B
0x45ADB0
0x45ADBB
0x45AE80
0x45AEA0
0x45AEC0
0x45AED0
0x45AF00
0x45AF07
0x45AF30
0x45B010
0x45B030
0x45B050
0x45B070
0x45B090
0x45B0B0
0x45B150
0x45B180
0x45B187
0x45B1C0
0x45B1C7
0x45B1F0
0x45B1F7
0x45B223
0x45B233
0x45B253
0x45B353
0x45B400
0x45B420
0x45B440
0x45B450
0x45B490
0x45B4E0
0x45B500
0x45B580
0x45B5A0
0x45B5C0
0x45B5D0
0x45B600
0x45B690
0x45B6B0
0x45B7D0
0x45B860
0x45B8B0
0x45B8D0
0x45B8E0
0x45B910
0x45B940
0x45B970
0x45B990
0x45B9D0
0x45B9E0
0x45BA50
0x45BA70
0x45BAA0
0x45BAB0
0x45BAD0
0x45BB00
0x45BB90
0x45BC10
0x45BCB0
0x45BCD0
0x45BCF0
0x45BD00
0x45BD30
0x45BD50
0x45BD60
0x45BD70
0x45BDD0
0x45BDF0
0x45BE10
0x45BE30
0x45BE50
0x45BE70
0x45BE90
0x45BF10
0x45BF30
0x45BF50
0x45BFD0
0x45C050
0x45C140
0x45C240
0x45C2E0
0x45C300
0x45C450
0x45C4B0
0x45C590
0x45C5E0
0x45C5F0
0x45C700
0x45C731
0x45C8B0
0x45C920
0x45CA60
0x45CAC1
0x45CC19
0x45CC70
0x45CD80
0x45CDB0
0x45CE40
0x45CE42
0x45CE8D
0x45CEB0
0x45CEE1
0x45D040
0x45D061
0x45D1A0
0x45D1A2
0x45D1A4
0x45D200
0x45D3C0
0x45D48E
0x45D4AE
0x45D4C0
0x45D580
0x45D671
0x45D9A0
0x45DAF0
0x45DBA0
0x45DC21
0x45DCE0
0x45DCF0
0x45DD91
0x45DE97
0x45DEA0
0x45DFD0
0x45E0B0
0x45E0D0
0x45E0D4
0x45E2D0
0x45E3F0
0x45E6C0
0x45E6E1
0x45E7C1
0x45E880
0x45E910
0x45EA61
0x45EB60
0x45EC94
0x45ECC3
0x45ED00
0x45ED21
0x45EE20
0x45EE50
0x45EE80
0x45EF10
0x45F080
0x45F090
0x45F0C0
0x45F1F0
0x45F260
0x45F274
0x45F394
0x45F410
0x45F4C0
0x45F520
0x45F581
0x45F641
0x45FA93
0x45FB51
0x45FFE0
0x4603E1
0x460971
0x460AF0
0x460C31
0x460D16
0x460FC1
0x460FFB
0x461391
0x46180F
0x461871
0x461A91
0x461BC7
0x461F30
0x4621A0
0x462291
0x4624B1
0x462681
0x4628A8
0x462B91
0x462CF8
0x462DEF
0x462E61
0x4631C1
0x4634A1
0x463821
0x463D51
0x463D53
0x463E81
0x463E87
0x464071
0x464311
0x464661
0x4648C5
0x464A10
0x464AA0
0x464D40
0x464DA0
0x464DD0
0x464DF1
0x464F10
0x464F80
0x464F91
0x464F9A
0x46502E
0x465471
0x465811
0x465990
0x465A50
0x465A90
0x465B31
0x465BA0
0x465C80
0x465D50
0x465E60
0x465ED0
0x465F30
0x465FA0
0x466000
0x466002
0x46604D
0x466071
0x466177
0x466180
0x466251
0x466339
0x466390
0x466471
0x466530
0x466560
0x466564
0x466860
0x466862
0x466900
0x466C8D
0x467240
0x467242
0x46728D
0x4672F0
0x467310
0x467314
0x4673C0
0x467400
0x467A3F
0x467AD4
0x467C51
0x467C8F
0x467D26
0x467DF1
0x467E86
0x467F1B
0x467FE6
0x4680B1
0x46817C
0x468247
0x4682DC
0x468371
0x468406
0x46849B
0x468530
0x4685C5
0x46870E
0x46874E
0x4689A1
0x4689AA
0x468D90
0x4691A0
0x469251
0x46948C
0x469650
0x469701
0x469790
0x469841
0x4698D0
0x4699B4
0x4699F1
0x469A50
0x469C00
0x469C47
0x469DE0
0x469DE2
0x469E2D
0x469E50
0x469E90
0x469EC0
0x46A011
0x46A117
0x46A120
0x46A251
0x46A350
0x46A352
0x46A39D
0x46A3C7
0x46A3D0
0x46A501
0x46A600
0x46A602
0x46A64D
0x46A677
0x46A680
0x46A710
0x46A712
0x46A75D
0x46A780
0x46A7E0
0x46A810
0x46A870
0x46A891
0x46A900
0x46A9C0
0x46A9D3
0x46A9F0
0x46AA70
0x46AB60
0x46AB90
0x46ABF0
0x46AC11
0x46AC80
0x46AD53
0x46AD70
0x46ADF0
0x46AE90
0x46AEB3
0x46AED0
0x46AFD1
0x46B51D
0x46B580
0x46B5A0
0x46B5B0
0x46B5D0
0x46B5F0
0x46B610
0x46B631
0x46B637
0x46B6F0
0x46B7F0
0x46B8E1
0x46B960
0x46B9D0
0x46BC28
0x46BC50
0x46BCA0
0x46BCA2
0x46BCA4
0x46BD50
0x46BD80
0x46BDE0
0x46BE01
0x46BE70
0x46BF30
0x46BF40
0x46BFC0
0x46C010
0x46C080
0x46C0A0
0x46C131
0x46C1A0
0x46C1C0
0x46C27C
0x46C441
0x46C4E0
0x46C5D1
0x46C980
0x46C9E0
0x46CA40
0x46CAA0
0x46CB01
0x46CCB7
0x46CD01
0x46D246
0x46D32A
0x46D390
0x46D430
0x46D5B1
0x46D6C0
0x46D6F1
0x46D880
0x46D8A0
0x46D971
0x46DB70
0x46DB90
0x46DC00
0x46DC21
0x46DD10
0x46DDC0
0x46DEA3
0x46E060
0x46E081
0x46E190
0x46E1B1
0x46E2C0
0x46E320
0x46E380
0x46E382
0x46E384
0x46E3D1
0x46E4B1
0x46E5A1
0x46E6A0
0x46E6A4
0x46E731
0x46E811
0x46E8F1
0x46E9D1
0x46EAB0
0x46EB11
0x46EC31
0x46ED70
0x46EDD1
0x46EF20
0x46EF31
0x46F62B
0x46F684
0x46F8B1
0x46F990
0x46FA70
0x46FB00
0x46FB81
0x46FBF0
0x46FCD1
0x46FDC1
0x46FED0
0x46FF90
0x46FFE0
0x470030
0x470081
0x4700E0
0x470127
0x4701E0
0x4702C0
0x4702F0
0x470391
0x470410
0x470480
0x4706D8
0x470700
0x470720
0x470722
0x470724
0x4707D1
0x470850
0x4708C0
0x470B18
0x470B40
0x470B60
0x470B62
0x470B64
0x470C11
0x470C90
0x470D00
0x470F58
0x470F80
0x470FA0
0x470FA2
0x470FA4
0x4710F1
0x4711F0
0x4711F2
0x47123D
0x471267
0x471270
0x471301
0x471471
0x471641
0x4718D0
0x471953
0x471A11
0x471A22
0x471AB0
0x471AB4
0x471B20
0x471B24
0x471B90
0x471B94
0x471D80
0x471DE0
0x471E40
0x471E60
0x471EF1
0x471F60
0x471F80
0x471F90
0x471FF0
0x472050
0x4720B0
0x472111
0x4722C7
0x472311
0x4725BE
0x47266C
0x4726C0
0x472C20
0x472DA1
0x472F61
0x473080
0x473110
0x473140
0x4731A0
0x4731C1
0x473230
0x473300
0x473310
0x473390
0x4733C0
0x473420
0x473441
0x4734B1
0x473510
0x47355F
0x4735A0
0x473621
0x473700
0x473702
0x4737C0
0x473820
0x473841
0x47384A
0x473857
0x473955
0x473AF0
0x473BF0
0x473BF2
0x473C90
0x473CF0
0x473CF2
0x473DE1
0x473F3C
0x474040
0x474071
0x474870
0x4748C0
0x474901
0x474941
0x47494A
0x474B50
0x474B80
0x474B82
0x474C81
0x474C8A
0x474E80
0x474EF0
0x474F60
0x474F62
0x474FA0
0x475021
0x475121
0x475240
0x475260
0x4752E0
0x475301
0x475400
0x475480
0x475551
0x475671
0x4757D0
0x475870
0x475891
0x47589A
0x475A50
0x475A61
0x475ED0
0x475F60
0x475F80
0x475F90
0x475FC0
0x475FF1
0x476047
0x476076
0x476720
0x476740
0x476744
0x476785
0x476790
0x47679B
0x4768B1
0x4768BA
0x476AF0
0x476B21
0x476F10
0x477021
0x477080
0x4770B0
0x4770F1
0x4770FA
0x477191
0x477240
0x4772A0
0x4772B0
0x477351
0x47735A
0x4774F0
0x477510
0x477590
0x477594
0x4775AC
0x4775E0
0x477611
0x477720
0x477740
0x4777C1
0x4777CA
0x4779B0
0x477A20
0x477AC0
0x477AE1
0x477B90
0x477BB0
0x477BB2
0x477C40
0x477D40
0x477F61
0x477FB1
0x47814C
0x478460
0x478470
0x4784C0
0x4784D0
0x4784F1
0x47850B
0x47852B
0x478570
0x4785E0
0x4786A0
0x4786C1
0x47879A
0x4787F7
0x478843
0x478920
0x478970
0x478AB1
0x478D00
0x478D10
0x478D30
0x478D80
0x478D90
0x478E90
0x478EC0
0x478F40
0x479020
0x4790E0
0x479150
0x479190
0x4791E0
0x4793B1
0x4795F0
0x479600
0x479610
0x479634
0x47963B
0x479650
0x479660
0x479670
0x4796C0
0x4796D0
0x4796E0
0x4797E0
0x479810
0x4798C0
0x479940
0x4799C0
0x479A20
0x479AE3
0x479AF1
0x479BF1
0x479BFA
0x479CC0
0x479CE0
0x479D70
0x479DF0
0x479DF4
0x479E0C
0x479E40
0x479E71
0x47A020
0x47A1A0
0x47A1C0
0x47A261
0x47A2FA
0x47A580
0x47A630
0x47A660
0x47A700
0x47A780
0x47A870
0x47A8C1
0x47A9A1
0x47AB71
0x47ABF0
0x47AC10
0x47AC31
0x47ACC1
0x47AEA0
0x47AF70
0x47AF90
0x47AFC0
0x47AFE0
0x47B011
0x47B01A
0x47B4D1
0x47B4DA
0x47B590
0x47B5C0
0x47B671
0x47B8E0
0x47B961
0x47BA21
0x47BA2A
0x47BDF1
0x47BE32
0x47C111
0x47C201
0x47C3B0
0x47C460
0x47C5E1
0x47C5E3
0x47C751
0x47CB11
0x47CB1A
0x47CCC2
0x47D08F
0x47D130
0x47D221
0x47D310
0x47D3C0
0x47D401
0x47D68D
0x47D6B8
0x47D6BF
0x47D840
0x47D843
0x47D8D5
0x47D8E0
0x47D8EB
0x47D970
0x47D9F1
0x47D9FA
0x47DAD0
0x47DB60
0x47DCC0
0x47DD30
0x47DD50
0x47DD60
0x47DD70
0x47DE10
0x47DF60
0x47E020
0x47E117
0x47E130
0x47E140
0x47E260
0x47E2A0
0x47E2F0
0x47E431
0x47E680
0x47E690
0x47E6A0
0x47E6C0
0x47E6D0
0x47E6E0
0x47E730
0x47E740
0x47E840
0x47E870
0x47E8F0
0x47E970
0x47E9E0
0x47EA40
0x47EAC0
0x47EB10
0x47EC51
0x47EEA0
0x47EEB0
0x47EED7
0x47EEE0
0x47EEF0
0x47EF50
0x47EF60
0x47F060
0x47F090
0x47F120
0x47F200
0x47F2F3
0x47F300
0x47F380
0x47F384
0x47F39C
0x47F3D0
0x47F433
0x47F480
0x47F4B0
0x47F4D5
0x47F550
0x47F584
0x47F58B
0x47F5E3
0x47F610
0x47F750
0x47F780
0x47F7D0
0x47F911
0x47FB50
0x47FB60
0x47FB80
0x47FBC0
0x47FBD0
0x47FCD0
0x47FD00
0x47FD90
0x47FE10
0x47FE90
0x47FEF0
0x47FF80
0x47FFF1
0x480120
0x480130
0x480151
0x48015A
0x480310
0x480340
0x480342
0x4803E0
0x480530
0x480570
0x480630
0x480634
0x4806A0
0x4806C1
0x4806CA
0x480A51
0x480A5A
0x480B00
0x480BA0
0x480C20
0x480C24
0x480C3C
0x480C70
0x480CA0
0x480D80
0x480DB1
0x480DC3
0x480DD9
0x480F50
0x480F52
0x480F54
0x480FD1
0x4811C0
0x481391
0x481450
0x4814D1
0x481581
0x481621
0x4816A0
0x481730
0x481761
0x481890
0x481892
0x481894
0x481911
0x4819A0
0x481AB1
0x481AE1
0x481C21
0x481CE0
0x481CE2
0x481CE4
0x481D61
0x481E01
0x481E81
0x481F70
0x482011
0x48201A
0x482067
0x4823E0
0x4824E0
0x482520
0x482551
0x48255A
0x482651
0x482710
0x482760
0x482781
0x482851
0x482910
0x482990
0x482A50
0x482B70
0x482C51
0x482CF1
0x482D91
0x482E11
0x482EB1
0x482F31
0x482FD1
0x483081
0x483101
0x483181
0x483211
0x4832B1
0x483413
0x483490
0x483492
0x483570
0x483581
0x4835E1
0x483801
0x483950
0x483A40
0x483AE0
0x483B30
0x483B70
0x483B80
0x483BB0
0x483BB2
0x483C20
0x483DB0
0x483DD0
0x483E61
0x483F80
0x483FD1
0x483FDA
0x4840D0
0x484190
0x4841C0
0x4841F0
0x484281
0x484360
0x484461
0x484541
0x48454A
0x484780
0x4847B0
0x484970
0x484A10
0x484B31
0x484BD3
0x484C51
0x484D20
0x484D47
0x484D94
0x484DE7
0x484E04
0x484EA0
0x484F41
0x485170
0x485210
0x485230
0x485234
0x485260
0x485331
0x4855C0
0x485671
0x4858EA
0x485960
0x485A80
0x485C51
0x485EA0
0x485EB0
0x485EC0
0x485EE7
0x485EF0
0x485F00
0x485F10
0x485F60
0x485F70
0x485FA0
0x486020
0x486070
0x486150
0x486243
0x486261
0x486440
0x486460
0x486481
0x48648A
0x4864BA
0x486700
0x486741
0x486950
0x4869E0
0x486A70
0x486A74
0x486B20
0x486B40
0x486B44
0x486B60
0x486B62
0x486B64
0x486C00
0x486CA1
0x486DE0
0x486E01
0x486E88
0x486EE0
0x486EE8
0x486F40
0x486FA0
0x487041
0x487121
0x4872B1
0x487401
0x4875C6
0x4875F0
0x487631
0x487781
0x4878A0
0x487AA0
0x487B70
0x487C00
0x487CC0
0x487DA0
0x487DF6
0x487E80
0x487ED0
0x487F20
0x487FB1
0x4880B0
0x488180
0x488250
0x4882D1
0x488510
0x4885D1
0x4886C1
0x4886C3
0x488A40
0x488A70
0x488A90
0x488AF0
0x488B50
0x488B70
0x488B74
0x488BB0
0x488C70
0x488CB0
0x488EC0
0x488F11
0x488F90
0x489000
0x489070
0x489072
0x4890BD
0x489180
0x489182
0x4891CD
0x4891F8
0x489201
0x4892F1
0x489480
0x4894C0
0x4894E1
0x489670
0x489781
0x489830
0x489850
0x489854
0x489871
0x4899D7
0x489A01
0x489AD0
0x489B20
0x489B41
0x489C60
0x489D30
0x489D70
0x489D74
0x489EC0
0x489FF0
0x48A010
0x48A040
0x48A060
0x48A064
0x48A070
0x48A080
0x48A0F0
0x48A1D1
0x48A320
0x48A330
0x48A381
0x48A397
0x48A3A0
0x48A3E0
0x48A3F0
0x48A413
0x48A4C0
0x48A4D0
0x48A4F3
0x48A540
0x48A563
0x48A570
0x48A657
0x48A661
0x48A6F1
0x48A811
0x48AAC0
0x48AAF0
0x48AB61
0x48ADD1
0x48AF30
0x48AF70
0x48AFB8
0x48AFBC
0x48AFE3
0x48B040
0x48B0D0
0x48B0E1
0x48B380
0x48B390
0x48B490
0x48B4C0
0x48B4F0
0x48B540
0x48B630
0x48B640
0x48B670
0x48B761
0x48B9B0
0x48B9C0
0x48BA37
0x48BA40
0x48BA50
0x48BA90
0x48BAA0
0x48BAB0
0x48BBB0
0x48BBE0
0x48BC60
0x48BCB0
0x48BD30
0x48BDB0
0x48BE10
0x48BE80
0x48BEB0
0x48BF30
0x48BF80
0x48C090
0x48C130
0x48C170
0x48C1D0
0x48C230
0x48C2F0
0x48C331
0x48C340
0x48C3E0
0x48C4D0
0x48C4D4
0x48C550
0x48C5E0
0x48C6B0
0x48C6D0
0x48C6F0
0x48C6F4
0x48C770
0x48C800
0x48C820
0x48C824
0x48C840
0x48C8C0
0x48C8C4
0x48C8DC
0x48C910
0x48C950
0x48C9F1
0x48CB40
0x48CB60
0x48CB80
0x48CBE1
0x48CC61
0x48CCB1
0x48CF3D
0x48CFA0
0x48CFE1
0x48D032
0x48D0A0
0x48D0A2
0x48D0A4
0x48D239
0x48D250
0x48D361
0x48D571
0x48D710
0x48D79E
0x48D800
0x48D881
0x48D900
0x48D928
0x48D970
0x48DA3F
0x48DBA8
0x48DBC7
0x48DBF0
0x48DE47
0x48DE60
0x48DE62
0x48DE64
0x48DF11
0x48DFA0
0x48E000
0x48E060
0x48E080
0x48E111
0x48E180
0x48E1A0
0x48E1B0
0x48E210
0x48E270
0x48E2D0
0x48E331
0x48E4F5
0x48E541
0x48E7EE
0x48E89C
0x48E8F0
0x48EA20
0x48EAE0
0x48EBD0
0x48EC70
0x48ED10
0x48ED40
0x48EDD0
0x48EE95
0x48EF41
0x48F040
0x48F131
0x48F17A
0x48F225
0x48F390
0x48F3D0
0x48F407
0x48F450
0x48F460
0x48F483
0x48F4B0
0x48F5C0
0x48F701
0x48F950
0x48F960
0x48F980
0x48F990
0x48F9D0
0x48F9E0
0x48FA10
0x48FA90
0x48FAE0
0x48FBC0
0x48FC81
0x48FCB3
0x48FE00
0x48FF21
0x48FFF0
0x490040
0x490060
0x4900B1
0x4900B7
0x490241
0x490501
0x4905B1
0x4907B1
0x4908D1
0x490A71
0x490C61
0x490D70
0x490D72
0x490DA1
0x490F91
0x491091
0x491500
0x491560
0x4915C2
0x4915E2
0x4915F0
0x491682
0x4916C0
0x4916F0
0x491762
0x4917A2
0x4917D0
0x491803
0x491827
0x491870
0x491880
0x4918A3
0x491900
0x491910
0x491933
0x491960
0x4919E0
0x4919E4
0x4919FC
0x491A30
0x491A90
0x491B90
0x491CD1
0x491F10
0x491F20
0x491F40
0x491F50
0x491F90
0x491FA0
0x491FD0
0x492033
0x492050
0x4920A0
0x492170
0x492250
0x492350
0x492360
0x4924A1
0x4926F0
0x492700
0x492720
0x492730
0x492770
0x492780
0x4927B0
0x492830
0x492880
0x492950
0x492A30
0x492B20
0x492BC0
0x492C70
0x492CA0
0x492CD0
0x492CD4
0x492D70
0x492DC0
0x492E69
0x492F90
0x492FF1
0x4930B0
0x4930F0
0x493150
0x493152
0x493154
0x493290
0x4932F0
0x493390
0x4933B0
0x4933C0
0x4933C2
0x493400
0x493402
0x4934A7
0x4934F0
0x493500
0x493523
0x493580
0x493690
0x4937D1
0x493A20
0x493A30
0x493A50
0x493A90
0x493AA0
0x493AD0
0x493B50
0x493BA0
0x493C80
0x493D40
0x493D42
0x493D80
0x493D82
0x493DD0
0x493DD2
0x493E10
0x493E12
0x493E50
0x493E52
0x493E90
0x493E92
0x493F41
0x493FE1
0x493FE3
0x4940F1
0x4941E1
0x494280
0x4942A0
0x4942A4
0x494330
0x494382
0x4943A0
0x4943C6
0x494400
0x4944C0
0x494540
0x494544
0x49455C
0x494590
0x4945C1
0x494D30
0x494D32
0x494E20
0x494E22
0x494E50
0x495020
0x495022
0x495060
0x495062
0x4950A0
0x4950E0
0x495120
0x495122
0x495124
0x495170
0x495291
0x495380
0x495430
0x495451
0x4956B0
0x4956B2
0x4956B4
0x495790
0x495810
0x495971
0x495A61
0x495B90
0x495E04
0x495E31
0x495FF0
0x4961A1
0x4962C0
0x4962C2
0x496301
0x4964B1
0x496571
0x496994
0x496A60
0x496C10
0x496C50
0x496D40
0x496DB2
0x496DC0
0x496DF0
0x496E70
0x496E74
0x496E8C
0x496EC0
0x496EF0
0x496F90
0x497030
0x497060
0x497120
0x497190
0x497241
0x497511
0x4975D0
0x497721
0x4977E1
0x497A10
0x497A50
0x497A87
0x497AD0
0x497AE0
0x497B03
0x497B30
0x497C40
0x497D81
0x497FD0
0x497FE0
0x498000
0x498010
0x498050
0x498060
0x498090
0x498110
0x498160
0x498240
0x498300
0x498340
0x498360
0x4984E0
0x4984F0
0x4984F2
0x498550
0x498591
0x498801
0x49880A
0x4988A1
0x4988AA
0x498941
0x4989D1
0x498A60
0x498A90
0x498AC0
0x498AE0
0x498B80
0x498C40
0x498D30
0x498D50
0x498D60
0x498DDA
0x498E00
0x498E20
0x498E60
0x498E90
0x498EB1
0x498F80
0x498FE0
0x499000
0x499030
0x499050
0x4990D0
0x499130
0x499150
0x499180
0x4991A1
0x499360
0x4993C0
0x4993E0
0x499410
0x499431
0x49943A
0x499461
0x49958F
0x4996F0
0x499750
0x499770
0x4997A0
0x4997C0
0x4997F1
0x499809
0x499866
0x4998B1
0x499BE1
0x499D73
0x499DE1
0x499DEA
0x499ED1
0x499F50
0x499FC0
0x49A021
0x49A0B1
0x49A1C0
0x49A1E0
0x49A210
0x49A231
0x49A2D0
0x49A330
0x49A350
0x49A380
0x49A3A1
0x49A561
0x49A681
0x49A710
0x49A770
0x49A790
0x49A7B0
0x49A7C0
0x49A7E1
0x49A8B1
0x49A9D0
0x49AA30
0x49AA50
0x49AA80
0x49AAA1
0x49AB40
0x49ABA0
0x49ABC0
0x49ABF0
0x49AC11
0x49AD11
0x49AE10
0x49AE70
0x49AE90
0x49AEC0
0x49AEE1
0x49AF0E
0x49B0A0
0x49B100
0x49B120
0x49B150
0x49B171
0x49B400
0x49B440
0x49B460
0x49B480
0x49B4A0
0x49B4C0
0x49B4E1
0x49B560
0x49B570
0x49B5D0
0x49B5F0
0x49B610
0x49B640
0x49B661
0x49B830
0x49B890
0x49B8B0
0x49B8E0
0x49B901
0x49BBC1
0x49BC90
0x49BCF0
0x49BD10
0x49BD40
0x49BD61
0x49BF80
0x49BFE0
0x49C000
0x49C030
0x49C050
0x49C121
0x49C1E0
0x49C240
0x49C290
0x49C2B1
0x49C2BA
0x49C490
0x49C4F0
0x49C504
0x49C580
0x49C582
0x49C5F0
0x49C620
0x49C640
0x49C720
0x49C750
0x49C770
0x49C841
0x49C9F0
0x49CA10
0x49CAA1
0x49CB80
0x49CBE0
0x49CC00
0x49CC30
0x49CC50
0x49CCF0
0x49CD50
0x49CD70
0x49CDA0
0x49CDC0
0x49CEA0
0x49CF20
0x49CF80
0x49CFA0
0x49CFD0
0x49CFF1
0x49D0C1
0x49D260
0x49D370
0x49D3D0
0x49D3F0
0x49D420
0x49D441
0x49D5A0
0x49D600
0x49D620
0x49D650
0x49D671
0x49D7A0
0x49D800
0x49D821
0x49D951
0x49DAA0
0x49DB00
0x49DB21
0x49DEC0
0x49DF80
0x49E000
0x49E030
0x49E051
0x49E05A
0x49E0C3
0x49E200
0x49E260
0x49E280
0x49E2B0
0x49E2D1
0x49E400
0x49E460
0x49E4E0
0x49E527
0x49E5C8
0x49E610
0x49E620
0x49ECF0
0x49ECF4
0x49ED54
0x49F101
0x49F237
0x49F391
0x49F410
0x49F480
0x49F560
0x49F562
0x49F5AD
0x49F67A
0x49F680
0x49F6F0
0x49F771
0x49F801
0x49F891
0x49F897
0x49F921
0x49F9C0
0x49FA50
0x49FAE0
0x49FBA0
0x49FD60
0x49FEA0
0x49FEA4
0x49FF80
0x49FF82
0x4A0030
0x4A0050
0x4A0070
0x4A0093
0x4A0130
0x4A0134
0x4A0194
0x4A0200
0x4A0221
0x4A03A0
0x4A0410
0x4A04CD
0x4A06F1
0x4A0781
0x4A0870
0x4A0931
0x4A0A40
0x4A0AE1
0x4A0C90
0x4A0CD7
0x4A0DE0
0x4A0E27
0x4A0EE0
0x4A1010
0x4A1040
0x4A1042
0x4A108D
0x4A10E1
0x4A11E7
0x4A11F0
0x4A12E9
0x4A1300
0x4A1360
0x4A1362
0x4A13AD
0x4A13D0
0x4A1480
0x4A1520
0x4A1550
0x4A1590
0x4A15C0
0x4A15F0
0x4A1600
0x4A1621
0x4A17B1
0x4A18B1
0x4A19B0
0x4A19F0
0x4A1A10
0x4A1A61
0x4A1AD0
0x4A1B03
0x4A1B70
0x4A1C60
0x4A1D00
0x4A1D70
0x4A1EB0
0x4A1F50
0x4A1F52
0x4A1F54
0x4A1FB0
0x4A1FD0
0x4A1FF0
0x4A2010
0x4A2012
0x4A2320
0x4A2360
0x4A23C0
0x4A23F0
0x4A2420
0x4A2440
0x4A2460
0x4A2470
0x4A24D0
0x4A2580
0x4A25E0
0x4A2600
0x4A2630
0x4A2650
0x4A26D0
0x4A2740
0x4A2760
0x4A2820
0x4A2861
0x4A28D0
0x4A28F1
0x4A28FA
0x4A2A30
0x4A2A60
0x4A2A90
0x4A2AB0
0x4A2AD1
0x4A2B30
0x4A2BB0
0x4A2BE0
0x4A2C40
0x4A2C70
0x4A2CA0
0x4A2CC0
0x4A2D40
0x4A2D70
0x4A2DA0
0x4A2E00
0x4A2E21
0x4A2E90
0x4A2EF0
0x4A2F3F
0x4A2F80
0x4A3000
0x4A3030
0x4A3090
0x4A30B1
0x4A3120
0x4A3180
0x4A31CF
0x4A3210
0x4A3290
0x4A3540
0x4A3548
0x4A38A0
0x4A3A30
0x4A3A90
0x4A3CB1
0x4A3F00
0x4A402B
0x4A42F1
0x4A4337
0x4A4689
0x4A49D1
0x4A590B
0x4A5DA1
0x4A67C8
0x4A6971
0x4A6999
0x4A6D90
0x4A6D92
0x4A6D94
0x4A6E11
0x4A6F1A
0x4A6FAB
0x4A6FD7
0x4A7061
0x4A72B9
0x4A7971
0x4A7A0A
0x4A7A70
0x4A7A72
0x4A7A74
0x4A7B21
0x4A7B71
0x4A7D81
0x4A8120
0x4A81BD
0x4A81F6
0x4A82E0
0x4A844E
0x4A8476
0x4A84A0
0x4A84C1
0x4A8581
0x4A85E0
0x4A8620
0x4A8650
0x4A87A1
0x4A8830
0x4A89E1
0x4A8B00
0x4A8B30
0x4A8B6A
0x4A8C40
0x4A8CD0
0x4A8D20
0x4A8D80
0x4A8E80
0x4A8F21
0x4A8F79
0x4A9047
0x4A9061
0x4A90E0
0x4A9150
0x4A93A8
0x4A93D0
0x4A9490
0x4A9520
0x4A9522
0x4A9524
0x4A95D0
0x4A95F0
0x4A96A1
0x4A9866
0x4A9A94
0x4A9D0F
0x4AA985
0x4AAAA0
0x4AAED1
0x4AAFD1
0x4AB2D1
0x4AB391
0x4AB431
0x4AB5AB
0x4AB893
0x4AB8CC
0x4AB931
0x4ABAC2
0x4ABC10
0x4ABC2C
0x4ABC60
0x4ABC91
0x4ABE41
0x4AC181
0x4AC261
0x4AC422
0x4AC57B
0x4AC5F8
0x4AC7DE
0x4AC8AA
0x4ACB41
0x4ACED1
0x4AD111
0x4AD221
0x4AD4C1
0x4AD52A
0x4AD749
0x4AD9C1
0x4ADBAD
0x4ADE21
0x4AE2A1
0x4AE2AA
0x4AE88D
0x4AEA31
0x4AEAC5
0x4AEDE1
0x4AEED0
0x4AEEE1
0x4AF041
0x4AF0A1
0x4AF0C1
0x4AF140
0x4AF170
0x4AF2A0
0x4AF2A2
0x4AF2A4
0x4AF350
0x4AF380
0x4AF382
0x4AF3CD
0x4AF3F1
0x4AF43D
0x4AF471
0x4AF571
0x4AF5C2
0x4AF5F7
0x4AF600
0x4AF6A0
0x4AF6D0
0x4AF6F1
0x4AF761
0x4AF870
0x4AF8A0
0x4AF8D1
0x4AF940
0x4AF9F0
0x4AFA10
0x4AFB20
0x4AFB28
0x4AFC31
0x4AFD11
0x4AFD30
0x4AFDF1
0x4AFDFA
0x4AFEE1
0x4AFEEA
0x4AFF0C
0x4AFFD0
0x4B0000
0x4B0020
0x4B0100
0x4B01A1
0x4B02A0
0x4B03D0
0x4B048E
0x4B0570
0x4B0740
0x4B0761
0x4B0911
0x4B091A
0x4B0A70
0x4B0AEE
0x4B0B30
0x4B0B50
0x4B0B70
0x4B0C60
0x4B0C71
0x4B0E70
0x4B0FE0
0x4B1080
0x4B10F0
0x4B10F2
0x4B1140
0x4B1170
0x4B1200
0x4B1270
0x4B1300
0x4B1380
0x4B13A1
0x4B1412
0x4B1555
0x4B1590
0x4B15B1
0x4B16E1
0x4B1731
0x4B173A
0x4B1860
0x4B1890
0x4B19B0
0x4B1A00
0x4B1A70
0x4B1AC0
0x4B1BC0
0x4B1C31
0x4B1CA1
0x4B1DD0
0x4B1E41
0x4B1EE0
0x4B1F51
0x4B2221
0x4B2411
0x4B24B7
0x4B24C0
0x4B24E0
0x4B25C0
0x4B2650
0x4B2780
0x4B27C0
0x4B2800
0x4B2808
0x4B2A70
0x4B2AE3
0x4B2B00
0x4B2B80
0x4B2B90
0x4B2C60
0x4B2D37
0x4B2D50
0x4B2D80
0x4B2DB0
0x4B2DD0
0x4B2DE3
0x4B2E21
0x4B2E37
0x4B2E40
0x4B2EA0
0x4B2EC0
0x4B2EC4
0x4B2ED0
0x4B2EE0
0x4B2F61
0x4B3080
0x4B31B0
0x4B31D0
0x4B3200
0x4B3220
0x4B3224
0x4B3230
0x4B3240
0x4B32B0
0x4B3391
0x4B34B0
0x4B3501
0x4B3517
0x4B3520
0x4B3560
0x4B3570
0x4B3593
0x4B3640
0x4B3650
0x4B3673
0x4B36C0
0x4B36E3
0x4B3720
0x4B3730
0x4B3753
0x4B3800
0x4B3810
0x4B3833
0x4B38C0
0x4B3940
0x4B3944
0x4B395C
0x4B3990
0x4B39C1
0x4B3AE0
0x4B3B10
0x4B3BB0
0x4B3C21
0x4B3D60
0x4B3D81
0x4B3FF0
0x4B4001
0x4B4271
0x4B43D0
0x4B4410
0x4B4454
0x4B4458
0x4B445C
0x4B4483
0x4B44C0
0x4B44D0
0x4B44E0
0x4B4500
0x4B4590
0x4B45A1
0x4B4840
0x4B4850
0x4B4950
0x4B4980
0x4B49B0
0x4B4A00
0x4B4AF0
0x4B4B00
0x4B4B30
0x4B4C21
0x4B4E70
0x4B4E80
0x4B4EF7
0x4B4F00
0x4B4F10
0x4B4F50
0x4B4F60
0x4B4F70
0x4B5070
0x4B50A0
0x4B5120
0x4B5170
0x4B51F0
0x4B5270
0x4B52D0
0x4B5340
0x4B5370
0x4B53F0
0x4B5440
0x4B5550
0x4B55F0
0x4B5630
0x4B5690
0x4B56F0
0x4B57B0
0x4B57F1
0x4B5800
0x4B58A0
0x4B5911
0x4B5B10
0x4B5BF0
0x4B5C17
0x4B5C61
0x4B5EE7
0x4B5F30
0x4B5F41
0x4B6190
0x4B61A0
0x4B62A0
0x4B62D0
0x4B6300
0x4B6350
0x4B6440
0x4B6450
0x4B6480
0x4B6571
0x4B67C0
0x4B67D0
0x4B6840
0x4B6850
0x4B6890
0x4B68A0
0x4B68B0
0x4B69B0
0x4B69E0
0x4B6A60
0x4B6AB0
0x4B6B30
0x4B6BB0
0x4B6C10
0x4B6C80
0x4B6CB0
0x4B6D30
0x4B6D80
0x4B6E90
0x4B6F30
0x4B6F70
0x4B6FD0
0x4B7031
0x4B70C1
0x4B7331
0x4B7490
0x4B74D0
0x4B7514
0x4B7518
0x4B7543
0x4B7580
0x4B7590
0x4B75A0
0x4B7610
0x4B7651
0x4B7660
0x4B7700
0x4B7710
0x4B77A0
0x4B77B0
0x4B77E0
0x4B7890
0x4B78A0
0x4B78C1
0x4B7931
0x4B796F
0x4B7A90
0x4B7B11
0x4B7F53
0x4B7FEE
0x4B8041
0x4B80C1
0x4B80E2
0x4B81C4
0x4B8201
0x4B8411
0x4B8460
0x4B8491
0x4B8550
0x4B85AF
0x4B86C0
0x4B87E0
0x4B88C0
0x4B8A00
0x4B8A60
0x4B8AF1
0x4B8B80
0x4B8BA1
0x4B8C11
0x4B8CB0
0x4B8D71
0x4B8EB0
0x4B8ED0
0x4B8FE1
0x4B9060
0x4B9090
0x4B90C0
0x4B9490
0x4B9540
0x4B9560
0x4B95A1
0x4B95A3
0x4B9681
0x4B96C1
0x4B9700
0x4B9730
0x4B9761
0x4B9890
0x4B9930
0x4B9951
0x4B9B30
0x4B9C00
0x4B9C80
0x4B9CA1
0x4B9D81
0x4B9D8A
0x4B9ECE
0x4BA011
0x4BA231
0x4BA361
0x4BA400
0x4BA491
0x4BA4E0
0x4BA520
0x4BA550
0x4BA5B0
0x4BA5D1
0x4BA640
0x4BA710
0x4BA790
0x4BA7C0
0x4BA820
0x4BA841
0x4BA8B0
0x4BA970
0x4BA980
0x4BAA87
0x4BAAA0
0x4BAAA4
0x4BAB90
0x4BAC70
0x4BAC74
0x4BAC90
0x4BACD0
0x4BACD4
0x4BAD80
0x4BAE50
0x4BAE80
0x4BAF61
0x4BAF67
0x4BB0E1
0x4BB0E7
0x4BB151
0x4BB1B1
0x4BB331
0x4BB391
0x4BB4F1
0x4BB630
0x4BB6B0
0x4BB760
0x4BB820
0x4BB824
0x4BB880
0x4BB8A0
0x4BB920
0x4BB931
0x4BB9A1
0x4BBA11
0x4BBA20
0x4BBAE0
0x4BBB60
0x4BBB64
0x4BBB7C
0x4BBBB0
0x4BBBE1
0x4BBE00
0x4BBE30
0x4BBE50
0x4BBE62
0x4BBEB0
0x4BBFE3
0x4BBFF1
0x4BC000
0x4BC0F0
0x4BC116
0x4BC130
0x4BC1C0
0x4BC1D2
0x4BC203
0x4BC220
0x4BC341
0x4BC350
0x4BC3B0
0x4BC4C0
0x4BC550
0x4BC590
0x4BC5B0
0x4BC601
0x4BC670
0x4BC691
0x4BC6C0
0x4BC70F
0x4BC750
0x4BC8E0
0x4BC8E2
0x4BC9C0
0x4BCA80
0x4BCAC0
0x4BCAE0
0x4BCB31
0x4BCBA0
0x4BCBD5
0x4BCC31
0x4BCE55
0x4BCF10
0x4BCF70
0x4BCFF0
0x4BD030
0x4BD050
0x4BD0A1
0x4BD110
0x4BD131
0x4BD160
0x4BD1AF
0x4BD1F0
0x4BD270
0x4BD2D0
0x4BD2F0
0x4BD301
0x4BD341
0x4BD380
0x4BD400
0x4BD520
0x4BD551
0x4BD711
0x4BD71A
0x4BD80E
0x4BD820
0x4BD883
0x4BD9C1
0x4BD9C7
0x4BDC51
0x4BDCD1
0x4BDEB0
0x4BDED1
0x4BDED7
0x4BE183
0x4BE2F1
0x4BE420
0x4BE4B0
0x4BE4D1
0x4BE4E1
0x4BE4EB
0x4BE5C0
0x4BE5C2
0x4BE5C4
0x4BE6B1
0x4BE760
0x4BE8C0
0x4BE951
0x4BE9FB
0x4BEC10
0x4BEC1F
0x4BEC90
0x4BED50
0x4BEDC0
0x4BEE11
0x4BEF81
0x4BEF8A
0x4BF121
0x4BF210
0x4BF2A0
0x4BF2A2
0x4BF331
0x4BF480
0x4BF501
0x4BF5A0
0x4BF691
0x4BF770
0x4BF772
0x4BF7D0
0x4BF910
0x4BFA90
0x4BFAB0
0x4BFB10
0x4BFB40
0x4BFB44
0x4BFB90
0x4BFBC0
0x4BFC40
0x4BFCD0
0x4BFCE0
0x4BFCE8
0x4BFED0
0x4BFF50
0x4C0000
0x4C00F0
0x4C01E0
0x4C02C0
0x4C0320
0x4C0340
0x4C0360
0x4C0370
0x4C03A0
0x4C03C0
0x4C03D0
0x4C0400
0x4C0430
0x4C0460
0x4C0630
0x4C0650
0x4C0660
0x4C0670
0x4C06E0
0x4C0730
0x4C0750
0x4C0770
0x4C0790
0x4C07A7
0x4C07CB
0x4C07E7
0x4C0850
0x4C0927
0x4C0940
0x4C0970
0x4C09A0
0x4C09C0
0x4C09D3
0x4C0A11
0x4C0A27
0x4C0A30
0x4C0A70
0x4C0A80
0x4C0AA3
0x4C0B03
0x4C0B50
0x4C0B60
0x4C0B83
0x4C0C00
0x4C0C20
0x4C0C24
0x4C0C30
0x4C0C40
0x4C0CC1
0x4C0E40
0x4C0E50
0x4C0E73
0x4C0F20
0x4C0F30
0x4C0F53
0x4C0F90
0x4C0F94
0x4C0FE0
0x4C1010
0x4C1060
0x4C1080
0x4C10B0
0x4C1120
0x4C1160
0x4C11D0
0x4C1230
0x4C1250
0x4C1280
0x4C1370
0x4C1390
0x4C1400
0x4C1540
0x4C1631
0x4C1870
0x4C18B0
0x4C18C0
0x4C18F0
0x4C1980
0x4C19D0
0x4C1AD0
0x4C1B90
0x4C1CA0
0x4C1D91
0x4C1FE0
0x4C1FF0
0x4C2030
0x4C2040
0x4C2070
0x4C20F0
0x4C2140
0x4C2220
0x4C22D0
0x4C2341
0x4C24B0
0x4C24D0
0x4C2511
0x4C2780
0x4C2791
0x4C2A01
0x4C2B60
0x4C2BA0
0x4C2BE4
0x4C2BE8
0x4C2C13
0x4C2C60
0x4C2CF0
0x4C2D01
0x4C2FA0
0x4C2FB0
0x4C30B0
0x4C30E0
0x4C3110
0x4C3160
0x4C3250
0x4C3260
0x4C3290
0x4C3381
0x4C35D0
0x4C35E0
0x4C3657
0x4C3660
0x4C3670
0x4C36B0
0x4C36C0
0x4C36D0
0x4C37D0
0x4C3800
0x4C3880
0x4C38D0
0x4C3950
0x4C39D0
0x4C3A30
0x4C3AA0
0x4C3AD0
0x4C3B50
0x4C3BA0
0x4C3CB0
0x4C3D50
0x4C3D90
0x4C3DF0
0x4C3E50
0x4C3F10
0x4C3F40
0x4C3F51
0x4C3F60
0x4C4000
0x4C4020
0x4C4090
0x4C41A1
0x4C43F0
0x4C4430
0x4C4460
0x4C4470
0x4C44C0
0x4C44D0
0x4C45D0
0x4C4650
0x4C46A0
0x4C4760
0x4C47E8
0x4C4840
0x4C48A0
0x4C48D1
0x4C4AB0
0x4C4BC0
0x4C4C20
0x4C4C80
0x4C4D31
0x4C4F30
0x4C4F34
0x4C4F50
0x4C5020
0x4C5103
0x4C5170
0x4C5241
0x4C5440
0x4C5450
0x4C5460
0x4C5470
0x4C5480
0x4C5490
0x4C54A0
0x4C54B0
0x4C5500
0x4C5510
0x4C55E0
0x4C5600
0x4C5610
0x4C5620
0x4C5630
0x4C5650
0x4C5680
0x4C56D0
0x4C56E0
0x4C56F0
0x4C5720
0x4C57B0
0x4C5A26
0x4C5C00
0x4C5C40
0x4C5D10
0x4C6040
0x4C6042
0x4C6044
0x4C60A0
0x4C60D0
0x4C6101
0x4C6190
0x4C6192
0x4C6210
0x4C62C1
0x4C64E1
0x4C6761
0x4C6841
0x4C68A9
0x4C6A71
0x4C6BE0
0x4C6CC1
0x4C6F11
0x4C7040
0x4C7080
0x4C70E0
0x4C7110
0x4C71F0
0x4C7200
0x4C72E0
0x4C7347
0x4C7390
0x4C73A0
0x4C73C3
0x4C7420
0x4C7450
0x4C7560
0x4C76A1
0x4C78F0
0x4C7900
0x4C7920
0x4C7930
0x4C7970
0x4C7980
0x4C79B0
0x4C7A30
0x4C7A80
0x4C7B60
0x4C7C60
0x4C7CB0
0x4C7D21
0x4C7DC0
0x4C7DE0
0x4C7DE4
0x4C7F30
0x4C7F42
0x4C7F70
0x4C8093
0x4C80D0
0x4C8180
0x4C81C0
0x4C8270
0x4C8321
0x4C8431
0x4C85A1
0x4C8711
0x4C8781
0x4C8AB1
0x4C8AC1
0x4C8AD0
0x4C8B30
0x4C8B40
0x4C8BA0
0x4C8BC1
0x4C8CD0
0x4C8CF0
0x4C8D50
0x4C8D80
0x4C8E40
0x4C8ED0
0x4C8EE0
0x4C8F10
0x4C8F20
0x4C8F40
0x4C8F60
0x4C9007
0x4C9027
0x4C9047
0x4C9090
0x4C90A0
0x4C90C3
0x4C9173
0x4C91D0
0x4C91E0
0x4C9203
0x4C9263
0x4C9280
0x4C92E0
0x4C9310
0x4C9370
0x4C93B0
0x4C94A0
0x4C9540
0x4C9601
0x4C9720
0x4C9780
0x4C9910
0x4C99B0
0x4C9A21
0x4C9B01
0x4C9D00
0x4C9D10
0x4C9D40
0x4C9E20
0x4C9E90
0x4C9F71
0x4CA031
0x4CA0C0
0x4CA0D2
0x4CA191
0x4CA340
0x4CA3E1
0x4CA491
0x4CA710
0x4CA7B1
0x4CA891
0x4CA960
0x4CA990
0x4CA9E0
0x4CA9E2
0x4CAA31
0x4CAAE1
0x4CABD0
0x4CACE0
0x4CAD40
0x4CAD70
0x4CADC0
0x4CAF01
0x4CB150
0x4CB160
0x4CB180
0x4CB1D0
0x4CB1E0
0x4CB2E0
0x4CB310
0x4CB390
0x4CB41C
0x4CB450
0x4CB510
0x4CB5A0
0x4CB5F7
0x4CB640
0x4CB690
0x4CB7D1
0x4CBA20
0x4CBA30
0x4CBA50
0x4CBA60
0x4CBAA0
0x4CBAB0
0x4CBBB0
0x4CBBE0
0x4CBC60
0x4CBCE0
0x4CBD30
0x4CBE10
0x4CBF40
0x4CBF90
0x4CBFA1
0x4CC1F0
0x4CC240
0x4CC270
0x4CC280
0x4CC2D0
0x4CC2E0
0x4CC3E0
0x4CC460
0x4CC4C0
0x4CC590
0x4CC670
0x4CC6D0
0x4CC770
0x4CC7A0
0x4CC880
0x4CC8D0
0x4CCA11
0x4CCC60
0x4CCC70
0x4CCC90
0x4CCCA0
0x4CCCE0
0x4CCCF0
0x4CCDF0
0x4CCE20
0x4CCEA0
0x4CCF20
0x4CCF70
0x4CD080
0x4CD0E0
0x4CD1B1
0x4CD230
0x4CD232
0x4CD234
0x4CD2BF
0x4CD3C0
0x4CD481
0x4CD540
0x4CD570
0x4CD600
0x4CD651
0x4CD711
0x4CD7D0
0x4CD800
0x4CD820
0x4CDE31
0x4CDEE0
0x4CDFB0
0x4CE011
0x4CE060
0x4CE080
0x4CE090
0x4CE160
0x4CE180
0x4CE1A0
0x4CE1D0
0x4CE1F0
0x4CE220
0x4CE240
0x4CE2A0
0x4CE2C0
0x4CE2E1
0x4CE360
0x4CE3D0
0x4CE628
0x4CE650
0x4CE670
0x4CE672
0x4CE674
0x4CE720
0x4CE780
0x4CE7A0
0x4CE7A2
0x4CE7A4
0x4CE801
0x4CE871
0x4CE8E1
0x4CE951
0x4CE9C1
0x4CEA30
0x4CEA32
0x4CEA34
0x4CEA91
0x4CEAF0
0x4CEB61
0x4CEBF1
0x4CEC60
0x4CECD0
0x4CED51
0x4CEDE1
0x4CEEE0
0x4CEFC3
0x4CF040
0x4CF044
0x4CF0A0
0x4CF170
0x4CF260
0x4CF320
0x4CF370
0x4CF3B0
0x4CF3C0
0x4CF5C7
0x4CF5E0
0x4CF630
0x4CF680
0x4CF6A0
0x4CF6D0
0x4CF740
0x4CF780
0x4CF7C0
0x4CF7C2
0x4CF7C4
0x4CF860
0x4CF980
0x4CFAC1
0x4CFD10
0x4CFD20
0x4CFD30
0x4CFD50
0x4CFD60
0x4CFD70
0x4CFDC0
0x4CFDD0
0x4CFE00
0x4CFE80
0x4CFED0
0x4CFFB0
0x4D0077
0x4D00C0
0x4D00F7
0x4D0110
0x4D0210
0x4D0230
0x4D03B0
0x4D0431
0x4D0680
0x4D0690
0x4D06A0
0x4D06C0
0x4D06D0
0x4D0720
0x4D0730
0x4D0760
0x4D07E0
0x4D0830
0x4D08B0
0x4D0960
0x4D09C0
0x4D0A63
0x4D0AB1
0x4D0AF3
0x4D0B10
0x4D0B93
0x4D0BD0
0x4D0C00
0x4D0C60
0x4D0CC0
0x4D0CF3
0x4D0D20
0x4D0D60
0x4D0D80
0x4D0DE0
0x4D0DFC
0x4D0E10
0x4D0E80
0x4D0EA0
0x4D0F7E
0x4D0F95
0x4D0F9E
0x4D0FB6
0x4D0FBE
0x4D0FD1
0x4D1050
0x4D1071
0x4D10F0
0x4D1160
0x4D13B8
0x4D13E0
0x4D1400
0x4D1470
0x4D1490
0x4D1570
0x4D1700
0x4D17E0
0x4D18C0
0x4D18E0
0x4D18E1
0x4D18EE
0x4D1900
0x4D1901
0x4D191E
0x4D192D
0x4D1971
0x4D1EE1
0x4D2120
0x4D21C0
0x4D22C0
0x4D22F0
0x4D2310
0x4D2340
0x4D2370
0x4D23F0
0x4D2511
0x4D2D50
0x4D2D70
0x4D2E50
0x4D2E70
0x4D3300
0x4D3310
0x4D3410
0x4D34A1
0x4D3520
0x4D3550
0x4D3552
0x4D3554
0x4D35A0
0x4D3610
0x4D3691
0x4D39E1
0x4D39E3
0x4D3AB0
0x4D3AD0
0x4D3C00
0x4D3C40
0x4D3C60
0x4D3C70
0x4D3C81
0x4D3F10
0x4D3FF0
0x4D40B0
0x4D40E0
0x4D4191
0x4D4291
0x4D4391
0x4D4470
0x4D4501
0x4D45D1
0x4D46E0
0x4D4700
0x4D4801
0x4D48D1
0x4D49A0
0x4D4A00
0x4D4A60
0x4D4AD0
0x4D4C41
0x4D4D4E
0x4D4D80
0x4D4DC0
0x4D4DE0
0x4D4E31
0x4D4EA0
0x4D4EEF
0x4D4F31
0x4D5155
0x4D5210
0x4D5270
0x4D52F0
0x4D5330
0x4D53E1
0x4D54E0
0x4D5520
0x4D5541
0x4D5543
0x4D5623
0x4D56DE
0x4D5911
0x4D5B01
0x4D5CD3
0x4D5D91
0x4D62B1
0x4D63C1
0x4D6650
0x4D67A1
0x4D6A21
0x4D6CB1
0x4D6F33
0x4D6FF1
0x4D71D0
0x4D72F1
0x4D7668
0x4D76C1
0x4D7BA0
0x4D7C51
0x4D7D31
0x4D80D1
0x4D82D0
0x4D82D5
0x4D8301
0x4D85D1
0x4D8810
0x4D8833
0x4D88F1
0x4D8E33
0x4D8EE1
0x4D9211
0x4D92E7
0x4D9478
0x4D947D
0x4D94F1
0x4D9751
0x4D9AA1
0x4D9B91
0x4D9CB1
0x4D9EC8
0x4DA0A1
0x4DA441
0x4DA521
0x4DA7B1
0x4DA910
0x4DA970
0x4DAA10
0x4DAAD0
0x4DACE1
0x4DACE7
0x4DAE80
0x4DAF51
0x4DAFD0
0x4DB040
0x4DB298
0x4DB2C0
0x4DB2E0
0x4DB2E2
0x4DB2E4
0x4DB430
0x4DB451
0x4DB660
0x4DB851
0x4DBAD1
0x4DBCD1
0x4DBED1
0x4DC250
0x4DC2F0
0x4DC620
0x4DC641
0x4DC784
0x4DC7A1
0x4DC8B1
0x4DCAD1
0x4DCB61
0x4DCC2E
0x4DCC9E
0x4DCCE0
0x4DCD10
0x4DCDC0
0x4DCDD0
0x4DCFE0
0x4DCFE2
0x4DD02D
0x4DD050
0x4DD052
0x4DD09D
0x4DD0C0
0x4DD0C2
0x4DD10D
0x4DD131
0x4DD237
0x4DD240
0x4DD2D1
0x4DD3D7
0x4DD3E0
0x4DD470
0x4DD4A0
0x4DD540
0x4DD570
0x4DD6E0
0x4DD710
0x4DD761
0x4DD767
0x4DD960
0x4DDA71
0x4DDA73
0x4DDAD1
0x4DDBC1
0x4DDC20
0x4DDD01
0x4DDEF1
0x4DDF12
0x4DDF52
0x4DE0B0
0x4DE15A
0x4DE3B1
0x4DE3D2
0x4DE412
0x4DE558
0x4DE5FA
0x4DE7D1
0x4DE7DA
0x4DE901
0x4DE9C0
0x4DEA11
0x4DEA2D
0x4DF001
0x4DF041
0x4DF190
0x4DF210
0x4DF231
0x4DF2D0
0x4DF410
0x4DF450
0x4DF4A2
0x4DF4B0
0x4DF520
0x4DF778
0x4DFA00
0x4DFA21
0x4DFAB0
0x4DFAD0
0x4DFAF1
0x4DFB80
0x4DFBD0
0x4DFBD2
0x4DFBD4
0x4DFCB0
0x4DFCB2
0x4DFCB4
0x4DFDD0
0x4DFF60
0x4E0041
0x4E0120
0x4E0241
0x4E0380
0x4E04F0
0x4E05D0
0x4E0701
0x4E07C1
0x4E09A7
0x4E0AB0
0x4E0B31
0x4E0E69
0x4E0F81
0x4E1000
0x4E1081
0x4E108A
0x4E1110
0x4E1150
0x4E1191
0x4E1641
0x4E16F1
0x4E17F3
0x4E1A70
0x4E1B21
0x4E1B2A
0x4E1D91
0x4E1E50
0x4E1E81
0x4E2195
0x4E2226
0x4E2232
0x4E223E
0x4E2251
0x4E2391
0x4E2441
0x4E26B1
0x4E2801
0x4E280A
0x4E28B1
0x4E2991
0x4E2A41
0x4E2DEE
0x4E2EF0
0x4E2FB0
0x4E2FD1
0x4E3061
0x4E30F1
0x4E3150
0x4E3211
0x4E32C1
0x4E3351
0x4E3551
0x4E3641
0x4E3721
0x4E37CB
0x4E38A0
0x4E38A2
0x4E38A4
0x4E3951
0x4E39D0
0x4E3A40
0x4E3C98
0x4E3CC0
0x4E3D90
0x4E3DD0
0x4E3DF1
0x4E3FD1
0x4E3FD3
0x4E4411
0x4E44B1
0x4E45A0
0x4E4843
0x4E4A90
0x4E4AB0
0x4E4B70
0x4E4B90
0x4E4BB0
0x4E4BD0
0x4E4BF0
0x4E4C10
0x4E4C30
0x4E4CF0
0x4E4DB0
0x4E4DB2
0x4E4DB4
0x4E4F00
0x4E5211
0x4E54E1
0x4E54E3
0x4E5580
0x4E5590
0x4E55B0
0x4E55C0
0x4E55E0
0x4E5601
0x4E59A1
0x4E5B11
0x4E6750
0x4E67BD
0x4E67E1
0x4E6860
0x4E68D0
0x4E6B27
0x4E6B50
0x4E6B70
0x4E6B72
0x4E6B74
0x4E6C60
0x4E6DA0
0x4E6E21
0x4E6F40
0x4E6FD0
0x4E7050
0x4E70D1
0x4E71B3
0x4E7250
0x4E7330
0x4E7420
0x4E74E0
0x4E7520
0x4E7530
0x4E7660
0x4E7700
0x4E7867
0x4E7870
0x4E7A37
0x4E7A80
0x4E7AF0
0x4E7B20
0x4E7BE0
0x4E7BE2
0x4E7BE4
0x4E7C70
0x4E7D90
0x4E7ED1
0x4E8120
0x4E8130
0x4E8140
0x4E8160
0x4E8170
0x4E81C0
0x4E81D0
0x4E8200
0x4E8280
0x4E82D0
0x4E83B0
0x4E8477
0x4E84C0
0x4E84F4
0x4E84FB
0x4E8520
0x4E8620
0x4E8650
0x4E87D0
0x4E8831
0x4E8A80
0x4E8A90
0x4E8AA0
0x4E8AC0
0x4E8AD0
0x4E8B20
0x4E8B30
0x4E8B60
0x4E8BF0
0x4E8C40
0x4E8CC0
0x4E8D70
0x4E8DD0
0x4E8E93
0x4E8EE1
0x4E8F23
0x4E8F30
0x4E8FA0
0x4E8FD0
0x4E9090
0x4E9092
0x4E9094
0x4E9120
0x4E9240
0x4E9381
0x4E95D0
0x4E95E0
0x4E95F0
0x4E9610
0x4E9620
0x4E9670
0x4E9680
0x4E96B0
0x4E9730
0x4E9780
0x4E9860
0x4E9927
0x4E9970
0x4E99A4
0x4E99AB
0x4E99D0
0x4E9AD0
0x4E9B00
0x4E9C81
0x4E9D60
0x4E9DB0
0x4E9E40
0x4E9E47
0x4E9F11
0x4EA160
0x4EA170
0x4EA180
0x4EA1A0
0x4EA1B0
0x4EA200
0x4EA210
0x4EA240
0x4EA2D0
0x4EA320
0x4EA3A0
0x4EA400
0x4EA480
0x4EA4E0
0x4EA5A3
0x4EA5C0
0x4EA653
0x4EA671
0x4EA6B3
0x4EA6D0
0x4EA753
0x4EA790
0x4EA7C0
0x4EA820
0x4EA880
0x4EA8B3
0x4EA8E0
0x4EA900
0x4EA933
0x4EA960
0x4EA990
0x4EAA00
0x4EAA30
0x4EAC70
0x4EAC90
0x4EAC92
0x4EAD11
0x4EAE20
0x4EAF40
0x4EB060
0x4EB210
0x4EB280
0x4EB2A0
0x4EB310
0x4EB610
0x4EB691
0x4EB7E0
0x4EB853
0x4EB85F
0x4EB86B
0x4EB877
0x4EB8B5
0x4EB984
0x4EB989
0x4EB9E9
0x4EBA09
0x4EBA29
0x4EBA49
0x4EBA64
0x4EBA69
0x4EBA84
0x4EBA89
0x4EBB04
0x4EBB09
0x4EBB24
0x4EBB29
0x4EBB49
0x4EBB69
0x4EBB89
0x4EBBA9
0x4EBBC9
0x4EBBE9
0x4EBC24
0x4EBC29
0x4EBC44
0x4EBC49
0x4EBC69
0x4EBC99
0x4EBCC9
0x4EBD19
0x4EBD69
0x4EBD99
0x4EBDC9
0x4EBDF9
0x4EBE49
0x4EBE79
0x4EBEA9
0x4EBED9
0x4EBF09
0x4EBF39
0x4EBF69
0x4EBFC0
0x4EC000
0x4EC010
0x4EC111
0x4EC360
0x4EC362
0x4EC364
0x4EC511
0x4EC620
0x4EC6A0
0x4EC760
0x4ECE17
0x4ECE31
0x4ECE69
0x4ECEF0
0x4ECF71
0x4ECFF0
0x4ED006
0x4ED0E0
0x4ED161
0x4ED17E
0x4ED250
0x4ED2D1
0x4ED6F1
0x4ED6FA
0x4ED850
0x4ED8D1
0x4EDAE0
0x4EDB31
0x4EDBE0
0x4EDCA0
0x4EDCE1
0x4EDEB0
0x4EDF7C
0x4EDFE0
0x4EDFF0
0x4EE02C
0x4EE050
0x4EE0A6
0x4EE9B0
0x4EEC11
0x4EED01
0x4EEDF1
0x4EEF5E
0x4EEF81
0x4EEFC0
0x4EF011
0x4EF110
0x4EF1C1
0x4EF231
0x4EF2B0
0x4EF330
0x4EF351
0x4EF3F0
0x4EF530
0x4EF570
0x4EF5C2
0x4EF5E0
0x4EF660
0x4EF7B0
0x4EF7D0
0x4EF7F0
0x4EF810
0x4EF830
0x4EF850
0x4EF870
0x4EF890
0x4EF8F0
0x4EF970
0x4EF990
0x4EF9B0
0x4EFA31
0x4EFB70
0x4EFC10
0x4EFCA1
0x4EFED0
0x4EFED2
0x4EFED4
0x4EFFA1
0x4F00C0
0x4F0120
0x4F01E0
0x4F0C57
0x4F0C71
0x4F0C8E
0x4F0CF0
0x4F0D51
0x4F0DD0
0x4F0DE6
0x4F0EC1
0x4F1000
0x4F1061
0x4F107E
0x4F1140
0x4F11C1
0x4F1410
0x4F1591
0x4F1650
0x4F1880
0x4F1890
0x4F18C9
0x4F18F0
0x4F1940
0x4F19D1
0x4F1AC1
0x4F1BB1
0x4F1D0E
0x4F1D50
0x4F1E67
0x4F1FC0
0x4F1FC8
0x4F2320
0x4F24A0
0x4F24C0
0x4F24D0
0x4F24E0
0x4F2701
0x4F2930
0x4F2D11
0x4F2D39
0x4F2DF6
0x4F3131
0x4F33D0
0x4F33D2
0x4F33D4
0x4F3451
0x4F3485
0x4F39A1
0x4F3AAA
0x4F3B3B
0x4F3B67
0x4F3C31
0x4F3FA6
0x4F4550
0x4F4817
0x4F4D21
0x4F4DE1
0x4F4EAC
0x4F5116
0x4F540F
0x4F5611
0x4F5941
0x4F59DA
0x4F5A41
0x4F5AD5
0x4F5D60
0x4F5D62
0x4F5D64
0x4F5E11
0x4F5FB9
0x4F6A51
0x4F6AE3
0x4F6D96
0x4F7201
0x4F7251
0x4F7451
0x4F7662
0x4F77A1
0x4F78C1
0x4F7BC1
0x4F7C81
0x4F7D21
0x4F80B5
0x4F80EE
0x4F8181
0x4F82C4
0x4F83D2
0x4F83DB
0x4F8410
0x4F8441
0x4F85F1
0x4F8981
0x4F8D81
0x4F9181
0x4F944E
0x4F9476
0x4F94F0
0x4F94F2
0x4F953D
0x4F9570
0x4F95C1
0x4F9681
0x4F9751
0x4F9950
0x4F9980
0x4F99F0
0x4F9C10
0x4F9C60
0x4F9DF0
0x4F9F10
0x4F9F41
0x4F9F50
0x4F9F52
0x4F9F90
0x4F9F92
0x4FA1C0
0x4FA230
0x4FA370
0x4FA390
0x4FA3D1
0x4FA481
0x4FA590
0x4FA5B1
0x4FA7DE
0x4FA82E
0x4FA84E
0x4FA86E
0x4FA880
0x4FA8F0
0x4FAC20
0x4FACA0
0x4FAD90
0x4FAE80
0x4FAF20
0x4FAF31
0x4FB380
0x4FB3A1
0x4FB4C1
0x4FB4CA
0x4FB5C0
0x4FB6A0
0x4FB711
0x4FB8C1
0x4FB8F1
0x4FB98E
0x4FB9B0
0x4FBA80
0x4FBAC0
0x4FBBC1
0x4FBC31
0x4FBCA1
0x4FBD91
0x4FBF10
0x4FBF12
0x4FBF5D
0x4FC030
0x4FC060
0x4FC100
0x4FC130
0x4FC1D0
0x4FC200
0x4FC2A0
0x4FC2D0
0x4FC370
0x4FC440
0x4FC471
0x4FC577
0x4FC580
0x4FC611
0x4FC760
0x4FC8E1
0x4FC981
0x4FCB5C
0x4FCC51
0x4FCCE0
0x4FCE01
0x4FCE70
0x4FCFB1
0x4FD030
0x4FD0B0
0x4FD0D1
0x4FD170
0x4FD2B0
0x4FD2F0
0x4FD342
0x4FD360
0x4FD380
0x4FD382
0x4FD384
0x4FD430
0x4FD4D1
0x4FD650
0x4FD671
0x4FDB2A
0x4FDCD1
0x4FDD50
0x4FDDB1
0x4FDDBA
0x4FE1C1
0x4FE7F1
0x4FE940
0x4FED2D
0x4FEE31
0x4FEF0F
0x4FEF51
0x4FEF5A
0x4FEF71
0x4FF211
0x4FF512
0x4FF577
0x4FF5B4
0x4FF8F1
0x4FF912
0x4FFB11
0x4FFBC1
0x4FFC73
0x4FFFC1
0x500088
0x5000D6
0x500111
0x500154
0x500211
0x500301
0x500441
0x5006A1
0x500951
0x500B31
0x500C21
0x500C91
0x500D31
0x500D3A
0x500EA1
0x500EAA
0x501081
0x501121
0x501181
0x501250
0x501252
0x5012D0
0x501330
0x5013F1
0x501550
0x501561
0x501870
0x5018F1
0x501980
0x501A50
0x501AD1
0x501BC0
0x501D11
0x501EE0
0x501F80
0x501F82
0x501FCD
0x502059
0x502070
0x502139
0x502150
0x5021B1
0x502202
0x502230
0x5024B0
0x5024D1
0x502961
0x502D90
0x502DA1
0x502F00
0x502F10
0x502FA0
0x502FC0
0x502FC2
0x502FC4
0x503040
0x503070
0x5030D0
0x503100
0x503170
0x503191
0x503200
0x503220
0x5032D5
0x503360
0x5033C1
0x503550
0x50358B
0x503660
0x5036E1
0x5037A0
0x5037C8
0x5037DE
0x503840
0x503888
0x50389E
0x5038D0
0x5039A0
0x503A11
0x503ABC
0x503AE0
0x503BA1
0x503C40
0x503CD0
0x503D81
0x503DD0
0x503DD2
0x503E1D
0x503EE0
0x503F21
0x504027
0x504030
0x5040C1
0x504160
0x5041A1
0x504201
0x504291
0x504360
0x504431
0x50447A
0x50463F
0x504750
0x50479D
0x5047D4
0x504B10
0x504B18
0x504E00
0x504E21
0x504F51
0x505290
0x5053B1
0x5054E1
0x5056C1
0x505731
0x50578D
0x505AB0
0x505B71
0x505BD0
0x505C60
0x505CE0
0x505D91
0x5063E0
0x5063F1
0x506480
0x5065B1
0x50661B
0x506B00
0x506BC1
0x506E41
0x507130
0x5071D0
0x507380
0x507410
0x5074A0
0x5076C0
0x5077A0
0x5077A8
0x507880
0x507888
0x507A50
0x507A6F
0x507AE0
0x507B30
0x507B40
0x507B60
0x507B71
0x507B80
0x507BD0
0x507BE0
0x507C00
0x507C11
0x507C20
0x507D50
0x507D55
0x507D90
0x507D92
0x507DF0
0x507E00
0x507E20
0x507EA0
0x507F30
0x507FB1
0x508200
0x508220
0x508281
0x508521
0x508630
0x508700
0x508720
0x508750
0x5088F0
0x508900
0x508951
0x5089D0
0x508A40
0x508A50
0x508A70
0x508A90
0x508AB0
0x508AD0
0x508B00
0x508B04
0x508C21
0x508DA0
0x508E30
0x508E41
0x508E5D
0x508FB0
0x508FD0
0x509031
0x509047
0x509070
0x509080
0x509090
0x5090C0
0x509141
0x509360
0x509380
0x5093D0
0x5093E1
0x509680
0x509780
0x5097B0
0x5097E0
0x509840
0x509937
0x509940
0x509970
0x509A50
0x509A70
0x509CD1
0x509DE0
0x509DF0
0x509E30
0x509E9B
0x509EB7
0x509ED7
0x509F30
0x50A007
0x50A020
0x50A050
0x50A080
0x50A0A0
0x50A0B3
0x50A0F1
0x50A107
0x50A110
0x50A170
0x50A247
0x50A260
0x50A290
0x50A2C0
0x50A2E0
0x50A2F3
0x50A331
0x50A347
0x50A350
0x50A3B0
0x50A487
0x50A4A0
0x50A4D0
0x50A4F0
0x50A503
0x50A517
0x50A563
0x50A5B3
0x50A603
0x50A670
0x50A690
0x50A694
0x50A6A0
0x50A6B0
0x50A731
0x50A880
0x50A890
0x50A8B3
0x50A960
0x50A970
0x50A993
0x50AA20
0x50AA40
0x50AA44
0x50AA50
0x50AA60
0x50AAE1
0x50ABA0
0x50AC70
0x50AC80
0x50ACA3
0x50AD50
0x50AD60
0x50AD83
0x50AE10
0x50AE30
0x50AE34
0x50AEA1
0x50AFE0
0x50AFF0
0x50B013
0x50B0B3
0x50B113
0x50B163
0x50B321
0x50B380
0x50B420
0x50B520
0x50B550
0x50B660
0x50B670
0x50B6D1
0x50B900
0x50B940
0x50B950
0x50B960
0x50BA60
0x50BA90
0x50BAC0
0x50BB10
0x50BC00
0x50BC10
0x50BC40
0x50BC90
0x50BCF0
0x50BD50
0x50BE01
0x50BE40
0x50BE50
0x50BEA0
0x50BEE0
0x50BEF0
0x50BF20
0x50BFB0
0x50C0B0
0x50C170
0x50C1A0
0x50C210
0x50C2D0
0x50C2E1
0x50C550
0x50C561
0x50C7D1
0x50C930
0x50C970
0x50C9B4
0x50C9B8
0x50C9E3
0x50CA40
0x50CAD0
0x50CAE1
0x50CD80
0x50CD90
0x50CE90
0x50CEC0
0x50CEF0
0x50CF40
0x50D030
0x50D040
0x50D070
0x50D161
0x50D3B0
0x50D3C0
0x50D437
0x50D440
0x50D450
0x50D490
0x50D4A0
0x50D4B0
0x50D5B0
0x50D5E0
0x50D660
0x50D6B0
0x50D730
0x50D7B0
0x50D810
0x50D880
0x50D8B0
0x50D930
0x50D980
0x50DA90
0x50DB30
0x50DB70
0x50DBD0
0x50DC30
0x50DCF0
0x50DD31
0x50DD40
0x50DDE0
0x50DDF7
0x50DE40
0x50DE50
0x50DE73
0x50DEA1
0x50E110
0x50E121
0x50E391
0x50E4F0
0x50E530
0x50E578
0x50E57C
0x50E5A3
0x50E600
0x50E690
0x50E6A1
0x50E940
0x50E950
0x50EA50
0x50EA80
0x50EAB0
0x50EB00
0x50EBF0
0x50EC00
0x50EC30
0x50ED21
0x50EF70
0x50EF80
0x50EFF7
0x50F000
0x50F010
0x50F050
0x50F060
0x50F070
0x50F170
0x50F1A0
0x50F220
0x50F270
0x50F2F0
0x50F370
0x50F3D0
0x50F440
0x50F470
0x50F4F0
0x50F540
0x50F650
0x50F6F0
0x50F730
0x50F790
0x50F7F0
0x50F8B0
0x50F8E0
0x50F8F1
0x50F900
0x50F9A0
0x50F9D0
0x50F9E2
0x50FA30
0x50FB63
0x50FB71
0x50FBA0
0x50FBBC
0x50FC00
0x50FC60
0x50FCC0
0x50FD00
0x50FD1C
0x50FD50
0x50FD90
0x50FDB5
0x50FDF1
0x50FEE1
0x5101B0
0x5101C1
0x510431
0x510590
0x5105D0
0x510618
0x51061C
0x510643
0x5106A0
0x510730
0x510741
0x5109E0
0x5109F0
0x510AF0
0x510B20
0x510B50
0x510BA0
0x510C90
0x510CA0
0x510CD0
0x510DC1
0x511010
0x511020
0x511097
0x5110A0
0x5110B0
0x5110F0
0x511100
0x511110
0x511210
0x511240
0x5112C0
0x511310
0x511390
0x511410
0x511470
0x5114E0
0x511510
0x511590
0x5115E0
0x5116F0
0x511790
0x5117D0
0x511830
0x511890
0x511950
0x511991
0x5119A0
0x511A40
0x511A50
0x511A80
0x511A91
0x511AA0
0x511B00
0x511B20
0x511B70
0x511CB1
0x511F00
0x511F10
0x511F30
0x511F80
0x511F90
0x512090
0x5120C0
0x512140
0x512220
0x5122E0
0x512321
0x51232A
0x512410
0x512A90
0x512AB4
0x512ACC
0x512ADF
0x512B04
0x512B1C
0x512B2F
0x512B54
0x512B6C
0x512B7F
0x512BA0
0x512D30
0x512D90
0x512D94
0x512E10
0x512E40
0x512F00
0x512F20
0x512F54
0x512F81
0x512F8A
0x513021
0x51306B
0x513081
0x51308A
0x513121
0x51316B
0x513181
0x5131E0
0x5131F0
0x513200
0x513220
0x513230
0x513290
0x5132F0
0x513331
0x513A41
0x513BC1
0x513BCA
0x513C35
0x513C71
0x513D10
0x513E01
0x513EB0
0x513EF0
0x513F00
0x513F31
0x5141A0
0x514280
0x5143C0
0x514410
0x514420
0x514441
0x514450
0x514480
0x5144D0
0x5144E0
0x514501
0x514510
0x514580
0x514720
0x5147A0
0x5147F0
0x514820
0x5148A0
0x5149C0
0x5149F0
0x514A20
0x514A50
0x514A80
0x514AB0
0x514AE0
0x514B10
0x514B40
0x514B70
0x514BC0
0x514BF0
0x514C20
0x514C50
0x514C80
0x514CB0
0x514D00
0x514D40
0x514DF0
0x514DF4
0x514E60
0x514EE0
0x514F00
0x514F20
0x514F31
0x514F40
0x515020
0x515030
0x515060
0x5150D0
0x5150E0
0x515188
0x5151F1
0x51520B
0x515248
0x515250
0x515270
0x515280
0x515284
0x5152F0
0x515370
0x515390
0x5153B0
0x5153C1
0x5153D0
0x5154B0
0x5154C0
0x5154F0
0x515560
0x515570
0x515618
0x515681
0x51569B
0x5156D8
0x5156E0
0x515700
0x515710
0x515714
0x515780
0x515800
0x515820
0x515840
0x515851
0x515860
0x515940
0x515950
0x515980
0x5159F0
0x515A00
0x515AA8
0x515B11
0x515B2B
0x515B68
0x515B70
0x515B90
0x515BA0
0x515BA4
0x515C10
0x515C90
0x515CB0
0x515CD0
0x515CE1
0x515CF0
0x515DD0
0x515DE0
0x515E10
0x515E80
0x515E90
0x515F38
0x515FA1
0x515FBB
0x515FF8
0x516000
0x516020
0x516030
0x516034
0x5160A0
0x516120
0x516140
0x516160
0x516171
0x516180
0x516260
0x516270
0x5162A0
0x516310
0x516320
0x5163C8
0x516431
0x51644B
0x516488
0x516490
0x5164B0
0x5164C0
0x5164C4
0x516530
0x5165B0
0x5165D0
0x5165F0
0x516601
0x516610
0x5166F0
0x516700
0x516730
0x5167A0
0x5167B0
0x516858
0x5168C1
0x5168DB
0x516918
0x516920
0x516940
0x516950
0x516954
0x5169C0
0x516A40
0x516A60
0x516A80
0x516A91
0x516AA0
0x516B80
0x516B90
0x516BC0
0x516C30
0x516C40
0x516CE8
0x516D51
0x516D6B
0x516DA8
0x516DB0
0x516DD0
0x516DE0
0x516DE4
0x516E50
0x516ED0
0x516EF0
0x516F10
0x516F21
0x516F30
0x517010
0x517020
0x517050
0x5170C0
0x5170D0
0x517178
0x5171E1
0x5171FB
0x517238
0x517240
0x517260
0x517270
0x517274
0x5172E0
0x517360
0x517380
0x5173A0
0x5173B1
0x5173C0
0x5174A0
0x5174B0
0x5174E0
0x517550
0x517560
0x517608
0x517671
0x51768B
0x5176C8
0x5176D0
0x5176F0
0x517700
0x517704
0x517770
0x5177F0
0x517810
0x517830
0x517841
0x517850
0x517930
0x517940
0x517970
0x5179E0
0x5179F0
0x517A98
0x517B01
0x517B1B
0x517B58
0x517B60
0x517B80
0x517B90
0x517B94
0x517C00
0x517C80
0x517CA0
0x517CC0
0x517CD1
0x517CE0
0x517DC0
0x517DD0
0x517E00
0x517E70
0x517E80
0x517F28
0x517F91
0x517FAB
0x517FE8
0x517FF0
0x518010
0x518020
0x518024
0x518090
0x518110
0x518130
0x518150
0x518161
0x518170
0x518250
0x518260
0x518290
0x518300
0x518310
0x5183B8
0x518421
0x51843B
0x518478
0x518480
0x5184A0
0x5184B0
0x5184B4
0x518520
0x5185A0
0x5185C0
0x5185E0
0x5185F1
0x518600
0x5186E0
0x5186F0
0x518720
0x518790
0x5187A0
0x518848
0x5188B1
0x5188CB
0x518908
0x518910
0x518930
0x518940
0x518944
0x5189B0
0x518A30
0x518A50
0x518A70
0x518A81
0x518A90
0x518B70
0x518B80
0x518BB0
0x518C20
0x518C30
0x518CD8
0x518D41
0x518D5B
0x518D98
0x518DA0
0x518DC0
0x518DD0
0x518DD4
0x518E40
0x518EC0
0x518EE0
0x518F00
0x518F11
0x518F20
0x519000
0x519010
0x519040
0x5190B0
0x5190C0
0x519160
0x519178
0x5191E1
0x5191FB
0x519238
0x519240
0x519260
0x519271
0x5192B0
0x519330
0x519450
0x519621
0x519870
0x519880
0x519890
0x5198B7
0x5198C0
0x5198D0
0x5198E0
0x519930
0x519940
0x519970
0x5199F0
0x519A40
0x519B20
0x519C13
0x519C30
0x519C60
0x519CD0
0x519D71
0x519DC4
0x519E60
0x519E70
0x519E80
0x519EC0
0x519F40
0x519F83
0x519FC0
0x51A050
0x51A0E0
0x51A107
0x51A120
0x51A161
0x51A210
0x51A297
0x51A2B0
0x51A2E0
0x51A2FC
0x51A340
0x51A360
0x51A400
0x51A42A
0x51A440
0x51A490
0x51A621
0x51A870
0x51A880
0x51A8A0
0x51A8B0
0x51A900
0x51A910
0x51AA10
0x51AA40
0x51AAC0
0x51ABA0
0x51AC93
0x51ACA0
0x51ACD0
0x51ACF0
0x51AD00
0x51AD87
0x51ADC7
0x51ADE0
0x51AE05
0x51AE73
0x51AE90
0x51AEB0
0x51AEE0
0x51AF00
0x51AF10
0x51AF30
0x51B031
0x51B047
0x51B050
0x51B080
0x51B0A0
0x51B0B3
0x51B0D0
0x51B1B0
0x51B1D3
0x51B213
0x51B320
0x51B440
0x51B470
0x51B4D0
0x51B511
0x51B520
0x51B570
0x51B6B1
0x51B900
0x51B910
0x51B930
0x51B980
0x51B990
0x51BA90
0x51BAC0
0x51BB40
0x51BC20
0x51BCE0
0x51BCF2
0x51BD40
0x51BE73
0x51BE81
0x51BE90
0x51BEF0
0x51BF50
0x51BFA0
0x51C0B0
0x51C1F1
0x51C440
0x51C450
0x51C470
0x51C480
0x51C4C0
0x51C4D0
0x51C500
0x51C580
0x51C5D0
0x51C6B0
0x51C771
0x51C78D
0x51C811
0x51C82D
0x51C8B1
0x51C8CD
0x51C951
0x51C96D
0x51C9F1
0x51CA0D
0x51CA91
0x51CAAD
0x51CB31
0x51CB4D
0x51CBD1
0x51CBED
0x51CC71
0x51CC8D
0x51CD11
0x51CD2D
0x51CDB1
0x51CDCD
0x51CE51
0x51CE6D
0x51CEF1
0x51CF0D
0x51CF91
0x51CFAD
0x51D031
0x51D04D
0x51D0D1
0x51D0ED
0x51D170
0x51D211
0x51D264
0x51D300
0x51D340
0x51D3F3
0x51D430
0x51D530
0x51D5B0
0x51D5E0
0x51D5FC
0x51D640
0x51D660
0x51D6A1
0x51DCC1
0x51E2C0
0x51E670
0x51E715
0x51E8D7
0x51E8F7
0x51E951
0x51EA61
0x51EA9C
0x51EC00
0x51ECD0
0x51ED31
0x51EDE0
0x51EE70
0x51EEA0
0x51EF20
0x51EFC0
0x51F080
0x51F082
0x51F084
0x51F0D0
0x51F100
0x51F2C0
0x51F2CB
0x51F301
0x51F31A
0x51F360
0x51F4C0
0x51F550
0x51F55B
0x51F590
0x51F59B
0x51F600
0x51F606
0x51F613
0x51F670
0x51F678
0x51F6FA
0x51F7D1
0x51F931
0x51F93A
0x51F9F1
0x51F9FA
0x51FA6B
0x51FAB0
0x51FB30
0x51FBF1
0x51FC70
0x51FC81
0x51FD30
0x51FD4C
0x51FD6C
0x51FD80
0x51FDB0
0x51FE00
0x51FEC1
0x520240
0x520242
0x5202A0
0x520321
0x520431
0x520475
0x520491
0x52049A
0x520521
0x5206D0
0x520867
0x520887
0x5208A7
0x5208C0
0x520910
0x52093B
0x520950
0x520970
0x520996
0x5209B0
0x5209DB
0x5209F0
0x520A10
0x520A36
0x520A50
0x520A7B
0x520A90
0x520AC0
0x520D40
0x520EB0
0x520EB2
0x520EB4
0x520F10
0x520F30
0x520F34
0x5210A0
0x521130
0x5211C0
0x521341
0x5213E1
0x521441
0x5214A1
0x5216A0
0x5216F0
0x521740
0x5217E0
0x5219A0
0x5219A8
0x521A80
0x521A88
0x521D50
0x521DB0
0x521E00
0x521E50
0x521EA1
0x521EE1
0x521F21
0x522060
0x5220B0
0x5220E0
0x522170
0x5221F0
0x522230
0x5222F0
0x5223C0
0x5223D0
0x522440
0x522481
0x5225B0
0x5225B4
0x5226E0
0x522710
0x522740
0x522770
0x5227A0
0x5227D0
0x522800
0x522830
0x522860
0x522890
0x5228F0
0x522950
0x5229B0
0x522A20
0x522B30
0x522B50
0x522BD1
0x522BE0
0x522C50
0x522C60
0x522C80
0x522C84
0x522CE1
0x522DA0
0x522DF0
0x522E00
0x522E21
0x522E30
0x522E60
0x522EB0
0x522EC0
0x522EE1
0x522EF0
0x522F20
0x522F70
0x522F80
0x522FA1
0x522FB0
0x522FE0
0x5230B0
0x523180
0x5233B0
0x5234E9
0x523510
0x5235F7
0x523640
0x523650
0x523673
0x5236A0
0x5236C0
0x523720
0x523830
0x523860
0x5238B0
0x5239F1
0x523C40
0x523C50
0x523C70
0x523C80
0x523CC0
0x523CD0
0x523DD0
0x523E00
0x523E80
0x523F00
0x523F50
0x524050
0x5240B0
0x524140
0x524171
0x5241B1
0x524200
0x524260
0x5242A0
0x5242C0
0x524310
0x524410
0x5244A0
0x5244D0
0x5244E0
0x524500
0x524560
0x524570
0x524591
0x5245DB
0x524681
0x524690
0x5246D0
0x5246E0
0x5246F0
0x5247B0
0x5247F0
0x524910
0x524A51
0x524CA0
0x524CB0
0x524CD7
0x524CE0
0x524CF0
0x524D00
0x524D50
0x524D60
0x524D90
0x524E10
0x524E60
0x524F40
0x525007
0x525027
0x525047
0x525067
0x52508B
0x525100
0x5251D7
0x5251F0
0x525220
0x525250
0x525270
0x525283
0x5252C1
0x5252D7
0x5252E0
0x525340
0x525417
0x525430
0x525460
0x525490
0x5254B0
0x5254C3
0x525501
0x525517
0x525520
0x525557
0x525577
0x525597
0x5255A1
0x525677
0x525690
0x5256E0
0x525821
0x525A70
0x525A80
0x525A90
0x525AB0
0x525AC0
0x525AD0
0x525B30
0x525B40
0x525C40
0x525C70
0x525D00
0x525DE0
0x525ED3
0x525EF7
0x525F11
0x525FE7
0x526000
0x526050
0x526191
0x5263E0
0x5263F0
0x526400
0x526420
0x526430
0x526440
0x5264A0
0x5264B0
0x5265B0
0x5265E0
0x526670
0x526750
0x526843
0x526861
0x526937
0x526950
0x5269A0
0x526AE1
0x526D30
0x526D40
0x526D50
0x526D70
0x526D80
0x526D90
0x526DF0
0x526E00
0x526F00
0x526F30
0x526FC0
0x5270A0
0x527193
0x5271B1
0x527287
0x5272A0
0x5272F0
0x527431
0x527680
0x527690
0x5276A0
0x5276C0
0x5276D0
0x5276E0
0x527740
0x527750
0x527850
0x527880
0x527910
0x5279F0
0x527AE3
0x527B07
0x527B27
0x527B70
0x527B80
0x527BA3
0x527C03
0x527C53
0x527CA3
0x527CF0
0x527D00
0x527D23
0x527DB0
0x527DD0
0x527DD4
0x527DE0
0x527DF0
0x527E61
0x527FA0
0x527FB0
0x527FD3
0x528080
0x528090
0x5280B3
0x528140
0x528160
0x528164
0x528170
0x528180
0x528201
0x528330
0x528363
0x528410
0x528420
0x528443
0x528480
0x5284A5
0x528520
0x528530
0x528553
0x5285B0
0x5285C0
0x5285E3
0x528643
0x528690
0x5286A0
0x5286C3
0x5286D0
0x5286F0
0x528820
0x528830
0x528853
0x528880
0x528980
0x528A80
0x528BB0
0x528BC0
0x528BE3
0x528C40
0x528C50
0x528C73
0x528CA0
0x528DA0
0x528EE1
0x529130
0x529140
0x529160
0x529170
0x5291B0
0x5291C0
0x5291F0
0x529270
0x5292C0
0x5293A0
0x529460
0x5294E0
0x5294E4
0x5294FC
0x529530
0x529560
0x529670
0x529719
0x529729
0x5297B1
0x529A00
0x529A10
0x529A30
0x529A70
0x529A80
0x529AB0
0x529B30
0x529B80
0x529C60
0x529D90
0x529DC0
0x529E50
0x529EBA
0x529ED0
0x529F20
0x52A061
0x52A2B0
0x52A2C0
0x52A2E0
0x52A320
0x52A330
0x52A430
0x52A460
0x52A4E0
0x52A560
0x52A5B0
0x52A6A0
0x52A7D0
0x52A820
0x52A831
0x52AA70
0x52AAD0
0x52AB00
0x52AB10
0x52AB50
0x52AB60
0x52AB70
0x52AC70
0x52AD00
0x52AD80
0x52ADF0
0x52AEA0
0x52AF10
0x52AFA0
0x52B000
0x52B0F0
0x52B1A0
0x52B220
0x52B250
0x52B26C
0x52B2B0
0x52B2C2
0x52B310
0x52B443
0x52B451
0x52B460
0x52B570
0x52B6B1
0x52B900
0x52B910
0x52B950
0x52B960
0x52B990
0x52BA00
0x52BA50
0x52BB30
0x52BC60
0x52BCB0
0x52BCE0
0x52BDF0
0x52BE00
0x52BE10
0x52BE20
0x52BF50
0x52BFB0
0x52C010
0x52C020
0x52C090
0x52C100
0x52C1D1
0x52C420
0x52C430
0x52C457
0x52C490
0x52C4A0
0x52C5A0
0x52C5D0
0x52C600
0x52C650
0x52C6C0
0x52C720
0x52C770
0x52C7E0
0x52C900
0x52CA41
0x52CC90
0x52CCA0
0x52CCC0
0x52CCD0
0x52CD10
0x52CD20
0x52CD50
0x52CDD0
0x52CE20
0x52CF00
0x52D020
0x52D180
0x52D2A0
0x52D3E1
0x52D630
0x52D640
0x52D660
0x52D670
0x52D6B0
0x52D6C0
0x52D6F0
0x52D770
0x52D7C0
0x52D8A0
0x52D960
0x52DA80
0x52DBC1
0x52DE10
0x52DE20
0x52DE40
0x52DE50
0x52DE90
0x52DEA0
0x52DED0
0x52DF50
0x52DFA0
0x52E080
0x52E160
0x52E1C0
0x52E1F0
0x52E220
0x52E330
0x52E340
0x52E350
0x52E360
0x52E490
0x52E4F0
0x52E550
0x52E560
0x52E5D0
0x52E6D1
0x52E920
0x52E930
0x52E957
0x52E990
0x52E9A0
0x52EAA0
0x52EAD0
0x52EB00
0x52EB50
0x52EBC0
0x52EC20
0x52EC70
0x52ECE1
0x52EF51
0x52F181
0x52F2E0
0x52F320
0x52F364
0x52F368
0x52F393
0x52F3E0
0x52F3F0
0x52F480
0x52F491
0x52F730
0x52F740
0x52F840
0x52F870
0x52F8A0
0x52F8F0
0x52F9E0
0x52F9F0
0x52FA20
0x52FA50
0x52FAD0
0x52FB20
0x52FC70
0x52FCB0
0x52FD10
0x52FD70
0x52FE30
0x52FE71
0x52FE80
0x52FF20
0x530020
0x530130
0x530240
0x530271
0x5302B0
0x530340
0x5303A0
0x5304B0
0x5305F1
0x530840
0x530850
0x530870
0x530880
0x5308C0
0x5308D0
0x530900
0x530980
0x5309D0
0x530AA0
0x530BD0
0x530C80
0x530D00
0x530D30
0x530D4C
0x530E00
0x530EB0
0x530F30
0x530F60
0x530F7C
0x530FB0
0x5310B0
0x5310C0
0x531201
0x531450
0x531490
0x5314A0
0x5314D0
0x531550
0x5315A0
0x531620
0x531690
0x5316F0
0x5317D0
0x531820
0x531930
0x531A71
0x531CC0
0x531CD0
0x531CF0
0x531D00
0x531D40
0x531D50
0x531D80
0x531E00
0x531E50
0x531EEC
0x531F30
0x531FF1
0x532430
0x532450
0x532480
0x5324D1
0x5325E7
0x532601
0x53260A
0x532691
0x53269A
0x53273D
0x533170
0x5331C1
0x5331D1
0x5332EA
0x5335D1
0x5337A7
0x5337D0
0x5338D0
0x533901
0x533911
0x533947
0x533BC1
0x533D39
0x533E81
0x5340DA
0x5342F1
0x534335
0x534660
0x5346E0
0x5346E2
0x534711
0x5347F0
0x534870
0x534A91
0x534CC0
0x534D50
0x534D80
0x534DB0
0x534DF0
0x534E20
0x534E6D
0x534EB1
0x535121
0x5352E0
0x535343
0x535460
0x535490
0x535492
0x535494
0x5354F0
0x535500
0x535504
0x535561
0x535600
0x535640
0x535644
0x5356B0
0x5356C0
0x535770
0x535820
0x535920
0x535A20
0x535B50
0x535B70
0x535BA0
0x535BC0
0x535BC4
0x535BD0
0x535BE0
0x535C50
0x535D31
0x535E80
0x535E90
0x535EE1
0x535EF7
0x535F00
0x535F40
0x535F50
0x535F73
0x536020
0x536030
0x536053
0x5360A0
0x5360C3
0x536150
0x5361D1
0x5363F0
0x536440
0x536451
0x5366F0
0x5367F0
0x536820
0x536850
0x5368A0
0x536990
0x5369C0
0x536AA0
0x536AC0
0x536BC1
0x536E60
0x536EA0
0x536EC0
0x536EF0
0x536F90
0x536FC0
0x537000
0x5370C0
0x537153
0x537190
0x5371D0
0x537211
0x53725B
0x537271
0x537280
0x537368
0x537370
0x537380
0x537430
0x537440
0x537450
0x5374A0
0x5374A4
0x5374F0
0x537500
0x537521
0x5377C0
0x537800
0x537820
0x537850
0x5378F0
0x537920
0x537960
0x537A20
0x537AB3
0x537AF0
0x537B30
0x537B71
0x537BBB
0x537BD1
0x537BE0
0x537CC8
0x537CD0
0x537CE0
0x537D90
0x537DA0
0x537DB0
0x537E00
0x537E04
0x537E50
0x537E60
0x537E80
0x537F67
0x537F7A
0x537FD3
0x537FF0
0x538040
0x538181
0x5383F0
0x538400
0x538420
0x538460
0x538470
0x538480
0x538580
0x5385B0
0x538661
0x538850
0x538990
0x5389B7
0x5389C1
0x538C40
0x538C90
0x538CA1
0x538EF0
0x538F00
0x539000
0x539030
0x539060
0x5390B0
0x5391B0
0x5391E0
0x5392D1
0x539520
0x539530
0x5395A0
0x5395B0
0x5395F0
0x539600
0x539610
0x539710
0x539740
0x5397C0
0x539810
0x539890
0x539910
0x539970
0x5399E0
0x539A10
0x539A90
0x539AE0
0x539BF0
0x539C90
0x539CD0
0x539D30
0x539DE1
0x539E71
0x539F41
0x53A211
0x53A370
0x53A3B0
0x53A3F4
0x53A3F8
0x53A423
0x53A460
0x53A4D0
0x53A511
0x53A520
0x53A5C0
0x53A5D0
0x53A650
0x53A6B0
0x53A6C0
0x53A850
0x53A8B0
0x53A940
0x53AB00
0x53AB20
0x53ABA0
0x53ABA4
0x53ABC5
0x53AC00
0x53AC30
0x53AC42
0x53AC90
0x53ADC1
0x53ADD1
0x53B070
0x53B100
0x53B190
0x53B1B1
0x53B311
0x53B3C3
0x53B4A0
0x53B539
0x53B590
0x53B598
0x53B6B1
0x53B870
0x53BAB1
0x53C240
0x53C2B1
0x53C2FB
0x53C4A0
0x53C4A2
0x53C591
0x53C690
0x53C720
0x53C728
0x53C8F0
0x53C900
0x53C920
0x53C940
0x53C960
0x53C9B0
0x53C9B2
0x53CAC1
0x53CBA0
0x53CC4C
0x53CC70
0x53CDB0
0x53CE20
0x53CEF7
0x53CF10
0x53CF40
0x53CF70
0x53CF90
0x53CFA3
0x53CFE1
0x53CFF7
0x53D000
0x53D060
0x53D080
0x53D084
0x53D090
0x53D0A0
0x53D121
0x53D2C3
0x53D310
0x53D320
0x53D343
0x53D3F0
0x53D400
0x53D423
0x53D460
0x53D4E0
0x53D4E4
0x53D4FC
0x53D530
0x53D5A5
0x53D5F0
0x53D710
0x53D770
0x53D830
0x53D8D0
0x53D941
0x53DA61
0x53DB30
0x53DB40
0x53DBE1
0x53DC40
0x53DCD0
0x53DDA0
0x53DE80
0x53DEB0
0x53DF50
0x53E020
0x53E032
0x53E080
0x53E1A0
0x53E1C1
0x53E1E0
0x53E220
0x53E245
0x53E281
0x53E4F0
0x53E501
0x53E731
0x53E890
0x53E8D0
0x53E914
0x53E918
0x53E943
0x53E9A0
0x53EA30
0x53EA41
0x53ECE0
0x53ECF0
0x53EDF0
0x53EE20
0x53EE50
0x53EEA0
0x53EF90
0x53EFA0
0x53EFD0
0x53F000
0x53F080
0x53F0D0
0x53F220
0x53F260
0x53F2C0
0x53F320
0x53F3E0
0x53F421
0x53F430
0x53F4D0
0x53F510
0x53F541
0x53F621
0x53F890
0x53F8F0
0x53F910
0x53F931
0x53FBA1
0x53FD00
0x53FD40
0x53FD84
0x53FD88
0x53FD8C
0x53FDB3
0x53FE10
0x53FEA0
0x53FEB1
0x540150
0x540160
0x540260
0x540290
0x5402C0
0x540310
0x540400
0x540410
0x540440
0x540531
0x540780
0x540790
0x540807
0x540810
0x540820
0x540860
0x540870
0x540880
0x540980
0x5409B0
0x540A30
0x540A80
0x540B00
0x540B80
0x540BE0
0x540C50
0x540C80
0x540D00
0x540D50
0x540E60
0x540F00
0x540F40
0x540FA0
0x541000
0x5410C0
0x541101
0x541110
0x5411B0
0x5411C0
0x5412F1
0x541540
0x541550
0x5415C7
0x5415D0
0x541620
0x541630
0x541730
0x541760
0x5417E0
0x541830
0x541910
0x5419D0
0x5419E1
0x541C81
0x541DF0
0x541E40
0x541E60
0x541E64
0x541FF8
0x542010
0x542030
0x542050
0x542080
0x5420B1
0x542150
0x542191
0x542400
0x542430
0x542490
0x5424B1
0x542520
0x5425E0
0x5425F3
0x542610
0x542690
0x542761
0x5428B1
0x542A31
0x542D51
0x542E71
0x542EF0
0x542F70
0x542F91
0x543011
0x543081
0x5430F1
0x543170
0x5431E1
0x543261
0x5432E1
0x543361
0x5433D0
0x543441
0x5434C1
0x5437D1
0x543A50
0x543AA1
0x543B20
0x543B90
0x543DE8
0x543E10
0x543E30
0x543E32
0x543E34
0x543EE0
0x543F60
0x543FF0
0x544060
0x544110
0x544200
0x544280
0x544284
0x54429C
0x5442D0
0x544331
0x5443A0
0x5443C0
0x5447D0
0x544911
0x544A00
0x544D96
0x544DC0
0x544E0D
0x544E75
0x544E9D
0x544EC8
0x544F17
0x544F41
0x545141
0x5452C1
0x5452C3
0x5454F1
0x545571
0x545651
0x5456F1
0x5462C1
0x546320
0x546371
0x546400
0x546420
0x546590
0x5465B0
0x5465D0
0x5465F0
0x546650
0x546670
0x546690
0x5466B0
0x5466D0
0x546700
0x546841
0x5468C0
0x546930
0x546B88
0x546BB0
0x546BD1
0x546CD0
0x546CD2
0x546D1D
0x546D47
0x546D50
0x546DE0
0x546DE2
0x546DE4
0x546ED0
0x546EF1
0x546F70
0x546F91
0x546FF0
0x547011
0x547070
0x547091
0x5470F0
0x547111
0x547180
0x5471A1
0x547240
0x547261
0x5472C0
0x5472E1
0x547340
0x547361
0x5473C0
0x5473E1
0x547441
0x547630
0x547810
0x547AE1
0x547D7E
0x547E0A
0x547E18
0x547F01
0x5480E1
0x548861
0x548942
0x548B41
0x548EE5
0x548F94
0x549251
0x549380
0x549441
0x5494C1
0x5494EE
0x54956B
0x5495BA
0x549651
0x549841
0x549A51
0x549EB1
0x54A381
0x54A4B1
0x54A503
0x54A5E5
0x54A603
0x54A9D1
0x54A9DA
0x54AA81
0x54ADF1
0x54B014
0x54B2F5
0x54B371
0x54B490
0x54B500
0x54B611
0x54B6D6
0x54BAD1
0x54BADA
0x54BC60
0x54BCC1
0x54BF7B
0x54BF95
0x54C0D1
0x54C349
0x54C8B1
0x54CA06
0x54CFE1
0x54D2E6
0x54D621
0x54D666
0x54D7B8
0x54D8D1
0x54DBA1
0x54DCF1
0x54E121
0x54E5A3
0x54ED91
0x54F2F1
0x54F37E
0x54F45E
0x54F857
0x54F9D1
0x54FAEA
0x54FC04
0x54FC7A
0x550311
0x55031A
0x550EA1
0x551260
0x5512B1
0x5516D1
0x5519B1
0x5519DA
0x551B10
0x551B51
0x551B69
0x5520D1
0x552441
0x552473
0x552614
0x553151
0x553571
0x5535B5
0x553881
0x553BD1
0x553FDC
0x554350
0x5543B0
0x554451
0x5545D0
0x554701
0x55478B
0x554861
0x554900
0x554970
0x554A21
0x554CD1
0x554E1E
0x554F11
0x5552F1
0x555651
0x5558A1
0x555AA1
0x555C51
0x555E50
0x555FC0
0x556091
0x5560FD
0x556521
0x556C71
0x556E71
0x557023
0x5575F1
0x5577F0
0x557881
0x5578F8
0x557B51
0x557B80
0x557D11
0x557D1A
0x557E45
0x557EA1
0x558070
0x558141
0x558421
0x558474
0x5586D1
0x5587A5
0x558921
0x558B31
0x558BA6
0x558D01
0x558D0A
0x558F73
0x558FF1
0x559121
0x55912A
0x5592B5
0x559469
0x5596B1
0x55970D
0x559A31
0x559B0A
0x559B20
0x559B32
0x559D3E
0x559E01
0x559EA1
0x559F51
0x559FF1
0x55A0A0
0x55A0B1
0x55A180
0x55A1A0
0x55A2C1
0x55A46C
0x55A510
0x55A620
0x55A630
0x55A634
0x55A6C0
0x55A6C4
0x55A741
0x55A810
0x55A910
0x55A920
0x55A9E0
0x55AA50
0x55AB80
0x55AC91
0x55ADF0
0x55AE00
0x55AF90
0x55B030
0x55B0F0
0x55B100
0x55B1C1
0x55B2E0
0x55B3C0
0x55B3C4
0x55B490
0x55B511
0x55B601
0x55B680
0x55B6B1
0x55B760
0x55B7A1
0x55B850
0x55B860
0x55B8B0
0x55B8C0
0x55B961
0x55BA31
0x55BAF0
0x55BBD0
0x55BC40
0x55BC50
0x55BE50
0x55BE90
0x55BF11
0x55C010
0x55C0A0
0x55C1A1
0x55C2C0
0x55C2E0
0x55C320
0x55C350
0x55C411
0x55C4C0
0x55C4F0
0x55C611
0x55C691
0x55C6F1
0x55C760
0x55C790
0x55C7C0
0x55C851
0x55C8E1
0x55C971
0x55C9D1
0x55CA40
0x55CAF0
0x55CBA0
0x55CC61
0x55CCC1
0x55CD60
0x55CDD0
0x55CE01
0x55CFD1
0x55D070
0x55D0C1
0x55D140
0x55D1B0
0x55D408
0x55D430
0x55D450
0x55D452
0x55D454
0x55D580
0x55D601
0x55D680
0x55D6F0
0x55D948
0x55D970
0x55D990
0x55D992
0x55D994
0x55DA41
0x55DAE0
0x55DC20
0x55DC71
0x55DCF0
0x55DD60
0x55DFB8
0x55DFE0
0x55E000
0x55E002
0x55E004
0x55E0B0
0x55E101
0x55E180
0x55E1F0
0x55E448
0x55E470
0x55E490
0x55E492
0x55E494
0x55E590
0x55E5E0
0x55E680
0x55E682
0x55E6CD
0x55E6F0
0x55E6F2
0x55E73D
0x55E760
0x55E762
0x55E7AD
0x55E7D0
0x55E7D2
0x55E81D
0x55EB61
0x55EC61
0x55ECB2
0x55ECE7
0x55ECF0
0x55ED81
0x55EE80
0x55EE82
0x55EECD
0x55EEF7
0x55EF00
0x55F060
0x55F062
0x55F0AD
0x55F0D1
0x55F1D7
0x55F1E0
0x55F270
0x55F272
0x55F2BD
0x55F2E1
0x55F3E7
0x55F3F0
0x55F481
0x55F4D2
0x55F501
0x55F600
0x55F602
0x55F64D
0x55F677
0x55F680
0x55F711
0x55F817
0x55F820
0x55F8B1
0x55F8FD
0x55F931
0x55FA37
0x55FA40
0x55FAD0
0x55FAD2
0x55FB1D
0x55FB41
0x55FBC0
0x55FC30
0x55FE88
0x55FEB0
0x55FF00
0x55FF02
0x55FF04
0x560061
0x5600AD
0x560111
0x560211
0x560262
0x560297
0x5602A0
0x5603C0
0x5603C2
0x56040D
0x560430
0x560432
0x56047D
0x5604A0
0x5604A2
0x5604ED
0x560510
0x5605C1
0x5606C7
0x5606D0
0x560760
0x560800
0x560802
0x56084D
0x5609B0
0x560A60
0x560B00
0x560BA0
0x560BD0
0x560C80
0x560CB0
0x560D60
0x560D90
0x560E40
0x560E70
0x561101
0x561207
0x561210
0x5612A1
0x5613A7
0x5613B0
0x561441
0x561547
0x561550
0x561680
0x561682
0x5616CD
0x5616F0
0x5616F2
0x56173D
0x561768
0x561770
0x561849
0x561860
0x5618F1
0x5619C1
0x561A91
0x561B71
0x561CF1
0x561D70
0x561DB5
0x561E2A
0x561E41
0x561F80
0x562070
0x5621B0
0x562290
0x562410
0x5624F0
0x562670
0x562750
0x562A20
0x562B00
0x562DD0
0x562DD4
0x563001
0x5630CF
0x5632A0
0x5633A0
0x5633D0
0x5633F0
0x5634B1
0x5634B3
0x563613
0x563681
0x563750
0x563780
0x5637A1
0x5637E0
0x563801
0x563850
0x563890
0x563900
0x563980
0x563A10
0x563A90
0x563B20
0x563B40
0x563B44
0x563B90
0x563BC0
0x563BE1
0x563C13
0x563F60
0x564040
0x564080
0x5640A0
0x5640A4
0x5640C0
0x564171
0x564361
0x564529
0x5645B8
0x564621
0x56464A
0x5647E0
0x5649F5
0x564A41
0x564AE1
0x564BF0
0x564DAE
0x564E41
0x564EB3
0x564EC1
0x564F31
0x564FB0
0x564FD0
0x565000
0x565021
0x5653B1
0x565420
0x565440
0x5654E0
0x565510
0x565520
0x565640
0x565720
0x565841
0x5658D0
0x5659C0
0x565AA0
0x565B00
0x565B70
0x565BA1
0x565D31
0x565EC1
0x565F21
0x565FE1
0x566041
0x566151
0x5661F1
0x566390
0x5663B1
0x566510
0x566600
0x566681
0x5666F1
0x566830
0x5668D0
0x566990
0x566992
0x5669DD
0x566A01
0x566A80
0x566B00
0x566B21
0x566BC0
0x566D00
0x566D40
0x566D92
0x566DB0
0x566DD0
0x566DD2
0x566DD4
0x566F90
0x566F98
0x5670E0
0x567110
0x567118
0x5671B0
0x5672B1
0x567371
0x56749E
0x5674C0
0x567560
0x567621
0x567721
0x567890
0x567990
0x5679D0
0x5679F1
0x567A51
0x567AC1
0x567BA0
0x567C40
0x567C42
0x567C44
0x567ED9
0x567EF0
0x567F51
0x568057
0x568060
0x5680F0
0x568120
0x5681A0
0x5681C1
0x568330
0x568370
0x5683C2
0x5683D1
0x568450
0x5684D0
0x5684F1
0x568590
0x5686D0
0x568710
0x568762
0x568780
0x568840
0x568861
0x5688F0
0x568910
0x568912
0x568914
0x5689C1
0x568AC7
0x568AD0
0x568B60
0x568C20
0x568CA0
0x568D00
0x568D50
0x568DE0
0x568DE4
0x568EE0
0x568F70
0x568FF0
0x569040
0x569120
0x569180
0x5691A0
0x5691C1
0x5693E1
0x569560
0x56957B
0x569650
0x569680
0x569770
0x569830
0x569832
0x569880
0x5699F0
0x569A10
0x569A40
0x569AA0
0x569AF0
0x569B30
0x569B81
0x569BA0
0x569C10
0x569C20
0x569C70
0x569CA0
0x569CC1
0x569CF0
0x569D14
0x569D1B
0x569D37
0x569D80
0x569D93
0x569DE3
0x569E00
0x569E50
0x569F91
0x56A1D0
0x56A1E0
0x56A200
0x56A240
0x56A250
0x56A260
0x56A360
0x56A390
0x56A440
0x56A4C0
0x56A540
0x56A5A0
0x56A6B0
0x56A6C2
0x56A710
0x56A843
0x56A851
0x56A860
0x56A970
0x56AAB1
0x56AD00
0x56AD10
0x56AD30
0x56AD40
0x56AD80
0x56AD90
0x56ADC0
0x56AE40
0x56AE90
0x56AF70
0x56B030
0x56B060
0x56B090
0x56B141
0x56B1D1
0x56B241
0x56B301
0x56B350
0x56B380
0x56B3B0
0x56B4B1
0x56B5A1
0x56B600
0x56B630
0x56B660
0x56B690
0x56B6C1
0x56B870
0x56B872
0x56B874
0x56BA10
0x56BAE0
0x56BB00
0x56BB04
0x56BB20
0x56BB30
0x56BB40
0x56BD51
0x56BFA0
0x56C0CB
0x56C351
0x56C531
0x56C98F
0x56C9ED
0x56CA1A
0x56D031
0x56D17B
0x56D701
0x56D838
0x56D871
0x56D8B0
0x56D961
0x56DC61
0x56DD10
0x56DD81
0x56DDD5
0x56E001
0x56E360
0x56E371
0x56E5FE
0x56E620
0x56E641
0x56E6E0
0x56E840
0x56E981
0x56EA00
0x56EA70
0x56ECC8
0x56ECF0
0x56EDB0
0x56EDF0
0x56EDF2
0x56EE3D
0x56EE60
0x56EE62
0x56EE64
0x56EF11
0x56F017
0x56F020
0x56F0B1
0x56F150
0x56F180
0x56F1E4
0x56F1F4
0x56F204
0x56F214
0x56F231
0x56F2D0
0x56F300
0x56F364
0x56F374
0x56F384
0x56F394
0x56F440
0x56F4D0
0x56F570
0x56F5A0
0x56F610
0x56F690
0x56F731
0x56F8A1
0x56F901
0x56F980
0x56F9D1
0x56FB41
0x56FB80
0x56FBB0
0x56FC21
0x56FD30
0x56FD60
0x56FDB1
0x56FEC0
0x56FEF0
0x56FF10
0x570011
0x570120
0x570150
0x5701A1
0x570361
0x570750
0x570830
0x5708F0
0x5708F2
0x570944
0x5709E0
0x5709E4
0x570AE1
0x570AEA
0x570E60
0x570FC1
0x571030
0x571060
0x571062
0x571064
0x5710B0
0x5711F0
0x571214
0x571231
0x571291
0x571390
0x5713C0
0x57151E
0x571540
0x571580
0x5715F1
0x5715FA
0x571720
0x57173B
0x571750
0x5717B1
0x5717BA
0x5718D1
0x5718F1
0x57194E
0x571970
0x571B00
0x571B0D
0x571B21
0x571BFC
0x571D70
0x571D91
0x571E41
0x571FE0
0x572169
0x5721C1
0x5721C7
0x572280
0x572320
0x572324
0x57252E
0x572561
0x5725A0
0x5726A0
0x572850
0x572970
0x5729F1
0x572AE1
0x572BC0
0x572E20
0x572E80
0x573080
0x5730B0
0x5730D0
0x573120
0x57352E
0x573700
0x573720
0x573790
0x573860
0x573970
0x5739E0
0x573A80
0x573AB1
0x573D31
0x573F30
0x574071
0x574101
0x5742B0
0x574320
0x574410
0x574430
0x574450
0x574620
0x574B50
0x574C30
0x574DB0
0x574DC8
0x575151
0x575153
0x575410
0x575450
0x5755C1
0x575AF0
0x575BB1
0x575DC0
0x575E50
0x575F30
0x575FE1
0x57616A
0x576381
0x5764D0
0x576540
0x576680
0x57676F
0x57682C
0x5768E0
0x576901
0x5769B0
0x5769E0
0x5769E2
0x5769E4
0x576A30
0x576A50
0x576AD0
0x576B60
0x576B68
0x576C80
0x576CB0
0x576CD0
0x576CD2
0x576CD4
0x576D30
0x576F40
0x576F70
0x576FE0
0x577020
0x577060
0x577090
0x5770D0
0x5770F0
0x577131
0x5771C1
0x577240
0x577300
0x577410
0x5774D0
0x577530
0x577620
0x577672
0x577681
0x577683
0x577810
0x57798E
0x577A10
0x577AA0
0x577AE1
0x577C41
0x577C43
0x577CA0
0x577D31
0x577D5D
0x577D7B
0x577DC1
0x577DED
0x577E0B
0x577F80
0x577FA0
0x578020
0x578090
0x578131
0x5782BE
0x578301
0x578481
0x57858A
0x578601
0x578770
0x5787DF
0x578811
0x57881A
0x578AA1
0x578BB1
0x578C81
0x578E00
0x578E47
0x578F11
0x578FD0
0x579010
0x579012
0x579014
0x579100
0x579120
0x5791D1
0x579301
0x579350
0x579352
0x579450
0x579452
0x579454
0x5794B0
0x5794B2
0x5794B4
0x579510
0x579580
0x579680
0x5797A0
0x579AC0
0x579B21
0x579BCE
0x579C20
0x579C50
0x579C52
0x579C54
0x579CA0
0x579CD0
0x579D10
0x579D40
0x579D80
0x579DB0
0x579DF0
0x579E20
0x579E60
0x579E80
0x579F10
0x579F90
0x57A051
0x57A160
0x57A196
0x57A1E0
0x57A3AE
0x57A3D0
0x57A3F0
0x57A430
0x57A5F0
0x57A620
0x57A641
0x57A670
0x57A9B8
0x57AC60
0x57ADA1
0x57ADAA
0x57AF51
0x57B000
0x57B701
0x57B991
0x57BBF0
0x57BBFB
0x57BC0F
0x57BD11
0x57BD13
0x57C021
0x57C0B1
0x57C261
0x57C411
0x57C621
0x57C731
0x57C8C1
0x57C941
0x57C9B1
0x57C9B3
0x57CAD9
0x57CB30
0x57CBFF
0x57CC8E
0x57CF6A
0x57D2B0
0x57D2D0
0x57D3D0
0x57D4A1
0x57D781
0x57D783
0x57D804
0x57D826
0x57D840
0x57D844
0x57D9A3
0x57D9B1
0x57DE81
0x57E231
0x57E3C1
0x57E770
0x57E980
0x57E9F1
0x57EC51
0x57F008
0x57F040
0x57F070
0x57F101
0x57F221
0x57F401
0x57F591
0x57F81B
0x57F921
0x57FB91
0x5803C1
0x580821
0x5808A0
0x580900
0x580904
0x580A40
0x580B31
0x580C41
0x580FB0
0x58100D
0x581036
0x58113E
0x581190
0x581253
0x581260
0x581271
0x5814B9
0x5814D0
0x581530
0x581590
0x5816B1
0x5818A0
0x5818C0
0x581910
0x581A40
0x581AA0
0x581AC0
0x581B60
0x581BD0
0x581C50
0x581CC0
0x581DE0
0x581E40
0x581E59
0x5820D0
0x582161
0x582251
0x5822F1
0x582490
0x5824E0
0x582530
0x5825FA
0x582635
0x582642
0x58265A
0x582695
0x5826A2
0x5826B1
0x582771
0x582861
0x582874
0x5828D7
0x582913
0x582960
0x5829A0
0x5829D0
0x5829F1
0x582AB0
0x582B20
0x582B40
0x582E24
0x582E29
0x582F0F
0x582F71
0x582FC1
0x583091
0x5830E1
0x5830F0
0x583183
0x583211
0x5832F1
0x583390
0x583431
0x583540
0x583611
0x58383A
0x58389A
0x5838F1
0x583A01
0x583C51
0x583D90
0x583EA0
0x583F50
0x584037
0x5840F0
0x584110
0x584130
0x584150
0x584170
0x5841B1
0x584200
0x584320
0x584451
0x584510
0x58459E
0x5845C0
0x584600
0x584602
0x584620
0x584670
0x584720
0x584741
0x58474A
0x584851
0x58485A
0x5848BE
0x5849A0
0x584A30
0x584B00
0x584BA0
0x584C80
0x584D90
0x584E60
0x584EA0
0x584FB0
0x5850B0
0x585310
0x585314
0x5854C0
0x585AD7
0x585B61
0x585C76
0x585CB5
0x585DE1
0x585EA1
0x586301
0x586327
0x586650
0x5866F1
0x58694E
0x586971
0x586A20
0x586A41
0x586AC0
0x586B40
0x586B70
0x586B91
0x586B9A
0x587180
0x5873A1
0x58745E
0x587486
0x5874C0
0x5874F0
0x5874F2
0x5874F4
0x587540
0x587560
0x587590
0x5875F0
0x587820
0x5879A1
0x587A1A
0x587C44
0x587E15
0x588350
0x588650
0x588670
0x588771
0x588828
0x5888E1
0x588A60
0x588B81
0x5892E1
0x589380
0x589480
0x589610
0x5896F0
0x589871
0x589873
0x589991
0x589BE0
0x589C30
0x589C43
0x589DB0
0x589DC3
0x589F50
0x589FD1
0x58A091
0x58A1D1
0x58A271
0x58A391
0x58A481
0x58A5A1
0x58A7D1
0x58AA31
0x58ABA1
0x58AD81
0x58AFA1
0x58B29E
0x58B320
0x58B370
0x58B3C0
0x58B3F0
0x58B481
0x58B5A0
0x58B631
0x58B791
0x58B930
0x58B960
0x58B964
0x58BA2A
0x58BA70
0x58BAB0
0x58BAD0
0x58BB10
0x58BB70
0x58BB72
0x58BBB0
0x58BBC0
0x58BBF0
0x58BCB0
0x58BCD0
0x58BCD4
0x58BE60
0x58BF50
0x58BFC1
0x58C260
0x58C264
0x58C2DB
0x58C2F0
0x58C310
0x58C360
0x58C4B0
0x58C560
0x58C5F0
0x58C6C0
0x58C6F0
0x58C720
0x58C740
0x58C753
0x58C791
0x58C7AB
0x58C7C0
0x58C7D0
0x58C813
0x58C860
0x58C930
0x58C971
0x58C980
0x58C9A0
0x58C9C0
0x58CA60
0x58CA74
0x58CAF0
0x58CBF1
0x58CC03
0x58CC28
0x58CC60
0x58CC80
0x58CCE0
0x58CD00
0x58CD11
0x58CD20
0x58CD60
0x58CD70
0x58CD80
0x58CE90
0x58CEA0
0x58CEA5
0x58CED0
0x58CF10
0x58CF50
0x58CF98
0x58D010
0x58D0D0
0x58D163
0x58D1A0
0x58D1E0
0x58D1F0
0x58D200
0x58D204
0x58D250
0x58D260
0x58D2E1
0x58D2F0
0x58D430
0x58D441
0x58D4D0
0x58D540
0x58D5C0
0x58D6D0
0x58D780
0x58D8C0
0x58D8F0
0x58D990
0x58DA90
0x58DAB0
0x58DAB4
0x58DB60
0x58DC50
0x58DCC1
0x58DF60
0x58DF64
0x58DFDB
0x58DFF0
0x58E010
0x58E060
0x58E1B0
0x58E260
0x58E2F0
0x58E3C0
0x58E3F0
0x58E420
0x58E440
0x58E453
0x58E491
0x58E4AB
0x58E4C0
0x58E4D0
0x58E513
0x58E560
0x58E630
0x58E671
0x58E680
0x58E6A0
0x58E6C0
0x58E760
0x58E774
0x58E7F0
0x58E8F1
0x58E903
0x58E928
0x58E960
0x58E980
0x58E9E0
0x58EA00
0x58EA11
0x58EA20
0x58EA60
0x58EA70
0x58EA80
0x58EB90
0x58EBA0
0x58EBA5
0x58EBD0
0x58EC10
0x58EC50
0x58EC98
0x58ED10
0x58EDD0
0x58EE63
0x58EEA0
0x58EEE0
0x58EEF0
0x58EF00
0x58EF04
0x58EF50
0x58EF60
0x58EFE1
0x58EFF0
0x58F130
0x58F141
0x58F210
0x58F230
0x58F249
0x58F260
0x58F279
0x58F2E1
0x58F370
0x58F3A0
0x58F3E0
0x58F4E0
0x58F540
0x58F560
0x58F564
0x58F5C0
0x58F620
0x58F7B0
0x58F821
0x58FAC0
0x58FAC4
0x58FB3B
0x58FB50
0x58FB70
0x58FBC0
0x58FD10
0x58FDC0
0x58FE50
0x58FF20
0x58FF50
0x58FF80
0x58FFA0
0x58FFB3
0x58FFF1
0x59000B
0x590020
0x590030
0x590073
0x5900C0
0x590190
0x5901D1
0x5901E0
0x590200
0x590220
0x5902C0
0x5902D4
0x590350
0x590451
0x590463
0x590498
0x5904D0
0x5904F0
0x590550
0x590570
0x590581
0x590590
0x5905D0
0x5905E0
0x5905F0
0x590710
0x590720
0x590725
0x590750
0x590790
0x5907D0
0x590818
0x590890
0x590950
0x5909E3
0x590A20
0x590A60
0x590A80
0x590A84
0x590AD0
0x590AE0
0x590B61
0x590B70
0x590CB0
0x590CC1
0x590D50
0x590D70
0x590DD0
0x590E00
0x590E60
0x591010
0x591240
0x591301
0x591421
0x591541
0x5915F1
0x5916A1
0x591751
0x591800
0x591820
0x591850
0x591910
0x591970
0x591981
0x591987
0x5919E1
0x5919E7
0x591A51
0x591A57
0x591AB1
0x591AB7
0x591B11
0x591B17
0x591B71
0x591B77
0x591BF1
0x591D81
0x591D91
0x591F61
0x591F81
0x592011
0x592021
0x59202A
0x592120
0x592150
0x592170
0x592200
0x592231
0x5923C1
0x5923D1
0x5925B1
0x592641
0x59264A
0x592751
0x592760
0x592791
0x592921
0x592931
0x592B11
0x592BA1
0x592BAA
0x592CE0
0x592D21
0x592EB1
0x592EC1
0x5930A1
0x593131
0x59313A
0x593270
0x5932B1
0x593441
0x593451
0x593631
0x5936C1
0x5936CA
0x593800
0x593841
0x5939D1
0x5939E1
0x593BC1
0x593C51
0x593C5A
0x593D90
0x593DD7
0x593E01
0x593E6A
0x593F13
0x5940A1
0x5940F4
0x5942F0
0x594311
0x594540
0x594590
0x5945F0
0x594690
0x5946D0
0x594760
0x5947A0
0x594830
0x594870
0x5948B0
0x5948F0
0x594930
0x594970
0x5949B0
0x594D50
0x594D90
0x594DD0
0x594E40
0x594E50
0x594F00
0x594F10
0x594F50
0x594FB0
0x594FF0
0x595050
0x595090
0x595100
0x595104
0x595160
0x595190
0x5951C0
0x5951F0
0x595220
0x595237
0x595257
0x595277
0x595297
0x5952E3
0x595330
0x595340
0x595363
0x5953C0
0x5953D0
0x5953F3
0x595450
0x595460
0x595483
0x5954B0
0x595530
0x595534
0x59554C
0x595580
0x5955B0
0x5956C0
0x595801
0x595A50
0x595A60
0x595A80
0x595AC0
0x595AD0
0x595B00
0x595B80
0x595BD0
0x595CB0
0x595D70
0x595E80
0x595FC1
0x596210
0x596220
0x596240
0x596280
0x596290
0x5962C0
0x596340
0x596390
0x596470
0x596530
0x596640
0x596781
0x5969D0
0x5969E0
0x596A00
0x596A40
0x596A50
0x596A80
0x596B00
0x596B50
0x596C30
0x596D00
0x596D12
0x596D60
0x596E93
0x596EA1
0x596EB0
0x596F10
0x596F70
0x596F80
0x597040
0x5970C0
0x5971D0
0x597311
0x597560
0x597570
0x597590
0x5975D0
0x5975E0
0x597610
0x597640
0x597690
0x597710
0x5977CA
0x5978C0
0x597910
0x597930
0x597934
0x597A20
0x597A40
0x597AB0
0x597B10
0x597B20
0x597B30
0x597B40
0x597D80
0x597E10
0x597E20
0x597E40
0x597E80
0x597EB1
0x597ED0
0x597F30
0x597F40
0x597F50
0x597F60
0x597F70
0x597F80
0x597F90
0x5980E0
0x598190
0x598220
0x598230
0x598241
0x598251
0x598271
0x59827C
0x598431
0x598455
0x5984D7
0x598530
0x5985C0
0x598690
0x598710
0x598717
0x5987B1
0x598E80
0x598F11
0x599380
0x599411
0x599890
0x599921
0x599BA4
0x599D91
0x599E51
0x59A11B
0x59A1B0
0x59A3B5
0x59A440
0x59A4F1
0x59A6B0
0x59A710
0x59A770
0x59A830
0x59A8F0
0x59A9B0
0x59AA70
0x59AB30
0x59ABF0
0x59AC50
0x59ACB0
0x59AD10
0x59AD70
0x59ADE1
0x59ADEA
0x59AE81
0x59AF01
0x59AFD1
0x59B051
0x59B166
0x59B1C1
0x59B5D1
0x59B5DA
0x59B670
0x59B750
0x59B850
0x59B8B0
0x59BA30
0x59BAF1
0x59BC71
0x59BD81
0x59BE11
0x59BF21
0x59BFC1
0x59C0D1
0x59C160
0x59C190
0x59C1C0
0x59C1F0
0x59C220
0x59C250
0x59C281
0x59C330
0x59C380
0x59C3D1
0x59C481
0x59C5B0
0x59C660
0x59C701
0x59C725
0x59C980
0x59CA11
0x59CA4B
0x59D1C1
0x59D6E0
0x59D7A1
0x59D861
0x59D911
0x59D9B1
0x59DA81
0x59DB41
0x59DC41
0x59DD11
0x59DE11
0x59DF51
0x59E021
0x59E1C1
0x59E291
0x59E4F1
0x59E601
0x59E810
0x59E8B1
0x59E960
0x59EA01
0x59EA0A
0x59EC70
0x59ECC0
0x59EED0
0x59EF71
0x59EFBE
0x59F260
0x59F333
0x59F390
0x59F3B0
0x59F601
0x59F6D1
0x59F7D0
0x59F8B0
0x59F9A0
0x59FA3C
0x59FAF1
0x59FBA0
0x59FC20
0x59FC24
0x59FC3C
0x59FC70
0x59FCA0
0x59FCF0
0x59FE31
0x5A0080
0x5A0090
0x5A00B0
0x5A0100
0x5A0110
0x5A0210
0x5A0240
0x5A02C0
0x5A0358
0x5A0390
0x5A04BB
0x5A0580
0x5A05B0
0x5A05B4
0x5A0630
0x5A0650
0x5A06E0
0x5A0700
0x5A0770
0x5A07A1
0x5A07C1
0x5A080B
0x5A0840
0x5A0880
0x5A0890
0x5A08A0
0x5A08B0
0x5A08C0
0x5A0940
0x5A0A10
0x5A0A40
0x5A0A70
0x5A0A90
0x5A0AA3
0x5A0AB1
0x5A0AC0
0x5A0AD0
0x5A0B13
0x5A0B60
0x5A0BA0
0x5A0BE0
0x5A0C00
0x5A0C20
0x5A0CC0
0x5A0CD4
0x5A0DB1
0x5A0DC3
0x5A0DF0
0x5A0E10
0x5A0E91
0x5A0EA0
0x5A0F70
0x5A1000
0x5A1010
0x5A10B8
0x5A10F8
0x5A1301
0x5A1341
0x5A14C0
0x5A16C1
0x5A1731
0x5A18F0
0x5A1901
0x5A1911
0x5A1920
0x5A1990
0x5A19A0
0x5A19D7
0x5A1A00
0x5A1A02
0x5A1A63
0x5A1B50
0x5A1BC0
0x5A1CE0
0x5A1D60
0x5A1D64
0x5A1D7C
0x5A1DB0
0x5A1E10
0x5A1E18
0x5A1E80
0x5A1F40
0x5A1FC0
0x5A1FC2
0x5A1FC4
0x5A20C0
0x5A20E1
0x5A2300
0x5A2310
0x5A2314
0x5A2391
0x5A2440
0x5A2450
0x5A24E0
0x5A2581
0x5A26E1
0x5A2781
0x5A2791
0x5A2850
0x5A28E0
0x5A28E8
0x5A2A50
0x5A2B40
0x5A2BD0
0x5A2BD8
0x5A2CB1
0x5A2D90
0x5A2E10
0x5A2EA1
0x5A2FC0
0x5A2FC4
0x5A3030
0x5A3100
0x5A31D0
0x5A33B0
0x5A34B0
0x5A3587
0x5A35A0
0x5A35D0
0x5A3600
0x5A3620
0x5A3633
0x5A3671
0x5A3687
0x5A3690
0x5A36F0
0x5A3710
0x5A3714
0x5A3720
0x5A3730
0x5A37B1
0x5A38D0
0x5A3A00
0x5A3A20
0x5A3A50
0x5A3A70
0x5A3A74
0x5A3A80
0x5A3A90
0x5A3B00
0x5A3BE1
0x5A3D20
0x5A3D30
0x5A3D81
0x5A3D97
0x5A3DA0
0x5A3DE0
0x5A3DF0
0x5A3E13
0x5A3EC0
0x5A3ED0
0x5A3EF3
0x5A3F40
0x5A3F63
0x5A3FA0
0x5A3FB0
0x5A3FD3
0x5A4080
0x5A4090
0x5A40B3
0x5A4200
0x5A4280
0x5A4357
0x5A4370
0x5A43A0
0x5A43D0
0x5A43F0
0x5A4403
0x5A4441
0x5A4457
0x5A4460
0x5A44C0
0x5A44E0
0x5A44E4
0x5A44F0
0x5A4500
0x5A4581
0x5A4640
0x5A4710
0x5A4720
0x5A4743
0x5A47F0
0x5A4800
0x5A4823
0x5A48C0
0x5A48D1
0x5A4B40
0x5A4B51
0x5A4DC1
0x5A4F20
0x5A4F60
0x5A4FA7
0x5A4FAB
0x5A4FD3
0x5A5010
0x5A5020
0x5A5040
0x5A50D0
0x5A50E1
0x5A5330
0x5A5340
0x5A5440
0x5A5470
0x5A54A0
0x5A54F0
0x5A55E0
0x5A55F0
0x5A5620
0x5A5711
0x5A5960
0x5A5970
0x5A59E7
0x5A59F0
0x5A5A00
0x5A5A40
0x5A5A50
0x5A5A60
0x5A5B60
0x5A5B90
0x5A5C10
0x5A5C60
0x5A5CE0
0x5A5D60
0x5A5DC0
0x5A5E30
0x5A5E60
0x5A5EE0
0x5A5F30
0x5A6040
0x5A60E0
0x5A6120
0x5A6180
0x5A61E0
0x5A62A0
0x5A62E1
0x5A62F0
0x5A6390
0x5A63A1
0x5A65A0
0x5A6657
0x5A66A1
0x5A6927
0x5A6930
0x5A6980
0x5A6991
0x5A6BE0
0x5A6BF0
0x5A6CF0
0x5A6D20
0x5A6D50
0x5A6DA0
0x5A6E90
0x5A6EA0
0x5A6ED0
0x5A6FC1
0x5A7210
0x5A7220
0x5A7290
0x5A72A0
0x5A72E0
0x5A72F0
0x5A7300
0x5A7400
0x5A7430
0x5A74B0
0x5A7500
0x5A7580
0x5A7600
0x5A7660
0x5A76D0
0x5A7700
0x5A7780
0x5A77D0
0x5A78E0
0x5A7980
0x5A79C0
0x5A7A20
0x5A7A81
0x5A7B31
0x5A7DA1
0x5A7F30
0x5A7F70
0x5A7FB8
0x5A7FBC
0x5A7FE3
0x5A8040
0x5A80E0
0x5A8121
0x5A8130
0x5A81D0
0x5A81E0
0x5A8270
0x5A82A0
0x5A82D0
0x5A83E0
0x5A83F0
0x5A8450
0x5A84B0
0x5A8500
0x5A8550
0x5A85B0
0x5A85E1
0x5A8750
0x5A8771
0x5A89E0
0x5A89F1
0x5A8C61
0x5A8DC0
0x5A8E00
0x5A8E48
0x5A8E4C
0x5A8E73
0x5A8ED0
0x5A8F60
0x5A8F71
0x5A9210
0x5A9220
0x5A9320
0x5A9350
0x5A9380
0x5A93D0
0x5A94C0
0x5A94D0
0x5A9500
0x5A95F1
0x5A9840
0x5A9850
0x5A98C7
0x5A98D0
0x5A98E0
0x5A9920
0x5A9930
0x5A9940
0x5A9A40
0x5A9A70
0x5A9AF0
0x5A9B40
0x5A9BC0
0x5A9C40
0x5A9CA0
0x5A9D10
0x5A9D40
0x5A9DC0
0x5A9E10
0x5A9F60
0x5A9FA0
0x5AA000
0x5AA060
0x5AA120
0x5AA161
0x5AA170
0x5AA210
0x5AA240
0x5AA274
0x5AA2A0
0x5AA461
0x5AA5A1
0x5AA6B1
0x5AA7F1
0x5AAA01
0x5AAB51
0x5AAB5A
0x5AAC50
0x5AAD20
0x5AAE10
0x5AAEC1
0x5AAFB0
0x5AB000
0x5AB080
0x5AB100
0x5AB180
0x5AB1C0
0x5AB240
0x5AB265
0x5AB2A0
0x5AB2C5
0x5AB300
0x5AB325
0x5AB360
0x5AB385
0x5AB411
0x5AB443
0x5AB5C1
0x5AB5CA
0x5AB647
0x5AB740
0x5AB890
0x5AB9A4
0x5ABA90
0x5ABAE0
0x5ABB20
0x5ABB70
0x5ABBF4
0x5ABC70
0x5ABCD4
0x5ABD00
0x5ABD11
0x5ABDC3
0x5ABDDF
0x5ABE71
0x5ABF23
0x5ABF3F
0x5ABFD1
0x5AC083
0x5AC09C
0x5AC134
0x5AC144
0x5AC153
0x5AC157
0x5AC170
0x5AC181
0x5AC371
0x5AC3B0
0x5AC3B2
0x5AC3B4
0x5AC4C0
0x5AC530
0x5AC5D0
0x5AC617
0x5AC660
0x5AC670
0x5AC693
0x5AC6C0
0x5AC7D0
0x5AC911
0x5ACB60
0x5ACB70
0x5ACB90
0x5ACBA0
0x5ACBE0
0x5ACBF0
0x5ACC20
0x5ACCA0
0x5ACCF0
0x5ACDD0
0x5ACE90
0x5ACED0
0x5ACEEC
0x5ACF20
0x5ACF80
0x5ACFC0
0x5ACFF0
0x5AD030
0x5AD050
0x5AD052
0x5AD093
0x5AD100
0x5AD120
0x5AD161
0x5AD270
0x5AD290
0x5AD292
0x5AD2D1
0x5AD390
0x5AD3B0
0x5AD4B0
0x5AD4D0
0x5AD530
0x5AD6D1
0x5AD9D1
0x5ADAA1
0x5ADB91
0x5ADB93
0x5ADCD1
0x5ADCD3
0x5ADDB1
0x5ADDB3
0x5ADE70
0x5ADF00
0x5ADF80
0x5AE000
0x5AE0B0
0x5AE160
0x5AE164
0x5AE240
0x5AE2B0
0x5AE380
0x5AE4B0
0x5AE4E0
0x5AE4F3
0x5AE541
0x5AE780
0x5AE850
0x5AE87B
0x5AE8C0
0x5AE8D0
0x5AE8F3
0x5AE930
0x5AE980
0x5AEAC1
0x5AED10
0x5AED20
0x5AED40
0x5AED80
0x5AED90
0x5AEDA0
0x5AEEA0
0x5AEED0
0x5AEF60
0x5AEFE0
0x5AF060
0x5AF0C0
0x5AF180
0x5AF1B0
0x5AF1E0
0x5AF270
0x5AF290
0x5AF294
0x5AF400
0x5AF420
0x5AF5C0
0x5AF6C0
0x5AF6C4
0x5AF790
0x5AF8C0
0x5AF8E0
0x5AF910
0x5AF930
0x5AF934
0x5AF940
0x5AF950
0x5AF9C0
0x5AFA91
0x5AFBD0
0x5AFBE0
0x5AFC31
0x5AFC47
0x5AFC50
0x5AFC90
0x5AFCA0
0x5AFCC3
0x5AFD70
0x5AFD80
0x5AFDA3
0x5AFDF0
0x5AFE13
0x5AFE20
0x5AFF07
0x5AFF10
0x5AFF50
0x5AFF6C
0x5AFFA0
0x5B00BA
0x5B0150
0x5B0180
0x5B01D0
0x5B0230
0x5B02C1
0x5B0400
0x5B0440
0x5B04E0
0x5B0530
0x5B0640
0x5B0650
0x5B0660
0x5B0670
0x5B07A0
0x5B0800
0x5B0860
0x5B0870
0x5B08E0
0x5B09F1
0x5B0C40
0x5B0C50
0x5B0C77
0x5B0CB0
0x5B0CC0
0x5B0DC0
0x5B0DF0
0x5B0E20
0x5B0E70
0x5B0EE0
0x5B0F40
0x5B0F90
0x5B1011
0x5B10A1
0x5B1311
0x5B1541
0x5B16A0
0x5B16E0
0x5B1724
0x5B1728
0x5B1753
0x5B17A0
0x5B1830
0x5B1841
0x5B1AE0
0x5B1AF0
0x5B1BF0
0x5B1C20
0x5B1C50
0x5B1CA0
0x5B1D90
0x5B1DA0
0x5B1DD0
0x5B1E00
0x5B1E80
0x5B1ED0
0x5B2020
0x5B2060
0x5B20C0
0x5B2120
0x5B21E0
0x5B2221
0x5B2230
0x5B22D0
0x5B2C30
0x5B2C7C
0x5B2D01
0x5B2D03
0x5B2D51
0x5B2E00
0x5B2E02
0x5B2E04
0x5B2E50
0x5B2EC0
0x5B2EE0
0x5B2EE2
0x5B2EE4
0x5B2F40
0x5B2F60
0x5B2FB0
0x5B3001
0x5B3010
0x5B3030
0x5B3034
0x5B3130
0x5B31B0
0x5B31E0
0x5B31FC
0x5B32E0
0x5B32E2
0x5B3350
0x5B3400
0x5B3480
0x5B3541
0x5B3670
0x5B3750
0x5B3754
0x5B37D1
0x5B3C20
0x5B3D35
0x5B3DC0
0x5B3E4E
0x5B3E90
0x5B3EE1
0x5B4131
0x5B41B0
0x5B4230
0x5B4251
0x5B42F0
0x5B4430
0x5B4470
0x5B44C2
0x5B44E0
0x5B4510
0x5B4512
0x5B4514
0x5B45D0
0x5B4730
0x5B4760
0x5B47BE
0x5B47E1
0x5B4860
0x5B48D0
0x5B4B28
0x5B4B50
0x5B4B70
0x5B4B90
0x5B4BB0
0x5B4BE0
0x5B4CA0
0x5B4DE0
0x5B4E20
0x5B4E40
0x5B4E48
0x5B4F21
0x5B4F4D
0x5B5560
0x5B5568
0x5B5650
0x5B5691
0x5B57F1
0x5B5871
0x5B5AD1
0x5B5BC1
0x5B5DF1
0x5B5F81
0x5B6091
0x5B61E1
0x5B62D1
0x5B6441
0x5B6443
0x5B6610
0x5B6651
0x5B6653
0x5B6820
0x5B6861
0x5B68F0
0x5B6960
0x5B6A31
0x5B6A33
0x5B6D81
0x5B6D83
0x5B6F11
0x5B6F13
0x5B6FE0
0x5B7010
0x5B70B0
0x5B7110
0x5B7150
0x5B7190
0x5B71D0
0x5B7210
0x5B73A0
0x5B73E0
0x5B7420
0x5B74D0
0x5B75F3
0x5B7853
0x5B79C0
0x5B7A70
0x5B7AD1
0x5B7AD3
0x5B7C43
0x5B7CE0
0x5B7D01
0x5B7D03
0x5B7F60
0x5B7F80
0x5B7FD3
0x5B81A1
0x5B8250
0x5B8340
0x5B8348
0x5B8430
0x5B8480
0x5B84A0
0x5B84A4
0x5B8540
0x5B8580
0x5B8600
0x5B86C0
0x5B87A0
0x5B87B1
0x5B8840
0x5B8980
0x5B89A0
0x5B8A21
0x5B8C50
0x5B8C80
0x5B8D10
0x5B8DE7
0x5B8E00
0x5B8E30
0x5B8E60
0x5B8E80
0x5B8E93
0x5B8ED1
0x5B8EE7
0x5B8EF0
0x5B8F50
0x5B8F70
0x5B8F74
0x5B8F80
0x5B8F90
0x5B9011
0x5B91A0
0x5B91B0
0x5B91D3
0x5B9280
0x5B9290
0x5B92B3
0x5B92F0
0x5B9370
0x5B9374
0x5B938C
0x5B93C0
0x5B93F0
0x5B9450
0x5B9481
0x5B95F0
0x5B9611
0x5B9880
0x5B9891
0x5B9B01
0x5B9C60
0x5B9CA0
0x5B9CE8
0x5B9CEC
0x5B9D13
0x5B9D50
0x5B9DE0
0x5B9DF1
0x5BA090
0x5BA0A0
0x5BA1A0
0x5BA1D0
0x5BA200
0x5BA250
0x5BA340
0x5BA350
0x5BA380
0x5BA471
0x5BA6C0
0x5BA6D0
0x5BA747
0x5BA750
0x5BA760
0x5BA7A0
0x5BA7B0
0x5BA7C0
0x5BA8C0
0x5BA8F0
0x5BA970
0x5BA9C0
0x5BAA40
0x5BAAC0
0x5BAB20
0x5BAB90
0x5BABC0
0x5BAC40
0x5BAC90
0x5BADE0
0x5BAE20
0x5BAE80
0x5BAEE0
0x5BAFA0
0x5BAFD0
0x5BAFE1
0x5BAFF0
0x5BB090
0x5BB0D1
0x5BB0D7
0x5BB2E0
0x5BB350
0x5BB3C0
0x5BB3E0
0x5BB3E4
0x5BB4B0
0x5BB570
0x5BB690
0x5BB6C0
0x5BB6F0
0x5BB750
0x5BB7F0
0x5BB810
0x5BB850
0x5BB980
0x5BB9F1
0x5BBC90
0x5BBC94
0x5BBD0B
0x5BBD20
0x5BBD50
0x5BBE00
0x5BBE90
0x5BBF60
0x5BBF90
0x5BBFC0
0x5BBFE0
0x5BBFF3
0x5BC001
0x5BC010
0x5BC023
0x5BC060
0x5BC110
0x5BC130
0x5BC150
0x5BC1F0
0x5BC204
0x5BC280
0x5BC381
0x5BC393
0x5BC3C8
0x5BC400
0x5BC480
0x5BC485
0x5BC4B0
0x5BC4F0
0x5BC530
0x5BC578
0x5BC5F0
0x5BC6B0
0x5BC743
0x5BC780
0x5BC7C0
0x5BC7E0
0x5BC7E4
0x5BC830
0x5BC840
0x5BC8C1
0x5BC8D0
0x5BCA10
0x5BCA21
0x5BCAB0
0x5BCB10
0x5BCB31
0x5BCE31
0x5BCEDE
0x5BD197
0x5BD3EA
0x5BD4E4
0x5BD591
0x5BD841
0x5BD8AD
0x5BD901
0x5BDB24
0x5BDB5D
0x5BDBB0
0x5BDCA0
0x5BDCA2
0x5BDCA4
0x5BDD30
0x5BDD61
0x5BDED0
0x5BDFF0
0x5BE050
0x5BE170
0x5BE1F1
0x5BE260
0x5BE2A0
0x5BE2A2
0x5BE2A4
0x5BE2E1
0x5BE35F
0x5BE370
0x5BE3B0
0x5BE400
0x5BE430
0x5BE450
0x5BE452
0x5BE454
0x5BE490
0x5BE492
0x5BE494
0x5BE4D1
0x5BE550
0x5BE560
0x5BE591
0x5BE6C0
0x5BE710
0x5BE7D1
0x5BE880
0x5BE8D1
0x5BE950
0x5BE9C0
0x5BEC18
0x5BEC40
0x5BEC60
0x5BEC62
0x5BEC64
0x5BED11
0x5BEF30
0x5BEF90
0x5BF001
0x5BF2C1
0x5BF3A0
0x5BF424
0x5BF4D1
0x5BF94F
0x5BF9F7
0x5BFA70
0x5BFD48
0x5BFD7C
0x5BFDAC
0x5BFDF0
0x5BFF20
0x5BFF40
0x5C0000
0x5C0101
0x5C0230
0x5C02C0
0x5C0351
0x5C038E
0x5C03B5
0x5C0540
0x5C0570
0x5C0590
0x5C05F0
0x5C0641
0x5C0740
0x5C0780
0x5C0782
0x5C0784
0x5C07C1
0x5C07E0
0x5C0870
0x5C08A0
0x5C08D0
0x5C0971
0x5C09D0
0x5C09F1
0x5C0AC0
0x5C0B00
0x5C0B30
0x5C0B32
0x5C0B34
0x5C0B71
0x5C0BE0
0x5C0C21
0x5C0CA0
0x5C0D50
0x5C0DB0
0x5C0E40
0x5C0E80
0x5C0ED1
0x5C0FB1
0x5C0FBA
0x5C101E
0x5C1041
0x5C1400
0x5C1402
0x5C1404
0x5C15A0
0x5C15D1
0x5C1650
0x5C1AB1
0x5C23F1
0x5C24E0
0x5C2561
0x5C2781
0x5C28C1
0x5C2A90
0x5C2AA1
0x5C2C50
0x5C2CB0
0x5C2D10
0x5C2D93
0x5C2DA1
0x5C2EA0
0x5C2EA7
0x5C2EC1
0x5C2F63
0x5C2F71
0x5C2F7A
0x5C2FD2
0x5C30A0
0x5C317E
0x5C31B1
0x5C33E0
0x5C34D0
0x5C3591
0x5C36B8
0x5C3831
0x5C3A50
0x5C3B21
0x5C3B91
0x5C3B97
0x5C3E41
0x5C3F10
0x5C3FF1
0x5C4091
0x5C40CA
0x5C41B1
0x5C41B3
0x5C4221
0x5C42F1
0x5C43C0
0x5C4440
0x5C4461
0x5C4463
0x5C4510
0x5C45C0
0x5C45C2
0x5C45C4
0x5C4660
0x5C4662
0x5C4664
0x5C4701
0x5C4707
0x5C47C1
0x5C4840
0x5C48E1
0x5C4A51
0x5C4BD1
0x5C4BD7
0x5C4EB1
0x5C4F41
0x5C5081
0x5C508A
0x5C52B1
0x5C52B3
0x5C5301
0x5C53B1
0x5C54B1
0x5C5581
0x5C5621
0x5C56C0
0x5C5731
0x5C5800
0x5C5981
0x5C59C0
0x5C5C40
0x5C5D60
0x5C5F20
0x5C5F70
0x5C5F91
0x5C5FA0
0x5C5FD0
0x5C6000
0x5C6070
0x5C6080
0x5C60B0
0x5C6101
0x5C6110
0x5C6161
0x5C6170
0x5C61C1
0x5C6300
0x5C6340
0x5C6342
0x5C63D1
0x5C6411
0x5C64A0
0x5C6511
0x5C6740
0x5C6781
0x5C6820
0x5C6857
0x5C687A
0x5C68C3
0x5C6910
0x5C6920
0x5C6943
0x5C69B0
0x5C6AD0
0x5C6C11
0x5C6E60
0x5C6E70
0x5C6E90
0x5C6ED0
0x5C6EE0
0x5C6F10
0x5C6F90
0x5C6FE0
0x5C70C0
0x5C7180
0x5C7210
0x5C7222
0x5C7253
0x5C7270
0x5C73A1
0x5C73B0
0x5C7410
0x5C7470
0x5C74C0
0x5C7580
0x5C7592
0x5C75E0
0x5C7710
0x5C7731
0x5C7740
0x5C7840
0x5C7850
0x5C7991
0x5C7C00
0x5C7C10
0x5C7C30
0x5C7C70
0x5C7C80
0x5C7CB0
0x5C7D40
0x5C7D90
0x5C7E10
0x5C7F10
0x5C7F70
0x5C7FF1
0x5C80C0
0x5C8270
0x5C82F0
0x5C82F4
0x5C830C
0x5C8340
0x5C8370
0x5C8390
0x5C8392
0x5C8440
0x5C8442
0x5C84D0
0x5C8530
0x5C8550
0x5C85B0
0x5C85D0
0x5C8680
0x5C8750
0x5C87C0
0x5C8810
0x5C8850
0x5C88F0
0x5C8960
0x5C8968
0x5C8C10
0x5C8CAD
0x5C8CC9
0x5C8CF0
0x5C8D20
0x5C8D40
0x5C8D70
0x5C8F10
0x5C8F80
0x5C8FD0
0x5C9020
0x5C9070
0x5C90C0
0x5C9141
0x5C9540
0x5C9680
0x5C9B31
0x5C9B85
0x5C9F72
0x5CA1D1
0x5CA2F0
0x5CA331
0x5CA480
0x5CA4B0
0x5CA4E0
0x5CA510
0x5CA540
0x5CA570
0x5CA621
0x5CA6C0
0x5CA6E0
0x5CA701
0x5CA7C0
0x5CA900
0x5CA940
0x5CAB40
0x5CAB80
0x5CAC31
0x5CADD1
0x5CAF81
0x5CB120
0x5CB220
0x5CB290
0x5CB310
0x5CB312
0x5CB35D
0x5CB381
0x5CB4B1
0x5CB530
0x5CB5A0
0x5CB7F8
0x5CB820
0x5CB841
0x5CB8C0
0x5CB940
0x5CB961
0x5CBA00
0x5CBB40
0x5CBB80
0x5CBBD2
0x5CBBF0
0x5CBCB0
0x5CBCB2
0x5CBCB4
0x5CBD61
0x5CBE60
0x5CBE62
0x5CBEAD
0x5CBED7
0x5CBEE0
0x5CBF71
0x5CC031
0x5CC131
0x5CC182
0x5CC1B7
0x5CC1C0
0x5CC250
0x5CC252
0x5CC254
0x5CC300
0x5CC330
0x5CC3D0
0x5CC400
0x5CC4B1
0x5CC5B7
0x5CC5C0
0x5CC6B9
0x5CC6D0
0x5CC799
0x5CC7B0
0x5CC879
0x5CC890
0x5CC8F1
0x5CC930
0x5CC960
0x5CC980
0x5CC9D0
0x5CCA00
0x5CCA20
0x5CCA22
0x5CCA24
0x5CCA60
0x5CCA62
0x5CCA64
0x5CCAA1
0x5CCB01
0x5CCBD0
0x5CCC00
0x5CCC21
0x5CCD71
0x5CCEB1
0x5CD051
0x5CD190
0x5CD1C0
0x5CD260
0x5CD2B0
0x5CD2E0
0x5CD2E2
0x5CD2E4
0x5CD321
0x5CD371
0x5CD3F0
0x5CD400
0x5CD410
0x5CD440
0x5CD541
0x5CD711
0x5CD790
0x5CD820
0x5CD8F1
0x5CD9B1
0x5CDA51
0x5CDC52
0x5CDCF0
0x5CDD71
0x5CDE71
0x5CDEC1
0x5CE201
0x5CEAD1
0x5CEC21
0x5CED92
0x5CEE04
0x5CEFC3
0x5CEFF1
0x5CF090
0x5CF101
0x5CF190
0x5CF221
0x5CF331
0x5CF357
0x5CF541
0x5CF5A0
0x5CF640
0x5CF6C0
0x5CF6E1
0x5CF780
0x5CF7F0
0x5CF880
0x5CF8A0
0x5CFA81
0x5CFB00
0x5CFB70
0x5CFDC8
0x5CFDF0
0x5CFE10
0x5CFE12
0x5CFE14
0x5CFEC1
0x5CFF40
0x5CFFB0
0x5D0208
0x5D0230
0x5D0250
0x5D0252
0x5D0254
0x5D0300
0x5D0321
0x5D03B1
0x5D0430
0x5D04A0
0x5D06F8
0x5D0720
0x5D0811
0x5D08D0
0x5D08D2
0x5D08D4
0x5D0981
0x5D0A81
0x5D0AD2
0x5D0B07
0x5D0B10
0x5D0BA1
0x5D0C20
0x5D0C90
0x5D0EE8
0x5D0F10
0x5D0F30
0x5D0F32
0x5D0F34
0x5D0FE1
0x5D1060
0x5D10D0
0x5D1328
0x5D1350
0x5D1371
0x5D13F0
0x5D1460
0x5D16B8
0x5D16E0
0x5D1700
0x5D1702
0x5D1704
0x5D17B0
0x5D17B2
0x5D17B4
0x5D1861
