0x400BD5
0x400C24
0x400C8A
0x400CA1
0x400CE1
0x400F11
0x401120
0x401718
0x401D88
0x401F9D
0x4021A1
0x4030C4
0x40349F
0x4035C1
0x4037C3
0x4037C9
0x403861
0x4045F1
0x4046B7
0x404C60
0x404D20
0x404EC1
0x4051C1
0x4051E9
0x405554
0x405761
0x405F04
0x4060B1
0x406634
0x4066D1
0x40696C
0x406A11
0x406D4D
0x406DE1
0x406F41
0x407A61
0x407F9B
0x407FA1
0x407FA7
0x407FAD
0x407FB3
0x407FB9
0x407FBF
0x407FC5
0x407FCB
0x407FD1
0x407FD7
0x407FDD
0x407FE3
0x407FE9
0x408001
0x408557
0x408633
0x4086F0
0x409414
0x409550
0x409554
0x4098C1
0x40A573
0x40A6F1
0x40A935
0x40A963
0x40AA40
0x40B11A
0x40B14D
0x40B1B6
0x40B1DD
0x40B310
0x40B431
0x40B4EF
0x40B902
0x40C887
0x40CA4F
0x40CC68
0x40D339
0x40D4C8
0x40D561
0x40D701
0x40E121
0x40E12A
0x40E188
0x40EEE0
0x40EEF3
0x40EEF4
0x40EF16
0x40F051
0x40F380
0x40F57F
0x40F690
0x40F971
0x40FE80
0x40FF91
0x40FFA6
0x4102D1
0x4102E9
0x4103FB
0x410473
0x4107A1
0x410B51
0x410F20
0x411271
0x411277
0x411351
0x411353
0x4114B1
0x4114BA
0x4116B0
0x4116B4
0x411900
0x411910
0x411921
0x411923
0x411926
0x411A91
0x411BF0
0x411BF4
0x411EBA
0x411FC1
0x412111
0x4121D0
0x412259
0x4123C0
0x412441
0x41244A
0x412610
