0x400C05
0x400C54
0x400CBA
0x400CD1
0x400D11
0x400F41
0x40136D
0x401376
0x4021BF
0x402231
0x402281
0x4022E1
0x4024E3
0x4024E9
0x402581
0x4032F1
0x403930
0x4039F0
0x403B91
0x403D41
0x403D69
0x404311
0x404346
0x404D21
0x4052E1
0x405601
0x4059A1
0x405B01
0x406631
0x406B6B
0x406B71
0x406B77
0x406B7D
0x406B83
0x406B89
0x406B8F
0x406B95
0x406B9B
0x406BA1
0x406BA7
0x406BAD
0x406BB3
0x406BB9
0x406BD0
0x406BD4
0x406CA1
0x407109
0x4072B1
0x407621
0x40775F
0x407891
0x407E11
0x408140
0x408144
0x4081DF
0x4083E1
0x408551
0x408880
0x408F4F
0x409193
0x409311
0x40953F
0x40956F
0x4099C2
0x4099EF
0x409A22
0x409A83
0x409D11
0x409D61
0x409F71
0x40A14D
0x40A4C2
0x40AB83
0x40ADA8
0x40AEB6
0x40B174
0x40B3CA
0x40B581
0x40BAB1
0x40BC88
0x40C39E
0x40C3D6
0x40C470
0x40C511
0x40C970
0x40CD31
0x40CE42
0x40CF21
0x40D430
0x40D561
0x40D581
0x40D761
0x40D78D
0x40DC11
0x40DFC1
0x40E250
0x40E580
0x40E651
0x40E657
0x40E791
0x40E869
0x40E960
0x40E964
0x40EBB0
0x40EBC0
0x40EBD1
0x40EBD3
0x40EBD6
0x40ED41
0x40EEA0
0x40EEA4
0x40F1B1
0x40F1BA
0x40F2A1
0x40F3F1
0x40F4C0
0x40F548
0x40F6B0
0x40F731
0x40F73A
0x40F900
