0x401CE8
0x402415
0x402464
0x4024CA
0x4024E0
0x402611
0x402F2F
0x4031D1
0x403307
0x403890
0x403900
0x4039A1
0x403AB3
0x4040F0
0x404100
0x404110
0x404120
0x404130
0x404140
0x404150
0x404160
0x404170
0x404180
0x404190
0x4041A0
0x4041B0
0x4041C0
0x4041D0
0x4041E0
0x4041F0
0x404210
0x4042F1
0x4042FA
0x404499
0x40484E
0x404952
0x404B4C
0x4052D1
0x405421
0x4056B1
0x4056EC
0x405A01
0x405D10
0x405D91
0x405E37
0x405F19
0x406680
0x406890
0x4068E0
0x40692B
0x406960
0x406B00
0x406BB0
0x406C01
0x406C0A
0x406DAC
0x407161
0x4071AA
0x407204
0x407840
0x4079B1
0x407AF1
0x407D20
0x407E11
0x407E1A
0x407E62
0x408261
0x40846B
0x4084BD
0x408610
0x408691
0x40877E
0x4087D0
0x408851
0x408937
0x408A87
0x408A9B
0x408EE0
0x408F40
0x4090D0
0x4090E1
0x4090EA
0x409180
0x409260
0x4092C0
0x409331
0x409373
0x4094C0
0x40950C
0x409721
0x4097C2
0x409810
0x409821
0x4098BF
0x40997B
0x4099C4
0x4099DB
0x409A48
0x409AA0
0x409B40
0x409BA0
0x409C00
0x409C51
0x409C5A
0x409DA6
0x409F1C
0x409FB1
0x40A0E7
0x40A212
0x40A246
0x40A271
0x40A27A
0x40A3CC
0x40A57C
0x40A611
0x40A69F
0x40A7BA
0x40A853
0x40A928
0x40A951
0x40A9E0
0x40AA30
0x40AA90
0x40AAF4
0x40AB30
0x40AB51
0x40AB5A
0x40AC02
0x40AC77
0x40ADEF
0x40AF2B
0x40AF85
0x40B163
0x40B18E
0x40B1D2
0x40B1F0
0x40B351
0x40B4D0
0x40B510
0x40B600
0x40B680
0x40B820
0x40B8C1
0x40BA00
0x40BAB0
0x40BCC0
0x40C370
0x40C3E0
0x40C430
0x40C480
0x40C4C0
0x40C510
0x40C561
0x40C580
0x40C588
0x40C5F0
0x40C610
0x40C637
0x40C670
0x40C6CA
0x40C6D4
0x40C7F0
0x40C7F3
0x40CA87
0x40CC20
0x40CD00
0x40CD60
0x40CD62
0x40CD64
0x40CED0
0x40CFD0
0x40D030
0x40D0A0
0x40D0B9
0x40D0BC
0x40D121
0x40D251
0x40D486
0x40D543
0x40D641
0x40D8A6
0x40D965
0x40DAC0
0x40DBD1
0x40DC81
0x40DE15
0x40E5E1
0x40E6A0
0x40E6E0
0x40E890
0x40E930
0x40E9C0
0x40EA00
0x40EAA0
0x40EC58
0x40EC88
0x40ED45
0x40ED75
0x40EDD5
0x40EDE1
0x40EDEA
0x40EE1C
0x40EE81
0x40F0BF
0x40F141
0x40F452
0x40F69C
0x40F87E
0x40F8BB
0x40F970
0x40F9C0
0x40FB40
0x40FB71
0x410031
0x410530
0x410620
0x4106B1
0x4107B1
0x410868
0x4108DF
0x410A31
0x410AEC
0x410D41
0x410E7F
0x410FE4
0x411131
0x41126F
0x4113E4
0x411580
0x4115B0
0x411601
0x4116D0
0x4116D2
0x4117E1
0x41191D
0x411932
0x411961
0x411A0B
0x411A71
0x411B30
0x411D41
0x411E7D
0x412390
0x412420
0x412461
0x412501
0x412861
0x412A11
0x413070
0x4131D0
0x4132F0
0x413370
0x4133F0
0x413470
0x413513
0x413553
0x4135A1
0x4135F0
0x413670
0x4136E0
0x413860
0x413990
0x413993
0x4139A1
0x413B01
0x413D50
0x413DA1
0x4143C0
0x414401
0x414436
0x414473
0x414590
0x414610
0x414613
0x41484D
0x414850
0x4149D0
0x414B00
0x414B03
0x414B11
0x414EA0
0x414FC0
0x4151F1
0x415326
0x415800
0x415A11
0x415A1A
0x415BA0
0x415D01
0x415E4A
0x4166A3
0x4166C1
0x416721
0x416923
0x41694A
0x416950
0x416961
0x416C11
0x417250
0x417381
0x417403
0x417551
0x41764F
0x417881
0x419190
0x4192F0
0x419400
0x419450
0x4194A0
0x4194F1
0x4198B0
0x419910
0x4199B0
0x4199C1
0x419AEA
0x419AF0
0x419B01
0x419B5C
0x41AC81
0x41B069
0x41B220
0x41B2B0
0x41B330
0x41B380
0x41B400
0x41B4F0
0x41B5D0
0x41B6B0
0x41B7B0
0x41B8C0
0x41BAA0
0x41BD00
0x41BE31
0x41BF60
0x41C0FF
0x41C1C0
0x41C4F1
0x41C568
0x41C7D0
0x41C980
0x41CA31
0x41CAA6
0x41CD71
0x41CDD4
0x41D2D1
0x41D3AF
0x41D6F0
0x41D7E1
0x41D819
0x41DCC1
0x41DD9F
0x41E0E0
0x41E1D1
0x41E203
0x41E3D4
0x41E8F1
0x41E91A
0x41E9AD
0x41ED31
0x41EF21
0x41F2D1
0x41F420
0x41F711
0x41F75D
0x41FB21
0x41FEB1
0x41FF90
0x4200D1
0x4204E5
0x420730
0x420909
0x42097B
0x421056
0x4210B6
0x42114C
0x42118B
0x4215C7
0x4228A0
0x422930
0x422A10
0x422B70
0x422CC0
0x422CC4
0x422E10
0x422ED0
0x422ED4
0x4230D0
0x423311
0x423561
0x4237B0
0x423A01
0x423A03
0x423E30
0x4241A1
0x4244E1
0x4244E3
0x424911
0x424B71
0x424DD1
0x424F71
0x425111
0x425580
0x4257C0
0x425A00
0x425A04
0x425B40
0x425D80
0x425FC0
0x426200
0x426440
0x426680
0x4268C0
0x426B00
0x426BD0
0x426D00
0x426E90
0x427060
0x4271C1
0x42743A
0x427490
0x4276A0
0x428300
0x4283D0
0x428471
0x4285D1
0x429030
0x4290B1
0x42914C
0x429196
0x4298A1
0x42990C
0x429A12
0x429C81
0x429F20
0x42A030
0x42A0A0
0x42A160
0x42A1D0
0x42A350
0x42A480
0x42A483
0x42A540
0x42A548
0x42A6A0
0x42A6A7
0x42A9F1
0x42AB61
0x42AD91
0x42ADD0
0x42B1F2
0x42B321
0x42B32A
0x42B501
0x42B50A
0x42B661
0x42B6C5
0x42B6E7
0x42B729
0x42B81E
0x42B8CA
0x42B9C7
0x42BACB
0x42BC4D
0x42BD43
0x42BD88
0x42C459
0x42C4D2
0x42C4E1
0x42C4EA
0x42C641
0x42C791
0x42C7FA
0x42C823
0x42C845
0x42C898
0x42C89D
0x42CA53
0x42CA82
0x42CAB1
0x42CBC6
0x42CC13
0x42CC92
0x42CDC7
0x42CE65
0x42CF71
0x42D1F0
0x42D260
0x42D351
0x42D8F3
0x42E703
0x42E870
0x42E950
0x42EAB0
0x42EB40
0x42EBB1
0x42ECD2
0x42F710
0x42F720
0x42F730
0x42F740
0x42F750
0x42F760
0x42F790
0x42F890
0x42F931
0x42FD5F
0x431C0E
0x432E91
0x433181
0x43328A
0x433370
0x433484
0x4354F1
0x435520
0x4355B0
0x435690
0x4357F5
0x4359B0
0x435A70
0x435B40
0x435CF1
0x435CFA
0x436CAC
0x436D10
0x436E60
0x436F90
0x436F97
0x437150
0x437230
0x437240
0x437250
0x437260
0x437270
0x437280
0x437292
0x437350
0x437660
0x437C10
0x437DC1
0x4380A2
0x4382E7
0x4383C0
0x4386E0
0x438840
0x4388D1
0x4388D7
0x438AA1
0x438C63
0x438DA4
0x43A6DA
0x43A6FE
0x43AB0D
0x43B41D
0x43B7AD
0x43B843
0x43BBE3
0x43BCB6
0x43BD48
0x43BE61
0x43C072
0x43C0A2
0x43C0B0
0x43C1B1
0x43C2F1
0x43C7F1
0x43C9BD
0x43CC71
0x43CC9C
0x43DBC1
0x43DF62
0x43E0A7
0x43E2B4
0x43E4B2
0x43E5F2
0x43E800
0x43E871
0x43E87A
0x43EBD0
0x43F0B0
0x43F240
0x43F320
0x43F7D1
0x43FB3C
0x43FFC1
0x43FFCA
0x440070
0x440252
0x440521
0x4407A0
0x440910
0x440A91
0x441341
0x44134A
0x441384
0x4415CC
0x441A0C
0x441AD1
0x441C70
0x441CD0
0x441D51
0x441DA3
0x441E62
0x443250
0x44340B
0x443481
0x443CF1
0x444800
0x444A15
0x444A36
0x444B10
0x444B91
0x444D1F
0x445464
0x4456B1
0x445765
0x445784
0x445811
0x4458CB
0x4458EA
0x4459A1
0x445F86
0x445FE1
0x4462E1
0x4462EA
0x44639C
0x44661A
0x44663A
0x446683
0x4466A1
0x447311
0x4473B4
0x447451
0x4474FC
0x447EE0
0x448021
0x44812F
0x448C12
0x449021
0x449371
0x44940C
0x44958C
0x449A11
0x449A1A
0x44A5F1
0x44A5FA
0x44A691
0x44B7E1
0x44BB62
0x44BBB0
0x44BBB4
0x44BC30
0x44BD31
0x44C571
0x44CAD1
0x44CB79
0x44D790
0x44D811
0x44D81A
0x44D896
0x44DDE1
0x44DF14
0x44E041
0x44E043
0x44E140
0x44E1F1
0x44F211
0x44F21A
0x451781
0x451844
0x451927
0x452613
0x452751
0x452CC1
0x453161
0x45316A
0x453840
0x4538ED
0x45390E
0x453991
0x453EB1
0x4541E1
0x4543B1
0x454950
0x454A60
0x454B70
0x454C80
0x454D90
0x454EA0
0x454FB0
0x4550C0
0x4551C0
0x4552D1
0x45532F
0x455613
0x455871
0x455EE0
0x456160
0x456174
0x4561A0
0x4562E1
0x4562E3
0x4563D0
0x456570
0x456771
0x456911
0x45691A
0x456947
0x45695C
0x456A80
0x456B01
0x456BA0
0x456C21
0x456C2A
0x456C8D
0x456CCA
0x457480
0x4574F1
0x45754B
0x4575C9
0x4576D3
0x457731
0x4577E9
0x457FD2
0x4588D0
0x45AE81
0x45B03E
0x45BA81
0x45C271
0x45C3C3
0x45D210
0x45D280
0x45D2E0
0x45D390
0x45D6A1
0x45DB00
0x45DB10
0x45DB14
0x45DBE0
0x45DCB1
0x45E000
0x45E0F1
0x45E1B7
0x45E540
0x45E5B0
0x45E5B4
0x45E761
0x45E980
0x45ED20
0x45ED43
0x45ED84
0x45EDC1
0x45F563
0x45F75D
0x46023D
0x460926
0x460D13
0x460D31
0x460DB7
0x461121
0x4612A1
0x461700
0x461791
0x461860
0x461E11
0x4627A1
0x462881
0x462B5C
0x462D91
0x462E4C
0x462F5E
0x4631C1
0x463240
0x463531
0x4638D1
0x463C21
0x463EC1
0x463F51
0x4642B1
0x464363
0x464383
0x464551
0x464A01
0x464B3C
0x464F61
0x4651D1
0x4655E1
0x465A80
0x465B18
0x4665B6
0x466701
0x46670A
0x466754
0x466AA0
0x466CD0
0x466F30
0x467160
0x4673D0
0x467560
0x4676C0
0x467800
0x467870
0x4678F0
0x4679D0
0x467A40
0x467AC1
0x467C61
0x467EA0
0x467FC0
0x468120
0x468250
0x468380
0x4683D1
0x4683FA
0x4684C0
0x468580
0x4685D0
0x468AE0
0x468D01
0x469010
0x469120
0x469290
0x4693C1
0x469800
0x469980
0x46999F
0x4699B1
0x4699F3
0x469AA1
0x469F41
0x469FD1
0x46A1A1
0x46A401
0x46AAA1
0x46AC01
0x46AC90
0x46AD40
0x46AE80
0x46B060
0x46B080
0x46B1E0
0x46B1E2
0x46B1E4
0x46B2D1
0x46B3F1
0x46B5A1
0x46B811
0x46BA51
0x46BCC0
0x46BDB0
0x46BE05
0x46BE60
0x46BE90
0x46BEB0
0x46BF71
0x46C380
0x46C481
0x46C48A
0x46C981
0x46CA30
0x46CBF1
0x46CBFA
0x46D371
0x46D40A
0x46D43F
0x46D466
0x46D48D
0x46D4BB
0x46D4EC
0x46D513
0x46D690
0x46D700
0x46D781
0x46D801
0x46D80A
0x46D950
0x46DA01
0x46DA4A
0x46EE9A
0x46EEC1
0x46EEE8
0x46EF16
0x46EF44
0x46EF6B
0x46FB2C
0x4700A2
0x4700B1
0x470401
0x4705F1
0x470781
0x470951
0x4709F1
0x471CF0
0x471D03
0x47227C
0x4722E0
0x47230C
0x472A86
0x472AEC
0x472C0F
0x472CF1
0x472D1F
0x472E02
0x473171
0x4731A5
0x4733D9
0x4736F6
0x47376C
0x4738D1
0x4738F1
0x473AD0
0x473B5D
0x473BB0
0x473BD0
0x473C41
0x473C6A
0x473DBD
0x473DC4
0x473E10
0x473E29
0x473F81
0x473F9F
0x474109
0x474168
0x474211
0x4745BF
0x4745F0
0x474613
0x474650
0x474669
0x4746B8
0x474738
0x474790
0x4747A9
0x4747EC
0x474840
0x474859
0x474881
0x4748BC
0x4749DA
0x474A08
0x474A3A
0x474AF7
0x474B91
0x474BD0
0x474BF5
0x474C51
0x474C53
0x474C6E
0x474D43
0x474DC1
0x474DE8
0x474F70
0x475000
0x475012
0x475060
0x475082
0x475170
0x475240
0x4753A7
0x4753B1
0x4753D3
0x47552E
0x475541
0x475571
0x47560B
0x4758A2
0x475B62
0x475BF2
0x475C18
0x475CC1
0x475D11
0x475D2F
0x475E3D
0x475E71
0x475E7A
0x475EA5
0x476161
0x476224
0x4763A1
0x476464
0x4765E0
0x4765F2
0x47668F
0x476761
0x476AA0
0x476B71
0x476C51
0x476F01
0x4771E1
0x47721A
0x477554
0x477633
0x4777F0
0x4777F4
0x478411
0x478681
0x478921
0x47892A
0x478B31
0x478B8D
0x478CE9
0x478EC0
0x478F86
0x4790A0
0x4790D0
0x4790E0
0x479185
0x479201
0x479410
0x479420
0x479490
0x479500
0x4795C1
0x479810
0x4799B0
0x479A90
0x479A92
0x479B60
0x479C00
0x479CA0
0x479D40
0x479DE0
0x479E81
0x479EE0
0x479FF0
0x47A0C0
0x47A190
0x47A220
0x47A3A0
0x47A520
0x47A650
0x47A653
0x47A660
0x47A662
0x47A664
0x47A6D0
0x47A820
0x47A890
0x47A898
0x47AA51
0x47AC00
0x47AC51
0x47B0B9
0x47B0D2
0x47B10F
0x47B182
0x47B239
0x47B24E
0x47B3A9
0x47B3BE
0x47B415
0x47B42F
0x47B4F0
0x47B620
0x47B630
0x47B640
0x47B660
0x47B670
0x47B690
0x47B750
0x47B7C0
0x47B940
0x47BAB1
0x47BABA
0x47BB1E
0x47BD40
0x47BDA1
0x47BDAA
0x47BE08
0x47C021
0x47C07A
0x47C35E
0x47C371
0x47C383
0x47C702
0x47C771
0x47CBC0
0x47CCF0
0x47CD10
0x47CE40
0x47CE43
0x47CEB0
0x47CFD0
0x47CFE1
0x47D2AA
0x47D5A2
0x47D650
0x47D6F1
0x47DA60
0x47DAD1
0x47DB91
0x47DB9A
0x47DC65
0x47DFC0
0x47E058
0x47E078
0x47E091
0x47E1E1
0x47E4C0
0x47E590
0x47E641
0x47E7A1
0x47E810
0x47E863
0x47EAE0
0x47EB90
0x47EC10
0x47EC20
0x47EC29
0x47ECF0
0x47EE21
0x47EE89
0x47F0D0
0x47F128
0x47F140
0x47F2C0
0x47F471
0x47F600
0x47F602
0x47F740
0x47F7B1
0x47F8EA
0x47FDA1
0x47FFC0
0x47FFC4
0x4800B4
0x480230
0x4802F0
0x480341
0x480DA2
0x481A50
0x481AE0
0x481C90
0x481C98
0x481D81
0x482301
0x4825F0
0x482631
0x482AE8
0x482B3B
0x482B62
0x482D5D
0x482E9C
0x484593
0x4849B1
0x484C31
0x4850A9
0x485160
0x4851E0
0x485361
0x48536A
0x485580
0x4857DB
0x485EE1
0x4872F1
0x4872FA
0x487523
0x48762D
0x48770A
0x4877F8
0x487918
0x48798B
0x489711
0x489748
0x4898A0
0x4898A4
0x489951
0x48995A
0x489AD1
0x489BA1
0x489CB0
0x489D00
0x489E80
0x489F40
0x48A080
0x48A0D0
0x48A11B
0x48A150
0x48A2F1
0x48A370
0x48A4F8
0x48A538
0x48A660
0x48A760
0x48A800
0x48A851
0x48A853
0x48A8C0
0x48A991
0x48AA10
0x48AB88
0x48ABC8
0x48AD30
0x48AD80
0x48ADD1
0x48B0C7
0x48B9E0
0x48BB71
0x48BDD1
0x48BE7F
0x48C2E0
0x48C2E4
0x48C36D
0x48C370
0x48C461
0x48C801
0x48CA31
0x48CF10
0x48D041
0x48D471
0x48D47A
0x48D4A8
0x48DBB1
0x48E361
0x48EB71
0x48EB7A
0x48EC7F
0x48F241
0x48F24A
0x48F34F
0x48F931
0x48F93A
0x48F9A0
0x48FF91
0x48FF9A
0x49009F
0x4906BC
0x4906EA
0x490700
0x4909D1
0x490D01
0x490E45
0x491731
0x49173A
0x491761
0x492081
0x49208A
0x4920B1
0x492941
0x49294A
0x492971
0x4930E1
0x4930EA
0x493111
0x493881
0x49388A
0x493ED1
0x493EDA
0x493F01
0x494681
0x495EDD
0x496050
0x496250
0x496361
0x496363
0x49638C
0x4963C2
0x4964A0
0x496641
0x4967A0
0x4967A8
0x496A20
0x496A80
0x496AF1
0x496CD1
0x49700B
0x49701D
0x49702F
0x4972F1
0x497550
0x497621
0x4978B0
0x4978B2
0x4978B4
0x497930
0x497980
0x497C00
0x497C50
0x497D11
0x497D1A
0x497D91
0x497F30
0x497F61
0x498181
0x49818A
0x498288
0x498740
0x4987B1
0x498986
0x498A50
0x498AA0
0x498F50
0x498FA0
0x498FEB
0x499021
0x49933F
0x499760
0x499762
0x499764
0x499821
0x499C11
0x499F36
0x499F4E
0x499FE1
0x49A152
0x49A2F7
0x49ACF0
0x49AD21
0x49AEF1
0x49B120
0x49B127
0x49B20A
0x49B4B1
0x49BA01
0x49BA07
0x49BCEE
0x49C020
0x49C071
0x49C0CA
0x49C7D4
0x49CA62
0x49CB41
0x49CC00
0x49CCD2
0x49CCE0
0x49CCF2
0x49CD00
0x49CD60
0x49CDB0
0x49CE11
0x49D4E1
0x49DEF1
0x49E0F0
0x49E24B
0x49E472
0x49E491
0x49EAD0
0x49EB61
0x49ECF1
0x49EDA2
0x49F1C1
0x49F381
0x49F421
0x49F9A1
0x49FF80
0x49FFA7
0x4A00B1
0x4A0591
0x4A07D1
0x4A08C1
0x4A09E0
0x4A0B20
0x4A0BE8
0x4A0C81
0x4A0D60
0x4A0E00
0x4A0F01
0x4A1140
0x4A1240
0x4A1401
0x4A1545
0x4A1A50
0x4A1D81
0x4A2130
0x4A21D0
0x4A22D1
0x4A23A0
0x4A24F1
0x4A2555
0x4A29F8
0x4A2AA0
0x4A2CF1
0x4A3561
0x4A362C
0x4A3B7C
0x4A3D00
0x4A3FB0
0x4A41D1
0x4A41FE
0x4A4224
0x4A4481
0x4A4A51
0x4A5101
0x4A5199
0x4A53FD
0x4A5406
0x4A57D3
0x4A5991
0x4A5BC8
0x4A5F80
0x4A61B1
0x4A65C1
0x4A6731
0x4A6B20
0x4A6D50
0x4A6F81
0x4A7801
0x4A78CC
0x4A7E3C
0x4A8390
0x4A8481
0x4A84E4
0x4A88F1
0x4A8B61
0x4A94D1
0x4A959C
0x4A9B42
0x4A9C51
0x4A9F11
0x4AA161
0x4AA341
0x4AA961
0x4AB0A1
0x4AB601
0x4ABA01
0x4AC051
0x4AC2B1
0x4ACD91
0x4ACDD2
0x4ACFBB
0x4AD801
0x4ADA61
0x4AE411
0x4AE4EC
0x4AEAA2
0x4AEC61
0x4AED93
0x4AEED0
0x4AEFC0
0x4AF080
0x4AF310
0x4AF4F0
0x4AF621
0x4AF850
0x4AF8C0
0x4AF8E0
0x4AFC51
0x4AFC53
0x4AFF50
0x4B00D1
0x4B0400
0x4B0461
0x4B04D1
0x4B051B
0x4B0551
0x4B07A0
0x4B09F0
0x4B0A80
0x4B0AC0
0x4B0F50
0x4B0FC1
0x4B0FCA
0x4B1C51
0x4B1EA1
0x4B1EED
0x4B2F02
0x4B2F20
0x4B2FB1
0x4B33C0
0x4B3450
0x4B3541
0x4B38BB
0x4B3A91
0x4B3F91
0x4B4A51
0x4B4A5A
0x4B4BD3
0x4B4D51
0x4B4D75
0x4B4EAA
0x4B5481
0x4B5916
0x4B5961
0x4B596A
0x4B5B1F
0x4B6260
0x4B68E0
0x4B6D80
0x4B6D88
0x4B6FC6
0x4B74C0
0x4B75D1
0x4B75D3
0x4B78E0
0x4B78E2
0x4B78E4
0x4B7929
0x4B7A91
0x4B7D10
0x4B7E30
0x4B7E33
0x4B7FC0
0x4B7FC2
0x4B81D0
0x4B824E
0x4B82C0
0x4B85C1
0x4B8642
0x4B8929
0x4B8DC1
0x4B8EF1
0x4B8FDA
0x4B94AE
0x4B9527
0x4B953D
0x4B9540
0x4B95C1
0x4B97F1
0x4B9AD9
0x4B9DFC
0x4B9E8D
0x4BA591
0x4BA8F1
0x4BA940
0x4BA9D3
0x4BAA1C
0x4BAC16
0x4BAC41
0x4BACBD
0x4BAE70
0x4BAE72
0x4BAEE0
0x4BAF50
0x4BAF52
0x4BAFB0
0x4BB000
0x4BB190
0x4BB210
0x4BB641
0x4BB744
0x4BBB00
0x4BBD32
0x4BBD41
0x4BBD8E
0x4BC770
0x4BC7E1
0x4BCCF1
0x4BD120
0x4BD20D
0x4BD491
0x4BDBD0
0x4BDBD2
0x4BDE41
0x4BE3B1
0x4BE3BA
0x4BE3F0
0x4BE860
0x4BEA10
0x4BEAA0
0x4BEE61
0x4BEFB1
0x4BF391
0x4BF590
0x4BF6D1
0x4BF910
0x4BFA00
0x4BFB20
0x4BFB50
0x4BFCE1
0x4BFE01
0x4BFE23
0x4C01B0
0x4C01F0
0x4C0370
0x4C0491
0x4C0680
0x4C06D1
0x4C0950
0x4C0AF0
0x4C0BA1
0x4C0F11
0x4C0F1A
0x4C1003
0x4C15BE
0x4C19E1
0x4C19EA
0x4C1AE0
0x4C1AE4
0x4C1FF0
0x4C2141
0x4C2751
0x4C2831
0x4C2A91
0x4C2EE1
0x4C2F59
0x4C3161
0x4C3BF1
0x4C5261
0x4C55A1
0x4C5CA1
0x4C5E64
0x4C5F20
0x4C64B0
0x4C65A1
0x4C6D30
0x4C6FB0
0x4C73E0
0x4C73FA
0x4C7420
0x4C7531
0x4C76B0
0x4C7700
0x4C7751
0x4C77C1
0x4C79B1
0x4C7A70
0x4C7AC0
0x4C7B91
0x4C7B93
0x4C7C90
0x4C7D61
0x4C7EE1
0x4C8051
0x4C8599
0x4CAA30
0x4CAA54
0x4CACD0
0x4CAD40
0x4CAD80
0x4CAF40
0x4CB041
0x4CB210
0x4CB401
0x4CB507
0x4CB680
0x4CB950
0x4CB98F
0x4CB9E0
0x4CBAD0
0x4CBBF0
0x4CBC30
0x4CBE60
0x4CBEC0
0x4CBEF1
0x4CC1B0
0x4CC240
0x4CC2B0
0x4CC481
0x4CC831
0x4CCA11
0x4CCAD7
0x4CCC6A
0x4CCD22
0x4CCF50
0x4CD041
0x4CD201
0x4CD2A9
0x4CD3BC
0x4CD517
0x4CD7A6
0x4CD825
0x4CD940
0x4CD9C1
0x4CDCC3
0x4CDCE1
0x4CE0F1
0x4CE400
0x4CE451
0x4CEAA2
0x4CEAB2
0x4CEAC0
0x4CEB61
0x4CEBB8
0x4CECA3
0x4CED70
0x4CEE41
0x4CF62A
0x4CF6A3
0x4CF701
0x4CFA33
0x4CFA51
0x4CFB75
0x4D0340
0x4D0344
0x4D0413
0x4D0431
0x4D0930
0x4D09D3
0x4D09F0
0x4D0A20
0x4D0B21
0x4D0E51
0x4D0F58
0x4D1630
0x4D1711
0x4D171A
0x4D1B11
0x4D1CB4
0x4D1E11
0x4D1EFE
0x4D20E1
0x4D2361
0x4D2611
0x4D2763
0x4D2B10
0x4D2B81
0x4D2B8A
0x4D3111
0x4D34E2
0x4D3601
0x4D3C21
0x4D3E50
0x4D3F31
0x4D4075
0x4D4090
0x4D40C8
0x4D40DC
0x4D40DD
0x4D4114
0x4D4130
0x4D41A1
0x4D4350
0x4D44A1
0x4D44AA
0x4D467D
0x4D4C11
0x4D4D31
0x4D4E40
0x4D4F40
0x4D4FC0
0x4D5031
0x4D5085
0x4D5480
0x4D5600
0x4D5730
0x4D5733
0x4D5741
0x4D59C1
0x4D5BA0
0x4D5C51
0x4D5CC1
0x4D5FAD
0x4D5FC0
0x4D5FD2
0x4D6432
0x4D6440
0x4D6501
0x4D6650
0x4D6652
0x4D6765
0x4D67BE
0x4D67E0
0x4D696B
0x4D6B19
0x4D6B23
0x4D6B71
0x4D6DC0
0x4D6F26
0x4D6FA0
0x4D6FC6
0x4D705D
0x4D7101
0x4D715F
0x4D7252
0x4D7264
0x4D7271
0x4D7295
0x4D72A2
0x4D72BC
0x4D734B
0x4D73C0
0x4D73EC
0x4D740C
0x4D7909
0x4D79F1
0x4D7C30
0x4D7C37
0x4D7C80
0x4D7D61
0x4D7F40
0x4D7F70
0x4D7F73
0x4D7FD1
0x4D8032
0x4D8099
0x4D8202
0x4D8250
0x4D8360
0x4D8450
0x4D846F
0x4D8500
0x4D8591
0x4D86F1
0x4D86FA
0x4D88D2
0x4D88E0
0x4D8921
0x4D8B50
0x4D8BF0
0x4D8CA3
0x4D8D03
0x4D8D04
0x4D8D30
0x4D8FA1
0x4D92C0
0x4D9301
0x4D9430
0x4D94D0
0x4D9511
0x4D951A
0x4D9661
0x4D9710
0x4D9750
0x4D9781
0x4DA251
0x4DA4B1
0x4DA9C0
0x4DAA20
0x4DAB21
0x4DAC90
0x4DB32F
0x4DB370
0x4DB3AD
0x4DB3EA
0x4DB680
0x4DBAD1
0x4DBC01
0x4DBC43
0x4DBF21
0x4DBFB7
0x4DC291
0x4DC29A
0x4DC6E1
0x4DC7C1
0x4DC8A1
0x4DC911
0x4DCA23
0x4DCF6A
0x4DDA26
0x4DDCF6
0x4DFE2A
0x4DFE6C
0x4DFE8B
0x4DFED3
0x4DFF4C
0x4DFF94
0x4DFFDC
0x4E0024
0x4E0060
0x4E0147
0x4E01DE
0x4E0219
0x4E13C6
0x4E158E
0x4E213E
0x4E2329
0x4E2AB4
0x4E2BAF
0x4E2CAA
0x4E2DA5
0x4E2E99
0x4E2F90
0x4E344F
0x4E3DBD
0x4E409F
0x4E419A
0x4E4295
0x4E4390
0x4E484F
0x4E494A
0x4E566E
0x4E5769
0x4E5864
0x4E5A55
0x4E5B50
0x4E5C4B
0x4E5E3C
0x4E5F37
0x4E6032
0x4E64E9
0x4E65E4
0x4E7213
0x4E730E
0x4E7409
0x4E75FA
0x4E76F5
0x4E77F0
0x4E8711
0x4E880C
0x4E89FD
0x4E8AF8
0x4E8BF3
0x4E9AC8
0x4E9CB7
0x4E9EA6
0x4E9FA0
0x4EA09A
0x4EA194
0x4EA383
0x4EA47D
0x4EA66C
0x4EA93E
0x4EAA38
0x4EB632
0x4EB952
0x4EBA60
0x4EBB6E
0x4EBC7C
0x4EBE93
0x4EBFA1
0x4EC0AF
0x4EC9AA
0x4ECAB8
0x4ECBC6
0x4ECCD4
0x4ECED8
0x4ECFE6
0x4ED0F4
0x4ED6DC
0x4EE090
0x4EE18C
0x4EE288
0x4EE384
0x4EE480
0x4EE96B
0x4EEF79
0x4EF929
0x4EFB10
0x4EFC1E
0x4EFE35
0x4EFF32
0x4F002E
0x4F012B
0x4F0331
0x4F042E
0x4F0B1D
0x4F1654
0x4F1862
0x4F1A79
0x4F1C90
0x4F26A7
0x4F28BE
0x4F2DCC
0x4F34DA
0x4F35E8
0x4F36F6
0x4F3907
0x4F3B19
0x4F4335
0x4F484B
0x4F4959
0x4F4E67
0x4F4F75
0x4F5279
0x4F5283
0x4F5391
0x4F569F
0x4F5AB9
0x4F60D5
0x4F66E6
0x4F67F4
0x4F6902
0x4F6A13
0x4F6E21
0x4F6F2F
0x4F703D
0x4F724B
0x4F755C
0x4F7C7F
0x4F8199
0x4F85A9
0x4F87BC
0x4F8CDF
0x4F8EF8
0x4F91F6
0x4F960A
0x4F9924
0x4F9C38
0x4F9D49
0x4F9F60
0x4FA0B1
0x4FA129
0x4FA1C8
0x4FA250
0x4FA440
0x4FA790
0x4FAAC0
0x4FAAC2
0x4FAAC4
0x4FADB0
0x4FB0C0
0x4FB160
0x4FB184
0x4FB1F0
0x4FB250
0x4FB252
0x4FB2C0
0x4FB340
0x4FB391
0x4FB6D0
0x4FB6F0
0x4FB7E0
0x4FB840
0x4FB890
0x4FB95C
0x4FB97F
0x4FB99E
0x4FB9B3
0x4FBA30
0x4FBAD0
0x4FBB30
0x4FBB80
0x4FBBE0
0x4FBC40
0x4FBCF0
0x4FBD40
0x4FBD90
0x4FBDE0
0x4FBE30
0x4FBE80
0x4FBEE0
0x4FBF90
0x4FC0B0
0x4FC100
0x4FC150
0x4FC1A0
0x4FC1F0
0x4FC250
0x4FC2A0
0x4FC2F0
0x4FC340
0x4FC390
0x4FC3E0
0x4FC440
0x4FC490
0x4FC4E0
0x4FC531
0x4FD070
0x4FD170
0x4FD1D0
0x4FD310
0x4FD480
0x4FD510
0x4FD660
0x4FD6E0
0x4FD800
0x4FD92C
0x4FD950
0x4FDA71
0x4FDA73
0x4FDB80
0x4FDBD0
0x4FDCE0
0x4FDD40
0x4FDE50
0x4FDF50
0x4FDFB0
0x4FE0C0
0x4FE120
0x4FE170
0x4FE1D0
0x4FE230
0x4FE290
0x4FE2F0
0x4FE351
0x4FE353
0x4FE5A0
0x4FE5F0
0x4FE7A0
0x4FE940
0x4FE9B0
0x4FEA10
0x4FEAA0
0x4FEC00
0x4FEC02
0x4FF010
0x4FF100
0x4FF103
0x4FF271
0x4FF273
0x4FF630
0x4FFA41
0x4FFA43
0x4FFB79
0x4FFCA1
0x4FFF30
0x5001C0
0x500280
0x500660
0x5006F0
0x500780
0x5008D1
0x500DBF
0x5012E0
0x5012F2
0x501302
0x501310
0x501340
0x5013A0
0x501400
0x501460
0x5014E0
0x5018F1
0x501AB1
0x501C40
0x501C42
0x501C44
0x501CD1
0x501DA1
0x501E91
0x501E93
0x50215D
0x502190
0x5024B1
0x502553
0x502791
0x5027DD
0x502970
0x502A41
0x502D71
0x502E30
0x502F51
0x502F53
0x5030D1
0x5032C1
0x503401
0x5034F1
0x5035E1
0x503833
0x503851
0x5038A8
0x503931
0x503AE1
0x503C10
0x503E00
0x503E95
0x503FA1
0x504081
0x504260
0x504597
0x5046E6
0x504751
0x504841
0x504941
0x504AD1
0x504BAD
0x504DD1
0x504F11
0x504FE1
0x5052F0
0x5053A0
0x505430
0x505620
0x5056D1
0x5058C1
0x5059C2
0x5059D3
0x505AD1
0x505B81
0x505C31
0x505CE0
0x505D71
0x505E70
0x506271
0x506450
0x5064E0
0x506570
0x506600
0x506721
0x506860
0x506D01
0x506DE1
0x506E33
0x506E8D
0x506F20
0x506FC1
0x507070
0x5071A1
0x5072F0
0x507470
0x507590
0x507621
0x507760
0x5077A0
0x507841
0x507A41
0x507A43
0x507C41
0x507FC0
0x508091
0x508471
0x5086F1
0x5089A0
0x508CE1
0x508DF0
0x508E50
0x508EC1
0x508F70
0x509020
0x5090C0
0x509441
0x509541
0x509641
0x509741
0x509840
0x5098F0
0x509970
0x509A01
0x509D51
0x509E31
0x50A0C1
0x50A191
0x50A880
0x50ABE0
0x50B1E0
0x50B5F0
0x50BB91
0x50BC60
0x50BD00
0x50BE60
0x50C200
0x50C3A1
0x50C581
0x50C583
0x50C840
0x50C910
0x50CB31
0x50CC11
0x50CDE1
0x50CEC0
0x50D1B0
0x50D381
0x50D451
0x50D453
0x50D5D0
0x50D741
0x50DC71
0x50DD60
0x50DE31
0x50DED3
0x50DF60
0x50E090
0x50E139
0x50E1B1
0x50E390
0x50E440
0x50E610
0x50E6C0
0x50E700
0x50E880
0x50E8C0
0x50E950
0x50E9B0
0x50E9F1
0x50EBB1
0x50ED70
0x50EDB0
0x50EE20
0x50EE80
0x50EF70
0x50F221
0x50F732
0x50F742
0x50F761
0x50F7BF
0x50F86D
0x50F9AB
0x511740
0x511DB0
0x514576
0x514BE1
0x515705
0x515C39
0x516140
0x516148
0x516242
0x516270
0x516391
0x516505
0x516AD8
0x516B6C
0x516BB1
0x516BF9
0x516C51
0x5170A3
0x5182FB
0x5187C1
0x518993
0x5189B5
0x51A77A
0x51AF9E
0x51B672
0x51C1C8
0x51C402
0x51CCEE
0x51CE18
0x51CF42
0x51D06C
0x51D2B2
0x51D95C
0x51DA84
0x51E90C
0x51EA36
0x51EB60
0x51EC8A
0x51EDA5
0x51F224
0x51F34E
0x5202E4
0x52040E
0x520538
0x520662
0x52078D
0x5209DA
0x520B04
0x520D53
0x520E7D
0x521C53
0x521D2B
0x521ECD
0x522D21
0x522DF9
0x522ED1
0x522FA9
0x523227
0x5232FF
0x5233D7
0x5234AF
0x5238BD
0x524567
0x5247E5
0x5248BD
0x524A68
0x524B40
0x524C18
0x524CF0
0x524DC8
0x5253A5
0x525991
0x525A69
0x525AD6
0x525B41
0x5263FD
0x5265A8
0x526680
0x526758
0x526903
0x526AAE
0x526B86
0x527FB7
0x5280CA
0x5281A2
0x52827A
0x528352
0x52842A
0x52941F
0x5295BB
0x52A236
0x52A49E
0x52A5D7
0x52A841
0x52A97A
0x52B4B8
0x52BB3B
0x52BEC7
0x52CBF8
0x52CD2E
0x52CE64
0x52CF9A
0x52D0D0
0x52D337
0x52D46D
0x52DBCD
0x52E512
0x52E899
0x52ED42
0x52F31E
0x52F453
0x52F8FE
0x52FA32
0x5304AF
0x5305E4
0x530966
0x5312A6
0x531509
0x53163D
0x531773
0x531AF6
0x5321F9
0x53245E
0x532A38
0x532C95
0x533017
0x53314B
0x5334CD
0x533975
0x5341A6
0x5342DA
0x53453A
0x5349E8
0x534B1C
0x535225
0x5356DE
0x535A6F
0x535CCE
0x536185
0x53688C
0x5369C2
0x536D49
0x5370D1
0x537589
0x5377F0
0x537941
0x537AC0
0x537B21
0x537EE4
0x539390
0x539410
0x539470
0x539610
0x5396D0
0x539870
0x539A70
0x539B30
0x539B80
0x539BD0
0x539C50
0x539CA0
0x539CE0
0x539D30
0x539D70
0x539DF0
0x539F00
0x539F40
0x539F90
0x53A04C
0x53A06F
0x53A08E
0x53A0A3
0x53A120
0x53A160
0x53A1A0
0x53A1F0
0x53A231
0x53A2D0
0x53A310
0x53A360
0x53A400
0x53A450
0x53A5A0
0x53A5F0
0x53A630
0x53A680
0x53A6C0
0x53A780
0x53A840
0x53AA40
0x53AB00
0x53AB60
0x53AC20
0x53AD20
0x53AE40
0x53AFB0
0x53B070
0x53B2C0
0x53B360
0x53B3B0
0x53B3F0
0x53B440
0x53B490
0x53B4E0
0x53B530
0x53B651
0x53B6EB
0x53B820
0x53B931
0x53B9CB
0x53BBB1
0x53BC4B
0x53BD80
0x53BDC0
0x53BE81
0x53BF0F
0x53C050
0x53C0A1
0x53C150
0x53C1D0
0x53C290
0x53C480
0x53C510
0x53C590
0x53C5F1
0x53C6C0
0x53CC11
0x53CCD1
0x53CDC1
0x53CF30
0x53CFE0
0x53CFE8
0x53D110
0x53D170
0x53D1BE
0x53D1E0
0x53D1E3
0x53D270
0x53D370
0x53D372
0x53D374
0x53D430
0x53D540
0x53D5D0
0x53D786
0x53D7A0
0x53D840
0x53D880
0x53D888
0x53DAC0
0x53DB11
0x53DB75
0x53DDD0
0x53E01C
0x53E03F
0x53E05E
0x53E073
0x53E0F0
0x53E130
0x53E170
0x53E3F0
0x53E5F0
0x53E640
0x53E690
0x53E6E0
0x53E960
0x53E9B0
0x53EA30
0x53EA3D
0x53EB30
0x53EB4B
0x53ED50
0x53ED70
0x53ED72
0x53EDF1
0x53EF2D
0x53F043
0x53F740
0x53F8C0
0x53F928
0x53F990
0x53FA00
0x53FA50
0x53FAA1
0x53FB10
0x53FBD6
0x53FC61
0x53FD21
0x53FFD0
0x540020
0x540070
0x540072
0x540074
0x540160
0x5401F0
0x5403A0
0x5403F0
0x540441
0x540538
0x54055A
0x5405B1
0x540690
0x5406C8
0x5406E0
0x540720
0x540870
0x5408C0
0x540941
0x5409B0
0x540A10
0x540A50
0x540AB0
0x540B10
0x540B50
0x540B70
0x540BE0
0x540C20
0x540EB1
0x540EBA
0x542610
0x542850
0x542A41
0x542AC1
0x542B31
0x542BA1
0x542DAE
0x5434F1
0x5436AE
0x543790
0x543837
0x543863
0x5438A0
0x543900
0x543902
0x543936
0x543991
0x543A20
0x543A71
0x543AD0
0x543B31
0x543DEA
0x5442B0
0x544380
0x544431
0x544650
0x5446A0
0x544781
0x544783
0x544850
0x544890
0x544918
0x5449E0
0x544AC0
0x544AE0
0x544B51
0x544D11
0x544D1A
0x545100
0x545330
0x545381
0x5454E0
0x5455E0
0x5456A0
0x546EE0
0x54D37A
0x54DB0E
0x5577F0
0x55BA39
0x55BA41
0x55BA61
0x55BA69
0x55BA71
0x56C1C8
0x5723F8
0x5724F8
0x573BE5
0x573CDD
