0x402385
0x4023D4
0x40243A
0x402450
0x402581
0x403046
0x4032D1
0x403592
0x4035AF
0x4035CE
0x4039D1
0x404180
0x404190
0x4041A0
0x4041B0
0x4041C0
0x4041D0
0x4041E0
0x4041F0
0x404200
0x404210
0x404220
0x404230
0x404240
0x404250
0x404260
0x404270
0x404280
0x404381
0x4043C9
0x40449B
0x405291
0x4053E1
0x405671
0x4056D9
0x405A01
0x405DF1
0x405FB2
0x406140
0x406374
0x406940
0x406990
0x4069DB
0x406A80
0x406C70
0x406D20
0x406D71
0x406D7A
0x406E18
0x40718B
0x4072F1
0x4072FA
0x407565
0x407A0C
0x407C8F
0x408000
0x408161
0x4082A1
0x408420
0x408511
0x408965
0x408C21
0x409060
0x4090E1
0x4091D5
0x409231
0x409291
0x409377
0x409537
0x40954B
0x4095C0
0x4098A1
0x4098A3
0x409AA0
0x409C30
0x409C41
0x409D30
0x409DE0
0x409E40
0x409EC1
0x40A02A
0x40A24E
0x40A2CB
0x40A35D
0x40A3A0
0x40A3B1
0x40A456
0x40A4E2
0x40A61B
0x40A664
0x40A67B
0x40A6E0
0x40A740
0x40A7A0
0x40A7F1
0x40A88E
0x40A8B5
0x40AB3F
0x40ABD1
0x40AC8D
0x40AD15
0x40AECF
0x40AF41
0x40AFC5
0x40B2E3
0x40B371
0x40B3C1
0x40B505
0x40B524
0x40B5B7
0x40B741
0x40B76A
0x40B800
0x40B850
0x40B8B0
0x40B949
0x40B9F0
0x40BA10
0x40BA51
0x40BA5A
0x40BC3F
0x40BDB7
0x40BEFA
0x40BF54
0x40C123
0x40C14C
0x40C190
0x40C2F0
0x40C7F0
0x40C880
0x40C920
0x40C9B0
0x40CA50
0x40CAF0
0x40CC11
0x40CED0
0x40CF80
0x40D2A0
0x40D9B0
0x40DB50
0x40DF30
0x40DFA0
0x40DFF0
0x40E040
0x40E080
0x40E0D0
0x40E121
0x40E140
0x40E148
0x40E1B0
0x40E1D0
0x40E1F7
0x40E230
0x40E28A
0x40E294
0x40E3B0
0x40E3B3
0x40E820
0x40E900
0x40E961
0x40E96A
0x40EB80
0x40ECA1
0x40ED90
0x40EDA9
0x40EDAC
0x40EE11
0x40EF41
0x40F0EE
0x40F547
0x40F5A1
0x40F75B
0x40FAE9
0x40FC30
0x40FC45
0x40FC77
0x40FC79
0x40FCE0
0x40FD91
0x40FE04
0x40FE06
0x40FE80
0x40FEAF
0x40FF10
0x40FFE1
0x4103E4
0x410BC0
0x410C00
0x410DB1
0x410DEF
0x410EB0
0x410F40
0x410F80
0x411021
0x4110EC
0x411365
0x4113C1
0x41145C
0x4115DE
0x411671
0x411701
0x411761
0x411CF4
0x411D41
0x411DF6
0x411EEE
0x41215C
0x4121A8
0x41220E
0x412370
0x4123A1
0x4125FC
0x412A11
0x413020
0x413191
0x413362
0x41369F
0x4136B7
0x4136B9
0x41379F
0x413D41
0x4140AD
0x41439F
0x414401
0x414909
0x414A34
0x414B61
0x415270
0x4152B1
0x415351
0x4159F1
0x415BA1
0x417003
0x417043
0x4170F1
0x417162
0x4173F0
0x417570
0x4176A0
0x4176A3
0x4176B1
0x4176BA
0x417820
0x417871
0x417E90
0x417ED1
0x417EDA
0x41817B
0x4181B3
0x418360
0x418363
0x4185D0
0x418760
0x4188A0
0x4188A3
0x4188B1
0x4188B3
0x418AC5
0x418C56
0x418D20
0x418F8C
0x4190B1
0x419861
0x41986A
0x419A10
0x419BF1
0x419D3B
0x41A703
0x41A721
0x41A7A1
0x41A943
0x41A961
0x41B131
0x41B1B3
0x41B301
0x41B36D
0x41B531
0x41B761
0x41D242
0x41D597
0x41DB3C
0x41E331
0x41E38B
0x420971
0x420D4B
0x420F6A
0x420FDC
0x421641
0x4216B6
0x421AB1
0x421B1E
0x421F61
0x421F8C
0x4226A1
0x4226D4
0x422704
0x422D81
0x423281
0x4232B4
0x4232E4
0x423961
0x423B76
0x423EF5
0x4241F1
0x424346
0x424831
0x424AF1
0x424EA1
0x425251
0x42529D
0x425651
0x425B21
0x425B52
0x42B515
0x42B616
0x42CBAD
0x42D05F
0x42D254
0x42DA08
0x42DA74
0x42DAE0
0x42DB1A
0x42EC91
0x42EF72
0x42EFCC
0x42F470
0x42F631
0x42F8A1
0x430641
0x4306E6
0x430735
0x430EB1
0x430F1C
0x431042
0x4312E1
0x431670
0x4316A0
0x431711
0x431781
0x431BE0
0x431C90
0x431D60
0x431E90
0x431E93
0x431F70
0x431F78
0x4320D0
0x4320D7
0x432421
0x432591
0x4325D0
0x4329F2
0x432B21
0x432B2A
0x432D01
0x432D0A
0x432E61
0x432EA8
0x432EC7
0x432EE9
0x432F2B
0x433026
0x4330D2
0x4331CF
0x4332D6
0x433458
0x433562
0x4335A5
0x433C48
0x433CC1
0x433CCA
0x433E21
0x433F71
0x433FDA
0x434003
0x4340AB
0x434272
0x4342A1
0x4343D9
0x434463
0x4345C8
0x434761
0x43476A
0x434A40
0x434B11
0x434BC7
0x434C05
0x43507A
0x4384B3
0x438B71
0x43B7C0
0x43B7D0
0x43B7E0
0x43B7F0
0x43B800
0x43B810
0x43B940
0x43B9D1
0x43BBA6
0x43DC48
0x43FCC1
0x43FFB1
0x4400B4
0x44021A
0x441D4F
0x4424A5
0x442570
0x442701
0x443800
0x4439C5
0x443AE0
0x443BC0
0x443BD0
0x443BE0
0x443BF0
0x443C00
0x443C10
0x443CD1
0x444020
0x4445A0
0x444751
0x444E5D
0x44512C
0x445351
0x445541
0x4472BC
0x4472E0
0x44753E
0x449C33
0x449C97
0x449D8C
0x44A232
0x44A4D0
0x44A693
0x44A701
0x44AECE
0x44AF39
0x44B041
0x44B220
0x44B4A1
0x44B720
0x44B729
0x44B736
0x44B743
0x44B750
0x44B75D
0x44B76A
0x44B7C5
0x44B7D2
0x44B7DF
0x44BBA1
0x44C23C
0x44C3D4
0x44CCE2
0x44D541
0x44D54A
0x44D616
0x44EA7F
0x44EC91
0x44EC9A
0x44ED10
0x450D01
0x450E2C
0x450E78
0x452A90
0x452BF1
0x452D3B
0x452E26
0x453800
0x453A8D
0x453B11
0x453B32
0x453B81
0x453BE8
0x453DB5
0x4547D1
0x454885
0x454931
0x454C18
0x454C71
0x454DCA
0x45500D
0x455BE4
0x456A01
0x456ECA
0x456F43
0x456F61
0x457E51
0x457EF4
0x457F91
0x458CF1
0x458DAF
0x459910
0x459D41
0x45A2E1
0x45A536
0x45AAA1
0x45B025
0x45B279
0x45B8B1
0x45B94B
0x45BE40
0x45CC31
0x45D112
0x45D181
0x45D7E0
0x45DAD1
0x45E461
0x45E507
0x45E79C
0x45F1F1
0x45F881
0x45FCC0
0x45FD71
0x460102
0x460D03
0x460F71
0x462E81
0x4637A4
0x463D91
0x464331
0x464821
0x465410
0x4654D1
0x465501
0x465807
0x465C41
0x465FA1
0x466221
0x467351
0x46767A
0x4679B1
0x467EC2
0x468290
0x4682A4
0x4682D0
0x468461
0x468463
0x468550
0x468710
0x4689C1
0x468B51
0x468B5A
0x468B87
0x468B9C
0x468CC0
0x468D41
0x468DE0
0x468E61
0x468F0A
0x468F2A
0x468F99
0x4699B1
0x469A77
0x469E1B
0x46A1F0
0x46A882
0x46C45A
0x46D651
0x46E2C1
0x46E524
0x46EAD1
0x46EE07
0x46FA90
0x46FAF0
0x46FBA0
0x46FEB1
0x470016
0x470551
0x470DD0
0x470EC1
0x471013
0x4716D0
0x4716D4
0x47190C
0x471B67
0x471C14
0x471C98
0x472023
0x472060
0x4720D1
0x47249C
0x472759
0x472CBF
0x472E93
0x472FF8
0x4733B2
0x473989
0x4745F3
0x474611
0x47469C
0x474D81
0x475351
0x47542C
0x476091
0x476101
0x476EA1
0x476F81
0x477253
0x477481
0x4779F1
0x477E01
0x478231
0x4783CC
0x478610
0x478741
0x478A21
0x478E81
0x478F3B
0x4791D1
0x4797A1
0x479828
0x47A371
0x47A5C1
0x47AA8C
0x47ABD9
0x47B771
0x47B77A
0x47B7C4
0x47BB10
0x47BD60
0x47C480
0x47CBF0
0x47CE80
0x47D130
0x47D240
0x47D751
0x47DA11
0x47E0D0
0x47E2E1
0x47E531
0x47E960
0x47EAD0
0x47EAEF
0x47EB01
0x47EB43
0x47EBF1
0x47ECE9
0x47EE22
0x47F061
0x47F0F1
0x47F2C1
0x47F548
0x47F601
0x47FC81
0x47FDD0
0x47FE91
0x47FF20
0x47FFD1
0x4801A0
0x480260
0x480350
0x480440
0x480460
0x480620
0x480701
0x480881
0x480A31
0x480CA1
0x4812C1
0x481400
0x481451
0x4814A0
0x4814D0
0x4814F1
0x4815E1
0x48179D
0x481EC0
0x481F71
0x481F7A
0x4820E7
0x4828C1
0x4828CA
0x482A37
0x483521
0x4835A4
0x48361B
0x483647
0x48366E
0x48369C
0x4836CA
0x4836F1
0x4838F0
0x483961
0x483AA1
0x483AAA
0x483BF0
0x483C61
0x485BDA
0x485C01
0x485C28
0x485C56
0x485C84
0x485CAB
0x48686C
0x486B37
0x486E41
0x487041
0x487211
0x48725B
0x48729D
0x4872DF
0x487321
0x487363
0x4873A5
0x4873E7
0x487411
0x488690
0x488C60
0x489681
0x489B41
0x48A281
0x48A800
0x48A802
0x48A804
0x48A8E0
0x48A971
0x48AAF6
0x48AB50
0x48ACC1
0x48AD39
0x48AFD0
0x48B3C0
0x48B420
0x48B560
0x48B610
0x48B651
0x48B68A
0x48B80B
0x48B82C
0x48B8B0
0x48B9A0
0x48BA21
0x48BA23
0x48BAF0
0x48BBE1
0x48BE80
0x48BEE0
0x48BFF7
0x48C001
0x48C083
0x48C29E
0x48C2B1
0x48C37A
0x48C625
0x48CAA1
0x48CC61
0x48CE5A
0x48D03E
0x48D0D3
0x48D420
0x48D511
0x48D625
0x48D67D
0x48DA91
0x48DEA1
0x48E181
0x48E1BA
0x48E261
0x48E43A
0x48E6E6
0x48E8A4
0x48E8B5
0x48EB61
0x48ECCF
0x48EEF6
0x48FC7F
0x48FCAF
0x48FF81
0x4900C0
0x490341
0x4904D0
0x490601
0x490891
0x490D10
0x490D40
0x490D50
0x490F01
0x491270
0x491280
0x491300
0x491350
0x491400
0x4914B1
0x491BD1
0x491E10
0x491F70
0x491F72
0x4921D0
0x492270
0x492490
0x492531
0x4928C0
0x492990
0x492A60
0x492B11
0x492BD5
0x492E40
0x492FC0
0x4930F0
0x4930F3
0x493100
0x493102
0x493104
0x493170
0x4932C0
0x493330
0x493338
0x493500
0x493551
0x4935E5
0x493A32
0x493A6F
0x493B83
0x493B98
0x493E0F
0x493E5F
0x493F30
0x493FB0
0x493FC0
0x493FD0
0x493FF0
0x494000
0x494021
0x4940D8
0x4943C0
0x494540
0x4946B1
0x4946BA
0x494940
0x4949A1
0x4949FA
0x494CD1
0x494CE4
0x494CFB
0x4950F1
0x495530
0x495660
0x495680
0x4957B0
0x4957B3
0x4957F0
0x495890
0x4959C0
0x4959D1
0x495CAA
0x4960A0
0x496141
0x496571
0x496631
0x496EF1
0x497030
0x497161
0x497440
0x497520
0x497571
0x497701
0x497770
0x4977D3
0x497AA0
0x497B50
0x497BD0
0x497BE0
0x497BE9
0x497D10
0x497E41
0x498160
0x4982E0
0x4983F0
0x498491
0x4987B0
0x4987B2
0x498910
0x498981
0x498ABA
0x498F71
0x499190
0x499194
0x49927F
0x499320
0x499322
0x499400
0x4994C0
0x499511
0x499B4A
0x49A284
0x49B1E1
0x49B611
0x49B747
0x49B8F7
0x49BB52
0x49BBE0
0x49BC11
0x49C36A
0x49C3BB
0x49C3E1
0x49C7D2
0x49C98D
0x49D93A
0x49D9D0
0x49D9E8
0x49DA00
0x49EC21
0x49EEF9
0x49F0F0
0x49F0F2
0x49F0F4
0x49F190
0x49F290
0x49F491
0x49FC30
0x4A053D
0x4A0588
0x4A0710
0x4A0770
0x4A08FC
0x4A0A0E
0x4A0C09
0x4A0CD0
0x4A0D0B
0x4A10D4
0x4A1368
0x4A1401
0x4A1FF9
0x4A21A4
0x4A36C6
0x4A38E1
0x4A3999
0x4A39A6
0x4A3A90
0x4A3A94
0x4A3B31
0x4A3B3A
0x4A3D81
0x4A3E90
0x4A3F90
0x4A41C0
0x4A4210
0x4A425B
0x4A4290
0x4A4481
0x4A4500
0x4A4678
0x4A46D8
0x4A4800
0x4A4900
0x4A49A0
0x4A49F1
0x4A49F3
0x4A4A60
0x4A4B31
0x4A4BB0
0x4A4D38
0x4A4D98
0x4A4F00
0x4A4F50
0x4A4FA1
0x4A569B
0x4A56F6
0x4A592E
0x4A5F41
0x4A61C1
0x4A6871
0x4A6D21
0x4A6FA1
0x4A7611
0x4A8519
0x4A8769
0x4A9187
0x4A93AC
0x4A95D9
0x4AB543
0x4AB586
0x4AB75C
0x4ACA9C
0x4ACACA
0x4ACAE0
0x4ACD61
0x4B2121
0x4B43F0
0x4B4501
0x4B450A
0x4B46D8
0x4B4712
0x4B4860
0x4B4A01
0x4B4B60
0x4B4B68
0x4B4E00
0x4B4E61
0x4B519B
0x4B51AD
0x4B51BF
0x4B5481
0x4B5684
0x4B56D0
0x4B57A1
0x4B5A70
0x4B5A72
0x4B5A74
0x4B5AF0
0x4B5B40
0x4B5E57
0x4B5F06
0x4B5F90
0x4B5FE0
0x4B60A1
0x4B6124
0x4B612C
0x4B61DD
0x4B6287
0x4B6479
0x4B6561
0x4B65AD
0x4B65C2
0x4B689C
0x4B6B77
0x4B6BE2
0x4B6F71
0x4B7190
0x4B74C0
0x4B7510
0x4B755B
0x4B7591
0x4B75EC
0x4B7914
0x4B7D40
0x4B7D42
0x4B7D44
0x4B7E01
0x4B7EE4
0x4B80B4
0x4B8311
0x4B84C1
0x4B8B29
0x4B8BEE
0x4B9A72
0x4BAB30
0x4BAB37
0x4BAC1A
0x4BAEC1
0x4BB411
0x4BB417
0x4BB6FE
0x4BBA30
0x4BBA81
0x4BBADA
0x4BBC50
0x4BBC77
0x4BC251
0x4BC2B6
0x4BC39E
0x4BC54D
0x4BC5B1
0x4BC670
0x4BCAB1
0x4BCB72
0x4BCBEB
0x4BCD16
0x4BCF21
0x4BD481
0x4BD7F2
0x4BD811
0x4BDE20
0x4BE1F1
0x4BED55
0x4BF3C1
0x4BF3CA
0x4BF3EC
0x4BF541
0x4BF991
0x4BFD4C
0x4C005E
0x4C0B31
0x4C0B3A
0x4C1011
0x4C11D0
0x4C1250
0x4C12D0
0x4C1370
0x4C1710
0x4C1870
0x4C1BA1
0x4C2043
0x4C212D
0x4C2219
0x4C2501
0x4C25D0
0x4C2781
0x4C27E9
0x4C486A
0x4C5668
0x4C770F
0x4C7992
0x4C81FA
0x4C8EC5
0x4C96A0
0x4C97CF
0x4C9908
0x4CAF25
0x4CB531
0x4CC0A8
0x4CC32B
0x4CD76F
0x4CEF08
0x4CF206
0x4CF332
0x4D044E
0x4D10F2
0x4D19E6
0x4D2AA3
0x4D2BFF
0x4D2CC9
0x4D2F5C
0x4D4357
0x4D44D0
0x4D49A1
0x4D4A06
0x4D4B14
0x4D4C11
0x4D4CCC
0x4D4DD1
0x4D4ED1
0x4D4F63
0x4D5202
0x4D5372
0x4D5B75
0x4D5C58
0x4D5D3B
0x4D5E1D
0x4D678B
0x4D686E
0x4D6951
0x4D6A33
0x4D6EFA
0x4D72A3
0x4D7643
0x4D7F2C
0x4D7F4D
0x4D7FEC
0x4D800D
0x4D80AC
0x4D80CD
0x4D81CC
0x4D81ED
0x4D828C
0x4D82AD
0x4D834C
0x4D836D
0x4D8977
0x4D8A59
0x4D8B3B
0x4D8E0D
0x4D9A8B
0x4D9B6E
0x4D9C51
0x4D9D3C
0x4D9E2F
0x4DA1DF
0x4DA337
0x4DA392
0x4DA484
0x4DA4E3
0x4DA5D5
0x4DA634
0x4DA6D7
0x4DA706
0x4DA774
0x4DA79C
0x4DA80A
0x4DA832
0x4DA89F
0x4DA8C7
0x4DA97D
0x4DA9AF
0x4DAA1E
0x4DAA4E
0x4DAAB8
0x4DAAE7
0x4DAB52
0x4DAB81
0x4DAD8D
0x4DB075
0x4DB3CC
0x4DB3ED
0x4DB48C
0x4DB4AD
0x4DB54C
0x4DB56D
0x4DB67C
0x4DB69D
0x4DB73C
0x4DB75D
0x4DB7FC
0x4DB81D
0x4DBE51
0x4DBF33
0x4DC014
0x4DC25B
0x4DC4F3
0x4DC522
0x4DC590
0x4DC5B8
0x4DC626
0x4DC64E
0x4DC6BB
0x4DC6E3
0x4DCEAA
0x4DCF93
0x4DD4E6
0x4DD598
0x4DD7E0
0x4DDB9A
0x4DE128
0x4DE8C3
0x4DE9A5
0x4DEA87
0x4DEB70
0x4DEEC8
0x4DEFB2
0x4DFCF9
0x4DFDB0
0x4DFF0E
0x4E01D3
0x4E0478
0x4E0754
0x4E08BF
0x4E0966
0x4E0C8D
0x4E0FA0
0x4E121D
0x4E1679
0x4E1D12
0x4E1D1C
0x4E200D
0x4E2276
0x4E2344
0x4E235A
0x4E2AFE
0x4E2C68
0x4E3858
0x4E3A80
0x4E3DD1
0x4E4300
0x4E4370
0x4E4391
0x4E4721
0x4E48C0
0x4E4AB0
0x4E4CC1
0x4E50F0
0x4E5100
0x4E5141
0x4E518B
0x4E51C1
0x4E5410
0x4E5660
0x4E56F0
0x4E5731
0x4E5C20
0x4E5C91
0x4E6B51
0x4E8240
0x4E82D1
0x4E8861
0x4E8922
0x4E8EB1
0x4E9421
0x4E9AF4
0x4E9C34
0x4E9FA4
0x4EA1D1
0x4EA55B
0x4EA9D4
0x4EAD14
0x4EAF21
0x4EB451
0x4EBFFC
0x4EC4E1
0x4EC548
0x4ECA50
0x4ECA58
0x4ECCB6
0x4ECEE1
0x4ECEE3
0x4ED1F0
0x4ED1F2
0x4ED1F4
0x4ED239
0x4ED258
0x4ED26F
0x4ED286
0x4ED29D
0x4ED391
0x4ED5E0
0x4ED700
0x4ED703
0x4ED890
0x4ED892
0x4ED91C
0x4EDA86
0x4EDAA0
0x4EDB1E
0x4EDF11
0x4EDF8A
0x4EE445
0x4EE520
0x4EE736
0x4EE9E0
0x4EECA1
0x4F069C
0x4F06A5
0x4F0B38
0x4F0C45
0x4F0CB9
0x4F0F13
0x4F1141
0x4F1197
0x4F11C5
0x4F17AD
0x4F184B
0x4F18B1
0x4F1BAD
0x4F1C3E
0x4F1C9E
0x4F2487
0x4F2700
0x4F2702
0x4F2770
0x4F27A0
0x4F27A2
0x4F2800
0x4F2850
0x4F29B0
0x4F2A21
0x4F2B6F
0x4F358C
0x4F36C1
0x4F3782
0x4F3D08
0x4F4101
0x4F48F1
0x4F4E01
0x4F5074
0x4F5D83
0x4F5EC0
0x4F5EE1
0x4F5F24
0x4F63F1
0x4F6664
0x4F79D0
0x4F7C41
0x4F81A6
0x4F81C1
0x4F81CA
0x4F8891
0x4F8A61
0x4F8A6A
0x4F8DA1
0x4F8FB0
0x4F90C1
0x4F91F0
0x4F9333
0x4F9510
0x4F95F0
0x4F9710
0x4F98B1
0x4F99D1
0x4F99F3
0x4F9D70
0x4F9DB0
0x4F9F50
0x4FA071
0x4FA250
0x4FA2C1
0x4FA460
0x4FA511
0x4FAAC1
0x4FAB1B
0x4FADF3
0x4FBD21
0x4FBD2A
0x4FC07D
0x4FC351
0x4FCA00
0x4FCAE1
0x4FCBC1
0x4FCE51
0x4FD251
0x4FD4A1
0x4FE061
0x4FF527
0x4FFD61
0x500361
0x500482
0x500596
0x500B41
0x500BF7
0x500E24
0x500EFA
0x501685
0x502EED
0x50307D
0x5031C0
0x503420
0x50343A
0x503460
0x503571
0x503830
0x503880
0x5038D1
0x503941
0x503C81
0x503D40
0x503D90
0x503E10
0x503E91
0x503E93
0x503FC0
0x504091
0x504211
0x504291
0x504829
0x5056D5
0x506DD0
0x506DF4
0x507070
0x507100
0x507140
0x5073E1
0x5075B0
0x5077A1
0x507AA0
0x507D70
0x507EA0
0x507F90
0x5080B0
0x5080F0
0x5083E1
0x508790
0x508830
0x508A01
0x508B61
0x508DA1
0x508F71
0x509029
0x50912B
0x5095B0
0x5096A1
0x509861
0x5098E9
0x509A43
0x509F21
0x50A243
0x50A261
0x50A691
0x50A830
0x50A881
0x50AB37
0x50AC9D
0x50AFF0
0x50B091
0x50B0E8
0x50B1D3
0x50B2A0
0x50B350
0x50B381
0x50B3CE
0x50B597
0x50BCF3
0x50BD21
0x50C703
0x50C721
0x50CA5E
0x50CCEA
0x50D1C3
0x50D1E1
0x50D823
0x50D8F6
0x50D9E1
0x50DCE1
0x50DE28
0x50E19B
0x50E467
0x50E630
0x50E711
0x50EDF1
0x50EED3
0x50EF94
0x50F101
0x50F1AE
0x50F3E1
0x50F4AB
0x50F681
0x50F6FF
0x50FA71
0x50FBC7
0x50FDF8
0x50FFC1
0x50FFCA
0x5105F1
0x5109D2
0x510B11
0x510C09
0x510C37
0x511090
0x511161
0x5113D0
0x5114B1
0x5114BA
0x51161B
0x511634
0x5116A2
0x511725
0x511740
0x5117E1
0x511990
0x511AD1
0x512321
0x512451
0x512560
0x512661
0x51266A
0x5126B5
0x512911
0x512EC0
0x513040
0x513170
0x513173
0x513181
0x5131E3
0x513410
0x5134C1
0x513531
0x51381D
0x513830
0x513842
0x513DB1
0x513EF0
0x513EF2
0x514005
0x51405E
0x514081
0x5142CB
0x514489
0x514492
0x5144E1
0x514700
0x514950
0x514976
0x514A0D
0x514AB1
0x514B0F
0x514BFC
0x514C85
0x514CB1
0x514CCD
0x514D7A
0x514D94
0x514DAE
0x514DD0
0x514DDD
0x514DF7
0x515130
0x515571
0x515901
0x515AD0
0x515AD3
0x515B31
0x515D90
0x515EA1
0x5160D0
0x516130
0x5161C1
0x516331
0x51633A
0x516580
0x5165C1
0x516890
0x5168E3
0x516923
0x516924
0x516BA1
0x516EA0
0x516EE0
0x517010
0x5170B0
0x5170F1
0x5170FA
0x5172C0
0x517370
0x5173B0
0x5173E1
0x5173EA
0x519371
0x519685
0x519AE1
0x519B57
0x519F31
0x51A051
0x51A381
0x51A3FF
0x51A741
0x51A74A
0x51A75F
0x51AC51
0x51AD11
0x51ADF1
0x51AE61
0x51AF12
0x51B515
0x51D678
0x51EFA0
0x51F209
0x51F7FC
0x51FA09
0x51FDE9
0x520700
0x5208C5
0x52101C
0x521105
0x5211EE
0x5212D7
0x52149B
0x521959
0x5224F7
0x5225E0
0x5226C9
0x5227B2
0x522E28
0x522F11
0x523E81
0x523F6A
0x524053
0x52413C
0x524225
0x52437B
0x524464
0x52454D
0x524719
0x524E05
0x524EEE
0x525C3D
0x525E09
0x525EF2
0x5260BE
0x5261A7
0x526290
0x527293
0x527911
0x5279FE
0x527AEB
0x527BD8
0x527CC5
0x529245
0x529789
0x529876
0x529963
0x529A50
0x529B3D
0x529DF8
0x529EE5
0x52A1A0
0x52A28D
0x52AEA0
0x52AF92
0x52BABD
0x52BD87
0x52BE79
0x52C057
0x52C149
0x52C23B
0x52C32D
0x52C41F
0x52C8E5
0x52D37F
0x52D471
0x52D562
0x52D654
0x52D746
0x52D838
0x52D92A
0x52EB84
0x52EDB5
0x52F54D
0x52F72B
0x52F909
0x52F9FB
0x52FAED
0x530807
0x530D80
0x53183E
0x531930
0x531A22
0x531C00
0x531CF2
0x531DE4
0x531FC2
0x5320B4
0x532F28
0x533A68
0x533C3E
0x533F08
0x5341EB
0x5347B6
0x53541C
0x5355FA
0x5363F0
0x536BF2
0x536CE4
0x536E44
0x536F36
0x5375D1
0x5380E7
0x538396
0x538488
0x5390F2
0x5391E4
0x53957A
0x53966C
0x539EBC
0x53A2C0
0x53B067
0x53B5CD
0x53B6BF
0x53B7B1
0x53B8A3
0x53BF43
0x53C035
0x53C127
0x53C523
0x53CA03
0x53D7AB
0x53DE4B
0x53E81D
0x53F027
0x53F11E
0x53F499
0x53F913
0x53FAE9
0x540047
0x540301
0x540990
0x540CF0
0x540EE0
0x541230
0x541520
0x541528
0x541830
0x541B40
0x541BE0
0x541C04
0x541C70
0x541C72
0x541D10
0x541D90
0x541DE1
0x542120
0x542140
0x542230
0x542290
0x5422E0
0x5423AC
0x5423CF
0x5423EE
0x542403
0x542480
0x542520
0x542580
0x5425D0
0x542630
0x542690
0x542740
0x542790
0x5427E0
0x542830
0x542880
0x5428D0
0x542930
0x5429E0
0x542CD0
0x542D20
0x542D70
0x542DC0
0x542E10
0x542E70
0x542EC0
0x542F10
0x542F60
0x542FB0
0x543000
0x543060
0x5430B0
0x543100
0x543151
0x543D00
0x543E00
0x543E60
0x544200
0x544310
0x544500
0x5445A0
0x5446B0
0x5447C1
0x5447C3
0x5449D0
0x544CB0
0x5450B0
0x545100
0x545160
0x545162
0x545200
0x545202
0x5452A0
0x545300
0x545361
0x545363
0x5455B0
0x545600
0x5457B0
0x545960
0x5459D0
0x545A30
0x545AC0
0x545C10
0x545C12
0x546000
0x5460D0
0x5460D3
0x546170
0x546241
0x546243
0x5465F0
0x5469C1
0x5469C3
0x546AF9
0x546C11
0x546ED0
0x547130
0x547200
0x547590
0x547620
0x5476B0
0x547821
0x547CB9
0x547D52
0x5483B0
0x548410
0x548470
0x5484D0
0x548550
0x548870
0x548A31
0x548B00
0x548CC1
0x548D91
0x548F81
0x549051
0x549141
0x549143
0x54940D
0x549440
0x549761
0x549803
0x549950
0x549B11
0x549B5D
0x549CF0
0x549DC1
0x54A0F1
0x54A1B0
0x54A2D1
0x54A2D3
0x54A451
0x54A641
0x54A781
0x54A871
0x54A961
0x54ABB3
0x54ABD1
0x54AC28
0x54ACB1
0x54AE61
0x54B010
0x54B200
0x54B295
0x54B3A1
0x54B481
0x54B660
0x54B997
0x54BAE6
0x54BB51
0x54BC41
0x54BD41
0x54BED1
0x54BFAD
0x54C1D1
0x54C321
0x54C3F1
0x54C680
0x54C840
0x54C8F0
0x54C980
0x54CB70
0x54CC21
0x54CE11
0x54CF12
0x54CF23
0x54D021
0x54D0D1
0x54D181
0x54D230
0x54D2C1
0x54D3C0
0x54D7C1
0x54D9A0
0x54DA30
0x54DAC0
0x54DB50
0x54DC71
0x54DDB0
0x54E251
0x54E331
0x54E383
0x54E3DD
0x54E470
0x54E511
0x54E5C0
0x54E6F1
0x54E840
0x54E9C0
0x54EAE0
0x54EB71
0x54ECB0
0x54ECF0
0x54ED91
0x54EF90
0x54F191
0x54F510
0x54F5E1
0x54F9C1
0x54FC41
0x54FD20
0x54FFC1
0x550371
0x550480
0x5504E0
0x5505F1
0x5506A1
0x5507C1
0x5508D1
0x550CD1
0x550DD1
0x550ED1
0x550FD1
0x5510D1
0x5511F0
0x5512F1
0x551401
0x551751
0x551831
0x551B81
0x551C51
0x551E00
0x552410
0x552770
0x552D70
0x553180
0x553721
0x5537F0
0x553890
0x5539F0
0x553D90
0x553F31
0x554020
0x5541E1
0x5541E3
0x5544A0
0x554570
0x5546D0
0x554831
0x554911
0x554AC1
0x554B91
0x554C70
0x554F60
0x555131
0x555201
0x555203
0x555380
0x555B11
0x555C00
0x555CD1
0x555D73
0x555E00
0x555F30
0x555FD9
0x556051
0x556230
0x5562E0
0x5564B0
0x556560
0x5565A0
0x556720
0x556760
0x5567F0
0x556850
0x556891
0x556A51
0x556C10
0x556C50
0x556CC0
0x556D20
0x556E10
0x5570C1
0x5575D2
0x5575E1
0x557642
0x557701
0x5578C8
0x557A5E
0x557F1B
0x558420
0x558572
0x5588C3
0x558970
0x558FA4
0x558FEA
0x55AC2D
0x55D321
0x55DA14
0x55E426
0x55E910
0x55E918
0x55E9E0
0x55EB01
0x55EEE9
0x55F06D
0x55F716
0x56068A
0x56087A
0x5608A5
0x5619F5
0x562C1C
0x563357
0x563F47
0x56415B
0x5649FE
0x564B14
0x564C1B
0x564C25
0x564D36
0x564F40
0x564F4A
0x56557E
0x5656F8
0x5664C1
0x5665D2
0x5666E3
0x5667F4
0x566F32
0x567048
0x56820E
0x568309
0x568324
0x56843A
0x568550
0x5686CF
0x5687E5
0x5688FB
0x568B06
0x568B21
0x568C37
0x56A296
0x56A3AC
0x56A5D2
0x56C28E
0x56C3A4
0x56C4BA
0x56C5D0
0x56C6E6
0x56C7FC
0x56CC42
0x56CD58
0x56D215
0x56DA20
0x56EA78
0x56EC9E
0x56EDB4
0x56EECA
0x56F0F0
0x56F316
0x56F53C
0x56F652
0x570344
0x57045A
0x570570
0x570DB4
0x5710D6
0x5712FC
0x571412
0x571638
0x57174E
0x571864
0x57197A
0x57338C
0x5734A2
0x5735B8
0x5736CE
0x5737E4
0x5748B4
0x574A34
0x5755BA
0x5757DE
0x5758F3
0x575A08
0x575B1D
0x5767E7
0x576DD8
0x57713E
0x577167
0x577D0B
0x577E27
0x577F43
0x578175
0x578291
0x5783AD
0x578537
0x578D97
0x57975F
0x57998B
0x57A72F
0x57B00D
0x57B129
0x57BCDF
0x57BDFA
0x57C6BA
0x57C7CC
0x57C7D6
0x57D2EA
0x57DCB7
0x57DEE8
0x57E004
0x57E120
0x57E768
0x57EF22
0x57F03E
0x57F876
0x57FADA
0x57FE89
0x5802A1
0x5803BD
0x580B55
0x5811CA
0x581EFA
0x582016
0x5824E0
0x582996
0x582AB2
0x583852
0x583F0A
0x5840F6
0x58440A
0x584634
0x584C42
0x585250
0x58536C
0x5859E2
0x585DFA
0x5867B6
0x586C80
0x586FE1
0x587098
0x5871A1
0x5889C0
0x588A20
0x588BC0
0x588C80
0x588CF0
0x588E80
0x589080
0x589140
0x589190
0x5891E0
0x589250
0x5892A0
0x589310
0x589360
0x5893D0
0x589450
0x589560
0x5895A0
0x5895F0
0x5896DC
0x5896FF
0x58971E
0x589733
0x5897B0
0x5897F0
0x589830
0x589880
0x5898F0
0x5899E0
0x589A20
0x589A70
0x589B40
0x589B90
0x589DB0
0x589E00
0x589E70
0x589EC0
0x589F30
0x58A010
0x58A0F0
0x58A310
0x58A3F0
0x58A450
0x58A530
0x58A630
0x58A770
0x58A8E0
0x58A9C0
0x58AC30
0x58ACD0
0x58AD20
0x58AD60
0x58ADB0
0x58AE00
0x58AE50
0x58AEA0
0x58AF00
0x58AFC1
0x58B05B
0x58B190
0x58B2A1
0x58B33B
0x58B521
0x58B5BB
0x58B6F0
0x58B730
0x58B7F1
0x58B87F
0x58B9C0
0x58BA11
0x58BAC0
0x58BB40
0x58BC00
0x58BDE0
0x58BE70
0x58BEF0
0x58BF51
0x58C020
0x58C571
0x58C631
0x58C721
0x58C890
0x58C940
0x58C948
0x58CA70
0x58CAD0
0x58CB40
0x58CB43
0x58CBD0
0x58CCD0
0x58CCD2
0x58CCD4
0x58CD90
0x58CEA0
0x58CF30
0x58D100
0x58D1A0
0x58D1E0
0x58D1E8
0x58D420
0x58D471
0x58D4D5
0x58D730
0x58D96C
0x58D98F
0x58D9AE
0x58D9C3
0x58DA40
0x58DA80
0x58DAC0
0x58DD90
0x58DFE0
0x58E030
0x58E080
0x58E0D0
0x58E350
0x58E420
0x58E42D
0x58E500
0x58E520
0x58E53B
0x58E760
0x58E762
0x58E841
0x58EA4A
0x58F330
0x58F400
0x58F470
0x58F4C0
0x58F511
0x58F581
0x58F622
0x58FA60
0x58FAB0
0x58FB00
0x58FB02
0x58FB04
0x58FBF0
0x58FCA0
0x58FE50
0x58FEA0
0x58FEF1
0x58FFE8
0x59000A
0x590061
0x590140
0x590190
0x5901D0
0x590320
0x590370
0x5903F1
0x590460
0x5904C0
0x590500
0x590560
0x5905C0
0x590600
0x590620
0x590690
0x590A61
0x5915B8
0x592390
0x5924D0
0x592581
0x592601
0x592671
0x5926E1
0x5928E4
0x593081
0x5931A2
0x593253
0x5933B7
0x5933E3
0x593410
0x593420
0x593480
0x593482
0x593511
0x5935A0
0x5935F1
0x593650
0x5936B1
0x593967
0x593AE2
0x593E60
0x593F30
0x593FE1
0x594340
0x594390
0x594471
0x594473
0x594540
0x594581
0x5946D0
0x5947C0
0x5947E0
0x594851
0x594A11
0x5951D0
0x595221
0x5953C0
0x5954A0
0x595510
0x598620
0x59D49A
0x59DCEE
0x5C0860
0x5C34C8
0x5C49BD
0x5C4AB5
0x5D70C8
