0x402640
0x40279E
0x402CE5
0x402D34
0x402D9A
0x402DB1
0x403061
0x4033B0
0x403571
0x4036F1
0x403911
0x403B0E
0x403C00
0x403CB1
0x403ED0
0x403ED8
0x4040D0
0x4040D8
0x4042F1
0x4045A0
0x4045A4
0x4047B1
0x4047B3
0x404931
0x404C90
0x404CB6
0x404D56
0x404EF0
0x404F01
0x4050C1
0x40511D
0x405881
0x40588A
0x405AE1
0x405D50
0x405DB1
0x405DDC
0x406110
0x406112
0x4061F1
0x4064F0
0x406670
0x406731
0x406830
0x406930
0x406AE0
0x406DC0
0x406EF0
0x406F11
0x406FEC
0x407240
0x407271
0x407300
0x4073C1
0x4075C1
0x4076C0
0x4077D0
0x4078E1
0x407BC1
0x407C96
0x407F11
0x4080B5
0x408450
0x4085A0
0x4088D0
0x4088F2
0x408990
0x408A30
0x408A32
0x408A91
0x408AE4
0x408D91
0x408E81
0x409011
0x409120
0x4091CE
0x4094D1
0x4094D3
0x4094D6
0x409630
0x4097B0
0x409860
0x409901
0x409A31
0x409A66
0x409AE0
0x409BB0
0x409BF0
0x409CB0
0x409DA0
0x409F21
0x40A301
0x40A4BC
0x40A8B1
0x40A941
0x40AFA0
0x40AFC0
0x40B211
0x40B390
0x40B401
0x40BB7B
0x40BBD0
0x40BC40
0x40BCB1
0x40BDC1
0x40BDEE
0x40BF11
0x40BF8F
0x40C220
0x40C235
0x40C2A1
0x40C7F1
0x40CB01
0x40CB63
0x40CE31
0x40D191
0x40D451
0x40D5F1
0x40D7A0
0x40D7B0
0x40D850
0x40D921
0x40DB81
0x40DDB1
0x40DEC1
0x40E021
0x40E331
0x40E441
0x40E6F1
0x40ECF1
0x40F141
0x40F501
0x40F592
0x40F59E
0x40F5C1
0x40F60E
0x40F777
0x40F795
0x40F7BF
0x40FED1
0x4103C1
0x410781
0x410F20
0x410F24
0x4110C1
0x4110CA
0x411301
0x411538
0x4115A7
0x411616
0x411685
0x411751
0x411881
0x411A01
0x411A21
0x412031
0x4121F1
0x4125A0
0x4128B1
0x412B31
0x412F80
0x412F82
0x412FC1
0x4130C1
0x4132A1
0x413481
0x4136C0
0x413881
0x4144C1
0x414951
0x414BB1
0x414CF1
0x414E01
0x415001
0x415140
0x4151D0
0x4151D2
0x415401
0x4156C0
0x415751
0x415811
0x415A10
0x415C40
0x415C80
0x415CB1
0x4160FA
0x4163A1
0x4164CD
0x4166A1
0x416711
0x416CE0
0x416CF1
0x416DC6
0x417121
0x4175E1
0x417831
0x417971
0x417D41
0x417D4A
0x41A3D0
0x41A470
0x41A4A1
0x41A571
0x41A662
0x41A731
0x41A811
0x41A980
0x41AAA1
0x41AB68
0x41AD11
0x41AF20
0x41B021
0x41B191
0x41B280
0x41B500
0x41B6E1
0x41B710
0x41B7E1
0x41BC21
0x41BFB8
0x41C071
0x41C093
0x41C580
0x41C5C0
0x41C5F0
0x41C631
0x41C721
0x41C7D1
0x41C820
0x41C8D1
0x41CA61
0x41CA6A
0x41CD41
0x41CDBD
0x41D011
0x41D261
0x41D29E
0x41D4BA
0x41D71C
0x41D85C
0x41D971
0x41DB20
0x41DD70
