0x402C60
0x402DFE
0x403B90
0x403BC0
0x403E12
0x403EE5
0x403F34
0x403F9A
0x403FB0
0x403FBE
0x404250
0x404252
0x404540
0x404570
0x404600
0x404616
0x4047D0
0x404860
0x404948
0x404A00
0x404B0A
0x404B62
0x404B66
0x404E3D
0x405093
0x405144
0x4052F1
0x405318
0x405370
0x405513
0x4056F0
0x40570A
0x405995
0x405B40
0x406141
0x4062F2
0x40637C
0x406590
0x4065E0
0x4065FD
0x406601
0x4068F0
0x406E60
0x407570
0x4079A6
0x407C0E
0x407CCA
0x409840
0x409FB0
0x40B010
0x40B980
0x40B9D0
0x40BB40
0x40BC80
0x40C8F7
0x40DF30
0x40E7A0
0x40E7C0
0x40E7C6
0x40EA90
0x40EA9C
0x40EEE0
0x40EEE8
0x40F040
0x40F048
0x40F1A0
0x40F1A2
0x40F6E4
0x40F78E
0x40FCD9
0x40FD9E
0x410C9A
0x410D4A
0x411EC0
0x412192
0x4123E8
0x412499
0x41373C
0x413C96
0x413D56
0x4163E0
0x417DD0
0x417E30
0x417E38
0x4182E0
0x418451
0x418800
0x418803
0x418814
0x418910
0x418912
0x418DF0
0x418EE0
0x419137
0x419393
0x41944B
0x419873
0x419ACA
0x419D26
0x419DDE
0x41B030
0x41B150
0x41B540
0x41B549
0x41B636
0x41B750
0x41B759
0x41B761
0x41BFA0
0x41BFE0
0x41C120
0x41C250
0x41C315
0x41C610
0x41C770
0x41CB03
0x41CB06
0x41CB20
0x41CC10
0x41D13C
0x41D230
0x41D232
0x41D242
0x41D500
0x41D502
0x41D511
0x41DAB3
0x41DAB6
0x41DABD
0x41DBE0
0x41DBF1
0x41DE20
0x41DE22
0x41E06D
0x41E160
0x41E350
0x41E550
0x41E553
0x41E7A0
0x41EAD0
0x41EAD2
0x41EB3F
0x41F1F0
0x41F730
0x41FD30
0x4208E0
0x4208E3
0x420901
0x420B90
0x420DB0
0x4213B0
0x42159B
0x421920
0x421C83
0x421F45
0x422020
0x422029
0x42202C
0x42244C
0x422890
0x422A30
0x422C10
0x422C19
0x422E30
0x422E64
0x4236D1
0x423820
0x423840
0x423842
0x423843
0x423853
0x4239B2
0x423D43
0x423E6D
0x423F10
0x423FF0
0x424050
0x4242B0
0x4242B3
0x424453
0x42445D
0x4245AA
0x424610
0x424792
0x424830
0x424AF0
0x424B20
0x424B80
0x424DC4
0x424F60
0x424F62
0x4253E1
0x4253E7
0x425469
0x425472
0x425920
0x425977
0x4259D7
0x425AAD
0x425E80
0x426010
0x426034
0x426580
0x426582
0x426591
0x4276FC
0x427D50
0x4290E0
0x4290EC
0x4291F0
0x4291F2
0x4291F3
0x429420
0x429422
0x429423
0x429429
0x429610
0x429775
0x42987E
0x429AB0
0x42A0C5
0x42BCB2
0x42BED0
0x42C38B
0x42C430
0x42CAEF
0x42CBA7
0x42E22E
0x42E2DF
0x42F346
0x42F3FB
0x42F70A
0x42FDC5
0x42FF21
0x42FF41
0x430021
0x430079
0x430081
0x4303CA
0x4303D3
0x430490
0x430510
0x430570
0x430600
0x430604
0x430606
0x430650
0x430850
0x430D92
0x430F30
0x430FB0
0x431033
0x431044
0x4311D0
0x432659
0x432662
0x432A60
0x432A6A
0x432F4C
0x433020
0x433024
0x433217
0x433245
0x43345F
0x433580
0x433582
0x43358F
0x43465D
0x435AFD
0x435F30
0x435F43
0x436324
0x4363E4
0x4364E0
0x4364FC
0x436544
0x436663
0x436980
0x43698B
0x436A38
0x436B91
0x436C61
0x436C67
0x436CA0
0x436CE0
0x436E81
0x436EB0
0x4371B4
0x4372B0
0x437450
0x437D00
0x437FB0
0x438240
0x438248
0x4383B2
0x438483
0x438639
0x43877C
0x438844
0x438C40
0x438C4A
0x438E63
0x438FCC
0x439108
0x43910D
0x439158
0x4391D0
0x4392CD
0x43940E
0x439442
0x439477
0x4395EC
0x43973C
0x4397EA
0x439890
0x439963
0x439AE3
0x439AF2
0x439B0E
0x439BE0
