0x438
0xFDF
0x53D6
0x7452
0x7738
0x87EB
0x8D47
0x25B43
0x25C1A
0x30254
0x30266
0x30274
0x30286
0x31CFC
0x31D10
0x31D20
0x31D34
0x7700E
0x7704E
0x77059
0x770A1
0x770F4
0x77193
0x77195
0x77199
0x774A8
0x775E8
0x776B6
0x778A0
0x778A3
0x77CF0
0x77CF3
0x77D09
0x78160
0x783E0
0x78560
0x78562
0x78566
0x789E5
0x789E7
0x78DC5
0x78DC7
0x79185
0x79189
0x7918B
0x791E1
0x793C1
0x79420
0x79484
0x794E8
0x7954E
0x795AD
0x7960D
0x7966C
0x798A5
0x798A9
0x798AB
0x7990B
0x79B61
0x79BC4
0x79C2C
0x79C94
0x79CFE
0x79D5D
0x79DBD
0x79E1C
0x7A107
0x7A10D
0x7B287
0x7B28D
0x7CD0A
0x7CD0E
0x7CD10
0x7CD7B
0x7DD0A
0x7DD0E
0x7DD10
0x7DD7B
0x7EE4A
0x7EE4E
0x7EE50
0x7EEE9
0x82714
0x82DA9
0x82E84
0x83666
0x8366A
0x83C66
0x83C6A
0x83D2B
0x84BF0
0x84C60
0x855CE
0x859A0
0x859C0
0x85A00
0x85A30
0x85CDF
0x85E55
0x85E57
0x85E59
0x85FF7
0x86480
0x86483
0x86790
0x87170
0x8740B
0x87412
0x87590
0x87592
0x87596
0x87770
0x87789
0x878DA
0x87910
0x87970
0x87972
0x87976
0x87D41
0x87D4B
0x87E6B
0x87F80
0x880D2
0x881FD
0x88370
0x883B2
0x884E0
0x88672
0x88D4F
0x88E1A
0x88F62
0x88F96
0x894A2
0x89500
0x89510
0x89542
0x895B0
0x895C0
0x895D0
0x895DF
0x896B0
0x89790
0x897B0
0x898C0
0x899D0
0x89FF0
0x89FF4
0x8A140
0x8A690
0x8A6A0
0x8A817
0x8A865
0x8A910
0x8A978
0x8ACB0
0x8ACD3
0x8AD61
0x8AE30
0x8AE55
0x8AF30
0x8B2C0
0x8B679
0x8B740
0x8B810
0x8B848
0x8B8B9
0x8BA80
0x8BAC4
0x8BD70
0x8BEE2
0x8BF39
0x8C080
0x8C086
0x8C5BA
0x8C710
0x8C760
0x8C780
0x8C784
0x8C8B0
0x8C8B2
0x8CA00
0x8CA16
0x8CC30
0x8CE1B
0x8D158
0x8D2E9
0x8D35C
0x8D3DC
0x8D576
0x8D59C
0x8D6C0
0x8D6C2
0x8D6C6
0x8D6DC
0x8D880
0x8D9BC
0x8D9D6
0x8DB50
0x8DC57
0x8DCC0
0x8DD40
0x8DD45
0x8DD5F
0x8DD70
0x8DDA1
0x8DDA8
0x8DE40
0x8DE90
0x8DED2
0x8E04E
0x8E429
0x8E640
0x8E820
0x8E8B0
0x8EBE0
0x8ECA0
0x8ED80
0x8EEA0
0x8EEEA
0x8F050
0x8F180
0x8F281
0x8F28A
0x8F377
0x8F400
0x8F4F8
0x8F670
0x8F6E0
0x8FD5C
0x900B0
0x90190
0x90576
0x9067C
0x90747
0x90B56
0x90C80
0x90C86
0x90CF6
0x90E0A
0x90E65
0x90EB9
0x90EC1
0x90EC5
0x90EF0
0x90F10
0x90F70
0x91567
0x91CA0
0x91CD0
0x91CE3
0x91D00
0x91D50
0x91D78
0x91D7A
0x91D90
0x91DB8
0x91DBA
0x91DD5
0x91E06
0x91E40
0x91E44
0x9212B
0x92430
0x92916
0x92B6B
0x92ED0
0x92ED6
0x93107
0x931C0
0x93290
0x93300
0x93589
0x93B3D
0x93C50
0x93E90
0x9427F
0x943B0
0x94447
0x9451B
0x94597
0x945D7
0x94610
0x94626
0x946B0
0x948C0
0x94B50
0x94C30
0x94CE0
0x94D95
0x94F90
0x95060
0x953D0
0x953D9
0x95784
0x95786
0x95884
0x95886
0x95950
0x95AE0
0x95AE2
0x95E40
0x95E70
0x96320
0x96322
0x96590
0x968A0
0x96A90
0x96D90
0x96D92
0x96D96
0x971B8
0x971E0
0x97366
0x97590
0x975A0
0x975DC
0x97710
0x97714
0x97718
0x9782A
0x9782D
0x978B4
0x978C2
0x97A00
0x97C20
0x97F30
0x97F32
0x97F33
0x97F6A
0x98052
0x98163
0x98210
0x982D5
0x98618
0x988E2
0x988F5
0x98B60
0x98B80
0x98C05
0x98C8F
0x98D30
0x98E1F
0x98F0A
0x98FFB
0x991EB
0x995A0
0x99627
0x996F5
0x997B9
0x99848
0x999B0
0x99A0E
0x99A5F
0x99AD8
0x99C40
0x99DC0
0x99EE0
0x9A020
0x9A050
0x9A4C0
0x9A5E0
0x9A5F0
0x9AC20
0x9ACD0
0x9AD3D
0x9B080
0x9B209
0x9B470
0x9B4AA
0x9B550
0x9B55B
0x9B8B0
0x9BA50
0x9BA5E
0x9C240
0x9C293
0x9C341
0x9C4D0
0x9C4E1
0x9C500
0x9C510
0x9C520
0x9C530
0x9C550
0x9C587
0x9C620
0x9C640
0x9C7E0
0x9C820
0x9CBB5
0x9CC85
0x9CD24
0x9CD26
0x9CE19
0x9CEA4
0x9CECB
0x9D044
0x9D170
0x9D270
0x9D310
0x9D455
0x9D4D3
0x9D523
0x9D570
0x9D5A0
0x9D5D5
0x9DA2A
0x9DAC7
0x9DAE0
0x9DC25
0x9DF30
0x9DF65
0x9E007
0x9E100
0x9E490
0x9E49F
0x9E744
0x9E8F0
0x9E920
0x9E970
0x9E9B0
0x9EA00
0x9EB05
0x9ED65
0x9EDAA
0x9EE00
0x9EFF0
0x9F090
0x9F093
0x9F415
0x9F460
0x9F463
0x9F830
0x9FD70
0x9FFAE
0x9FFD7
0xA0087
0xA0279
0xA0280
0xA02EC
0xA0339
0xA0480
0xA0512
0xA0885
0xA0975
0xA097A
0xA09E0
0xA0C40
0xA0E0B
0xA0F60
0xA0F90
0xA1206
0xA1369
0xA1379
0xA1548
0xA15B0
0xA15B2
0xA15B6
0xA2100
0xA2132
0xA2520
0xA2D21
0xA32C2
0xA33A9
0xA3470
0xA3530
0xA35C0
0xA3830
0xA39C2
0xA3B22
0xA3B23
0xA3CF0
0xA3D20
0xA3F00
0xA3F16
0xA4110
0xA4126
0xA4298
0xA4460
0xA4690
0xA4750
0xA4839
0xA487B
0xA4979
0xA497B
0xA4A90
0xA51EB
0xA5250
0xA5257
0xA52BD
0xA56A0
0xA5754
0xA57FE
0xA5909
0xA59E5
0xA5A88
0xA5BC0
0xA5BD5
0xA5BDB
0xA5E00
0xA5E15
0xA5E1B
0xA5E70
0xA5EE0
0xA5EE2
0xA5F02
0xA613B
0xA6170
0xA6203
0xA6280
0xA62D2
0xA63D4
0xA63D6
0xA6469
0xA6690
0xA67E2
0xA68A0
0xA6960
0xA6970
0xA6980
0xA69A0
0xA69B0
0xA6A20
0xA6A90
0xA6C60
0xA6D12
0xA6E2A
0xA6E80
0xA7020
0xA716C
0xA717D
0xA7190
0xA71A6
0xA7219
0xA72C5
0xA72F5
0xA7430
0xA74C4
0xA74E0
0xA75A0
0xA76D5
0xA7710
0xA7720
0xA773F
0xA7758
0xA7770
0xA7780
0xA779F
0xA77F0
0xA7810
0xA7860
0xA7910
0xA7914
0xA7E68
0xA7ED8
0xA7F4B
0xA7F76
0xA8028
0xA8380
0xA8519
0xA85F0
0xA85F2
0xA8729
0xA8A00
0xA8A03
0xA8AC0
0xA8EB0
0xA8FC0
0xA8FED
0xA9040
0xA90AD
0xA9100
0xA9166
0xA9180
0xA9183
0xA95F0
0xA9790
0xA99E0
0xA9BC7
0xA9C50
0xA9C55
0xA9CC8
0xA9E92
0xA9FA0
0xAA190
0xAA535
0xAA5FC
0xAA620
0xAA9C0
0xAA9C9
0xAABC8
0xAAC81
0xAAD35
0xAAD50
0xAAF30
0xAAF39
0xAAF60
0xAAFD0
0xAAFD3
0xAB3F6
0xAB440
0xAB450
0xAB6D5
0xAB82D
0xABA80
0xABAC0
0xABBEB
0xABC15
0xABC94
0xABD58
0xABEF0
0xABFE0
0xABFE5
0xAC0A7
0xAC0B0
0xAC0D4
0xAC14A
0xAC171
0xAC225
0xAC240
0xAC380
0xAC382
0xAC3D0
0xADCF7
0xADCFD
0xADDD0
0xADE50
0xADE59
0xADE9E
0xADF59
0xAF257
0xAF320
0xAF390
0xAF3E0
0xAF410
0xAF460
0xAF505
0xAF5F6
0xAF7E0
0xAFCF0
0xB03A0
0xB03B3
0xB0480
0xB0488
0xB048A
0xB05BA
0xB06F5
0xB0833
0xB0840
0xB0860
0xB088B
0xB09F0
0xB0C10
0xB0D90
0xB0D94
0xB0E73
0xB0F87
0xB1010
0xB10E7
0xB10FC
0xB1101
0xB12A9
0xB1440
0xB15D0
0xB15DC
0xB15E3
0xB1A00
0xB1AE0
0xB1B30
0xB1E10
0xB1E19
0xB2220
0xB23E9
0xB2480
0xB2484
0xB2CB2
0xB3260
0xB3269
0xB34A5
0xB3520
0xB3682
0xB38B0
0xB38BC
0xB38C5
0xB3D39
0xB3E00
0xB3E09
0xB4210
0xB4795
0xB49E0
0xB49EF
0xB4E68
0xB51EF
0xB54E0
0xB5890
0xB5892
0xB5938
0xB59D0
0xB5B10
0xB5B50
0xB5B60
0xB5C83
0xB6050
0xB6270
0xB63D7
0xB6940
0xB6A10
0xB6A23
0xB6C75
0xB6CFC
0xB6D13
0xB6F30
0xB6FC0
0xB7090
0xB7160
0xB7230
0xB7369
0xB73D0
0xB7450
0xB745E
0xB7753
0xB77F0
0xB7890
0xB7C62
0xB7CA0
0xB7CD7
0xB7D20
0xB7DA5
0xB7DE7
0xB7E90
0xB7E9C
0xB8210
0xB8212
0xB8216
0xB821D
0xB82F2
0xB8320
0xB8340
0xB8348
0xB8379
0xB83C1
0xB8535
0xB85A5
0xB879A
0xB87A0
0xB87AA
0xB8830
0xB8836
0xB8967
0xB89A0
0xB89AE
0xB8CC0
0xB8CCE
0xB8E62
0xB8EBE
0xB8F60
0xB9031
0xB91F0
0xB9264
0xB9430
0xB95D3
0xB96C2
0xB9750
0xB9950
0xB9AB9
0xB9B25
0xB9B70
0xB9C15
0xB9C60
0xB9C6C
0xB9F50
0xB9F59
0xB9FD0
0xB9FDF
0xBA076
0xBA114
0xBA490
0xBA4A9
0xBA5A0
0xBA5B8
0xBA81E
0xBAAE0
0xBAC25
0xBAF55
0xBB020
0xBB058
0xBB090
0xBB1B3
0xBB350
0xBB3C0
0xBB490
0xBB499
0xBB5A0
0xBB5AF
0xBB850
0xBB85F
0xBBC10
0xBBC1F
0xBBFA0
0xBBFAF
0xBC3B0
0xBC3BF
0xBC650
0xBC6F0
0xBC6F4
0xBC750
0xBC75F
0xBCBA0
0xBCFFD
0xBD20D
0xBD340
0xBD460
0xBD67F
0xBD6A0
0xBD6AA
0xBD8E9
0xBDAD0
0xBDB70
0xBDB7B
0xBDC96
0xBDD06
0xBDD40
0xBE270
0xBE280
0xBE284
0xBE28D
0xBE550
0xBE605
0xBE699
0xBE710
0xBE960
0xBEA1C
0xBEAD2
0xBEADA
0xBEBD0
0xBEDC0
0xBEDD0
0xBEF30
0xBF04B
0xBF04D
0xBF052
0xBF057
0xBF200
0xBF202
0xBF206
0xBF410
0xBF5EC
0xBFABC
0xBFC40
0xBFD55
0xBFD7B
0xBFDAD
0xBFE10
0xBFE20
0xBFE25
0xBFEA3
0xBFEAA
0xC0170
0xC0440
0xC0442
0xC044D
0xC0540
0xC0646
0xC0778
0xC0EB8
0xC1206
0xC120C
0xC23C2
0xC23C6
0xC23C8
0xC2C79
0xC2D02
0xC2D06
0xC2D08
0xC2E22
0xC2E26
0xC2E28
0xC2F7C
0xC33A0
0xC34A2
0xC34A4
0xC34A8
0xC3622
0xC3626
0xC3628
0xC39D2
0xC3B72
0xC3C4F
0xC3D13
0xC3EE0
0xC4453
0xC4570
0xC4610
0xC4619
0xC4BDC
0xC4D42
0xC4D44
0xC4D48
0xC4DC2
0xC4E78
0xC4FBC
0xC4FBE
0xC4FC2
0xC5039
0xC51E8
0xC5505
0xC5507
0xC550B
0xC55AA
0xC5705
0xC5707
0xC570B
0xC590B
0xC5CA8
0xC5CAA
0xC5CAE
0xC5FB4
0xC6193
0xC62FA
0xC6BE0
0xC6BE2
0xC6BE6
0xC6C82
0xC7322
0xC7411
0xC76A6
0xC76A8
0xC76AC
0xC77D2
0xC78A5
0xC78A7
0xC78AB
0xC8165
0xC8167
0xC816B
0xC821C
0xC8819
0xC9040
0xC9160
0xC9185
0xC91F0
0xC92E0
0xC94A2
0xC94A6
0xC978B
0xC9812
0xC9816
0xC9B62
0xC9F8A
0xCA56B
0xCB38C
0xCB392
0xCB561
0xCB720
0xCB770
0xCB790
0xCB7D0
0xCB9B0
0xCBA52
0xCBA59
0xCBDA0
0xCC140
0xCC680
0xCC830
0xCCA4C
0xCCE52
0xCCFD8
0xCCFEC
0xCD3B4
0xCD3EB
0xD010C
0xD0125
0xD01A4
0xD01BD
0xD0236
0xD024E
0xD02CE
0xD02E6
0xD0358
0xD04A8
0xD04AF
0xD1070
0xD1080
0xD10A3
0xD1140
0xD11A0
0xD12FA
0xD1440
0xD1490
0xD14A0
0xD14A5
0xD14EF
0xD14F3
0xD14F7
0xD1595
0xD171D
0xD1721
0xD19A0
0xD19C0
0xD1A0C
0xD1A30
0xD1A3E
0xD1A42
0xD1A4C
0xD1A51
0xD1B20
0xD1C60
0xD1C7D
0xD1D61
0xD1D71
0xD1D81
0xD1D91
0xD1DA1
0xD1DB0
0xD1DD0
0xD1DF0
0xD1E10
0xD1E31
0xD1E90
0xD1EB0
0xD1ED0
0xD1EF0
0xD1F20
0xD1F42
0xD2007
0xD2220
0xD2228
0xD274F
0xD27E6
0xD2920
0xD2970
0xD2A50
0xD2A80
0xD2A9D
0xD2AB0
0xD2AC6
0xD2BEF
0xD2C3F
0xD2C8F
0xD2CC2
0xD2D42
0xD2DC0
0xD3079
0xD3087
0xD30B7
0xD3107
0xD3130
0xD3136
0xD313D
0xD3274
0xD3662
0xD3D00
0xD3F20
0xD3F76
0xD4000
0xD403A
0xD4090
0xD42B1
0xD4390
0xD4392
0xD4396
0xD49A0
0xD49C0
0xD4B00
0xD4CD7
0xD4D05
0xD4D17
0xD4DD7
0xD4E45
0xD4E87
0xD4EBE
0xD4ECD
0xD4FA0
0xD4FA6
0xD5010
0xD5017
0xD5038
0xD5300
0xD5530
0xD55D0
0xD5630
0xD56F0
0xD5700
0xD5800
0xD587C
0xD5B30
0xD5B66
0xD5C90
0xD5CC1
0xD5DB8
0xD5DC3
0xD5EB0
0xD5EB2
0xD6040
0xD60D0
0xD6134
0xD61E4
0xD62E0
0xD631C
0xD6460
0xD64C0
0xD68D0
0xD7080
0xD70E0
0xD70E5
0xD7170
0xD720B
0xD721A
0xD72A0
0xD72DA
0xD73F0
0xD7555
0xD7562
0xD7590
0xD7880
0xD7E16
0xD81F7
0xD82D2
0xD82D4
0xD8450
0xD8570
0xD8577
0xD857B
0xD858A
0xD8A2B
0xD8B76
0xD8BC0
0xD8C10
0xD8C25
0xD8D80
0xD8DD2
0xD8F50
0xD8F52
0xD9040
0xD9042
0xD971F
0xD9760
0xD976E
0xD9A82
0xD9BC0
0xD9C90
0xD9E19
0xD9FD0
0xDA0A0
0xDA220
0xDA22D
0xDA23B
0xDA4C7
0xDA4F7
0xDA540
0xDA610
0xDA620
0xDA640
0xDA680
0xDA6C0
0xDA725
0xDA760
0xDA770
0xDA77C
0xDA782
0xDA7F7
0xDA8B2
0xDA8B4
0xDA900
0xDAA9E
0xDAB38
0xDAB41
0xDAB9D
0xDAD29
0xDAD50
0xDADE0
0xDADF0
0xDAF50
0xDB680
0xDBAF9
0xDC346
0xDC3F0
0xDC3F5
0xDC450
0xDC500
0xDC507
0xDC5B0
0xDC605
0xDC617
0xDC645
0xDC657
0xDC6F6
0xDC766
0xDC767
0xDC7D6
0xDC7D7
0xDC8C4
0xDC9DC
0xDCA30
0xDCA38
0xDCBA8
0xDCC55
0xDCC67
0xDCCE5
0xDCCEA
0xDCD55
0xDCDC0
0xDCE40
0xDCEA0
0xDCEC0
0xDD020
0xDD05D
0xDD0A3
0xDD5C6
0xDD690
0xDD6C0
0xDD6F0
0xDD700
0xDD720
0xDD730
0xDD750
0xDD8E0
0xDD8E8
0xDDB30
0xDDB34
0xDDB36
0xDDC30
0xDDF67
0xDDF70
0xDDF88
0xDE020
0xDE142
0xDE14B
0xDE2B0
0xDE39A
0xDE4B0
0xDE7E0
0xDE835
0xDEAB0
0xDEDE0
0xDEE00
0xDEE8A
0xDEF90
0xDEF94
0xDF226
0xDF581
0xDF790
0xDFA75
0xDFB60
0xDFB65
0xDFBAB
0xDFC00
0xDFC20
0xDFC40
0xDFC60
0xDFCF0
0xDFCF6
0xDFCFB
0xE00A0
0xE0145
0xE01C7
0xE0234
0xE0257
0xE028F
0xE029F
0xE02D6
0xE0356
0xE047F
0xE04C6
0xE0506
0xE0543
0xE05B6
0xE05F6
0xE06A0
0xE06C7
0xE06D0
0xE0717
0xE0730
0xE07C9
0xE0800
0xE09A0
0xE09B2
0xE0AE9
0xE0C35
0xE0CDB
0xE0FD0
0xE1070
0xE107A
0xE1427
0xE1435
0xE14D0
0xE1500
0xE150F
0xE1530
0xE1550
0xE1570
0xE1593
0xE1630
0xE1640
0xE17B0
0xE1902
0xE1BE0
0xE1BF3
0xE1E02
0xE1E06
0xE1E10
0xE22F6
0xE2660
0xE2840
0xE2A3D
0xE2A63
0xE5566
0xE5676
0xE5780
0xE57EF
0xE5AAE
0xE5CA0
0xE5CB0
0xE5CD5
0xE5D21
0xE61F0
0xE62B6
0xE62E0
0xE6370
0xE6570
0xE6579
0xE65F0
0xE6A27
0xE6B9A
0xE6E86
0xE72A0
0xE7460
0xE7469
0xE7610
0xE7A30
0xE7D12
0xE7DBF
0xE81C0
0xE81D2
0xE81D4
0xE84A0
0xE84BD
0xE884B
0xE8AC0
0xE8B40
0xE8F03
0xE907F
0xE9130
0xE91A0
0xE97C0
0xE9880
0xEA3E6
0xEA570
0xEA62A
0xEA7E0
0xEAAB0
0xEABB0
0xEAC60
0xEACC0
0xEACD3
0xEAF70
0xEAF72
0xEB2B0
0xEB2D0
0xEB4F0
0xEB4F2
0xEB4F6
0xEB670
0xEB830
0xEB8A0
0xEBBC0
0xEBC21
0xEBC44
0xEBD00
0xEBD49
0xEBD90
0xEBDA0
0xEBDB0
0xEBDC0
0xEBEA5
0xEBFC0
0xEC070
0xEC0A0
0xEC0B0
0xEC0C0
0xEC0D0
0xEC0F0
0xEC110
0xEC130
0xEC336
0xEC5E0
0xEC630
0xEC638
0xEC63A
0xEC770
0xEC830
0xEC836
0xECAC5
0xECACC
0xECC40
0xECD90
0xECE10
0xECE90
0xECF16
0xED070
0xED073
0xED45F
0xED5E0
0xED8AE
0xEDAE0
0xEDCF5
0xEE070
0xEE075
0xEE0D0
0xEE0E0
0xEE191
0xEE1F0
0xEE1F2
0xEE320
0xEE336
0xEE371
0xEE3E0
0xEE430
0xEED30
0xEED38
0xEED8F
0xEED99
0xEEDE0
0xEEDE9
0xEFA14
0xEFA17
0xEFBB0
0xEFEEA
0xEFEF8
0xEFF30
0xEFF38
0xEFF3A
0xF0132
0xF0137
0xF0146
0xF0162
0xF01F6
0xF0260
0xF0270
0xF0280
0xF0290
0xF0385
0xF03D6
0xF04B0
0xF0590
0xF05A0
0xF05B0
0xF05C0
0xF05E0
0xF0600
0xF0640
0xF0670
0xF06D0
0xF0948
0xF0A50
0xF0A52
0xF0A56
0xF0E90
0xF1200
0xF1241
0xF1340
0xF16FD
0xF1790
0xF1810
0xF1C60
0xF1C6A
0xF1D96
0xF1D99
0xF2130
0xF21E0
0xF2230
0xF24E0
0xF2507
0xF253E
0xF2620
0xF26A1
0xF26D0
0xF29B4
0xF29D8
0xF2A20
0xF2A50
0xF2B80
0xF2C60
0xF2C72
0xF2EC0
0xF2EC2
0xF2F59
0xF2F7B
0xF2F8B
0xF36A0
0xF36A2
0xF3B60
0xF3B70
0xF3DB2
0xF3DB4
0xF3DC0
0xF3E69
0xF3EB1
0xF3EB6
0xF3F10
0xF3F14
0xF4560
0xF4562
0xF4564
0xF46B0
0xF46B2
0xF46B4
0xF48E9
0xF4990
0xF499B
0xF49D9
0xF49FF
0xF4AB0
0xF4AB5
0xF54C2
0xF5540
0xF5546
0xF574B
0xF6660
0xF666A
0xF6838
0xF68D0
0xF68D4
0xF6B40
0xF6B4F
0xF6B56
0xF6DC0
0xF8420
0xF8422
0xF84F4
0xF8BCF
0xF9045
0xF93E6
0xF9480
0xF94B2
0xF95E0
0xF95E2
0xF9958
0xF9A12
0xF9A20
0xF9ADB
0xF9BF6
0xF9C60
0xF9D8F
0xF9E3E
0xF9F1E
0xF9FE0
0xFA1BF
0xFA25F
0xFA400
0xFA5DF
0xFA69F
0xFA760
0xFA7F0
0xFA7F3
0xFA930
0xFA93A
0xFA965
0xFABB0
0xFABB2
0xFABF0
0xFAF30
0xFAF32
0xFB770
0xFB952
0xFBA02
0xFBB00
0xFBF90
0xFBF93
0xFC0D5
0xFC160
0xFC342
0xFC351
0xFC440
0xFC447
0xFC760
0xFC813
0xFC880
0xFC883
0xFC8A0
0xFC8A3
0xFC8D0
0xFC942
0xFCABD
0xFCAE2
0xFCC30
0xFCC83
0xFCD70
0xFCDE0
0xFCDE9
0xFD120
0xFD135
0xFD3A0
0xFD3C9
0xFD470
0xFD472
0xFD478
0xFD48B
0xFD592
0xFD960
0xFDBF0
0xFDBF8
0xFDFF0
0xFDFFA
0xFE30A
0xFE30F
0xFE370
0xFE3D0
0xFE3F0
0xFE450
0xFE470
0xFE4C0
0xFE4F8
0xFE76C
0xFE7D8
0xFE848
0xFE922
0xFEAF0
0xFEDE0
0xFF140
0xFF149
0xFF5E0
0xFF5F9
0xFFBB0
0xFFC00
0xFFE37
0xFFF70
0x100A90
0x100E81
0x100E8A
0x101031
0x10103A
0x10118F
0x1011D7
0x1013C0
0x1013C4
0x1013CA
0x1017B0
0x101810
0x101868
0x101A40
0x101A4B
0x102480
0x102DC0
0x102FE1
0x103090
0x1035C6
0x1035D7
0x103600
0x103602
0x1037E3
0x1039D0
0x1039D5
0x103A30
0x103A50
0x103A60
0x103AB2
0x103B41
0x103B4C
0x103B53
0x103B5A
0x103D00
0x104300
0x104750
0x1047B0
0x1048D3
0x1049BA
0x104B60
0x104BE7
0x104D00
0x104DB3
0x104DB7
0x105050
0x10506C
0x1050B0
0x105150
0x10516C
0x1051B0
0x1051B8
0x10553F
0x10564F
0x105684
0x105732
0x105733
0x10573C
0x105860
0x10587C
0x105B0E
0x105B87
0x105CC5
0x105D00
0x105D66
0x105D75
0x105DE0
0x105DE2
0x105F70
0x105F80
0x105FB0
0x105FF0
0x106000
0x106050
0x1060C0
0x106180
0x106190
0x1061A7
0x1061D0
0x1061E7
0x106250
0x106267
0x106290
0x1062A7
0x1062D0
0x1062D2
0x1063C0
0x106539
0x106574
0x1065CA
0x106610
0x106910
0x106915
0x10691A
0x106970
0x106D36
0x106D40
0x106D90
0x106DA4
0x1070C4
0x107154
0x107324
0x1077F4
0x107BC0
0x107BE0
0x107BFA
0x107CF0
0x107D20
0x107DC0
0x107DD6
0x108560
0x108EF6
0x1094E0
0x109D20
0x109D2F
0x109D3B
0x109FD0
0x10A039
0x10A4F6
0x10A4F7
0x10A5D0
0x10A780
0x10A787
0x10A860
0x10A950
0x10AA40
0x10AB80
0x10AB8F
0x10AE90
0x10AE9A
0x10AED1
0x10B08F
0x10B0C0
0x10B0C6
0x10B0CD
0x10B400
0x10BDA0
0x10BEC0
0x10BECA
0x10C176
0x10C397
0x10C420
0x10C440
0x10C457
0x10C495
0x10C4D5
0x10C610
0x10CAA6
0x10CDB0
0x10CDD0
0x10CE10
0x10CE50
0x10CE5F
0x10D00B
0x10D207
0x10D257
0x10D2A7
0x10D2F7
0x10D320
0x10D3B0
0x10D544
0x10D546
0x10D627
0x10E1FF
0x10E6E5
0x10F3C9
0x10FDBB
0x10FEEC
0x1106A0
0x110D5E
0x11271E
0x1130FC
0x113FDC
0x114319
0x1144B4
0x114CF0
0x115287
0x115746
0x115C64
0x115E43
0x1178F8
0x11924F
0x11946B
0x11C755
0x11C855
0x11C94D
0x11F0EB
0x120181
0x1231CB
0x124CE7
0x126B6B
0x1291C7
0x129506
0x12AAE8
0x12C29A
0x12CF0E
0x12D023
0x12D853
0x12D8A5
0x12E06C
0x12E6FE
0x12F5E6
0x130416
0x130793
0x130FB5
0x13204E
0x132AA4
0x133100
0x133102
0x133180
0x133182
0x133240
0x133242
0x133320
0x133322
0x1333A0
0x1333A2
0x133420
0x1334B9
0x1334BB
0x1334BF
0x133819
0x13381F
0x133AE2
0x133AE8
0x133EA2
0x133EA8
0x1341ED
0x1344CD
0x134636
0x134B20
0x1351B9
0x1351BD
0x1351BF
0x1354D9
0x1354DD
0x1354DF
0x135C19
0x135C1D
0x135C1F
0x136302
0x136306
0x136308
0x136622
0x136626
0x136628
0x136D62
0x136D66
0x136D68
0x137320
0x13732F
0x1376F0
0x137800
0x137866
0x13786A
0x137870
0x137DE9
0x138A60
0x138A6F
0x138A78
0x138F20
0x138F80
0x138F84
0x139470
0x139472
0x139486
0x139890
0x139CA0
0x139F90
0x13A000
0x13A020
0x13A090
0x13A0B0
0x13A0D0
0x13A123
0x13A230
0x13A364
0x13A400
0x13A417
0x13A680
0x13A6AC
0x13A820
0x13A836
0x13AB90
0x13AB99
0x13B090
0x13B370
0x13BA70
0x13BBA8
0x13BC18
0x13BC80
0x13BC8F
0x13BEF0
0x13C250
0x13C539
0x13C57E
0x13C5A8
0x13C5ED
0x13C8B0
0x13C900
0x13CD10
0x13CD1E
0x13CFA5
0x13D0B7
0x13D1E0
0x13D758
0x13D830
0x13D832
0x13D864
0x13DC40
0x13DC60
0x13DC8F
0x13DF6D
0x13E012
0x13E160
0x13E1D0
0x13E200
0x13E2F8
0x13E348
0x13E4A4
0x13E6AF
0x13E6DC
0x13E797
0x13E79D
0x13E98A
0x13EA38
0x13EB38
0x13EB5B
0x13ECE2
0x13ECE8
0x13EEA2
0x13EEA8
0x13F082
0x13F088
0x13F102
0x13F262
0x13F5D0
0x13F5F0
0x13F640
0x13F6A0
0x13F921
0x13FB80
0x13FB88
0x13FB8A
0x13FD80
0x13FF73
0x13FFD3
0x13FFD7
0x140370
0x1403E0
0x1403E7
0x1403E9
0x140CD0
0x140D90
0x140E17
0x140E3F
0x140E67
0x140FD5
0x140FF7
0x1411F0
0x141240
0x141290
0x141332
0x141400
0x141402
0x1414C0
0x1414CA
0x1414CF
0x141550
0x141590
0x14160E
0x141763
0x141830
0x141880
0x141913
0x141987
0x1419B5
0x1419B9
0x1419C7
0x141A47
0x141A50
0x141AE2
0x141BB2
0x141C80
0x141C96
0x141D40
0x141D56
0x142020
0x142022
0x142042
0x1421B0
0x1422A4
0x14250F
0x1425C0
0x142670
0x142672
0x1426C7
0x142730
0x142780
0x1427B0
0x142860
0x142900
0x142902
0x14297F
0x142A20
0x142AB7
0x142B30
0x142C67
0x142C77
0x142CB3
0x142CB7
0x142DD3
0x142DD7
0x142EF0
0x142EF8
0x143080
0x143165
0x143220
0x143230
0x143232
0x143295
0x1434E0
0x1434E5
0x1436D0
0x143840
0x143990
0x143A50
0x143A5A
0x143B60
0x143CBB
0x143CBC
0x143D20
0x143D6B
0x143D6C
0x143DE0
0x143EE0
0x143F70
0x143FCB
0x144030
0x14407B
0x1440F0
0x1441F0
0x144280
0x144300
0x144390
0x1443EB
0x144450
0x14449B
0x1445CA
0x14461A
0x1446C0
0x1447D0
0x144860
0x144870
0x1448D0
0x144900
0x144970
0x144990
0x144A40
0x144A87
0x144B00
0x144B02
0x144B0D
0x144D07
0x144D50
0x144FD0
0x145095
0x1450CB
0x1450D9
0x145233
0x145464
0x145520
0x1458F0
0x145950
0x1459B0
0x145A66
0x145B80
0x145B82
0x145B8B
0x145B9B
0x145CC0
0x145D80
0x145DC0
0x145DC2
0x145ED0
0x145F30
0x145F60
0x1460E0
0x1460E4
0x14626A
0x146270
0x1462FA
0x146360
0x146362
0x146363
0x1468D5
0x146970
0x146EC0
0x146EC2
0x146ECF
0x146F20
0x14718B
0x147287
0x1472CA
0x1472E6
0x147330
0x1476D0
0x1478B0
0x1478E4
0x147963
0x147A61
0x147C60
0x147D77
0x147DB5
0x147DF5
0x147E30
0x148090
0x148099
0x1480A1
0x1480A7
0x14826A
0x14827F
0x1482D7
0x148390
0x148630
0x148B06
0x148BAA
0x148F70
0x14935F
0x1498C8
0x149B50
0x149D30
0x149DD0
0x149E50
0x149E60
0x149E70
0x149E80
0x149E90
0x149FA0
0x14A355
0x14A380
0x14A420
0x14A423
0x14A670
0x14A723
0x14A800
0x14AA60
0x14ABE0
0x14AC60
0x14AC6F
0x14ACB7
0x14AD10
0x14AD6A
0x14AD6C
0x14ADC0
0x14ADCB
0x14AF6C
0x14AFF0
0x14B04A
0x14B04C
0x14B0A0
0x14B0AF
0x14B850
0x14BE40
0x14C0C0
0x14C540
0x14C632
0x14C9B0
0x14D150
0x14D4F0
0x14D510
0x14DC00
0x14E330
0x14E62C
0x14E972
0x14E9FA
0x14EDB4
0x14EF90
0x14EF92
0x14F1BC
0x14F670
0x14F8E0
0x14FEE0
0x15013E
0x1501AC
0x150276
0x150AA0
0x150C70
0x150C72
0x150ED7
0x1513FE
0x151690
0x151CA0
0x151CB6
0x151E00
0x151E02
0x151E99
0x151F20
0x151F28
0x1520E0
0x1520E2
0x152195
0x152230
0x152232
0x1522C9
0x152350
0x152400
0x152403
0x152B00
0x152F32
0x1532B0
0x153820
0x153822
0x153823
0x153B60
0x153B62
0x153B63
0x153B72
0x153CA6
0x153CD0
0x153CD2
0x153D63
0x153D6D
0x153DD0
0x153DD8
0x153F60
0x154030
0x154100
0x154116
0x154180
0x15418F
0x1541D7
0x154230
0x15428A
0x15428C
0x1542E0
0x1542EB
0x15448C
0x154510
0x15456A
0x15456C
0x1545C0
0x1545CF
0x1548F0
0x1548F2
0x1548F3
0x154902
0x154A36
0x154A60
0x154A62
0x154AF3
0x154AFD
0x154B60
0x154B68
0x154CF0
0x154E4F
0x154E60
0x154E62
0x155647
0x155680
0x155A05
0x155C11
0x155DF5
0x155E70
0x155E78
0x155EFA
0x155F04
0x155FBD
0x156030
0x156038
0x1561C0
0x156250
0x1563F0
0x15644E
0x156540
0x15654E
0x156720
0x156A20
0x156BC8
0x156BD3
0x156C30
0x156C38
0x156DB6
0x156E10
0x156ED0
0x156EDB
0x156FAC
0x156FC3
0x157040
0x157042
0x157043
0x157052
0x1570DC
0x1571AB
0x1571AD
0x1571B2
0x157280
0x1576C0
0x1576C2
0x1576C3
0x1576D2
0x157800
0x157802
0x157893
0x15789D
0x1578B6
0x157900
0x157908
0x157A90
0x157C28
0x157DD4
0x157E7A
0x157F20
0x157F22
0x157F23
0x157F32
0x158060
0x1580B0
0x1580B2
0x158143
0x15814E
0x1581B0
0x1581B8
0x158340
0x158506
0x158550
0x158C20
0x158D41
0x158EB0
0x158EB2
0x158EB3
0x158EC2
0x158FF0
0x159010
0x159012
0x1590A3
0x1590AD
0x159110
0x159118
0x1592A0
0x159370
0x159390
0x159392
0x159429
0x159490
0x159498
0x159630
0x1596D0
0x159780
0x159782
0x159783
0x159980
0x159982
0x159983
0x159992
0x159AD2
0x159B21
0x159CB0
0x159ED0
0x159EF7
0x159F1F
0x159F28
0x159F2F
0x15A130
0x15A150
0x15A153
0x15A154
0x15A169
0x15A437
0x15A6B0
0x15A700
0x15A709
0x15A7B6
0x15AA17
0x15AA40
0x15AA42
0x15AB80
0x15AB8A
0x15B2C0
0x15B2D9
0x15B743
0x15B7C4
0x15B849
0x15B873
0x15B880
0x15B882
0x15BA50
0x15BAAF
0x15BB00
0x15BB02
0x15BB18
0x15BC30
0x15BC32
0x15BC3F
0x15BF70
0x15BFB0
0x15BFD0
0x15C030
0x15C1D0
0x15C3A0
0x15C3B0
0x15C650
0x15C660
0x15C680
0x15C6B0
0x15C700
0x15C7C0
0x15C860
0x15C870
0x15C880
0x15C890
0x15C8B0
0x15C8D5
0x15C8D6
0x15C8F0
0x15C900
0x15C910
0x15CA00
0x15CA40
0x15CA59
0x15CA88
0x15CBC8
0x15CC70
0x15CC72
0x15CD30
0x15CEE0
0x15CF23
0x15CF56
0x15D0E5
0x15D220
0x15D240
0x15D260
0x15D280
0x15D2A0
0x15D2E0
0x15D2F0
0x15D320
0x15D370
0x15D440
0x15D470
0x15D660
0x15D6B0
0x15D720
0x15D770
0x15D7D0
0x15D7F0
0x15D810
0x15D860
0x15D880
0x15D8D0
0x15D8F0
0x15D940
0x15D960
0x15D980
0x15D9D0
0x15D9F0
0x15DC30
0x15DC89
0x15DCB7
0x15DD49
0x15DEB7
0x15E076
0x15E170
0x15E3F4
0x15E463
0x15E5F0
0x15E640
0x15E673
0x15E6B3
0x15E6F5
0x15E750
0x15E755
0x15E7E0
0x15E810
0x15E840
0x15E880
0x15E8F0
0x15E960
0x15E9D0
0x15EA50
0x15EDE0
0x15F277
0x15F690
0x15F6E9
0x15FAC0
0x15FB50
0x15FC00
0x15FC08
0x15FD30
0x15FD38
0x15FDE0
0x15FE40
0x15FF41
0x15FF4D
0x15FF7E
0x15FF8F
0x15FFC0
0x15FFE1
0x160027
0x160050
0x160071
0x16007D
0x1600A8
0x1600B7
0x1600E0
0x16015E
0x16016F
0x1601A0
0x160220
0x160240
0x16024A
0x1602C0
0x1604E0
0x1604F6
0x160690
0x160694
0x1606C5
0x1606F0
0x160709
0x160880
0x1608B0
0x160A20
0x160A50
0x160C10
0x160C19
0x160DA0
0x160DAA
0x161250
0x16125A
0x1613FC
0x1617A0
0x161880
0x161960
0x161A60
0x161B40
0x161C20
0x161E00
0x161FE0
0x162060
0x162062
0x162280
0x162400
0x162470
0x1624FA
0x162590
0x162600
0x16268A
0x162710
0x162740
0x162800
0x1628A0
0x162940
0x1629E0
0x162A20
0x162AF2
0x162D80
0x162EAE
0x1630A7
0x1631D0
0x163300
0x163499
0x163550
0x163560
0x163570
0x1635A0
0x1635B0
0x163600
0x163742
0x163755
0x163835
0x163836
0x163864
0x163895
0x163970
0x163B60
0x163B76
0x163E00
0x163FA0
0x164430
0x1648C6
0x164950
0x16499A
0x164A10
0x164C80
0x164D50
0x164D75
0x164F10
0x164F12
0x164FE0
0x164FE8
0x165020
0x165B50
0x165B56
0x165E0A
0x1660BF
0x166110
0x166320
0x1663C0
0x166720
0x16672A
0x1669B0
0x1669D0
0x1669F0
0x166A20
0x166A40
0x166A60
0x166A80
0x166AA0
0x166AC0
0x166BA0
0x166BA2
0x167093
0x1671D1
0x167336
0x1674C0
0x1676C0
0x1677C4
0x167800
0x1678C0
0x167940
0x167B7C
0x167BE8
0x167C10
0x167C60
0x167E60
0x167F30
0x168109
0x16821F
0x168330
0x168610
0x1687B0
0x1687B8
0x168880
0x1688DF
0x1688E9
0x16892A
0x168A65
0x168AB0
0x168CE2
0x168CE9
0x168E70
0x168E7F
0x168E86
0x16909F
0x169120
0x169122
0x169126
0x169132
0x169154
0x1691AB
0x1691D1
0x1691EB
0x169300
0x169309
0x1693D8
0x169480
0x1694F5
0x1694F7
0x169565
0x16956D
0x16956F
0x169685
0x169720
0x169723
0x1699AF
0x169C8C
0x169D86
0x16A222
0x16A226
0x16AB26
0x16B0A0
0x16B27A
0x16B299
0x16B2AF
0x16B390
0x16B398
0x16B39C
0x16B440
0x16B500
0x16B5B2
0x16B6ED
0x16B730
0x16B8F0
0x16B9E0
0x16BB31
0x16BC3B
0x16BEA0
0x16C03B
0x16C067
0x16C0E0
0x16C2C0
0x16C31E
0x16C322
0x16C325
0x16C810
0x16CDD3
0x16D096
0x16D580
0x16D6B0
0x16D786
0x16DA27
0x16DB60
0x16DE40
0x16DE64
0x16E100
0x16E132
0x16E3A6
0x16E3B0
0x16E516
0x16E6D2
0x16E850
0x16EB60
0x16EBC6
0x16EBEE
0x16EC80
0x16EC83
0x16EC8E
0x16ECB0
0x16ECF0
0x16ED09
0x16EE90
0x16EEA6
0x16F0DA
0x16F220
0x16F2C0
0x16F440
0x16F442
0x16F530
0x16F6B0
0x16F820
0x16F9C0
0x16FB40
0x16FB42
0x16FE30
0x16FFCD
0x1700E0
0x170399
0x170540
0x170549
0x170550
0x1705CC
0x170742
0x170908
0x171010
0x17101C
0x171027
0x171302
0x171306
0x171308
0x17130A
0x171422
0x171426
0x171428
0x17142A
0x171E80
0x171F49
0x17230B
0x173103
0x1731A9
0x1731F7
0x1732D0
0x1732D2
0x1732EC
0x173540
0x173562
0x173860
0x173A10
0x173C70
0x173ED0
0x173F30
0x1740B0
0x174240
0x174580
0x174582
0x174700
0x1749D4
0x1749D6
0x174AD0
0x174B57
0x174BA5
0x174C5E
0x174E30
0x174E39
0x174E40
0x175090
0x175200
0x1754F0
0x1755D7
0x175646
0x1756E0
0x175D50
0x175E30
0x175E6B
0x175EDC
0x175F06
0x175F2D
0x17606C
0x1765A0
0x1767C0
0x1767C2
0x1767C3
0x1767CD
0x176F11
0x177030
0x177042
0x1771B5
0x1771F0
0x177370
0x1773A0
0x1773B0
0x177429
0x17759E
0x177BEB
0x177C60
0x177D14
0x177D2B
0x177DC0
0x177DE0
0x177E60
0x177ED0
0x1780CD
0x178130
0x17813E
0x178146
0x178340
0x178350
0x1784C1
0x1784D1
0x1784E1
0x1784F1
0x178501
0x178511
0x178521
0x178540
0x1785E0
0x178680
0x178720
0x178762
0x178821
0x178832
0x178940
0x178A32
0x178B65
0x178C60
0x178C96
0x178CFA
0x178D50
0x178D5D
0x178E50
0x1795E0
0x17969C
0x179777
0x179B70
0x179D10
0x179D1F
0x179EB0
0x17A290
0x17A2A0
0x17A2B0
0x17A32B
0x17A3C0
0x17A550
0x17A558
0x17A5C0
0x17A6A0
0x17A6AA
0x17A870
0x17A932
0x17AC50
0x17AC52
0x17B240
0x17B525
0x17B558
0x17B6C8
0x17B718
0x17B768
0x17B7AC
0x17B875
0x17BA50
0x17BA70
0x17BB50
0x17BB70
0x17BBF0
0x17BC10
0x17BC90
0x17BCB0
0x17BD30
0x17BD50
0x17BD7F
0x17BDAF
0x17BDD0
0x17BDF0
0x17BE70
0x17BE90
0x17BF10
0x17BF3F
0x17BF6F
0x17BF90
0x17BFB0
0x17C030
0x17C050
0x17C070
0x17C08A
0x17C0F0
0x17C110
0x17C130
0x17C1BF
0x17C1EF
0x17C210
0x17C230
0x17C2B0
0x17C390
0x17C3B0
0x17C430
0x17C480
0x17CB10
0x17CCD1
0x17CCDB
0x17CD85
0x17D140
0x17D1F0
0x17D430
0x17D43C
0x17D900
0x17DC00
0x17DE39
0x17E090
0x17E160
0x17E210
0x17E212
0x17E9A0
0x17EAC0
0x17EAD3
0x17EFB1
0x17EFEA
0x17F09D
0x17F1D1
0x17F240
0x17F260
0x17F2E0
0x17F300
0x17F40D
0x17F4BC
0x17F630
0x17F659
0x17F7CD
0x17FA70
0x17FACE
0x17FADC
0x17FB63
0x17FD0D
0x17FDF0
0x17FEA0
0x180170
0x180190
0x180210
0x180230
0x1802B0
0x180480
0x180780
0x180789
0x180B22
0x180B7D
0x180D40
0x180D4F
0x1814D0
0x181574
0x1816A0
0x181A80
0x181C78
0x181DE0
0x181DE8
0x182230
0x182280
0x182298
0x182446
0x1824E0
0x182640
0x1826C0
0x1826F0
0x182720
0x182750
0x182780
0x1827B0
0x182810
0x182812
0x1828A7
0x1828EE
0x182A1D
0x182A65
0x182B06
0x182BD0
0x182BDF
0x182C07
0x182D81
0x182D8A
0x182DE0
0x1830A0
0x1831E0
0x1831F6
0x183411
0x183520
0x183522
0x1836A5
0x183780
0x183B7F
0x183C83
0x183C8E
0x183D93
0x183D9E
0x183E40
0x1840B0
0x184470
0x184581
0x184673
0x1847AE
0x1847FE
0x184884
0x1849E0
0x184BE2
0x184D77
0x184DE0
0x18504C
0x1850A9
0x1852B7
0x185330
0x1853E0
0x1853F9
0x1854E0
0x185520
0x185540
0x185560
0x185580
0x1855A0
0x1855D0
0x185620
0x185770
0x185772
0x1857AB
0x1857D0
0x18582F
0x185890
0x185A00
0x185E30
0x185E98
0x185E9C
0x185EA3
0x185ED0
0x185F40
0x185F70
0x1862B0
0x1864A0
0x1864A3
0x186580
0x18658F
0x1867A0
0x1867D0
0x1868F0
0x186998
0x186A30
0x186A39
0x186AF0
0x1871F0
0x187C21
0x187C81
0x187C90
0x1882D0
0x188300
0x1886C0
0x1886C8
0x1889E0
0x188E00
0x188E07
0x188E0A
0x18914D
0x189376
0x18943C
0x189486
0x189546
0x1897B0
0x1899B8
0x1899C1
0x189E20
0x189FB0
0x189FB8
0x18A190
0x18A328
0x18AA30
0x18AA34
0x18AA37
0x18AB9D
0x18AD40
0x18AE8C
0x18AE8E
0x18AE92
0x18AEE3
0x18AFD5
0x18B27B
0x18B27D
0x18B281
0x18B402
0x18B404
0x18B408
0x18BE3B
0x18BE3D
0x18BE41
0x18BFC2
0x18BFC4
0x18BFC8
0x18E330
0x18E4E6
0x18E620
0x18E6A0
0x18E6A2
0x18E700
0x18E702
0x18E800
0x18E830
0x18EA72
0x18EA76
0x18EB30
0x18EB70
0x18EE00
0x18EE03
0x18F3D0
0x18F496
0x18F512
0x18F5B0
0x18F5B9
0x18F5C0
0x18F5C9
0x18F5D9
0x18F65A
0x18F6A0
0x18F9A6
0x18FA35
0x18FAC0
0x18FC99
0x18FE20
0x1902D0
0x1906C0
0x190960
0x190A31
0x190AB0
0x190BF0
0x190C80
0x190E77
0x190F40
0x190F90
0x19105F
0x191220
0x191425
0x191490
0x191540
0x191580
0x1915A7
0x1916A0
0x191782
0x191865
0x191920
0x191931
0x191947
0x191970
0x191972
0x191D04
0x191F67
0x192027
0x192080
0x1920B0
0x192140
0x19214E
0x192440
0x192460
0x192462
0x19246B
0x1928C0
0x192B02
0x192C80
0x192D5A
0x192E80
0x192E8E
0x192FD0
0x193255
0x193326
0x193396
0x193540
0x1935EC
0x193760
0x193940
0x193949
0x193B0C
0x194B48
0x194B4B
0x195390
0x195392
0x195393
0x195399
0x1969C6
0x196F50
0x197100
0x19711A
0x197250
0x197280
0x197282
0x19728F
0x1975CA
0x197720
0x197AF0
0x197BB1
0x197BBA
0x197CA1
0x197CAA
0x197D91
0x197DE0
0x19824B
0x198322
0x198324
0x19844F
0x198660
0x1986D0
0x198ECD
0x198F40
0x198F70
0x199070
0x199891
0x199920
0x199950
0x199BC0
0x199C20
0x199D10
0x199D60
0x19A24F
0x19A720
0x19A75C
0x19A7A0
0x19AAD0
0x19AB34
0x19AB46
0x19ABD0
0x19ABE0
0x19AC62
0x19AC67
0x19AD54
0x19AD70
0x19AF42
0x19AFD5
0x19B090
0x19B0A0
0x19B0B0
0x19B0D0
0x19B0E0
0x19B150
0x19B160
0x19B245
0x19B390
0x19B450
0x19B470
0x19B480
0x19B490
0x19B4A0
0x19B4C0
0x19B4E0
0x19B520
0x19B540
0x19B5E0
0x19B610
0x19B710
0x19B894
0x19B910
0x19BAD0
0x19BE10
0x19C257
0x19C510
0x19C9D5
0x19CEEF
0x19CF90
0x19D360
0x19D362
0x19D740
0x19DC70
0x19E160
0x19E1A1
0x19E1A7
0x19E401
0x19E407
0x19E4E8
0x19E4F4
0x19E7E0
0x19E840
0x19E851
0x19EECB
0x19F700
0x19F710
0x19F770
0x19F79A
0x19F860
0x19F940
0x19F9A5
0x19FB20
0x19FD10
0x19FE44
0x19FF59
0x19FFF7
0x19FFFD
0x1A0150
0x1A0158
0x1A0310
0x1A07D0
0x1A07D9
0x1A0B90
0x1A0CE0
0x1A0CE2
0x1A1110
0x1A1123
0x1A1501
0x1A1507
0x1A15F8
0x1A1604
0x1A1BB0
0x1A1F80
0x1A2023
0x1A2047
0x1A2055
0x1A2074
0x1A21DC
0x1A2A20
0x1A2A22
0x1A2A2B
0x1A3730
0x1A3732
0x1A373B
0x1A3E64
0x1A47E2
0x1A47E8
0x1A4862
0x1A4868
0x1A4940
0x1A4987
0x1A4C52
0x1A76FB
0x1A7D57
0x1A9E65
0x1A9E69
0x1A9E6B
0x1AC375
0x1AC37A
0x1AD3A0
0x1AD625
0x1AD629
0x1AD634
0x1AE465
0x1AE469
0x1AE477
0x1AF1F5
0x1AF1FE
0x1AF40B
0x1B0CE6
0x1B1259
0x1B392A
0x1B3A3D
0x1B3AEB
0x1B42FB
0x1B438B
0x1B63A5
0x1B63A9
0x1B63AB
0x1B91E3
0x1B9217
0x1BA985
0x1BA9B9
0x1BB845
0x1BB87C
0x1BC745
0x1BC749
0x1BC74B
0x1BC797
0x1BDC66
0x1BE296
0x1BE2D1
0x1BFA45
0x1BFA83
0x1C09C5
0x1C0A03
0x1C1B85
0x1C1B89
0x1C1B8B
0x1C3974
0x1C39A9
0x1C3CC0
0x1C3CD0
0x1C3CF0
0x1C3D27
0x1C3D30
0x1C3DEB
0x1C3DEF
0x1C3E00
0x1C3E0F
0x1C3E13
0x1C4020
0x1C402D
0x1C4280
0x1C4300
0x1C4302
0x1C4499
0x1C4520
0x1C4526
0x1C4576
0x1C46C5
0x1C47A0
0x1C47A2
0x1C4877
0x1C4AF0
0x1C4B00
0x1C4DA0
0x1C5160
0x1C5710
0x1C5760
0x1C57C6
0x1C59F0
0x1C5A80
0x1C5E86
0x1C5F40
0x1C5F48
0x1C6260
0x1C626E
0x1C6520
0x1C6536
0x1C69D0
0x1C6C15
0x1C6D20
0x1C6F00
0x1C6FA0
0x1C6FBE
0x1C70A6
0x1C9706
0x1C9CE2
0x1CA832
0x1CB511
0x1CB53C
0x1CB624
0x1CB62A
0x1CB631
0x1CBA16
0x1CBA20
0x1CBBDC
0x1CBC76
0x1CBC85
0x1CBCF0
0x1CBCFE
0x1CBD65
0x1CBDD7
0x1CBEB4
0x1CBF10
0x1CC075
0x1CC0E0
0x1CC342
0x1CC3B2
0x1CC516
0x1CC541
0x1CC640
0x1CC950
0x1CCAB2
0x1CCBA0
0x1CCD60
0x1CD1E6
0x1CD220
0x1CD24A
0x1CD367
0x1CD410
0x1CD412
0x1CD4B0
0x1CD560
0x1CD57D
0x1CD610
0x1CD635
0x1CD686
0x1CD760
0x1CD923
0x1CD9B5
0x1CDA26
0x1CDB00
0x1CDB70
0x1CDBB0
0x1CDDB1
0x1CDF20
0x1CDF80
0x1CE190
0x1CE22A
0x1CE540
0x1CE892
0x1CE893
0x1CECAC
0x1CED25
0x1CEDA0
0x1CEDA4
0x1CEF16
0x1CF165
0x1CF7A6
0x1CF8B0
0x1CF8F0
0x1CF940
0x1CF9E0
0x1CF9EC
0x1CFA87
0x1CFBE0
0x1CFC00
0x1CFCE7
0x1CFD2B
0x1CFDA3
0x1CFDB3
0x1CFDC0
0x1CFE67
0x1CFE77
0x1D0020
0x1D0030
0x1D00D0
0x1D0180
0x1D0190
0x1D01E0
0x1D01F0
0x1D0240
0x1D02A0
0x1D02B0
0x1D0309
0x1D03D0
0x1D0484
0x1D0580
0x1D0770
0x1D0790
0x1D07A7
0x1D07B0
0x1D07C0
0x1D08A0
0x1D08B0
0x1D0975
0x1D0990
0x1D09E0
0x1D09F0
0x1D0AC0
0x1D0AD0
0x1D0B70
0x1D0D60
0x1D0DFC
0x1D0ECC
0x1D0F44
0x1D0FE0
0x1D1050
0x1D1054
0x1D1073
0x1D1120
0x1D1140
0x1D1160
0x1D1185
0x1D11B0
0x1D11D0
0x1D1200
0x1D1220
0x1D1250
0x1D1252
0x1D1820
0x1D1A64
0x1D1AB4
0x1D1B99
0x1D1C00
0x1D1C0E
0x1D2026
0x1D20B8
0x1D21E7
0x1D22E3
0x1D23C0
0x1D25A5
0x1D26A0
0x1D26F8
0x1D26F9
0x1D2800
0x1D2802
0x1D2823
0x1D2930
0x1D2970
0x1D29D0
0x1D2C00
0x1D2CA0
0x1D2D20
0x1D2D3D
0x1D2D60
0x1D2D70
0x1D2E00
0x1D2FEF
0x1D3321
0x1D3500
0x1D3785
0x1D3880
0x1D38B0
0x1D38C8
0x1D3938
0x1D3A54
0x1D3A55
0x1D3AD8
0x1D3DE6
0x1D3EE2
0x1D3FD0
0x1D4150
0x1D44E2
0x1D44F9
0x1D44FD
0x1D4501
0x1D4F30
0x1D4F46
0x1D4F80
0x1D50A0
0x1D5120
0x1D51A0
0x1D5220
0x1D52A0
0x1D52B7
0x1D5357
0x1D53E0
0x1D53FD
0x1D5490
0x1D5510
0x1D5530
0x1D55C0
0x1D5600
0x1D5630
0x1D5652
0x1D5760
0x1D57E0
0x1D58D0
0x1D59E0
0x1D59F6
0x1D5BF3
0x1D5BF8
0x1D5CC0
0x1D61F0
0x1D61FA
0x1D6520
0x1D66F9
0x1D66FF
0x1D6858
0x1D6861
0x1D6983
0x1D6993
0x1D69B5
0x1D6A35
0x1D6A63
0x1D6A67
0x1D6BB0
0x1D6FA0
0x1D6FB3
0x1D70D0
0x1D7281
0x1D73F9
0x1D73FB
0x1D73FF
0x1D7406
0x1D740A
0x1D75A0
0x1D7790
0x1D7798
0x1D78FC
0x1D7AF0
0x1D7B43
0x1D7B4D
0x1D7B55
0x1D7B5A
0x1D7B8A
0x1D7B8B
0x1D7C13
0x1D7C1D
0x1D7C25
0x1D7C2A
0x1D7C5C
0x1D7C5D
0x1D7CD0
0x1D7EF0
0x1D7EF3
0x1D7F15
0x1D7FA0
0x1D7FA3
0x1D7FC5
0x1D8040
0x1D81C8
0x1D81CF
0x1D8201
0x1D8290
0x1D8520
0x1D8534
0x1D8665
0x1D8685
0x1D87F5
0x1D8835
0x1D8860
0x1D88BA
0x1D88D2
0x1D8982
0x1D8A70
0x1D8CC0
0x1D8CD7
0x1D8D21
0x1D8D70
0x1D8D79
0x1D9080
0x1D9166
0x1D9300
0x1D9480
0x1D9688
0x1D968A
0x1D969D
0x1D9778
0x1D97FD
0x1D9945
0x1D9949
0x1D994B
0x1DB003
0x1DB00B
0x1DB2D0
0x1DB2D2
0x1DB2D3
0x1DB610
0x1DB6E0
0x1DB9C0
0x1DB9C3
0x1DBA00
0x1DBF40
0x1DBF80
0x1DBFD6
0x1DC0A0
0x1DC0A8
0x1DC0AA
0x1DC2C5
0x1DC6B0
0x1DC6B1
0x1DC6B5
0x1DC6BE
0x1DCC30
0x1DCF38
0x1DD3B0
0x1DD3B9
0x1DD3C2
0x1DD4A1
0x1DD5A0
0x1DD5B6
0x1DD7B9
0x1DDAA0
0x1DDC88
0x1DE256
0x1DE2C1
0x1DE3A0
0x1DE3A3
0x1DE4A2
0x1DE4E9
0x1DE7B7
0x1DE897
0x1DE8E0
0x1DE8E2
0x1DE987
0x1DE9F5
0x1DE9F6
0x1DEE10
0x1DEE18
0x1DEEC0
0x1DEF15
0x1DEF20
0x1DEF51
0x1DF0AE
0x1DF1E0
0x1DF290
0x1DF493
0x1DF510
0x1DF690
0x1DF760
0x1DF7E0
0x1DF880
0x1DF8C0
0x1DF940
0x1DF960
0x1DF9C4
0x1DFC80
0x1DFC90
0x1DFCA0
0x1DFE14
0x1DFFA0
0x1E0010
0x1E0030
0x1E0050
0x1E0067
0x1E00C0
0x1E0120
0x1E0170
0x1E0180
0x1E01B0
0x1E0350
0x1E0354
0x1E04F7
0x1E07BB
0x1E0970
0x1E0983
0x1E09F7
0x1E0B44
0x1E0B61
0x1E0B91
0x1E0BA1
0x1E0BB1
0x1E0BC0
0x1E0BE0
0x1E0C00
0x1E0C40
0x1E0C60
0x1E0C90
0x1E0D70
0x1E0D80
0x1E0E10
0x1E0E13
0x1E0E50
0x1E0E70
0x1E0E80
0x1E0EA0
0x1E0EC0
0x1E0EE0
0x1E0F20
0x1E0F40
0x1E0F70
0x1E12B3
0x1E13A2
0x1E1670
0x1E1830
0x1E1894
0x1E1950
0x1E1970
0x1E1990
0x1E19BA
0x1E1A50
0x1E1A71
0x1E1A80
0x1E1AA5
0x1E1AD5
0x1E1B49
0x1E1BB0
0x1E1C80
0x1E1C90
0x1E1CA0
0x1E1CB0
0x1E1CC0
0x1E1D30
0x1E1D78
0x1E1DC0
0x1E1F00
0x1E1F11
0x1E1F1E
0x1E1F60
0x1E1F6E
0x1E1F8B
0x1E1FB7
0x1E20AE
0x1E2120
0x1E2220
0x1E2259
0x1E22B0
0x1E22B9
0x1E24D0
0x1E2500
0x1E2510
0x1E2A56
0x1E2AC1
0x1E2B05
0x1E2B07
0x1E2B16
0x1E2C24
0x1E2C2A
0x1E2D52
0x1E2D9F
0x1E2DB5
0x1E2DB8
0x1E2DFF
0x1E2F95
0x1E2F96
0x1E3000
0x1E3060
0x1E306B
0x1E31C1
0x1E3215
0x1E3236
0x1E32F9
0x1E33F0
0x1E3460
0x1E3851
0x1E3857
0x1E38B0
0x1E3C35
0x1E3FC3
0x1E41C0
0x1E4240
0x1E4256
0x1E4274
0x1E4279
0x1E4430
0x1E444E
0x1E4570
0x1E4E00
0x1E5127
0x1E51B0
0x1E52D0
0x1E6564
0x1E6569
0x1E6810
0x1E6CF0
0x1E6D10
0x1E6D37
0x1E6F40
0x1E6FE5
0x1E7020
0x1E73D0
0x1E73E0
0x1E73F8
0x1E7430
0x1E7460
0x1E7530
0x1E7560
0x1E7578
0x1E7592
0x1E7596
0x1E79DC
0x1E7A83
0x1E7AB0
0x1E7AB2
0x1E7C57
0x1E7CC4
0x1E7D30
0x1E7DB0
0x1E7DC0
0x1E7F07
0x1E7FE0
0x1E8187
0x1E8390
0x1E8440
0x1E8450
0x1E8530
0x1E8551
0x1E8553
0x1E85C0
0x1E85F5
0x1E86A7
0x1E8730
0x1E8740
0x1E8750
0x1E8760
0x1E8770
0x1E8780
0x1E87B5
0x1E87C4
0x1E87D0
0x1E87E5
0x1E8845
0x1E8870
0x1E88B7
0x1E8941
0x1E8986
0x1E898C
0x1E89B0
0x1E89D3
0x1E89D7
0x1E8AAB
0x1E8AB4
0x1E8C30
0x1E8CBA
0x1E8EB0
0x1E8EB2
0x1E9055
0x1E9056
0x1E9096
0x1E9116
0x1E916D
0x1E9382
0x1E9623
0x1E9640
0x1E964B
0x1E9671
0x1E96A0
0x1E96B0
0x1E96E7
0x1E9710
0x1E9716
0x1E9770
0x1E9DA8
0x1E9E48
0x1E9E52
0x1E9EE0
0x1E9F00
0x1E9F20
0x1EA2D7
0x1EA310
0x1EA32F
0x1EA9C0
0x1EAC60
0x1EAD27
0x1EADBB
0x1EAEF0
0x1EAFD0
0x1EAFD5
0x1EB150
0x1EB152
0x1EB15F
0x1EB520
0x1EB7D1
0x1EB9A9
0x1EB9B3
0x1EB9F2
0x1EB9F3
0x1EB9FC
0x1EB9FD
0x1EBB76
0x1EBCE6
0x1EBD90
0x1EBD9D
0x1EBF20
0x1EC100
0x1EC10D
0x1EC210
0x1EC21D
0x1EC320
0x1EC32D
0x1EC396
0x1EC520
0x1EC522
0x1EC7C0
0x1EC880
0x1EC960
0x1ECAD0
0x1ECAD5
0x1ECBD0
0x1ECBD5
0x1ECCE5
0x1ECD15
0x1ECF27
0x1ECF45
0x1ECF90
0x1ED3C0
0x1ED3C5
0x1ED424
0x1ED426
0x1ED5BB
0x1ED5C0
0x1ED5D0
0x1ED635
0x1ED655
0x1ED690
0x1ED69E
0x1ED7EA
0x1ED875
0x1EDC30
0x1EDCF0
0x1EDCF2
0x1EDD0A
0x1EE7F2
0x1EE918
0x1EE940
0x1EE946
0x1EEAD0
0x1EEBB0
0x1EEDE5
0x1EEE80
0x1EF140
0x1EF470
0x1EF520
0x1EF5A6
0x1EF690
0x1EFA20
0x1EFC70
0x1EFF80
0x1F0430
0x1F0740
0x1F0742
0x1F0E65
0x1F0E73
0x1F0F90
0x1F0FE0
0x1F0FE5
0x1F1060
0x1F1064
0x1F1067
0x1F1260
0x1F1267
0x1F15C5
0x1F15EA
0x1F17B0
0x1F17C8
0x1F1810
0x1F1828
0x1F1840
0x1F1858
0x1F18B0
0x1F18C8
0x1F1910
0x1F1928
0x1F1950
0x1F1968
0x1F1980
0x1F1998
0x1F19F0
0x1F1A08
0x1F1A30
0x1F1A60
0x1F1F00
0x1F1F08
0x1F1F0A
0x1F20E9
0x1F23E2
0x1F26B0
0x1F280A
0x1F2AA0
0x1F2AA8
0x1F2C50
0x1F2C60
0x1F2E90
0x1F2FF0
0x1F2FF9
0x1F3006
0x1F31B0
0x1F3320
0x1F35A9
0x1F35AC
0x1F35B2
0x1F3850
0x1F3CD0
0x1F3D54
0x1F3D56
0x1F3E90
0x1F3E9A
0x1F3ED0
0x1F3ED4
0x1F3ED8
0x1F3EDD
0x1F41EA
0x1F4450
0x1F445A
0x1F4490
0x1F4593
0x1F4925
0x1F49B0
0x1F4A00
0x1F4A05
0x1F4A6C
0x1F4CB0
0x1F4DB9
0x1F4ED0
0x1F4F60
0x1F5750
0x1F5759
0x1F5960
0x1F59C0
0x1F5A20
0x1F5A50
0x1F5A90
0x1F5CA0
0x1F5CA3
0x1F5F00
0x1F60D0
0x1F60D2
0x1F67BF
0x1F6964
0x1F6CB2
0x1F6CBC
0x1F6E49
0x1F6E4D
0x1F7006
0x1F7120
0x1F71EC
0x1F7520
0x1F75B0
0x1F7820
0x1F7822
0x1F7A13
0x1F7A80
0x1F7BB3
0x1F7BBD
0x1F7C69
0x1F7CF2
0x1F7F4C
0x1F7FD0
0x1F805D
0x1F806C
0x1F8077
0x1F8122
0x1F81D0
0x1F83E0
0x1F83E4
0x1F83E8
0x1F8680
0x1F86B0
0x1F86F0
0x1F87B0
0x1F87CC
0x1F8860
0x1F8895
0x1F88C7
0x1F89E0
0x1F8AB0
0x1F8ABB
0x1F8BC0
0x1F8DA5
0x1F8E00
0x1F9029
0x1F902B
0x1F93D8
0x1F9530
0x1F9712
0x1F9716
0x1F98F0
0x1F9B40
0x1F9B44
0x1F9E36
0x1FA180
0x1FA182
0x1FA828
0x1FA8F0
0x1FA8F2
0x1FA8FF
0x1FA9D0
0x1FA9D2
0x1FAA43
0x1FAAA9
0x1FAB49
0x1FAC30
0x1FADD0
0x1FADDF
0x1FB000
0x1FB002
0x1FB198
0x1FB1A0
0x1FB1E0
0x1FB59E
0x1FB790
0x1FBA40
0x1FBA70
0x1FBA80
0x1FBA90
0x1FBAA0
0x1FC476
0x1FC4D0
0x1FC4F6
0x1FC5E0
0x1FC605
0x1FC645
0x1FC685
0x1FC6B5
0x1FC6E5
0x1FC715
0x1FC745
0x1FC785
0x1FC871
0x1FC884
0x1FC905
0x1FCA10
0x1FCBD0
0x1FCDC6
0x1FD1E1
0x1FD3F5
0x1FD490
0x1FD530
0x1FD5C0
0x1FD8C2
0x1FDA50
0x1FDA52
0x1FDA53
0x1FDB09
0x1FDC0A
0x1FDC14
0x1FDC70
0x1FDE00
0x1FDE03
0x1FDF11
0x1FE1F0
0x1FE1F6
0x1FE1F7
0x1FE260
0x1FE266
0x1FE267
0x1FE4B0
0x1FE732
0x1FE73C
0x1FE9D6
0x1FEBF1
0x1FEC46
0x1FECA2
0x1FED79
0x1FED92
0x1FF0E8
0x1FF152
0x1FF156
0x1FF1E2
0x1FF1E3
0x1FF410
0x200C59
0x20105A
0x201858
0x207FEA
0x20B185
0x20CDE8
0x20D8CD
0x213B28
0x217399
0x219BBD
0x21C14C
0x21D0F8
0x21F365
0x21F8C4
0x22CFCA
0x22CFCE
0x236342
0x2372F9
0x2374A5
0x2426CD
0x244104
