0xAF4
0x1BB80
0x1D74E
0x1D78E
0x1D799
0x1D7E1
0x1D834
0x1D840
0x1D850
0x1D910
0x1D9D0
0x1DA90
0x1DB70
0x1DC00
0x1DE10
0x1E040
0x1E080
0x1E6C0
0x1E760
0x1E820
0x1E8A0
0x1E8C0
0x1E8D0
0x1EA70
0x1EAE0
0x1EB50
0x1EBE0
0x1EC10
0x1EE20
0x1EFB0
0x1F140
0x1F250
0x1F260
0x1F430
0x1F460
0x1F4D0
0x1F540
0x1F610
0x1F730
0x205C0
0x20620
0x20680
0x206D0
0x20730
0x207E0
0x20800
0x20820
0x20870
0x208D0
0x20930
0x209E0
0x20A10
0x20BC0
0x20C20
0x20D70
0x20DA0
0x20DF0
0x20E20
0x20E80
0x20EE0
0x20F40
0x20FA0
0x21030
0x210A0
0x21100
0x21200
0x21430
0x21460
0x21630
0x21660
0x21700
0x21730
0x217E0
0x21810
0x21840
0x21860
0x21870
0x21880
0x21890
0x218A0
0x218B0
0x218C0
0x218D0
0x218E0
0x218F0
0x21900
0x21910
0x21920
0x21930
0x21940
0x21950
0x21960
0x21970
0x21980
0x21990
0x219A0
0x219B0
0x219C0
0x219D0
0x219E0
0x21A80
0x21AC0
0x21AD0
0x21AE0
0x21B50
0x21CD0
0x21D50
0x21EC0
0x21F20
0x21F70
0x21FE0
0x220B0
0x22110
0x22280
0x22300
0x22330
0x22380
0x22420
0x225C0
0x22660
0x22680
0x22700
0x22790
0x22870
0x228F0
0x22970
0x229F0
0x22A40
0x22AC0
0x22B30
0x22BE0
0x22C10
0x22C70
0x22CA0
0x22DC0
0x22DE0
0x22E20
0x22F10
0x22F30
0x22F90
0x22FE0
0x230E0
0x23380
0x23403
0x23470
0x235A0
0x23630
0x23800
0x238E0
0x23900
0x23B90
0x23C10
0x23CC2
0x23D00
0x23F50
0x24040
0x24D00
0x24D60
0x24DC0
0x24DE0
0x24E80
0x253D9
0x256E0
0x257E0
0x25830
0x25860
0x258B0
0x259D0
0x25A00
0x25A30
0x25AA0
0x25AC0
0x25B50
0x25BA0
0x25C60
0x25C80
0x25CA0
0x25D40
0x25DE0
0x26360
0x26FB0
0x272A0
0x28A20
0x29D10
0x29D70
0x29DD0
0x29DF0
0x29E50
0x29E70
0x29E90
0x29EE0
0x29F10
0x29F70
0x29FA0
0x29FE0
0x2A00B
0x2A130
0x2A350
0x2A3C0
0x2A460
0x2A4B0
0x2A540
0x2A5C0
0x2A5E0
0x2A820
0x2C210
0x2C270
0x2C2C0
0x2C320
0x2C380
0x2C470
0x2C780
0x2C850
0x2C8F0
0x2CC00
0x2CCE0
0x2DCB0
0x2DF00
0x2DF30
0x2DF50
0x2DF54
0x2DF5A
0x2E4C0
0x2E820
0x2E8DB
0x2E960
0x2E990
0x2E9C0
0x2E9F0
0x2EA20
0x2EA60
0x2F1D0
0x2F397
0x2F840
0x2F960
0x2F9B0
0x2F9E0
0x2FA00
0x2FA70
0x2FAB0
0x2FAD0
0x2FB00
0x2FB30
0x2FB50
0x2FB80
0x2FBA0
0x303F0
0x30470
0x30474
0x30476
0x311F8
0x31430
0x31610
0x318C0
0x319A0
0x31B40
0x31B70
0x31BA0
0x31BE0
0x31C10
0x31C40
0x31C60
0x31C90
0x31CD0
0x31D10
0x31D30
0x32370
0x32600
0x32680
0x32A30
0x32AF0
0x32B60
0x32CC0
0x32EA0
0x330F0
0x333B0
0x33580
0x33600
0x33670
0x336B0
0x33730
0x33750
0x33760
0x33770
0x337C0
0x33870
0x33A80
0x33AB0
0x33CB0
0x34A3A
0x34A60
0x34AD0
0x34BC0
0x34C70
0x35730
0x35780
0x357B0
0x357E0
0x35920
0x359C0
0x35B30
0x35B40
0x35B70
0x35C00
0x35DF2
0x35E4C
0x363E0
0x36400
0x36430
0x36460
0x36490
0x36520
0x36550
0x36570
0x367E0
0x368E7
0x369A0
0x36A20
0x36B10
0x36B50
0x36C31
0x36CA0
0x36CE0
0x36D30
0x36E20
0x37020
0x37370
0x37430
0x37620
0x37780
0x37A90
0x37BD0
0x37BE6
0x37DA0
0x37F80
0x38302
0x383F0
0x38440
0x384B0
0x384F0
0x38C20
0x38C60
0x38D00
0x38DA0
0x38E30
0x38F60
0x392A0
0x392B6
0x399A0
0x39AE0
0x39BC0
0x39BF0
0x39C40
0x39D80
0x39DA0
0x39DD0
0x39E80
0x39FA0
0x39FB0
0x39FE0
0x3A040
0x3A180
0x3A2A0
0x3A2D0
0x3A640
0x3A660
0x3A770
0x3A790
0x3A7C0
0x3A7F0
0x3A820
0x3A850
0x3A890
0x3A8D0
0x3A910
0x3A930
0x3A980
0x3A9C0
0x3A9E0
0x3AA20
0x3AA70
0x3AB20
0x3AB60
0x3AC20
0x3AC60
0x3ACA0
0x3ACE0
0x3AF00
0x3AF30
0x3AF50
0x3B030
0x3B060
0x3B090
0x3B0B0
0x3B250
0x3B280
0x3B2B0
0x3B2E0
0x3B490
0x3B970
0x3B990
0x3B9B0
0x3BA40
0x3BAC0
0x3BB30
0x3BBA0
0x3BC30
0x3BC70
0x3BCC0
0x3BDC9
0x3BFF0
0x3C080
0x3C520
0x3C570
0x3C5A0
0x3C5D0
0x3C640
0x3C690
0x3C6C0
0x3C6F0
0x3C780
0x3C830
0x3C970
0x3CA50
0x3CA70
0x3D670
0x3D8B0
0x3DB70
0x3DB74
0x3DFB0
0x3E180
0x3E340
0x3E344
0x3EC50
0x3ED60
0x3ED80
0x3EDB0
0x3EDE0
0x3EE00
0x3EE80
0x3F7AA
0x3F800
0x3F870
0x3F8B0
0x3F8F0
0x3F940
0x3F990
0x3F9B0
0x3F9D0
0x3FA80
0x3FAA0
0x3FAC0
0x3FAD8
0x3FAF0
0x3FB30
0x3FB60
0x3FB90
0x3FDB0
0x3FDE0
0x3FE20
0x3FE40
0x3FE50
0x3FEC0
0x3FEF0
0x3FF70
0x3FFD0
0x40030
0x40090
0x400F0
0x40120
0x40330
0x403B0
0x404A0
0x404C0
0x404E0
0x40500
0x40620
0x40650
0x40690
0x40760
0x40830
0x40860
0x40880
0x40A50
0x40BC0
0x40CF0
0x40D70
0x40ED0
0x40F40
0x40F70
0x41120
0x411C0
0x411F0
0x412A0
0x412C0
0x412F0
0x413B0
0x414A0
0x41590
0x41640
0x416C0
0x41740
0x41770
0x417F0
0x41970
0x419E0
0x41A50
0x41AB0
0x41AE0
0x41B10
0x41B90
0x41C10
0x41D60
0x41DB0
0x41DE0
0x41E10
0x41E50
0x41E80
0x41EF0
0x41F20
0x41F90
0x41FC0
0x42120
0x421B0
0x42240
0x42380
0x42460
0x42560
0x42610
0x426B0
0x427C0
0x427D0
0x42820
0x42A50
0x42C4A
0x42D00
0x42D50
0x42D60
0x42D90
0x42DC0
0x42DF0
0x42E30
0x42E60
0x42E73
0x42E80
0x42EB0
0x42ED0
0x42F10
0x43260
0x432A0
0x433A0
0x433C0
0x43CB0
0x43CD0
0x43D30
0x43E10
0x44240
0x44253
0x44270
0x442D0
0x44310
0x443A0
0x44430
0x44490
0x444F0
0x445E0
0x44610
0x44640
0x44670
0x446A0
0x446D0
0x44700
0x44730
0x44760
0x44790
0x447C0
0x44980
0x449C0
0x44A00
0x44BE0
0x44F30
0x45110
0x45150
0x45190
0x45280
0x452A0
0x453D0
0x453F0
0x45450
0x45B30
0x45B80
0x45C66
0x45D90
0x45DC0
0x45DF0
0x45E10
0x45E30
0x45E60
0x45EB0
0x45F40
0x45FB0
0x45FD0
0x46210
0x46240
0x46270
0x462A0
0x462D0
0x462F0
0x46315
0x46320
0x463A0
0x464C0
0x464E0
0x46530
0x46550
0x465B0
0x46610
0x466B0
0x467B0
0x468B0
0x46940
0x469D0
0x469F0
0x46A20
0x46A40
0x46A60
0x46A90
0x46AB0
0x46AF0
0x46B20
0x46B40
0x46B60
0x46B70
0x46BD0
0x46C20
0x46CB0
0x46D00
0x46E50
0x46F30
0x47040
0x47080
0x470E0
0x47150
0x47190
0x471BF
0x471E0
0x47243
0x47300
0x47340
0x4736F
0x47390
0x473B0
0x47540
0x475BB
0x476C0
0x477B0
0x47840
0x47890
0x47A90
0x47AB0
0x47B40
0x47C70
0x47CC0
0x47E90
0x47F20
0x47F70
0x48210
0x48320
0x48333
0x48450
0x48470
0x48480
0x48570
0x48580
0x48670
0x48690
0x487F0
0x48860
0x48880
0x48E90
0x48EB0
0x48F20
0x48F80
0x48FF0
0x49090
0x490E0
0x49210
0x49250
0x49280
0x49320
0x493C0
0x49400
0x494C0
0x49560
0x49630
0x49800
0x49830
0x49A20
0x49A60
0x49BB0
0x49C10
0x49C40
0x49C70
0x49D30
0x49DF0
0x49E20
0x49EA0
0x49F50
0x49FD0
0x4A5E0
0x4A610
0x4A6D0
0x4A770
0x4A7E0
0x4A800
0x4A820
0x4A840
0x4A84C
0x4A860
0x4A880
0x4A8A0
0x4A8C0
0x4A8E0
0x4A900
0x4A930
0x4A960
0x4A990
0x4A9D0
0x4AA10
0x4AE70
0x4AF00
0x4AF10
0x4AFA0
0x4B030
0x4B320
0x4B340
0x4B360
0x4B450
0x4B720
0x4B740
0x4B780
0x4B7B0
0x4B7C0
0x4B800
0x4B950
0x4B970
0x4BEE0
0x4BF00
0x4C0A0
0x4C0C0
0x4C0E0
0x4C200
0x4C2C0
0x4C310
0x4C360
0x4C3B0
0x4C400
0x4C460
0x4C480
0x4C4D0
0x4C520
0x4C600
0x4C620
0x4C640
0x4C660
0x4C680
0x4C6A0
0x4C6C0
0x4C6E0
0x4C900
0x4C920
0x4C9B0
0x4CA40
0x4CA70
0x4CA90
0x4CA9C
0x4CAB0
0x4CB30
0x4CBB0
0x4CC30
0x4CCA0
0x4CCE0
0x4CD10
0x4CD50
0x4CD80
0x4CDA0
0x4CDD0
0x4CE10
0x4CE50
0x4CE90
0x4CFA0
0x4D0C0
0x4D110
0x4D160
0x4D180
0x4D194
0x4D1A0
0x4D1C0
0x4D1E0
0x4D200
0x4D220
0x4D240
0x4D260
0x4D2A0
0x4D2E0
0x4D320
0x4D360
0x4D380
0x4D3A0
0x4D3C0
0x4D430
0x4D450
0x4D470
0x4D490
0x4D500
0x4D530
0x4D550
0x4D580
0x4D5A0
0x4D640
0x4D670
0x4D7A0
0x4D7C0
0x4D7E0
0x4D7F0
0x4D820
0x4D840
0x4D870
0x4D890
0x4D8C0
0x4D8E0
0x4D910
0x4D930
0x4D960
0x4D980
0x4D9B0
0x4D9D0
0x4D9F0
0x4DA10
0x4DA40
0x4DA70
0x4DAA0
0x4DAD0
0x4DAF0
0x4DB30
0x4DB70
0x4DC00
0x4DC90
0x4DE10
0x4DEC0
0x4DF60
0x4DF80
0x4DFA0
0x4E280
0x4E2A0
0x4E2D0
0x4E370
0x4E390
0x4E460
0x4E500
0x4E530
0x4E560
0x4E5A0
0x4E5AC
0x4E5C0
0x4E5F0
0x4E630
0x4E670
0x4E6D0
0x4E740
0x4E7D0
0x4E7F0
0x4E810
0x4E880
0x4EAB0
0x4EBB0
0x4EC20
0x4EC40
0x4EC60
0x4EC80
0x4ED10
0x4EF40
0x4EFA0
0x4F340
0x4F3A0
0x4F400
0x4F450
0x4F520
0x4F590
0x4F5F0
0x4F9D0
0x4F9F0
0x4FA10
0x4FA30
0x4FA50
0x4FA70
0x4FA90
0x4FAB0
0x4FAD0
0x4FB60
0x4FC60
0x4FD40
0x4FD60
0x4FD80
0x4FD90
0x4FFF0
0x50040
0x50070
0x500A0
0x500F0
0x50160
0x50190
0x501C0
0x50200
0x50230
0x50260
0x50280
0x502B0
0x502F0
0x50410
0x50430
0x50460
0x50480
0x504B0
0x50500
0x50530
0x50590
0x505A0
0x505D0
0x508A0
0x508D0
0x50900
0x509C0
0x50C10
0x50DB0
0x50E40
0x50F40
0x51120
0x512C0
0x51360
0x513D0
0x51570
0x51610
0x516D0
0x51870
0x51900
0x51A00
0x51BA0
0x51C40
0x51CB0
0x51E50
0x51EF0
0x51F20
0x52220
0x52250
0x52450
0x52640
0x52680
0x52CC0
0x52D10
0x531A0
0x531F0
0x53250
0x53270
0x532D0
0x53330
0x533E0
0x53450
0x534C0
0x535C0
0x53620
0x536D0
0x53700
0x53770
0x537D0
0x53830
0x53970
0x53990
0x539B0
0x539E0
0x53A10
0x53A30
0x53AA0
0x53B00
0x53B40
0x53B70
0x53D10
0x53D30
0x54250
0x54410
0x54450
0x54490
0x544B0
0x547C0
0x54870
0x54AE0
0x54D20
0x54D50
0x54F20
0x553A2
0x55440
0x55470
0x554A0
0x55610
0x55700
0x55810
0x55860
0x55890
0x558D0
0x559A0
0x55A30
0x55AD0
0x55B20
0x55B60
0x55BA0
0x55BF0
0x55C00
0x55C20
0x55C40
0x55C70
0x55C90
0x55D30
0x55D60
0x55D80
0x55DD0
0x55DF0
0x55E10
0x55E50
0x55F40
0x55F60
0x56000
0x56060
0x560B0
0x560F0
0x56150
0x561B0
0x56310
0x563C0
0x563E0
0x56410
0x56450
0x56510
0x56530
0x56550
0x56570
0x56590
0x565B0
0x565D0
0x565F0
0x56610
0x56630
0x56650
0x56710
0x56724
0x56730
0x56750
0x56830
0x56870
0x56890
0x568B0
0x56900
0x56950
0x569D0
0x56A50
0x56A80
0x56DE0
0x57140
0x571B0
0x57220
0x57450
0x57690
0x57730
0x57F40
0x580E0
0x58270
0x58310
0x58490
0x589C0
0x589E0
0x58A40
0x58AF0
0x58CA0
0x58CC0
0x58E60
0x58FC0
0x59070
0x59330
0x595D6
0x59A60
0x59AC0
0x59B10
0x59BB0
0x59CC0
0x59D30
0x5A250
0x5A3B0
0x5A400
0x5A590
0x5A5C0
0x5A640
0x5A670
0x5A740
0x5A810
0x5A840
0x5A860
0x5A8A0
0x5A970
0x5A9D0
0x5A9F0
0x5AA50
0x5AB10
0x5AB30
0x5AB46
0x5AFA0
0x5B120
0x5B180
0x5B220
0x5B360
0x5B3A0
0x5B3D0
0x5B3F0
0x5B460
0x5B490
0x5B4F0
0x5B550
0x5B5B0
0x5B640
0x5B750
0x5B8B0
0x5B9A0
0x5BAF0
0x5BBF0
0x5BCF0
0x5BEE0
0x5C170
0x5C310
0x5C670
0x5C690
0x5C6C0
0x5C7B0
0x5C900
0x5CAF0
0x5CB10
0x5CB40
0x5CC00
0x5CCD0
0x5CD70
0x5CF60
0x5D0C0
0x5D300
0x5D520
0x5D660
0x5D6BA
0x5DE90
0x5DEF0
0x5DFA0
0x5E000
0x5E210
0x5E9A0
0x5EA70
0x5ED70
0x5EDC0
0x5EDE0
0x5EE40
0x5EF70
0x5EFD0
0x5F160
0x5F330
0x5F3F0
0x5F450
0x5F5B0
0x5F5D0
0x5F760
0x5F990
0x5FBE0
0x5FC80
0x60010
0x60060
0x60240
0x602A0
0x60320
0x60390
0x60480
0x608E0
0x609A0
0x60A50
0x60B20
0x60C80
0x60CE0
0x60F30
0x60F50
0x60F80
0x60FA0
0x61000
0x61030
0x61080
0x610E0
0x61150
0x61200
0x612D0
0x61330
0x614C9
0x61520
0x61662
0x61830
0x618D0
0x61A90
0x61B20
0x61BE0
0x61C30
0x61C34
0x61C8E
0x61CB0
0x61CB4
0x61E50
0x61E54
0x61EB1
0x61ED0
0x61ED4
0x61F50
0x62160
0x622A0
0x62300
0x62390
0x624F0
0x62550
0x625B0
0x628A0
0x62960
0x62980
0x629C0
0x62A40
0x62AA0
0x62BE0
0x62CC0
0x62D80
0x62E90
0x62F60
0x63030
0x63050
0x63140
0x63230
0x63690
0x63740
0x63780
0x637A0
0x637D0
0x63800
0x63870
0x63A80
0x63B30
0x63CBE
0x63D80
0x63DE0
0x63E40
0x63E60
0x63E90
0x63EE0
0x63F30
0x64040
0x644C0
0x64500
0x650A0
0x65100
0x652B0
0x65340
0x65400
0x65D5D
0x65EB0
0x65F90
0x66010
0x66180
0x662A0
0x663C0
0x66530
0x667A0
0x66880
0x66A60
0x66BB0
0x66CF0
0x66E20
0x66F70
0x67030
0x67190
0x671D6
0x67540
0x67C90
0x67DB0
0x67F50
0x68040
0x68090
0x680C0
0x68120
0x68190
0x681F0
0x68250
0x68300
0x68320
0x68340
0x68380
0x683C0
0x68400
0x68420
0x684C0
0x684F0
0x68510
0x68530
0x68570
0x685E0
0x68730
0x68760
0x68780
0x68DF0
0x68E10
0x68E80
0x68F50
0x68F90
0x68FF0
0x69070
0x690A0
0x696B0
0x69D50
0x69D80
0x69E30
0x69E90
0x69F40
0x69F5F
0x6A570
0x6A7E0
0x6A830
0x6A8B0
0x6A8CC
0x6AD00
0x6AFB0
0x6B110
0x6B560
0x6B5BA
0x6B6E0
0x6B8C0
0x6C070
0x6C100
0x6C380
0x6C5E0
0x6C6C0
0x6C7F0
0x6C9A0
0x6D600
0x6D740
0x6DA20
0x6DEB0
0x6DF00
0x6E650
0x6EBD0
0x6ECC0
0x6F24D
0x6F4D0
0x6F5B0
0x6F6D0
0x6F750
0x6FA70
0x6FF40
0x6FF60
0x6FF90
0x6FFE0
0x70090
0x700B0
0x70110
0x70170
0x70190
0x701F0
0x70250
0x70280
0x70340
0x70680
0x70830
0x70890
0x70940
0x70970
0x709A0
0x709D0
0x70B30
0x70D70
0x711F0
0x71470
0x714D0
0x716E0
0x717B0
0x71810
0x719B0
0x71A00
0x71B60
0x71F30
0x72310
0x72500
0x726C0
0x72B90
0x72D00
0x72DA0
0x72EA0
0x72ED0
0x72F30
0x72FA0
0x73000
0x73050
0x73080
0x73110
0x73190
0x731F0
0x73250
0x73300
0x73320
0x73350
0x733F0
0x73C50
0x73C90
0x73E30
0x741B0
0x7462D
0x74740
0x747F0
0x748C0
0x748E0
0x749B0
0x749F4
0x74A54
0x74CE0
0x74FD0
0x75190
0x751A4
0x75210
0x752C0
0x753F0
0x75520
0x75640
0x75830
0x75B01
0x75C20
0x75EB8
0x75FA3
0x76270
0x76460
0x764B0
0x766A0
0x76740
0x76B30
0x76D50
0x76D70
0x76DA0
0x77269
0x772E0
0x774E0
0x77CB0
0x77D10
0x77D30
0x77D90
0x78120
0x781B0
0x78300
0x78360
0x78460
0x78660
0x78B80
0x78C90
0x78CB0
0x78D30
0x78E10
0x791B0
0x79660
0x79665
0x79A85
0x79B00
0x79B98
0x79F00
0x79F60
0x79FC0
0x7A160
0x7A172
0x7A230
0x7A360
0x7A4C0
0x7A600
0x7A720
0x7AAF0
0x7ABB0
0x7AC70
0x7B1B3
0x7B200
0x7B2D0
0x7B3A0
0x7B530
0x7B790
0x7B7B0
0x7B7E0
0x7B890
0x7B8C0
0x7B8F0
0x7B970
0x7B990
0x7BB30
0x7BB60
0x7BC90
0x7BD50
0x7BDC0
0x7BDF0
0x7BE50
0x7BEA0
0x7BEC0
0x7BEF0
0x7C004
0x7C050
0x7C0E0
0x7C120
0x7C160
0x7C180
0x7C1B0
0x7C1CF
0x7C5E0
0x7C820
0x7C970
0x7C98C
0x7CDF0
0x7D180
0x7D220
0x7D580
0x7DB60
0x7DBD0
0x7DE40
0x7DF60
0x7E410
0x7E540
0x7F450
0x7F800
0x7F860
0x7FAC3
0x7FE00
0x7FE50
0x7FEB0
0x7FF80
0x800C0
0x80A40
0x80B90
0x80EE3
0x81410
0x81690
0x817B0
0x81860
0x81C50
0x81D40
0x81DC0
0x81DF0
0x81E50
0x81EB0
0x81F10
0x81F70
0x81F90
0x81FF0
0x820A0
0x82120
0x821D0
0x82550
0x83A10
0x83B80
0x83BA5
0x83CA0
0x83F90
0x844C0
0x84750
0x84970
0x84B80
0x84F1B
0x84F90
0x84FF0
0x85090
0x850F0
0x85150
0x85180
0x851A0
0x851D0
0x851F0
0x85220
0x852F0
0x85AB0
0x85B60
0x85C30
0x85C80
0x85CB0
0x85D20
0x85D80
0x85DE0
0x85E00
0x85E30
0x85F40
0x85F60
0x85F80
0x85FA0
0x85FD0
0x86020
0x860A0
0x860C0
0x860F0
0x86110
0x86140
0x86180
0x861B0
0x861D0
0x86200
0x86240
0x86260
0x862F0
0x86350
0x86560
0x87100
0x873C0
0x873C4
0x873C6
0x873C9
0x8749B
0x874D0
0x874D4
0x875D5
0x87640
0x87644
0x87970
0x87974
0x87976
0x87A87
0x87B67
0x87BD0
0x87BD4
0x87BD6
0x87FA0
0x88170
0x88180
0x881F0
0x88230
0x882A0
0x88300
0x88430
0x884B0
0x88690
0x886D0
0x88740
0x888F0
0x88960
0x88A10
0x88B46
0x88B60
0x88D20
0x88DC0
0x88E70
0x88F10
0x88FA0
0x891F0
0x89380
0x89490
0x89510
0x89BE0
0x89D80
0x89DE0
0x89E90
0x89EF0
0x89F50
0x8A0B0
0x8A1B0
0x8A440
0x8A4A0
0x8A606
0x8A6D0
0x8A840
0x8A930
0x8A950
0x8B210
0x8B230
0x8B5A0
0x8B720
0x8B8B0
0x8B910
0x8BA10
0x8BCB0
0x8BE80
0x8BFC0
0x8C070
0x8C189
0x8C29D
0x8C380
0x8C4B0
0x8C6F0
0x8D170
0x8D3B0
0x8D550
0x8D570
0x8D5A0
0x8D750
0x8D770
0x8D810
0x8D930
0x8D970
0x8DB80
0x8DC60
0x8DD00
0x8DDD0
0x8DED0
0x8DF1E
0x8E5B0
0x8E640
0x8E720
0x8E7C0
0x8E860
0x8E8F0
0x8E980
0x8E9A0
0x8E9C0
0x8E9F0
0x8EA60
0x8EA90
0x8EBC0
0x8ECE0
0x8ED10
0x8ED90
0x8EEE0
0x8EEE4
0x8F360
0x8F3F0
0x8F480
0x8F510
0x8F515
0x8F721
0x8F900
0x8F960
0x8F9D0
0x8FC70
0x8FD50
0x8FD54
0x902F1
0x9071A
0x90970
0x90974
0x90976
0x90979
0x90A69
0x90CF0
0x90CF4
0x90CF6
0x90E86
0x90EF0
0x90F30
0x90F34
0x91124
0x91180
0x91184
0x913C9
0x91420
0x91540
0x91660
0x91AE0
0x91B40
0x91CB0
0x91DC0
0x920A0
0x92230
0x92500
0x926C0
0x92780
0x927D0
0x92820
0x92870
0x928C0
0x92900
0x92940
0x92970
0x929B0
0x929F0
0x92A30
