0x400974
0x400B55
0x400BA4
0x400C0A
0x400D6A
0x400FE0
0x400FF0
0x4011A0
0x4011AB
0x401339
0x401390
0x401430
0x401432
0x401442
0x401B00
0x401B4E
0x401C10
0x401CF0
0x401D0B
0x401FB2
0x40207C
0x402090
0x4021C0
0x4021C2
0x4021C6
0x402330
0x402501
0x402700
0x402C40
0x402C43
0x402C49
0x402C5D
0x403010
0x40317A
0x4031D0
0x4031D2
0x403445
0x403448
0x4034B2
0x4034B5
0x403562
0x4036A0
0x403820
0x403829
0x403911
0x403AF8
0x403BB0
0x403C80
0x403CE9
0x403CFA
0x403D10
0x403DC8
0x403F60
0x403F97
0x40443B
0x40463C
0x4047E1
0x404813
0x404AF9
0x404B40
