0x400974
0x400B55
0x400BA4
0x400C0A
0x400D6A
0x400FD0
0x400FE0
0x401190
0x40119B
0x401329
0x401380
0x401420
0x401422
0x401AE0
0x401B2E
0x401BF0
0x401CD0
0x401F92
0x402050
0x402052
0x40206D
0x4021B0
0x40221B
0x402440
0x402648
0x402737
0x4027DC
0x402ACB
0x4030C3
0x4030DA
0x403392
0x403396
0x4038E0
0x403A4A
0x403AA0
0x403AA2
0x403D35
0x403D38
0x403DA2
0x403DA5
0x403E52
0x403F90
0x404034
0x404250
0x404359
0x404402
0x404450
0x404452
0x404456
0x404489
0x4044A5
0x40451F
0x40453E
0x4047E0
0x4048B0
0x404919
0x40492A
0x404940
0x404954
0x40498A
0x4049C2
0x404B0E
0x404B90
0x404BC7
0x40506B
0x40526C
0x405411
0x405443
0x405721
0x405770
