0x4015B5
0x401604
0x40166A
0x401680
0x4016A0
0x401D30
0x401D40
0x401D90
0x401DA0
0x401DB0
0x401DC0
0x401DD0
0x401E00
0x401E20
0x401E30
0x401E70
0x401EB0
0x402140
0x402180
0x402370
0x402460
0x402870
0x402BD0
0x402DE0
0x403000
0x403ED3
0x40506B
0x40524C
0x4053F0
0x4053F4
0x4055A7
0x405C5E
0x405D0F
0x40604B
0x4067A0
0x4067E0
0x406820
0x406890
0x4068E0
0x407AF0
0x407BD0
0x407BD4
0x40A4A0
0x40A890
0x40B260
0x40B264
0x40D2B0
0x40E610
0x40E8C0
0x40E8C4
0x40E8C6
0x40E8C9
0x40EB71
0x40EC26
0x40EEA0
0x40EF80
0x40EF84
0x40F794
0x40F7FA
0x40F8B0
0x40F919
0x40F960
0x40FA85
0x40FD17
0x40FD30
0x40FDF0
0x40FF30
0x410010
0x410090
0x410094
0x41009D
0x41040E
0x4136F8
0x4137F0
0x4138D0
0x413980
0x413AD0
0x413BF0
0x413C80
0x413CD0
0x413D20
0x413DB0
0x413E40
0x413ED0
0x413F30
0x4158C0
0x416230
0x416240
0x416280
0x416320
0x416390
0x416400
0x416560
0x4166C0
0x416700
0x416730
0x416790
0x4167F0
0x416940
0x416B02
0x416CB3
0x417047
0x417880
0x417BA0
0x417CE0
0x418470
0x418570
0x418800
0x418BC0
0x4190D0
0x419170
0x419310
0x419410
0x419500
0x419830
0x419890
0x419AE0
0x419C50
0x41A2F0
0x41A990
0x41AB50
0x41B090
0x41B0E0
0x41B200
0x41B3F0
0x41B5A0
0x41B743
0x41B7C4
0x41B800
0x41BA00
0x41BF20
0x41C530
0x41C580
0x41C670
0x41C7E0
0x41C860
0x41C8D0
0x41C963
0x41C990
0x41CA90
0x41CAF0
0x41CB80
0x41CC00
0x41CE00
0x41CEB0
0x41D2E0
0x41D350
0x41D420
0x41D7B0
0x41DBB0
0x41DCE0
0x41DED0
0x41E070
0x41E230
0x41E3D0
0x41E590
0x41E5D0
0x41E6C0
0x41E820
0x41EA70
0x41EC30
0x41ECD0
0x41EDE0
0x41EF50
0x41F020
0x41F2C0
0x41F450
0x41F700
0x41F730
0x41FB60
0x41FC00
0x41FCF0
0x41FD80
0x41FE80
0x41FF90
0x420130
0x4201A0
0x4201F0
0x420390
0x4203E0
0x420440
0x420620
0x420A40
0x420AA0
0x421750
0x4217F0
0x421920
0x421C20
0x421C70
0x421D00
0x421F90
0x422215
0x4222D0
0x422340
0x422390
0x4223F0
0x422440
0x422450
0x422510
0x422690
0x4226D0
0x4227F0
0x422860
0x422870
0x4228A0
0x4229B0
0x4229C0
0x4229E0
0x422BF0
0x422D60
0x422E40
0x422F20
0x423000
0x4233C0
0x4234E0
0x423600
0x423750
0x423BD0
0x423D30
0x423E10
0x4240D0
0x424190
0x424220
0x424330
0x424420
0x424590
0x424680
0x424720
0x4247F0
0x424890
0x424970
0x424A00
0x424B10
0x424B90
0x424CA0
0x424DF0
0x4251E0
0x425C60
0x425ED0
0x426100
0x426370
0x42639A
0x4263A5
0x4263B0
0x4263BB
0x426A50
0x426B20
0x426B24
0x427355
0x4275D0
0x4275D4
0x427870
0x427B40
0x427B45
0x427D90
0x4282E0
0x428370
0x4289C0
0x428C90
0x428DC0
0x428F50
0x428FF0
0x429270
0x4292E0
0x429420
0x4294A0
0x429570
0x4295B0
0x429640
0x429714
0x429730
0x4297E0
0x429970
0x4299A0
0x4299C1
0x4299E0
0x429A60
0x429CB0
0x429D00
0x429E80
0x429F80
0x42A1A0
0x42A3E0
0x42A4D0
0x42A5A0
0x42A620
0x42A6D0
0x42A830
0x42A8B0
0x42A980
0x42A9E0
0x42AA10
0x42AA50
0x42AB90
0x42ACC0
0x42AFF0
0x42B160
0x42B250
0x42B3F0
0x42B730
0x42B734
0x42C060
0x42C0C0
0x42C0C4
0x42C295
0x42C9B0
0x42CA10
0x42CA70
0x42CB60
0x42CB64
0x42D850
0x42D980
0x42D9C0
0x42DA20
0x42DB40
0x42DC40
0x42DD30
0x42DDE0
0x42DE30
0x42DE70
0x42DEF0
0x42DF60
0x42DFB0
0x42E000
0x42E060
0x42E0B0
0x42E6F0
0x42E710
0x42E7E0
0x42E830
0x42EA70
0x42EC90
0x42ECE0
0x42ED30
0x42ED90
0x42EE10
0x42F360
0x42F400
0x42F630
0x42F6B0
0x42F8C0
0x42F9D0
0x42FA60
0x42FDB0
0x42FED0
0x42FF10
0x430880
0x4309D0
0x430A20
0x430A90
0x431180
0x431260
0x431360
0x431740
0x431940
0x4319E0
0x431F60
0x431FE0
0x431FF0
0x432000
0x432078
0x432090
0x432120
0x4321F0
0x432390
0x432570
0x4325D0
0x432780
0x432870
0x432A30
0x432AB0
0x432B70
0x432C00
0x4334E0
0x433590
0x433660
0x4337F0
0x4338B0
0x4339A0
0x434130
0x434A20
0x434E40
0x435220
0x4357DF
0x435A60
0x436790
0x436E10
0x437280
0x437690
0x437C4F
0x437ED0
0x438C00
0x439420
0x439510
0x439876
0x43AA48
0x43AF61
0x43BD76
0x43BD9A
0x43BDF2
0x43BE28
