0x4010A5
0x4032D1
0x403781
0x405C11
0x40B508
0x40B7B0
0x40C08A
0x40C353
0x40C35A
0x40C375
0x40C3C4
0x40C42A
0x40C440
0x40C5D5
0x40C606
0x40C692
0x40CB60
0x40CB80
0x40CBC0
0x40CFC0
0x40D082
0x40D0B0
0x40D0BA
0x40D0BE
0x40D490
0x40D499
0x40D648
0x40D68E
0x40D7CC
0x40D81D
0x40D8F0
0x40DB10
0x40DE80
0x40DFA2
0x40E050
0x40E052
0x40E120
0x40E560
0x40E565
0x40E691
0x40E8B0
0x40E960
0x40E9F6
0x40EA50
0x40EA90
0x40EB28
0x40EBD0
0x40ED58
0x40EE63
0x40EE6C
0x40EEE1
0x40EEEB
0x40F002
0x40F00B
0x40F0B6
0x40F130
0x40F163
0x40F464
0x40F530
0x40F545
0x40F5E8
0x40F630
0x40F634
0x40FA81
0x40FC50
0x410346
0x4103C0
0x4104B6
0x410690
0x4106B7
0x410764
0x4107B4
0x410870
0x410872
0x410876
0x410878
0x4108A1
0x4108B0
0x410D9A
0x410DAA
0x411507
0x411788
0x4119D7
0x411A00
0x411A36
0x412130
0x4121F0
0x4122A0
0x412379
0x412400
0x41241C
0x412528
0x412554
0x4125A0
0x4125B9
0x4125F1
0x412708
0x412779
0x41288F
0x412910
0x412978
0x412A28
0x412AC0
0x412ED6
0x413410
0x41341F
0x413467
0x413510
0x413514
0x4135C8
0x4136E0
0x41371E
0x413A1F
0x413A56
0x413DA1
0x413E34
0x414100
0x414102
0x414121
0x41415A
0x4145A6
0x4146D0
0x41474D
0x414BB0
0x414CD0
0x414DF0
0x415180
0x415B50
0x415B59
0x415C70
0x415EB8
0x415F64
0x415FF0
0x416030
0x416160
0x416498
0x416FC0
0x416FC6
0x4175F0
0x4175F9
0x4175FC
0x417F32
0x417F38
0x417FD3
0x4181D0
0x4181D2
0x4181D3
0x418427
0x41844C
0x4184E4
0x418509
0x418623
0x419024
0x4191E2
0x4191E8
0x4194A0
0x419790
0x4197CC
0x419922
0x419A80
0x419C40
0x419C70
0x419CF0
0x419DE0
0x419F00
0x419F38
0x41A010
0x41A130
0x41A17D
0x41A267
0x41A315
0x41A34B
0x41A400
0x41A582
0x41A6F0
0x41A6F2
0x41A6F6
0x41A70A
0x41A7D7
0x41AB66
0x41AC1B
0x41AD99
0x41ADA9
0x41B1E3
0x41B1E7
0x41B460
0x41BB00
0x41BB0D
0x41BC57
0x41C610
0x41C7C1
0x41C942
0x41CC20
0x41D226
0x41D25D
0x41D4CD
0x41D4DA
0x41D669
0x41D71A
0x41D933
0x41DCC2
0x41DE32
0x41DE86
0x41DFA0
0x41DFB0
0x41E030
0x41E8BB
0x41EAE7
0x41F0C3
0x41F349
0x41F790
0x41FAB0
0x41FC60
0x41FDA1
0x41FE20
0x420090
0x4203E0
0x42137F
0x421552
0x4217F7
0x421AF0
0x421AF8
0x421C2E
0x421CA8
0x421D40
0x421F90
0x421FE6
0x422098
0x4221D0
0x422350
0x4223B9
0x422441
0x422530
0x422790
0x422820
0x422823
0x422B40
0x422F10
0x422F18
0x422F94
0x423070
0x423268
0x423487
0x423760
0x4239B0
0x4239C8
0x424130
0x424370
0x424383
0x424516
0x424547
0x4245D1
0x424691
0x4246F9
0x424EB0
0x4251B9
0x4255A2
0x426AF0
0x426AF2
0x426AF6
0x426C8B
0x426CE1
0x426D73
0x426F20
0x426F22
0x426F26
0x4273D0
0x4273D2
0x4273D6
0x427473
0x427AC7
0x427D00
0x427F90
0x4281A0
0x4281A8
0x4282E0
0x428360
0x428546
0x428CB8
0x428D40
0x428E4E
0x429079
0x4290BE
0x4292BB
0x4293FB
0x4294A0
0x42960F
0x429720
0x429AAD
0x429F40
0x42A4AF
0x42A4F0
0x42A59C
0x42A947
0x42A9AF
0x42AC96
0x42AED0
0x42AF00
0x42AF0C
0x42B140
0x42B142
0x42B490
0x42B4C5
0x42B5AA
0x42BA20
0x42BA28
0x42BBE2
0x42BC08
0x42BD10
0x42BD20
0x42BE60
0x42BE63
0x42BFA0
0x42BFA2
0x42C000
0x42C038
0x42C095
0x42C260
0x42C262
0x42C266
0x42C285
0x42C568
0x42CA40
0x42CA7D
0x42CAA0
0x42CAC5
0x42D060
0x42D3B3
0x42D45D
0x42D520
0x42D524
0x42D528
0x42D7BC
0x42DBD2
0x42DC58
0x42DF8D
0x42DF99
0x42E080
0x42E088
0x42E1E0
0x42E283
0x42E2D7
0x42ED60
0x42EE12
0x42EE1C
0x42EF66
0x42EFF3
0x42F050
0x42F069
0x42F110
0x42F150
0x42F166
0x42F1C2
0x42F2E7
0x42F3D1
0x42F404
0x42F520
0x42F5E0
0x42F654
0x42F840
0x42F950
0x42F9A0
0x42FA9F
0x42FBA0
0x42FECC
0x42FEDA
0x42FF92
0x4300C6
0x430120
0x4303D0
0x4307BF
0x430C08
0x430CAB
0x430D10
0x430D70
0x431085
0x431214
0x431351
0x4313B0
0x431917
0x431A74
0x431C80
0x431D27
0x431E97
0x432070
0x4320A2
0x4320B8
0x4320BB
0x4320D8
0x4320D9
0x4321B0
0x4321D0
0x4321D2
0x4321D6
0x4323B0
0x43244D
0x432642
0x432B38
0x432B50
0x4333F0
0x43360E
0x433635
0x4336F0
0x4336F2
0x4336F6
0x434081
0x434087
0x434215
0x434340
0x4343A0
0x4343A5
0x434472
0x434499
0x434571
0x434620
0x434637
0x4348A1
0x4348F0
0x434904
0x43490A
0x434A62
0x434C20
0x435140
0x4354F0
0x4354FE
0x435851
0x435A84
0x435B0E
0x435B49
0x435C90
0x435DA0
0x435E83
0x435F10
0x435F1F
0x4360C0
0x4360C4
0x4360E0
0x436163
0x436261
0x436392
0x436419
0x436510
0x43691E
0x437B90
0x437BA8
0x437BDB
0x437E90
0x438290
0x4382E0
0x4384E0
0x438920
0x438922
0x438A50
0x438A53
0x438C40
0x4394A1
0x439F00
0x43A140
0x43A2C0
0x43A329
0x43A440
0x43A71B
0x43A7B0
0x43A7BE
0x43A808
0x43A900
0x43A9E5
0x43AAA0
0x43AAC4
0x43AC2E
0x43AC44
0x43AD50
0x43B4D0
0x43B4D2
0x43B850
0x43B9A1
0x43BA54
0x43BAA0
0x43BB84
0x43BBF0
0x43BBF4
0x43BC30
0x43BC37
0x43BCA0
0x43BCF0
0x43BF25
0x43C2A0
0x43C2A2
0x43C2AD
0x43C2B2
0x43C8D0
0x43CAC0
0x43CB6E
0x43CFAD
0x43D0D1
0x43D2F0
0x43D327
0x43D560
0x43D590
0x43D59E
0x43DA98
0x43DE70
0x43DE72
0x43DE74
0x43E3AE
0x43E51C
0x43E650
0x43E657
0x43E9B9
0x43EA72
0x43EC20
0x43ED30
0x43ED3B
0x43F052
0x43F4D5
0x43F664
0x43FA2A
0x43FA50
0x43FB1D
0x43FD92
0x43FF84
0x4400D0
0x4400D2
0x4400DB
0x4403F2
0x440700
0x440769
0x4407C0
0x4407C3
0x440AC6
0x440BD7
0x440EB2
0x440EB3
0x440EB9
0x440FC6
0x440FE1
0x44102C
0x441110
0x441119
0x441160
0x4418A0
0x4418A3
0x442270
0x4424F0
0x4424F8
0x4428DE
0x442F50
0x442F58
0x443170
0x443184
0x443326
0x443AD5
0x443FC0
0x44404A
0x4444AD
0x4444CD
0x4445DD
0x4446DC
0x4446E6
0x444BD0
0x444BDB
0x4454CC
0x4454ED
0x44567D
0x4456BE
0x4456E2
0x44584E
0x44587A
0x4458A2
0x4458CA
0x4458F1
0x44590A
0x445D10
0x445DB3
0x445E36
0x446050
0x4460A0
0x446280
0x4463C0
0x446541
0x4465FF
0x446B00
0x446B16
0x446B5B
0x446C02
0x446E60
0x446EA0
0x446F00
0x446F20
0x446F3A
0x446F50
0x446F80
0x446F85
0x446FE5
0x447050
0x4470A0
0x4470A5
0x44713D
0x4471C0
0x447220
0x4475F0
0x4476AE
0x447C4A
0x447C70
0x447C79
0x447EC4
0x447F14
0x447FB0
0x447FB2
0x448490
0x4485CE
0x4486C0
0x448B00
0x448FD0
0x44903C
0x4490CD
0x4493A0
0x4494B2
0x4499E0
0x449AF7
0x449C28
0x449CD0
0x449CD2
0x449CD4
0x449FBE
0x44A004
0x44A1B0
0x44A302
0x44AF80
0x44B170
0x44B280
0x44B288
0x44B310
0x44B380
0x44B42C
0x44B7D0
0x44B840
0x44B8D5
0x44B9D2
0x44B9D4
0x44BB6E
0x44BC40
0x44BC47
0x44BCF0
0x44BCF8
0x44BEBA
0x44BF83
0x44C04A
0x44C0C0
0x44C0D0
0x44C30F
0x44C358
0x44C492
0x44C620
0x44C840
0x44C850
0x44CA90
0x44CF30
0x44D004
0x44D050
0x44D062
0x44D523
0x44D528
0x44D590
0x44D610
0x44D62B
0x44D62E
0x44D63D
0x44D712
0x44D746
0x44DB75
0x44DC07
0x44E12B
0x44E700
0x44EB84
0x44EC74
0x44EEB1
0x44EF80
0x44EFCC
0x44EFE4
0x44EFF0
0x44F03C
0x44F054
0x44F060
0x44F33B
0x44F400
0x44F440
0x44F4A0
0x44F4B2
0x44F698
0x44F720
0x44F790
0x44F800
0x44F97D
0x44FB50
0x44FB90
0x44FBD0
0x44FBF1
0x44FC60
0x44FD50
0x44FD84
0x450206
0x45033E
0x450380
0x45039A
0x4504D1
0x450610
0x45061C
0x450622
0x450627
0x4507A7
0x4508C7
0x4508C9
0x4508CA
0x4508D1
0x4508D5
0x450969
0x450A00
0x450C4A
0x450E41
0x450F10
0x4511E0
0x4515B0
0x451830
0x451CD0
0x451D90
0x451E40
0x451F40
0x451F43
0x451F70
0x4522F0
0x452560
0x452590
0x45259E
0x452610
0x452614
0x452995
0x4529A0
0x452A38
0x452A4A
0x452A70
0x452A72
0x452A76
0x452F19
0x452FF0
0x452FF2
0x453645
0x454000
0x454570
0x454572
0x454576
0x454578
0x454584
0x454B60
0x454B6A
0x4555B2
0x45562B
0x455850
0x45585B
0x455E40
0x455E53
0x456110
0x456412
0x456631
0x456710
0x456AD7
0x457010
0x45705B
0x45718F
0x457517
0x457690
0x457A01
0x457A72
0x457A74
0x457CE8
0x457D90
0x4581B6
0x4581F3
0x4581F7
0x4583BB
0x4586D3
0x458B40
0x458CE0
0x459090
0x459097
0x459279
0x4595C2
0x4595C5
0x459764
0x459C00
0x459C02
0x459C0E
0x459C15
0x45A370
0x45A582
0x45A58A
0x45AB25
0x45AB80
0x45AB98
0x45B380
0x45B530
0x45B820
0x45B940
0x45BC80
0x45BEFC
0x45BF05
0x45C8C0
0x45CBF9
0x45CDC2
0x45CF35
0x45D740
0x45DDE3
0x45DF73
0x45E040
0x45E070
0x45E117
0x45E1B0
0x45E420
0x45E480
0x45E48B
0x45E490
0x45ECBB
0x45EF00
0x45EF06
0x45F340
0x45F480
0x45F571
0x45F635
0x45F65B
0x45F700
0x45F8F6
0x45F9A6
0x45FC10
0x45FD30
0x460060
0x460062
0x460063
0x461DC2
0x461E80
0x461E89
0x461F95
0x46220E
0x4622C0
0x4622CF
0x462880
0x462882
0x4629A0
0x462FF0
0x463039
0x463408
0x46342C
0x4639B0
0x4639B2
0x4639B6
0x4639D1
0x463BF0
0x463C76
0x463D00
0x463D0B
0x463D12
0x463F1C
0x4641B0
0x46436B
0x4643D5
0x46442D
0x464533
0x46455C
0x464590
0x464655
0x4649FE
0x465146
0x4654C9
0x4655F5
0x465664
0x465A33
0x465BD6
0x465FD0
0x465FDA
0x466061
0x4660B7
0x4660BC
0x466135
0x46628A
0x46633A
0x466382
0x4665B0
0x4665B9
0x466821
0x466C20
0x467200
0x46743E
0x46744A
0x467454
0x467599
0x4675E9
0x467690
0x4677A5
0x4677E0
0x467E35
0x467E7C
0x467EB6
0x467F20
0x467F31
0x4689B6
0x468B04
0x469195
0x469290
0x469427
0x469480
0x469B90
0x469C3D
0x469C55
0x469CD1
0x469DB0
0x469E40
0x469EC5
0x469F00
0x469F0A
0x46A4D0
0x46A588
0x46A5F1
0x46A6F5
0x46A898
0x46A8E0
0x46A8E5
0x46AA00
0x46AE31
0x46AEA5
0x46B104
0x46B270
0x46B2A0
0x46B2EB
0x46B353
0x46B3FE
0x46B4C5
0x46B502
0x46B510
0x46B683
0x46B7C3
0x46B844
0x46B84A
0x46B8A0
0x46B8A2
0x46B8A6
0x46B965
0x46BAE0
0x46BEE5
0x46BF20
0x46BF28
0x46C203
0x46C383
0x46C408
0x46C510
0x46C880
0x46C8BA
0x46CA03
0x46CF6A
0x46D008
0x46D20F
0x46D2C1
0x46D3C1
0x46D4E0
0x46D4E2
0x46DC1F
0x46DC66
0x46DC88
0x46DC96
0x46DD37
0x46DE70
0x46DE79
0x46DEDC
0x46E010
0x46E1FB
0x46E6C4
0x46EA16
0x46F1A0
0x46F1A4
0x46F320
0x46F322
0x46F3A3
0x46F850
0x46FD50
0x46FD5F
0x46FE38
0x46FF00
0x46FF02
0x46FF15
0x46FF55
0x470210
0x470214
0x470230
0x470260
0x470738
0x470840
0x470A40
0x470A46
0x470BE0
0x470C71
0x470FE0
0x47110E
0x4711B2
0x4712A3
0x4712AD
0x471365
0x47145A
0x4714C4
0x4717E4
0x47192C
0x4719A0
0x4719A4
0x4719BF
0x471AE0
0x471AE2
0x471AE6
0x471E17
0x472000
0x472002
0x472473
0x472540
0x472548
0x472639
0x4726D0
0x472700
0x472704
0x472B60
0x472B68
0x472B6A
0x472C35
0x472D3D
0x472D49
0x472EBD
0x473434
0x4735B0
0x4735B4
0x4735B8
0x4735DC
0x4738C0
0x473960
0x4739EB
0x473D3E
0x4740A2
0x474110
0x47419F
0x474549
0x474829
0x474CE0
0x474DD2
0x474EAD
0x474F82
0x474FC7
0x475071
0x4751DE
0x475417
0x475970
0x4759E3
0x475B90
0x475C10
0x475C29
0x475CDD
0x475DD0
0x475DDD
0x476206
0x4762F0
0x47630B
0x476410
0x47670A
0x477224
0x477840
0x477AA0
0x477AAD
0x477CED
0x477FF1
0x47807E
0x4781D4
0x47824B
0x4782A7
0x478662
0x4787E0
0x4787ED
0x47937E
0x4794B2
0x4794DE
0x4796DA
0x4796FF
0x4797A0
0x479880
0x479C60
0x47A160
0x47A162
0x47A166
0x47AB40
0x47AE30
0x47B34A
0x47C6D4
0x47C7D1
0x47CB02
0x47CB70
0x47CB74
0x47CCE2
0x47D470
0x47DA00
0x47DF1A
0x47F244
0x47F341
0x47F672
0x47F6E0
0x47F6E2
0x47F768
0x47F8C8
0x47FF32
0x47FF60
0x4800B0
0x480390
0x4808BA
0x4815B0
0x481681
0x481830
0x48183E
0x481A50
0x481DC4
0x48212D
0x482190
0x4822C1
0x482381
0x4823F1
0x482460
0x482472
0x4824C2
0x482530
0x482534
0x482538
0x4825C1
0x4828BE
0x482940
0x482C20
0x482F70
0x482F73
0x4832B0
0x4835A0
0x4838D2
0x4838EA
0x483920
0x483950
0x48398E
0x483A10
0x483CE2
0x483CFA
0x483D30
0x483D60
0x483D90
0x4840E8
0x484104
0x4841C0
0x4841C8
0x484220
0x484362
0x4844A0
0x484617
0x484680
0x4846D0
0x484760
0x484870
0x4849A2
0x484A96
0x484BD0
0x484EF7
0x485000
0x48500B
0x48501C
0x485112
0x485280
0x485580
