0x4048E0
0x406695
0x4066E4
0x40674A
0x406756
0x4067F5
0x406894
0x406933
0x4069D2
0x4069D8
0x406A0E
0x406A18
0x406A8C
0x406B6A
0x406C18
0x406C3E
0x406C44
0x406D6C
0x406DAE
0x406F1E
0x406F3A
0x4071B0
0x4071B6
0x4074A4
0x407532
0x407536
0x407C74
0x407C78
0x407C81
0x4088A2
0x4088C0
0x4088F2
0x4089E7
0x4089FC
0x408A56
0x408A6E
0x408A7E
0x408AA4
0x408AB4
0x408AC4
0x408ADA
0x408B06
0x408B30
0x408B54
0x408B9E
0x408BBA
0x408BD6
0x408BDC
0x408C26
0x408C2C
0x408CFC
0x408D22
0x408D34
0x408D6A
0x408D94
0x408EE0
0x408EF2
0x408F10
0x408F2E
0x408F40
0x408F72
0x408F78
0x408FC1
0x408FCE
0x408FF6
0x409032
0x409058
0x409074
0x4090F4
0x409248
0x4092C2
0x4092DE
0x4092FA
0x409354
0x4093D9
0x40945E
0x4094C4
0x4094EA
0x40950A
0x409524
0x40953E
0x409560
0x4095BC
0x4095DA
0x4095F6
0x409612
0x409678
0x40968A
0x4096A6
0x409718
0x409726
0x409750
0x40979C
0x4097E8
0x409806
0x409868
0x409873
0x409885
0x409898
0x4098D2
0x4098EE
0x409923
0x40994A
0x409964
0x409972
0x40998E
0x4099D0
0x409A4A
0x409A80
0x409A8B
0x409AB9
0x409AC8
0x409AD4
0x409B08
0x409B24
0x409B50
0x409B6F
0x409B9E
0x409BAC
0x409BD0
0x409BDE
0x409BFE
0x409C0A
0x409C2E
0x409C3A
0x409C76
0x409C9C
0x409D4E
0x409D70
0x409DA0
0x409DC6
0x409DE2
0x409E12
0x409E76
0x409F64
0x40A3C5
0x40A403
0x40A418
0x40A472
0x40A4EA
0x40A55E
0x40A596
0x40A5DC
0x40A61E
0x40A6C4
0x40A7DE
0x40A868
0x40A898
0x40A8CE
0x40A90A
0x40A970
0x40A9DE
0x40AA14
0x40AA26
0x40AA6E
0x40AAB6
0x40AB4A
0x40ACE6
0x40B012
0x40B238
0x40B2A2
0x40B4A0
0x40BAC8
0x40BC07
0x40BC93
0x40BCF8
0x40BD7C
0x40BE0A
0x40BF22
0x40BF60
0x40BF75
0x40BF94
0x40BFBC
0x40C028
0x40C04A
0x40C080
0x40C0B4
0x40C0D0
0x40C180
0x40C22D
0x40C244
0x40C2CE
0x40C347
0x40C440
0x40C528
0x40C904
0x40C97D
0x40D4B8
0x40DAEA
0x40DAF0
0x40DB5E
0x40DB70
0x40DF1E
0x40E04C
0x40E052
0x40E0D2
0x40E0F8
0x40E12E
0x40E144
0x40E16A
0x40E196
0x40E1BE
0x40E1F2
0x40E218
0x40E23A
0x40E286
0x40E318
0x40E364
0x40E73A
0x40E740
0x40E948
0x40EA9E
0x40EBBC
0x40ED76
0x40EDE8
0x40F1B1
0x40F1DE
0x40F322
0x40F328
0x40F4C2
0x40F54A
0x40F562
0x40F57C
0x40F58E
0x40F59E
0x40F5F2
0x40F646
0x40F662
0x40F6C8
0x40F6EE
0x40F752
0x40F7B4
0x40F830
0x40F87E
0x40F8C6
0x40F8CB
0x40FA16
0x40FA4E
0x40FA7E
0x40FA9A
0x40FAB6
0x40FB38
0x40FB46
0x40FB70
0x40FBB6
0x40FC0A
0x40FC5E
0x40FC9A
0x40FCE6
0x40FD5C
0x40FD6D
0x40FD9C
0x40FE36
0x40FEAE
0x4102E0
0x4102FD
0x410351
0x41038E
0x4103CC
0x4103E8
0x41041D
0x410444
0x410462
0x410470
0x4104D8
0x4104E6
0x410532
0x41061E
0x410651
0x410683
0x4106AA
0x4106C6
0x4106D1
0x4106FF
0x410737
0x410751
0x4107AA
0x4107CC
0x4107F7
0x410821
0x410852
0x410872
0x41087E
0x4108A1
0x4108AF
0x4108CA
0x4108D8
0x4108F2
0x410923
0x41093E
0x41094C
0x41099E
0x4109CF
0x410A3C
0x410A50
0x410AE1
0x410B46
0x410BAA
0x410C94
0x410CEA
0x410D66
0x410DE2
0x410EC2
0x410F3E
0x410FBA
0x41107A
0x411130
0x411212
0x4112BC
0x411372
0x411458
0x4115C4
0x41168C
0x41177A
0x4117EA
0x41185A
0x411980
0x411A30
0x411AA0
0x411B56
0x411C36
0x411F3E
0x411FB8
0x412070
0x412110
0x412180
0x412228
0x4122EE
0x4123D2
0x4124B6
0x412580
0x41266E
0x4126EA
0x412766
0x4127FA
0x4128DC
0x412970
0x412A04
0x412A98
0x412B50
0x412BC0
0x412C54
0x412D48
0x412E3C
0x412F30
0x413024
0x413172
0x41319E
0x4131CE
0x4131F4
0x413230
0x413256
0x413292
0x4132B8
0x4132BE
0x4132FE
0x413308
0x41337C
0x413382
0x4133C7
0x4133D1
0x413446
0x413560
0x413778
0x4138AA
0x4138D0
0x4140FC
0x41413E
0x4141C6
0x4141CC
0x414228
0x41422E
0x41428A
0x414444
0x41444A
0x4144C2
0x4144C8
0x4145F0
0x41466E
0x4147B4
0x414900
0x41493E
0x4149BA
0x414A36
0x414A82
0x414AE2
0x414AF2
0x414B50
0x414BAE
0x414BF2
0x414C1C
0x414CB0
0x414D66
0x414DE0
0x414E06
0x414EC0
0x414F28
0x414FB0
0x414FB6
0x415012
0x415018
0x415074
0x41507A
0x41523E
0x4152F6
0x4153DA
0x4153E0
0x415464
0x41546A
0x415512
0x41551C
0x41566A
0x415770
0x415938
0x41596E
0x4159B2
0x4159F5
0x415A79
0x415A8E
0x415AA0
0x415AE0
0x415B06
0x415B24
0x415B36
0x415B46
0x415B56
0x415B78
0x415BCA
0x415C62
0x415C78
0x415C9E
0x415CBE
0x415CE8
0x415D0A
0x415D1B
0x415D27
0x415D9C
0x415E14
0x415E22
0x415E60
0x415E8E
0x415EBC
0x415EE2
0x415EF4
0x415F04
0x415F0A
0x415F54
0x415F66
0x415F96
0x415FAC
0x415FC2
0x415FC8
0x416012
0x416022
0x416078
0x4160AC
0x4160B2
0x416128
0x416168
0x41618E
0x41623A
0x416286
0x41638C
0x4164CC
0x4165D1
0x41660F
0x416624
0x416634
0x416644
0x4166B2
0x4166D8
0x416712
0x416748
0x4167E4
0x416850
0x41688C
0x4168B2
0x416934
0x41695C
0x416962
0x416AB6
0x416C0A
0x416CC4
0x416E5F
0x416E9D
0x416EB2
0x416EE2
0x416F08
0x416F20
0x416F8E
0x416FB4
0x417040
0x417094
0x41719C
0x4171C8
0x4172E0
0x4173B8
0x41753B
0x417579
0x41758E
0x4175EF
0x4175FC
0x417618
0x417634
0x417650
0x4176AA
0x4176C4
0x4176DE
0x4176F8
0x41771A
0x417746
0x417764
0x41778A
0x4177A4
0x4177C6
0x417908
0x417926
0x41794C
0x41796E
0x417994
0x4179B0
0x4179CC
0x417A32
0x417A44
0x417A5C
0x417AA8
0x417AF4
0x417B12
0x417C00
0x417C4C
0x417C72
0x417C94
0x417CB2
0x417CE0
0x417D44
0x417D62
0x417E4C
0x417EA8
0x417F0A
0x417F15
0x417F27
0x417F3A
0x417F74
0x417F8E
0x417F9C
0x417FAE
0x41806A
0x4180BA
0x4180D4
0x418120
0x41812A
0x418148
0x4181AC
0x4181BA
0x4181CC
0x4181DE
0x41829A
0x4182F0
0x41830C
0x41834E
0x4183C8
0x4183FE
0x41844D
0x418468
0x41847A
0x418494
0x418543
0x418555
0x418568
0x418574
0x4185A8
0x4185C4
0x4185D3
0x418602
0x418610
0x41862A
0x41862F
0x4189DE
0x418B04
0x418B12
0x418B32
0x418B3E
0x418B62
0x418BAE
0x418BC0
0x418BD2
0x418C02
0x418DC2
0x418DD4
0x418E00
0x418E2C
0x418E54
0x418E60
0x418EAC
0x418EEA
0x418F12
0x418F93
0x418FBE
0x419000
0x41904C
0x419060
0x41908C
0x419145
0x419172
0x4191A0
0x41926E
0x4192B1
0x419332
0x419383
0x419412
0x41948C
0x4194CA
0x419634
0x4196FA
0x4197C0
0x4197F8
0x4198B6
0x4198F5
0x419944
0x419993
0x4199E2
0x419A60
0x419B17
0x419B69
0x419BB7
0x419BF5
0x419C43
0x419C86
0x419CC9
0x419D0C
0x419D4F
0x419DCC
0x419ECE
0x41A023
0x41A0E2
0x41A0E7
0x41A224
0x41A34F
0x41A355
0x41A3E9
0x41A49B
0x41A66A
0x41A6AF
0x41A6F7
0x41A791
0x41A814
0x41A877
0x41A9CD
0x41AB84
0x41AD4E
0x41AD6E
0x41ADAE
0x41ADD8
0x41AE06
0x41AE30
0x41AE4C
0x41AE76
0x41AEA0
0x41AEBE
0x41AEE8
0x41AF12
0x41AF3C
0x41AF66
0x41AF94
0x41AFA6
0x41AFD0
0x41AFFE
0x41B01E
0x41B04C
0x41B05E
0x41B070
0x41B082
0x41B0ED
0x41B144
0x41B252
0x41B2C2
0x41B334
0x41B3C0
0x41B3E6
0x41B3F8
0x41B43A
0x41B45C
0x41B4E2
0x41B4E8
0x41B5EE
0x41B96C
0x41B982
0x41B998
0x41BA3C
0x41BA74
0x41BAEE
0x41BD10
0x41BD68
0x41BDF0
0x41BF94
0x41C040
0x41C072
0x41C0A4
0x41C0AA
0x41C1C8
0x41C38A
0x41C624
0x41C650
0x41C6AE
0x41C786
0x41C7C8
0x41C80A
0x41C872
0x41C8E0
0x41C956
0x41C987
0x41C9E3
0x41C9F8
0x41CAE6
0x41CAF2
0x41CAFE
0x41CB1C
0x41CB32
0x41CB5A
0x41CB78
0x41CB9E
0x41CBBC
0x41CBCE
0x41CBE0
0x41CBFC
0x41CC22
0x41CC3E
0x41CC59
0x41CDEE
0x41CE28
0x41CE8E
0x41CEA0
0x41CEE3
0x41CEF5
0x41CF08
0x41CF42
0x41CFBC
0x41CFF2
0x41D026
0x41D042
0x41D060
0x41D06F
0x41D09E
0x41D0AC
0x41D0BA
0x41D0DA
0x41D0E5
0x41D0F4
0x41D118
0x41D124
0x41D214
0x41D252
0x41D2AA
0x41D3C0
0x41D3C5
0x41D4D4
0x41D896
0x41DA7A
0x41DC30
0x41DD8A
0x41DEE6
0x41E040
0x41E1C4
0x41E34C
0x41E352
0x41E502
0x41E508
0x41E6B8
0x41E6BE
0x41E86E
0x41E9D0
0x41EB34
0x41EC96
0x41EE22
0x41EE28
0x41EFB2
0x41EFB8
0x41F16C
0x41F172
0x41F326
0x41F32C
0x41F4DF
0x41F51D
0x41F532
0x41F55E
0x41F570
0x41F582
0x41F5BC
0x41F5F5
0x41F626
0x41F642
0x41F6A7
0x41F772
0x41F7EE
0x41F80A
0x41F826
0x41F898
0x41F8A6
0x41F8D0
0x41F8FE
0x41F904
0x41FC4A
0x41FC96
0x41FCBC
0x41FCCA
0x41FD08
0x41FD24
0x41FD59
0x41FD80
0x41FDE8
0x41FDF6
0x41FE42
0x41FE54
0x41FF40
0x41FF88
0x41FFCC
0x41FFFF
0x420031
0x420058
0x420076
0x420092
0x42009D
0x4200CB
0x420103
0x42011D
0x420176
0x420198
0x4201C2
0x4201F4
0x420214
0x420220
0x420243
0x420251
0x42026C
0x42027A
0x420294
0x4202C5
0x4202E0
0x420322
0x420353
0x4203B7
0x420412
0x420426
0x4204B8
0x4204EA
0x42053E
0x42059A
0x4205F6
0x420636
0x4206F2
0x42072A
0x42076C
0x420772
0x4207C6
0x420824
0x420882
0x4208F0
0x42092E
0x420944
0x420962
0x42097E
0x4209A0
0x4209DC
0x420A02
0x420A24
0x420A40
0x420A5C
0x420AB6
0x420AD2
0x420AEE
0x420B54
0x420B66
0x420BC8
0x420BD3
0x420BE5
0x420BF8
0x420C32
0x420C4E
0x420C90
0x420D26
0x420D5C
0x420D68
0x420D9C
0x420DB8
0x420DD6
0x420E22
0x420E41
0x420E70
0x420E7E
0x420E8C
0x420EAC
0x420EB7
0x420EC6
0x420F2C
0x420F50
0x420F5C
0x420F78
0x420FEA
0x420FF8
0x421022
0x42103E
0x421073
0x42109A
0x4210A5
0x4210D3
0x4210E2
0x421106
0x421142
0x421168
0x42119C
0x421206
0x42122C
0x4212B8
0x4213F8
0x421408
0x421418
0x42141E
0x421486
0x42148C
0x4214F2
0x4214F8
0x421560
0x421566
0x4215CC
0x42160C
0x42164C
0x421652
0x4216B8
0x4216BE
0x421724
0x42172A
0x421790
0x421796
0x4217FC
0x42186C
0x421892
0x4218A4
0x4218FA
0x42195C
0x42196C
0x42197C
0x4219D4
0x4219DA
0x421C24
0x421D42
0x421E20
0x421E5E
0x421E74
0x421EC4
0x421EE2
0x421F00
0x421F1E
0x421F3C
0x421F5A
0x421F84
0x421FAE
0x421FD8
0x42201C
0x4220A4
0x4220AA
0x4220F4
0x4222EA
0x4227F4
0x4227FA
0x42287A
0x4228A0
0x4228D6
0x422A6E
0x422A74
0x422BEC
0x422C12
0x422C48
0x422C4E
0x422CBC
0x422D24
0x422DC4
0x422F90
0x422F96
0x4235D8
0x4235DE
0x423706
0x423730
0x42376A
0x4237CA
0x42382E
0x423970
0x4239EA
0x423A28
0x423A2E
0x423C32
0x423E56
0x423F98
0x423FE2
0x42401C
0x424142
0x42425C
0x42427C
0x4242F6
0x42439C
0x4248BE
0x424CC0
0x424CEE
0x424D1A
0x424D7C
0x424E06
0x424E2C
0x424E84
0x424ECC
0x424FA0
0x424FFC
0x425011
0x42503A
0x425046
0x425076
0x42509C
0x4250C6
0x4250D8
0x42510A
0x425110
0x42515A
0x42518C
0x425192
0x4251DC
0x425224
0x425252
0x4252A6
0x4252AC
0x42531E
0x425330
0x425342
0x425354
0x42536C
0x425392
0x4253A7
0x4253F4
0x425400
0x425422
0x425442
0x425462
0x4254AA
0x4254D0
0x4254EE
0x425500
0x42552D
0x42554E
0x425576
0x4255A6
0x4255E6
0x42560A
0x425638
0x425654
0x42566C
0x4256AE
0x4256B3
0x425B08
0x425B0E
0x425B5E
0x425B92
0x425BBC
0x425BE0
0x425C08
0x425C44
0x425C6A
0x425C7A
0x425C8A
0x425C9E
0x425CAE
0x425CBE
0x425CCE
0x425CEA
0x425CFE
0x425D1A
0x425D2A
0x425D3A
0x425D4E
0x425D6A
0x425D76
0x425D86
0x425D96
0x425DA6
0x425DB6
0x425DC6
0x425DD6
0x425DE6
0x425E06
0x425E20
0x425E48
0x425E58
0x425E78
0x425E88
0x425E9C
0x425F38
0x425F5A
0x425F6A
0x425F8C
0x425FB6
0x425FCE
0x425FDE
0x425FF6
0x426012
0x42602E
0x42604A
0x42606A
0x42608A
0x4260AA
0x4260CA
0x4260DA
0x4260EA
0x42610A
0x42611A
0x426154
0x426190
0x4261B6
0x4261F2
0x426218
0x426254
0x42627A
0x426301
0x42631C
0x4263C7
0x4263D8
0x426440
0x426557
0x42663F
0x426A1D
0x426A9C
0x426E50
0x426E64
0x4284CC
0x429356
0x42935C
0x4293D2
0x4293E8
0x429540
0x429751
0x4297FB
0x429839
0x42984E
0x429860
0x429872
0x4298A0
0x4298CA
0x4298F4
0x429922
0x42994C
0x429976
0x4299A0
0x4299CA
0x4299E8
0x429A16
0x429A40
0x429A6A
0x429A94
0x429ABE
0x429AEC
0x429B1A
0x429B44
0x429B72
0x429B9C
0x429BCA
0x429BF8
0x429C22
0x429C50
0x429C7E
0x429CA8
0x429CD6
0x429D04
0x429D2E
0x429D5C
0x429D8A
0x429DB4
0x429DE2
0x429E00
0x429E1E
0x429E3C
0x429E6A
0x429E98
0x429EC6
0x429EE6
0x429F06
0x42A0AE
0x42A0CA
0x42A130
0x42A36A
0x42A390
0x42A3B6
0x42A3D6
0x42A452
0x42A46E
0x42A48A
0x42A4FC
0x42A50A
0x42A534
0x42A55A
0x42A5AE
0x42A602
0x42A69A
0x42A6D0
0x42A718
0x42A764
0x42A7B0
0x42A7DA
0x42A826
0x42A858
0x42A89D
0x42A8CC
0x42ABDC
0x42AC1A
0x42AC35
0x42AC5C
0x42AC7A
0x42ACAD
0x42ACDE
0x42AD0C
0x42AD29
0x42AD43
0x42ADD9
0x42ADFF
0x42AE19
0x42AE71
0x42AEA2
0x42AEDA
0x42AEE8
0x42AF34
0x42AF46
0x42B032
0x42B075
0x42B0A7
0x42B0CE
0x42B0EA
0x42B0F5
0x42B104
0x42B12E
0x42B160
0x42B183
0x42B191
0x42B1AB
0x42B1C5
0x42B1F6
0x42B205
0x42B213
0x42B22D
0x42B25E
0x42B28B
0x42B2E4
0x42B306
0x42B316
0x42B322
0x42B364
0x42B391
0x42B3AE
0x42B3CB
0x42B430
0x42B461
0x42B47C
0x42B48A
0x42B49E
0x42B4EA
0x42B4F8
0x42B570
0x42B5C8
0x42B634
0x42B76B
0x42B7B6
0x42B80A
0x42B86A
0x42B87A
0x42B88C
0x42B89E
0x42B8B0
0x42B8C2
0x42B910
0x42B93C
0x42B968
0x42B994
0x42BA36
0x42BAE4
0x42BAF4
0x42BB22
0x42BB6C
0x42BBC4
0x42BBF2
0x42BC7A
0x42BCA6
0x42BCD2
0x42BCFE
0x42BD2A
0x42BD56
0x42BD82
0x42BDAE
0x42BDDA
0x42BE06
0x42BE32
0x42BE5E
0x42BF00
0x42BFAE
0x42BFBE
0x42BFEC
0x42C036
0x42C08E
0x42C0BC
0x42C144
0x42C170
0x42C1EA
0x42C26E
0x42C27E
0x42C29E
0x42C2CE
0x42C306
0x42C326
0x42C38E
0x42C3BA
0x42C3E6
0x42C460
0x42C4E4
0x42C4F4
0x42C514
0x42C544
0x42C57C
0x42C59C
0x42C604
0x42C630
0x42C65C
0x42C6E0
0x42C770
0x42C780
0x42C7AE
0x42C7FC
0x42C852
0x42C880
0x42C8FE
0x42C92A
0x42C956
0x42C982
0x42C9AE
0x42CA28
0x42CAAC
0x42CABC
0x42CADC
0x42CB0C
0x42CB44
0x42CB64
0x42CBCC
0x42CBF8
0x42CC24
0x42CC9E
0x42CD22
0x42CD32
0x42CD52
0x42CD82
0x42CDBA
0x42CDDA
0x42CE42
0x42CE6E
0x42CE9A
0x42CF14
0x42CF98
0x42CFA8
0x42CFC8
0x42CFF8
0x42D030
0x42D050
0x42D0B8
0x42D0E4
0x42D110
0x42D13C
0x42D168
0x42D194
0x42D1C0
0x42D23A
0x42D2BE
0x42D2CE
0x42D2EE
0x42D31E
0x42D356
0x42D376
0x42D3DE
0x42D40A
0x42D436
0x42D462
0x42D48E
0x42D4BA
0x42D534
0x42D5B8
0x42D5C8
0x42D5E8
0x42D618
0x42D650
0x42D670
0x42D6D8
0x42D704
0x42D730
0x42D75C
0x42D788
0x42D7B4
0x42D7E0
0x42D80C
0x42D838
0x42D864
0x42D8DE
0x42D962
0x42D972
0x42D992
0x42D9C2
0x42D9FA
0x42DA1A
0x42DA82
0x42DAAE
0x42DADA
0x42DB06
0x42DB32
0x42DBAC
0x42DC30
0x42DC40
0x42DC60
0x42DC90
0x42DCC8
0x42DCE8
0x42DD50
0x42DD7C
0x42DDA8
0x42DDD4
0x42DE00
0x42DE2C
0x42DE88
0x42DEF0
0x42DF00
0x42DF20
0x42DF52
0x42DF88
0x42DFA8
0x42E004
0x42E030
0x42E05C
0x42E088
0x42E0B4
0x42E0E0
0x42E116
0x42E1D6
0x42E2A2
0x42E2B2
0x42E2FA
0x42E394
0x42E44C
0x42E494
0x42E54E
0x42E57A
0x42E5A6
0x42E5D2
0x42E5FE
0x42E6AC
0x42E764
0x42E774
0x42E7AC
0x42E810
0x42E888
0x42E8C0
0x42E95E
0x42E98A
0x42E9B6
0x42E9E2
0x42EA0E
0x42EAB8
0x42EB6E
0x42EB7E
0x42EBB6
0x42EC18
0x42EC8C
0x42ECC4
0x42ED5C
0x42ED88
0x42EDB4
0x42EDE0
0x42EE5A
0x42EEDE
0x42EEEE
0x42EF0E
0x42EF3E
0x42EF76
0x42EF96
0x42EFFE
0x42F02A
0x42F056
0x42F082
0x42F0D6
0x42F136
0x42F146
0x42F158
0x42F16A
0x42F17C
0x42F18E
0x42F1DC
0x42F208
0x42F234
0x42F260
0x42F298
0x42F354
0x42F41A
0x42F42A
0x42F478
0x42F50C
0x42F5BC
0x42F60A
0x42F6BC
0x42F6E8
0x42F714
0x42F740
0x42F76C
0x42F7C0
0x42F820
0x42F830
0x42F842
0x42F854
0x42F866
0x42F878
0x42F8C6
0x42F8F2
0x42F91E
0x42F94A
0x42F976
0x42F9A2
0x42F9CE
0x42F9FA
0x42FA4E
0x42FAAE
0x42FABE
0x42FAD0
0x42FAE2
0x42FAF4
0x42FB06
0x42FB54
0x42FB80
0x42FBAC
0x42FBD8
0x42FCF8
0x42FE24
0x42FE34
0x42FE7C
0x42FF08
0x42FFBE
0x430006
0x4300EE
0x43011A
0x430146
0x430172
0x43019E
0x4301CA
0x430226
0x43028E
0x43029E
0x4302BE
0x4302F0
0x430326
0x430346
0x4303A2
0x4303CE
0x4303FA
0x430426
0x430452
0x43046F
0x43048A
0x4304A7
0x4304C2
0x4304FA
0x4306D6
0x4308BC
0x4308CC
0x43094C
0x4309FB
0x430A8D
0x430AC4
0x430B93
0x430C52
0x430C98
0x430D18
0x430EC6
0x430EF2
0x430F1E
0x430F4A
0x430F76
0x430FA2
0x430FCE
0x43109A
0x431170
0x431180
0x4311B8
0x43121A
0x431294
0x4312CC
0x431374
0x4313A0
0x4313CC
0x4313F8
0x431424
0x431478
0x4314D8
0x4314E8
0x4314FA
0x43150C
0x43151E
0x431530
0x43157E
0x4315AA
0x4315D6
0x431602
0x43162E
0x43165A
0x431726
0x4317FC
0x43180C
0x431844
0x4318A6
0x431920
0x431958
0x431A00
0x431A2C
0x431A58
0x431A84
0x431AFE
0x431B82
0x431B92
0x431BB2
0x431BE2
0x431C1A
0x431C3A
0x431CA2
0x431CCE
0x431CFA
0x431D26
0x431DA0
0x431E24
0x431E34
0x431E54
0x431E84
0x431EBC
0x431EDC
0x431F44
0x431F70
0x431F9C
0x431FC8
0x431FF4
0x432020
0x43204C
0x4320C6
0x43214A
0x43215A
0x43217A
0x4321AA
0x4321E2
0x432202
0x43226A
0x432296
0x4322C2
0x4322EE
0x43231A
0x432346
0x432372
0x4323EC
0x432470
0x432480
0x4324A0
0x4324D0
0x432508
0x432528
0x432590
0x4325BC
0x4325E8
0x432614
0x432640
0x43266C
0x432698
0x43273A
0x4327E8
0x4327F8
0x432826
0x432870
0x4328C8
0x4328F6
0x43297E
0x4329AA
0x4329D6
0x432A02
0x432A2E
0x432A5A
0x432A86
0x432ABC
0x432B92
0x432C74
0x432C84
0x432CD2
0x432D60
0x432E0E
0x432E5C
0x432F12
0x432F3E
0x432F6A
0x43300C
0x4330BA
0x4330CA
0x4330F8
0x433142
0x43319A
0x4331C8
0x433250
0x43327C
0x4332A8
0x4332D4
0x433300
0x43332C
0x433358
0x433384
0x4333B0
0x4333DC
0x433408
0x433434
0x433460
0x43348C
0x4334B8
0x4334E4
0x433510
0x43358A
0x43360E
0x43361E
0x43363E
0x43366E
0x4336A6
0x4336C6
0x43372E
0x43375A
0x433786
0x433800
0x433884
0x433894
0x4338B4
0x4338E4
0x43391C
0x43393C
0x4339A4
0x4339D0
0x4339FC
0x433A76
0x433AFA
0x433B0A
0x433B2A
0x433B5A
0x433B92
0x433BB2
0x433C1A
0x433C46
0x433C72
0x433D20
0x433DD8
0x433DE8
0x433E20
0x433E84
0x433EFC
0x433F34
0x433FD2
0x433FFE
0x43402A
0x4340A4
0x434128
0x434138
0x434158
0x434188
0x4341C0
0x4341E0
0x434248
0x434274
0x4342A0
0x43431A
0x43439E
0x4343AE
0x4343CE
0x4343FE
0x434436
0x434456
0x4344BE
0x4344EA
0x434516
0x434590
0x434614
0x434624
0x434644
0x434674
0x4346AC
0x4346CC
0x434734
0x434760
0x43478C
0x434858
0x43492E
0x43493E
0x434976
0x4349D8
0x434A52
0x434A8A
0x434B32
0x434B5E
0x434B8A
0x434BB6
0x434C0A
0x434C6A
0x434C7A
0x434C8C
0x434C9E
0x434CB0
0x434CC2
0x434D10
0x434D3C
0x434D68
0x434D94
0x434E36
0x434EE4
0x434EF4
0x434F22
0x434F6C
0x434FC4
0x434FF2
0x43507A
0x4350A6
0x4350D2
0x43519E
0x435274
0x435284
0x4352BC
0x43531E
0x435398
0x4353D0
0x435478
0x4354A4
0x4354D0
0x4354FC
0x435528
0x4355F4
0x4356CA
0x4356DA
0x435712
0x435774
0x4357EE
0x435826
0x4358CE
0x4358FA
0x435926
0x435952
0x43597E
0x435A4A
0x435B20
0x435B30
0x435B68
0x435BCA
0x435C44
0x435C7C
0x435D24
0x435D50
0x435D7C
0x435DA8
0x435DD4
0x435EA0
0x435F76
0x435F86
0x435FBE
0x436020
0x43609A
0x4360D2
0x43617A
0x4361A6
0x4361D2
0x4361FE
0x43622A
0x43636C
0x4364B8
0x4364C8
0x436526
0x436600
0x43670C
0x43676A
0x436892
0x4368BE
0x4368EA
0x436964
0x4369E8
0x4369F8
0x436A18
0x436A48
0x436A80
0x436AA0
0x436B08
0x436B34
0x436B74
0x436B7A
0x437C68
0x437C6E
0x438710
0x43874C
0x438772
0x438782
0x438792
0x4387B8
0x4387E6
0x43887A
0x4388A0
0x4388B0
0x4388C0
0x4388E6
0x438914
0x4389A8
0x4389CE
0x4389DE
0x4389EE
0x438A14
0x438A42
0x438AB0
0x438AD6
0x438AE6
0x438AF6
0x438B1C
0x438B4A
0x438BB8
0x438BDE
0x438BEE
0x438BFE
0x438C24
0x438C52
0x438CC0
0x438CE6
0x438CF6
0x438D06
0x438D2C
0x438D5A
0x438DC8
0x438DEE
0x438DFE
0x438E0E
0x438E34
0x438E62
0x438ED0
0x438EF6
0x438F06
0x438F16
0x438F3C
0x438F6A
0x438FD8
0x438FFE
0x43900E
0x43901E
0x439044
0x439072
0x4390E0
0x439106
0x439116
0x439126
0x43914C
0x43917A
0x4391E8
0x43920E
0x43921E
0x43922E
0x439254
0x439282
0x4392F0
0x439316
0x439326
0x439336
0x43935C
0x43938A
0x4393F8
0x43941E
0x43942E
0x43943E
0x439464
0x439492
0x4394CE
0x4394F4
0x439504
0x439514
0x43953A
0x439568
0x4395FC
0x439622
0x439632
0x439642
0x439668
0x439696
0x43972A
0x439750
0x439760
0x439770
0x439796
0x4397C4
0x439858
0x43987E
0x43988E
0x43989E
0x4398C4
0x4398F2
0x439960
0x439986
0x439996
0x4399A6
0x4399CC
0x4399FA
0x439A36
0x439A5C
0x439A6C
0x439A7C
0x439AA2
0x439AD0
0x439B64
0x439B8A
0x439B9A
0x439BAA
0x439BD0
0x439BFE
0x439C3A
0x439C60
0x439C70
0x439C80
0x439CA6
0x439CD4
0x439D10
0x439D36
0x439D46
0x439D56
0x439D7C
0x439DAA
0x439EBE
0x439EE4
0x439EF4
0x439F04
0x439F2A
0x439F58
0x439F94
0x439FBA
0x439FCA
0x439FDA
0x43A000
0x43A02E
0x43A1C0
0x43A1E6
0x43A1F6
0x43A206
0x43A22C
0x43A25A
0x43A318
0x43A33E
0x43A34E
0x43A35E
0x43A384
0x43A3B2
0x43A3EE
0x43A414
0x43A424
0x43A434
0x43A45A
0x43A488
0x43A546
0x43A56C
0x43A57C
0x43A58C
0x43A5B2
0x43A5E0
0x43A64E
0x43A674
0x43A684
0x43A694
0x43A6BA
0x43A6E8
0x43A756
0x43A77C
0x43A78C
0x43A79C
0x43A7C2
0x43A7F0
0x43A85E
0x43A884
0x43A894
0x43A8A4
0x43A8CA
0x43A8F8
0x43A966
0x43A98C
0x43A99C
0x43A9AC
0x43A9D2
0x43AA00
0x43AA94
0x43AABA
0x43AACA
0x43AADA
0x43AB00
0x43AB2E
0x43ABEC
0x43AC12
0x43AC22
0x43AC32
0x43AC58
0x43AC86
0x43AD1A
0x43AD40
0x43AD50
0x43AD60
0x43AD86
0x43ADB4
0x43AE22
0x43AE48
0x43AE58
0x43AE68
0x43AE8E
0x43AEBC
0x43AF2A
0x43AF50
0x43AF60
0x43AF70
0x43AF96
0x43AFC4
0x43B032
0x43B058
0x43B068
0x43B078
0x43B09E
0x43B0CC
0x43B160
0x43B186
0x43B196
0x43B1A6
0x43B1CC
0x43B1FA
0x43B268
0x43B28E
0x43B29E
0x43B2AE
0x43B2D4
0x43B302
0x43B370
0x43B396
0x43B3A6
0x43B3B6
0x43B3DC
0x43B40A
0x43B478
0x43B49E
0x43B4AE
0x43B4BE
0x43B4E4
0x43B512
0x43B5D0
0x43B5F6
0x43B606
0x43B616
0x43B63C
0x43B66A
0x43B6A6
0x43B6CC
0x43B6DC
0x43B6EC
0x43B712
0x43B740
0x43B7D4
0x43B7FA
0x43B80A
0x43B81A
0x43B840
0x43B86E
0x43B92C
0x43B952
0x43B962
0x43B972
0x43B998
0x43B9C6
0x43BA84
0x43BAAA
0x43BABA
0x43BACA
0x43BAF0
0x43BB1E
0x43BBDC
0x43BC02
0x43BC12
0x43BC22
0x43BC48
0x43BC76
0x43BD34
0x43BD5A
0x43BD6A
0x43BD7A
0x43BDA0
0x43BDCE
0x43BEE2
0x43BF08
0x43BF18
0x43BF28
0x43BF4E
0x43BF7C
0x43BFEA
0x43C010
0x43C020
0x43C030
0x43C056
0x43C084
0x43C09C
0x43C0CC
0x43C0F2
0x43C0F8
0x43C133
0x43C13D
0x43C1B2
0x43C28A
0x43C2C6
0x43C2EC
0x43C33C
0x43C388
0x43C3B0
0x43C85C
0x43C87C
0x43C8C6
0x43C910
0x43C95A
0x43C9A4
0x43C9EA
0x43CA84
0x43CA8E
0x43CFAA
0x43D070
0x43D0D1
0x43D0E6
0x43D100
0x43D128
0x43D138
0x43D162
0x43D1FA
0x43D224
0x43D246
0x43D268
0x43D2DE
0x43D2FC
0x43D32E
0x43D33E
0x43D34E
0x43D3A4
0x43D3B8
0x43D3CA
0x43D3D0
0x43D444
0x43D454
0x43D48E
0x43D4B4
0x43D4DA
0x43D500
0x43D530
0x43D560
0x43D5BE
0x43D5EC
0x43D602
0x43D62C
0x43D65C
0x43D6B6
0x43D6EA
0x43D6EF
0x43D712
0x43D71C
0x43D790
0x43D82C
0x43DA04
0x43DAB0
0x43DB90
0x43DBA0
0x43DC88
0x43DCE4
0x43DD44
0x43DDA0
0x43DE24
0x43DE3A
0x43DE6E
0x43DEAA
0x43DED0
0x43DEE2
0x43DF0A
0x43DF46
0x43DF6C
0x43DF9A
0x43DFC8
0x43DFF6
0x43E092
0x43E131
0x43E1D0
0x43E26F
0x43E30E
0x43E3AD
0x43E44C
0x43E4EB
0x43E58A
0x43E629
0x43E6C8
0x43E767
0x43E806
0x43E8A2
0x43E941
0x43E9DD
0x43EA79
0x43EB15
0x43EBB4
0x43EC53
0x43ECF2
0x43ED91
0x43EE30
0x43EECC
0x43EF6C
0x43F100
0x43F49A
0x43F4C0
0x43F656
0x43FC1E
0x44048A
0x440838
0x44290C
0x44291C
0x44292C
0x4429A4
0x442A82
0x442B8C
0x442D68
0x442D82
0x442E7A
0x442E90
0x442EA6
0x442EFA
0x442F0A
0x442F5A
0x442FAA
0x442FFA
0x44304A
0x443100
0x443154
0x44320A
0x44325A
0x4432AA
0x44330E
0x443354
0x4433A6
0x4433F8
0x44344C
0x44349E
0x4434F0
0x443542
0x443594
0x4435E6
0x44363A
0x44370A
0x443877
0x4438DC
0x443CFA
0x44437B
0x4444C4
0x4444D8
0x4444DE
0x44457E
0x444584
0x4447B1
0x444B44
0x444B8A
0x444BCC
0x444C18
0x444CAE
0x444D0C
0x444D60
0x444D96
0x444DD8
0x444DFC
0x444E00
0x444FFE
0x445002
0x445200
0x445210
0x445232
0x445254
0x44531C
0x44534C
0x445432
0x4454B6
0x4456B4
0x4456C4
0x4456D4
0x4458FA
0x445900
0x445CD4
0x446085
0x44609A
0x4460AA
0x4460BC
0x4460EC
0x446120
0x446154
0x44616E
0x446190
0x4461A6
0x4461D3
0x446262
0x4462F4
0x446319
0x44633E
0x446356
0x446386
0x4463AC
0x4463C4
0x4463FC
0x446418
0x44643E
0x446450
0x44646E
0x44648C
0x4464AA
0x4464C8
0x4464E8
0x446508
0x446530
0x44656C
0x446592
0x4465AE
0x44664E
0x44666A
0x446686
0x4466E0
0x4466FC
0x446756
0x446784
0x4467B2
0x4467E0
0x446810
0x44683E
0x44685E
0x44687A
0x446896
0x4468F0
0x446954
0x44696E
0x446990
0x446A16
0x446A44
0x446A72
0x446AA0
0x446ACE
0x446AFC
0x446B2A
0x446B58
0x446B86
0x446BB4
0x446BE2
0x446C10
0x446C3E
0x446C6C
0x446C9A
0x446CC8
0x446CF6
0x446D24
0x446D52
0x446D7F
0x446F14
0x446F42
0x446F70
0x446F9E
0x446FCC
0x446FFA
0x447028
0x447056
0x447084
0x4470B2
0x4470E0
0x44710E
0x44713C
0x44716A
0x447198
0x4471C6
0x4471E0
0x447202
0x44722E
0x44724C
0x447279
0x4472A4
0x4472D2
0x447308
0x447336
0x447352
0x4473B8
0x4473CA
0x4473E6
0x44744C
0x44745E
0x44747A
0x447496
0x4474FC
0x44750E
0x4475FA
0x447618
0x447664
0x447760
0x447790
0x4477DC
0x4477FA
0x447805
0x447817
0x44782A
0x447864
0x44786F
0x447881
0x447894
0x4478CE
0x447930
0x44793B
0x44794D
0x447960
0x44799A
0x4479AC
0x447A5C
0x447AA8
0x447ACA
0x447B1A
0x447B44
0x447B5E
0x447D10
0x447D22
0x447D3C
0x447E62
0x447E92
0x447EAC
0x447EBA
0x447F50
0x447F86
0x44801C
0x448052
0x44806E
0x4480B0
0x448146
0x44817C
0x4481CB
0x4481E5
0x44820E
0x44825A
0x448286
0x4482AE
0x4482E2
0x4482FE
0x44831C
0x448368
0x448387
0x4483B6
0x4483C4
0x4483F8
0x448414
0x448432
0x448452
0x448471
0x4484A0
0x4484AE
0x4484BA
0x4484EE
0x44850C
0x44853A
0x448548
0x448562
0x4485A0
0x4485AE
0x4485CE
0x4485D9
0x4485E8
0x44860C
0x44861A
0x44863A
0x448645
0x448654
0x448678
0x448686
0x4486A6
0x4486CA
0x4486F2
0x4487BA
0x4487C6
0x4487D1
0x4487FC
0x44883E
0x448852
0x44888E
0x4488B4
0x4488BA
0x448920
0x4489D4
0x448CAC
0x448D00
0x448D06
0x448F20
0x448FC4
0x4490CE
0x449146
0x4491EE
0x4492B2
0x44939C
0x4494FE
0x449652
0x449822
0x449858
0x449896
0x4498F2
0x449918
0x449940
0x449974
0x4499A4
0x4499CA
0x4499F8
0x449A28
0x449A4E
0x449A60
0x449A78
0x449B10
0x449B7E
0x449BA4
0x449BAA
0x449C0E
0x449C2C
0x449C3C
0x449C4C
0x449CB6
0x449D5E
0x449D76
0x449DAE
0x449DEA
0x449E10
0x449E2C
0x449E7C
0x449E98
0x449EFE
0x449F1A
0x449F36
0x449F90
0x449FB6
0x44A078
0x44A130
0x44A15A
0x44A17A
0x44A196
0x44A312
0x44A34A
0x44A370
0x44A38A
0x44A3AC
0x44A3CA
0x44A3F4
0x44A410
0x44A42C
0x44A4AE
0x44A4BC
0x44A4E6
0x44A502
0x44A51E
0x44A584
0x44A596
0x44A5CD
0x44A5DC
0x44A5EA
0x44A606
0x44A664
0x44A6E6
0x44A73A
0x44A78E
0x44A79C
0x44A7CD
0x44A7F8
0x44A844
0x44A878
0x44A8BE
0x44A8E4
0x44A8FE
0x44A920
0x44A942
0x44A960
0x44A99A
0x44A9FE
0x44AAEA
0x44AB36
0x44AB54
0x44AB92
0x44ABAE
0x44ABE3
0x44AC0A
0x44AC6C
0x44AC77
0x44AC89
0x44AC9C
0x44ACD6
0x44AD20
0x44AD3C
0x44ADA0
0x44ADD6
0x44ADF3
0x44AE24
0x44AE4A
0x44AE68
0x44AE6E
0x44B48C
0x44B4D8
0x44B524
0x44B52E
0x44B54C
0x44B56A
0x44B5CE
0x44B5E0
0x44B5F2
0x44B6A2
0x44B6F2
0x44B70C
0x44B71A
0x44B736
0x44B741
0x44B76F
0x44B7A8
0x44B7C4
0x44B806
0x44B89C
0x44B8D2
0x44B8F8
0x44B904
0x44B937
0x44B965
0x44BA12
0x44BA4A
0x44BA9E
0x44BAD0
0x44BADE
0x44BB2A
0x44BB77
0x44BBA8
0x44BC94
0x44BCDC
0x44BD0F
0x44BD42
0x44BD54
0x44BE04
0x44BE1E
0x44BE2C
0x44BE46
0x44BEF5
0x44BF44
0x44BF56
0x44BF68
0x44BF82
0x44BF94
0x44BFA0
0x44BFC3
0x44BFD1
0x44BFEC
0x44BFF8
0x44C02C
0x44C048
0x44C067
0x44C096
0x44C0A4
0x44C0B3
0x44C0DE
0x44C101
0x44C13E
0x44C15E
0x44C16C
0x44C17E
0x44C1FD
0x44C262
0x44C281
0x44C29C
0x44C2CD
0x44C2E7
0x44C33F
0x44C35A
0x44C3AD
0x44C3E8
0x44C41A
0x44C43C
0x44C466
0x44C46B
0x44C802
0x44C927
0x44C942
0x44C950
0x44C970
0x44C97C
0x44C9A0
0x44C9EC
0x44C9FA
0x44CA2B
0x44CA39
0x44CA6A
0x44CCE4
0x44CD72
0x44CD8C
0x44CD9A
0x44CDE6
0x44CE32
0x44CE44
0x44CE56
0x44D008
0x44D01A
0x44D046
0x44D072
0x44D09A
0x44D0A6
0x44D0BA
0x44D14B
0x44D1B8
0x44D1F0
0x44D288
0x44D2D0
0x44D31C
0x44D368
0x44D392
0x44D3DE
0x44D40F
0x44D474
0x44D488
0x44D4D4
0x44D512
0x44D52F
0x44D549
0x44D5DF
0x44D605
0x44D61F
0x44D677
0x44D6A8
0x44D6D0
0x44D798
0x44D7A6
0x44D7C0
0x44D7DA
0x44D80B
0x44D85F
0x44D86D
0x44D887
0x44D8B8
0x44D949
0x44D974
0x44D9AA
0x44DA12
0x44DA2F
0x44DA4C
0x44DACE
0x44DB3A
0x44DB76
0x44DB96
0x44DBA7
0x44DC14
0x44DC60
0x44DC6E
0x44DC82
0x44DD56
0x44DD90
0x44DDD4
0x44DE7A
0x44DEBE
0x44DFB6
0x44DFBC
0x44E14E
0x44E2C5
0x44E31A
0x44E370
0x44E38C
0x44E3F2
0x44E46E
0x44E48A
0x44E4F0
0x44E56C
0x44E588
0x44E5A4
0x44E616
0x44E624
0x44E64E
0x44E67C
0x44E988
0x44E9D4
0x44E9FA
0x44EA08
0x44EA24
0x44EA40
0x44EAB2
0x44EAC0
0x44EAEA
0x44EB18
0x44EE28
0x44EE74
0x44EE9A
0x44EEA8
0x44EEE6
0x44EF02
0x44EF37
0x44EF5E
0x44EF94
0x44EFA2
0x44EFEE
0x44F000
0x44F0EC
0x44F134
0x44F178
0x44F1AB
0x44F1DD
0x44F204
0x44F222
0x44F260
0x44F27C
0x44F2B1
0x44F2D8
0x44F312
0x44F320
0x44F36C
0x44F37E
0x44F46A
0x44F4B2
0x44F4F6
0x44F529
0x44F55B
0x44F582
0x44F5A0
0x44F5BC
0x44F5C7
0x44F5F5
0x44F604
0x44F61E
0x44F676
0x44F698
0x44F6C2
0x44F6F4
0x44F704
0x44F720
0x44F72B
0x44F759
0x44F768
0x44F782
0x44F7DA
0x44F7FC
0x44F826
0x44F858
0x44F868
0x44F874
0x44F897
0x44F8A5
0x44F8BF
0x44F8F0
0x44F90A
0x44F94C
0x44F97E
0x44F98A
0x44F9AD
0x44F9BB
0x44F9D5
0x44FA06
0x44FA20
0x44FA62
0x44FA93
0x44FB0C
0x44FB20
0x44FB4D
0x44FBC6
0x44FBDA
0x44FC07
0x44FC53
0x44FC9F
0x44FCF7
0x44FD5C
0x44FDB4
0x44FE19
0x44FE4A
0x44FE7C
0x44FF38
0x44FF99
0x44FFAE
0x44FFC0
0x44FFE8
0x44FFEE
0x4500B6
0x450146
0x4501EC
0x4501F2
0x4502E0
0x4502E5
0x4503D0
0x4504BA
0x4504C0
0x450728
0x4508DE
0x450918
0x45092E
0x450940
0x450946
0x450A3A
0x450A3F
0x450B04
0x450BAA
0x450BB0
0x450DA4
0x450EC8
0x451078
0x4512EF
0x45132D
0x451342
0x451378
0x4513B6
0x4513EC
0x451448
0x451480
0x4514B4
0x4514DA
0x45150A
0x45151E
0x451548
0x451562
0x451568
0x4515AA
0x4515BA
0x4515CA
0x4515DA
0x4515E0
0x451652
0x451670
0x451680
0x451690
0x451724
0x451742
0x451764
0x451774
0x45179C
0x4517D8
0x4517FE
0x451886
0x45188C
0x4518E4
0x451902
0x451912
0x451922
0x451928
0x45199A
0x4519B8
0x4519C8
0x4519D8
0x451A10
0x451A4A
0x451A5A
0x451A7C
0x451A8C
0x451AC8
0x451AEE
0x451B5C
0x451B82
0x451BF0
0x451C16
0x451CA8
0x451CCE
0x451D3C
0x451D62
0x451D9E
0x451DC4
0x451E2A
0x451E92
0x451F14
0x451F30
0x45213A
0x452140
0x45258C
0x4525E2
0x4527E0
0x452876
0x45296A
0x452AE2
0x452B0E
0x452B13
0x452CC8
0x452CE8
0x452D04
0x452D6A
0x452D8F
0x452DB8
0x452E34
0x452E5E
0x452E88
0x452EA4
0x452EE9
0x452F18
0x452F1E
0x453310
0x45334E
0x4533B6
0x453402
0x4534EE
0x453542
0x453574
0x45359A
0x4535B5
0x45360E
0x453630
0x453650
0x45365B
0x45368C
0x4536A6
0x453712
0x4537DC
0x4537E2
0x453ABE
0x453AE4
0x453BEA
0x453C02
0x453C3E
0x453CEA
0x453DC0
0x453E08
0x453E3A
0x453F30
0x453F70
0x454142
0x454184
0x454254
0x45425A
0x4542A0
0x4543BC
0x454510
0x4545B2
0x4545C8
0x454610
0x454AEC
0x454D6A
0x454E24
0x454E2A
0x4553F8
0x455619
0x4556F0
0x4556F6
0x455A30
0x455B44
0x455F5A
0x455FB6
0x45618C
0x456192
0x456434
0x4565C6
0x456670
0x45671A
0x4567EC
0x4568E6
0x456960
0x4569BC
0x4569C0
0x4569C9
0x456C5E
0x456C62
0x456E42
0x456E4C
0x4572C4
0x45738E
0x45740A
0x457410
0x457746
0x457846
0x45793E
0x457944
0x457AFA
0x457BFA
0x457CCC
0x457E30
0x457EF8
0x45814C
0x458236
0x458306
0x45849A
0x4584A0
0x4587AE
0x458A1C
0x458A9A
0x458BE0
0x458C04
0x458D3C
0x458DB8
0x458DFC
0x458F6E
0x458FE8
0x458FFE
0x459010
0x459022
0x45906C
0x459082
0x4590EC
0x459110
0x459142
0x459174
0x4591C0
0x45920C
0x459254
0x459272
0x45928C
0x45929E
0x4592C4
0x4592E6
0x45930C
0x45933C
0x45934E
0x459366
0x4593AA
0x4593FE
0x45944C
0x459478
0x4594C6
0x4594E6
0x4594F2
0x459502
0x459512
0x45952C
0x459546
0x459582
0x4595F0
0x45965E
0x459678
0x45977E
0x459798
0x45989E
0x4598BA
0x4598D6
0x45993C
0x459962
0x459982
0x45999E
0x4599BA
0x4599D6
0x459A3A
0x459A54
0x459A76
0x459AFC
0x459B1A
0x459B95
0x459BDE
0x459C27
0x459C64
0x459CA2
0x459CC8
0x459D44
0x459D60
0x459D7C
0x459DEE
0x459DFC
0x459E26
0x459E42
0x459E5E
0x459E7A
0x459ED4
0x459F0E
0x459FFA
0x45A018
0x45A064
0x45A160
0x45A190
0x45A1AE
0x45A1DC
0x45A4EC
0x45A538
0x45A546
0x45A58F
0x45A651
0x45A69A
0x45A75C
0x45A7A4
0x45A86D
0x45A8B5
0x45A97E
0x45A9C3
0x45A9F2
0x45AD02
0x45AD4E
0x45AD8C
0x45ADA8
0x45ADDD
0x45AE04
0x45AE42
0x45AEA4
0x45AEC0
0x45AF26
0x45AF38
0x45AF7C
0x45AF8E
0x45B03E
0x45B08A
0x45B0AC
0x45B0FC
0x45B126
0x45B140
0x45B2F2
0x45B304
0x45B31E
0x45B444
0x45B474
0x45B48E
0x45B49C
0x45B4D4
0x45B4E2
0x45B52E
0x45B540
0x45B62C
0x45B674
0x45B6B8
0x45B6EB
0x45B71D
0x45B744
0x45B762
0x45B76D
0x45B7CF
0x45B83A
0x45B86E
0x45B87A
0x45B8AE
0x45B8C8
0x45B8FC
0x45B916
0x45B94A
0x45B982
0x45B990
0x45B9DC
0x45B9EE
0x45BADA
0x45BB22
0x45BB66
0x45BB99
0x45BBCB
0x45BBF2
0x45BC10
0x45BC2C
0x45BC37
0x45BC65
0x45BC74
0x45BC90
0x45BCAC
0x45BCEE
0x45BCF9
0x45BD0B
0x45BD1E
0x45BD57
0x45BDA6
0x45BDC0
0x45BE0C
0x45BE38
0x45BE60
0x45BE7A
0x45BED2
0x45BEF4
0x45BF1E
0x45BF50
0x45BF5F
0x45BF69
0x45BF89
0x45BFB1
0x45BFCB
0x45C024
0x45C046
0x45C070
0x45C0A2
0x45C0B2
0x45C0BE
0x45C0E2
0x45C0EE
0x45C0FA
0x45C174
0x45C1AA
0x45C1C4
0x45C201
0x45C20F
0x45C229
0x45C25A
0x45C274
0x45C2B6
0x45C2E7
0x45C2F5
0x45C30F
0x45C340
0x45C35A
0x45C368
0x45C3AA
0x45C3DC
0x45C410
0x45C42C
0x45C44A
0x45C469
0x45C498
0x45C4A6
0x45C4CE
0x45C596
0x45C60E
0x45C622
0x45C64F
0x45C6C8
0x45C6DC
0x45C70A
0x45C718
0x45C738
0x45C743
0x45C752
0x45C775
0x45C7A0
0x45C840
0x45C8A8
0x45C8F4
0x45C940
0x45C94C
0x45C98E
0x45C9E6
0x45CA4B
0x45CAA4
0x45CAB8
0x45CAE9
0x45CB1A
0x45CB80
0x45CB9C
0x45CC02
0x45CC4C
0x45CD28
0x45CD66
0x45CE55
0x45CE93
0x45CEA8
0x45CEE4
0x45CF0A
0x45D0D1
0x45D14E
0x45D25C
0x45D36A
0x45D478
0x45D586
0x45D696
0x45D7A4
0x45D804
0x45D862
0x45D8BA
0x45D91A
0x45D972
0x45D9D2
0x45DA36
0x45DA6A
0x45DC5A
0x45DCAE
0x45DD02
0x45DD3A
0x45DDB6
0x45DE18
0x45DE42
0x45DE50
0x45DE7A
0x45DEA8
0x45DF32
0x45DF9A
0x45E3BA
0x45E406
0x45E476
0x45E488
0x45E4BD
0x45E4E4
0x45E54C
0x45E55A
0x45E5A6
0x45E692
0x45E6DA
0x45E72E
0x45E761
0x45E793
0x45E7BA
0x45E7D7
0x45E805
0x45E83D
0x45E857
0x45E8B0
0x45E8D2
0x45E8FC
0x45E92E
0x45E94E
0x45E971
0x45E97F
0x45E99A
0x45E9A8
0x45E9C2
0x45E9F3
0x45EA0E
0x45EA1C
0x45EA68
0x45EA99
0x45EB06
0x45EB1A
0x45EBAB
0x45EC10
0x45ED9C
0x45EEF2
0x45EF2C
0x45F01A
0x45F02A
0x45F086
0x45F156
0x45F194
0x45F1AA
0x45F1BA
0x45F1F6
0x45F21C
0x45F22C
0x45F23C
0x45F278
0x45F29E
0x45F2F6
0x45F37A
0x45F3A0
0x45F442
0x45F452
0x45F462
0x45F4BC
0x45F7A4
0x45F7AA
0x45F802
0x45F814
0x45F858
0x45F8AA
0x45F902
0x45FA4C
0x45FBC9
0x45FC2A
0x45FC3F
0x45FD57
0x45FD6C
0x45FDC4
0x45FE52
0x45FE78
0x45FF10
0x45FF20
0x45FF30
0x45FF36
0x45FF9E
0x45FFA4
0x46000A
0x460010
0x460078
0x4600D2
0x4600D8
0x46013E
0x46017E
0x460184
0x4601EA
0x4601F0
0x460256
0x46025C
0x4602C2
0x4602C8
0x460350
0x4603A4
0x4603AA
0x460410
0x460422
0x4604B4
0x460516
0x460526
0x460536
0x4605E6
0x46067E
0x46079C
0x46088E
0x4608CC
0x4608E1
0x46091C
0x4609CA
0x4609D0
0x460A19
0x460A1F
0x460A9E
0x460AD4
0x460B5A
0x460B98
0x460BA8
0x460DA0
0x460DCA
0x460DF4
0x460E1D
0x460E5B
0x460E70
0x460E92
0x460EB8
0x460EFC
0x460F66
0x460F90
0x460FDE
0x461134
0x461228
0x4612BA
0x461AF0
0x461AF6
0x461B36
0x461B40
0x461BB4
0x461BFA
0x461C8C
0x461CC6
0x461E9A
0x461EA0
0x461EFC
0x461F02
0x461F5E
0x461F9A
0x461FD4
0x462016
0x462058
0x4620B2
0x462100
0x462161
0x462176
0x4621A2
0x4621BC
0x4621C2
0x46220C
0x46221E
0x462238
0x462252
0x46226C
0x4622A8
0x4622CE
0x462362
0x462394
0x4623A0
0x4623B8
0x46240A
0x4624FA
0x46255E
0x46257C
0x46259C
0x462638
0x462757
0x4627B2
0x4628F0
0x462A60
0x462B50
0x462C90
0x462D08
0x462D70
0x462D75
0x46315A
0x46325E
0x4633B6
0x463422
0x46348E
0x4634FA
0x463534
0x463539
0x4635EE
0x463838
0x46387A
0x4638BA
0x4638FA
0x4638FF
0x463B1E
0x463B60
0x464242
0x464284
0x464289
0x46447C
0x4645A2
0x4645A7
0x464822
0x464827
0x464AA2
0x464BB6
0x464CCC
0x464CD1
0x464EC8
0x464F08
0x465188
0x465230
0x465516
0x465558
0x46571E
0x46575E
0x46580E
0x465813
0x465A26
0x465A2B
0x465C16
0x465C56
0x465C5B
0x465EE8
0x465EED
0x4660FC
0x46613E
0x466143
0x46627C
0x4668B4
0x466B8E
0x466B93
0x466D52
0x466D5B
0x46756E
0x467732
0x467737
0x467936
0x467A02
0x467A84
0x467B78
0x467BB2
0x467EE6
0x467F1A
0x4682A0
0x4683E8
0x468498
0x46849D
0x4685BA
0x468A7E
0x468ABC
0x468AD2
0x468AF0
0x468B10
0x468B2E
0x468B4C
0x468B6A
0x468B88
0x468BA6
0x468BB8
0x468BCA
0x468BE8
0x468BFE
0x468C1C
0x468C3A
0x468C4E
0x468C64
0x468C82
0x468CA2
0x468CC2
0x468CD4
0x468CF2
0x468D12
0x468D28
0x468D3C
0x468D5C
0x468D7C
0x468D92
0x468DA6
0x468DBA
0x468DD8
0x468DF8
0x468E16
0x468E34
0x468E52
0x468E70
0x468E90
0x468EB0
0x468ECC
0x468F42
0x468F71
0x468F9E
0x468FCD
0x468FFA
0x46912F
0x469141
0x4691A3
0x4691AD
0x4691CA
0x4691D6
0x46920C
0x46923E
0x469286
0x4692CE
0x469458
0x4694A0
0x4694E8
0x469698
0x46978C
0x46980C
0x46984C
0x469AE4
0x469C06
0x469C38
0x469C54
0x469C7A
0x469CC0
0x469CDF
0x469CFA
0x469DA5
0x469E1E
0x469E98
0x469F36
0x46A01E
0x46A3FC
0x46A47B
0x46B241
0x46BA48
0x46C181
0x46D7B0
0x46D8B8
0x46F59C
0x46F5A2
0x46F618
0x46F62E
0x46F9AB
0x46FA55
0x46FAAB
0x46FB1E
0x46FB77
0x46FBFC
0x46FC26
0x46FC54
0x46FC7E
0x46FCA8
0x46FCD2
0x46FCFC
0x46FD26
0x46FD42
0x46FD5E
0x46FD7C
0x46FD9A
0x46FDC4
0x46FDF2
0x46FE20
0x46FE4E
0x46FE6A
0x46FE94
0x46FEC2
0x46FEE0
0x46FF0E
0x46FF3C
0x46FF5A
0x46FF84
0x46FFAE
0x46FFD6
0x470012
0x470038
0x470124
0x470158
0x47015C
0x470165
0x470251
0x4702BE
0x470372
0x4703B0
0x4703C6
0x4704B6
0x4705D6
0x4705DC
0x470654
0x470774
0x47089A
0x4708A0
0x470918
0x47091C
0x470B74
0x470F9C
0x470FA2
0x471020
0x471026
0x4710AA
0x4711DE
0x4713E8
0x4713EE
0x471472
0x47150E
0x471514
0x471598
0x4716BE
0x4717DE
0x47183C
0x4718EC
0x47194D
0x471AD2
0x471AD8
0x471B58
0x471CB4
0x471E80
0x47259E
0x4725A4
0x47268C
0x472856
0x4728E8
0x472BBC
0x472BC2
0x472C46
0x472F10
0x472F16
0x472F94
0x4730EE
0x47312C
0x473142
0x47315A
0x473166
0x4732D0
0x4732D6
0x473C8A
0x4741EC
0x47425A
0x474528
0x474748
0x474996
0x474A04
0x474A42
0x474A58
0x474A76
0x474A8C
0x474AB2
0x474AEA
0x474B1E
0x474B4E
0x474B88
0x474BAE
0x474BE0
0x474C06
0x474C28
0x474C33
0x474C40
0x474DDE
0x475022
0x47507C
0x4750BA
0x4750D0
0x475188
0x4751AE
0x4751B4
0x4751F9
0x475203
0x475278
0x475384
0x4753E2
0x475408
0x47540E
0x47546A
0x475470
0x4754CC
0x475724
0x4758ED
0x47594C
0x475EF2
0x476186
0x47628E
0x4762DC
0x4762E2
0x47631D
0x47637A
0x476380
0x4763E1
0x47643E
0x47661E
0x476808
0x47680E
0x47686A
0x476964
0x476BB4
0x476C15
0x476C2A
0x476C5E
0x476C96
0x476CA6
0x476CD8
0x476D0E
0x476D4A
0x476D70
0x476D80
0x476D92
0x476DA6
0x476DBA
0x476DCE
0x476DE2
0x476E20
0x476E50
0x476E86
0x476EB6
0x476EEC
0x476F88
0x476FC6
0x476FDC
0x476FF2
0x477008
0x4770A6
0x477144
0x47714A
0x477194
0x477249
0x477312
0x477646
0x477800
0x4778BA
0x4779FE
0x477A9E
0x477B82
0x47830C
0x478356
0x478563
0x4785A1
0x4785B6
0x4785CA
0x478608
0x478646
0x478684
0x4786C2
0x4786E2
0x4786FE
0x478764
0x478780
0x4787E6
0x478862
0x4788DE
0x478B18
0x478D8E
0x478DB4
0x478DD4
0x478E3A
0x478E64
0x478E80
0x478E9C
0x478F0E
0x478F1C
0x478F46
0x478F62
0x478F7E
0x479000
0x47900E
0x479038
0x479066
0x479376
0x4793C2
0x4793F0
0x47975E
0x4797AA
0x4797D0
0x479824
0x479878
0x479910
0x479946
0x47998E
0x4799DA
0x479A04
0x479A50
0x479A82
0x479ABA
0x479AF2
0x479B46
0x479B9A
0x479C32
0x479C68
0x479CB0
0x479CFC
0x479D26
0x479D72
0x479DA4
0x479DC0
0x479E42
0x479E50
0x479E7A
0x479EB8
0x479ED3
0x479EFA
0x479F38
0x479F53
0x479F7A
0x479FB2
0x479FC0
0x47A00C
0x47A01E
0x47A10A
0x47A14E
0x47A181
0x47A1B3
0x47A1DA
0x47A1F8
0x47A260
0x47A322
0x47A330
0x47A37C
0x47A38E
0x47A47A
0x47A4CE
0x47A501
0x47A533
0x47A55A
0x47A578
0x47A595
0x47A5C6
0x47A5F4
0x47A60E
0x47A6A4
0x47A6CA
0x47A6E4
0x47A73C
0x47A76E
0x47A78B
0x47A7BC
0x47A7EA
0x47A804
0x47A89A
0x47A8C0
0x47A8DA
0x47A932
0x47A964
0x47A980
0x47A9B5
0x47A9DC
0x47A9F8
0x47AA03
0x47AA12
0x47AA2E
0x47AA39
0x47AA71
0x47AACA
0x47AAEC
0x47AB16
0x47AB25
0x47AB34
0x47AB42
0x47ABA0
0x47ABF8
0x47AC1A
0x47AC44
0x47AC63
0x47AC94
0x47ACB7
0x47ACC5
0x47ACDF
0x47ACF9
0x47AD2A
0x47AD39
0x47AD47
0x47AD61
0x47AD92
0x47ADBF
0x47ADF0
0x47AE13
0x47AE21
0x47AE3B
0x47AE55
0x47AE86
0x47AEDA
0x47AEE8
0x47AF02
0x47AF33
0x47AFC4
0x47AFCF
0x47AFFD
0x47B036
0x47B042
0x47B04D
0x47B05B
0x47B076
0x47B0A7
0x47B0C2
0x47B104
0x47B14E
0x47B1A7
0x47B1D8
0x47B1F2
0x47B200
0x47B24B
0x47B278
0x47B295
0x47B2B2
0x47B317
0x47B3C4
0x47B3E1
0x47B3FE
0x47B46A
0x47B4A6
0x47B4C6
0x47B532
0x47B596
0x47B5B9
0x47B5C7
0x47B5E2
0x47B65A
0x47B66E
0x47B694
0x47B700
0x47B714
0x47B760
0x47B76E
0x47B7AA
0x47B7CA
0x47B7DC
0x47B7EA
0x47B7F9
0x47B851
0x47B905
0x47B943
0x47B958
0x47B96A
0x47B97C
0x47C1EA
0x47C2CC
0x47C932
0x47CA14
0x47CAD8
0x47CC89
0x47CDD2
0x47CDF2
0x47CE81
0x47CF74
0x47CFFF
0x47D095
0x47D121
0x47D1BF
0x47D1C3
0x47D25C
0x47D360
0x47D43F
0x47D4E8
0x47D571
0x47D66E
0x47D698
0x47D766
0x47D799
0x47D7A5
0x47D7B2
0x47D7BF
0x47D7CB
0x47D7D8
0x47D7EB
0x47D801
0x47D817
0x47D823
0x47D836
0x47D850
0x47D897
0x47D8C3
0x47D940
0x47D95A
0x47D97F
0x47D99A
0x47D9A5
0x47D9F6
0x47DBAC
0x47DBBD
0x47DBCE
0x47DC0C
0x47DC21
0x47DCC0
0x47DD5F
0x47DDFE
0x47DE7E
0x47EC9F
0x47EDEF
0x47EE9E
0x47EEB4
0x47EF48
0x47EF6E
0x47EFD4
0x47EFF0
0x47F062
0x47F070
0x47F09A
0x47F0B6
0x47F0EB
0x47F112
0x47F11D
0x47F14B
0x47F15A
0x47F17E
0x47F200
0x47F205
0x47F3D4
0x47F3D9
0x47F566
0x47F56B
0x47F64E
0x47F654
0x47F6D4
0x47F6D9
0x47F980
0x47F985
0x47FB58
0x47FB5D
0x47FC40
0x47FC6E
0x47FC9C
0x47FD2A
0x47FEA0
0x47FF80
0x47FFC6
0x4800B4
0x4801C8
0x48021A
0x48038A
0x4804FA
0x48066A
0x4807DA
0x48094A
0x480AC8
0x480ACE
0x480B4C
0x480B52
0x480BD2
0x480BD8
0x480C58
0x480C5E
0x480CDE
0x480CE4
0x480D64
0x480E4A
0x480EDA
0x480FA2
0x480FE0
0x480FF6
0x481088
0x4810AE
0x4810C0
0x4810D2
0x481171
0x48120D
0x4812A9
0x481348
0x4813B0
0x481450
0x481476
0x4817B4
0x4818A2
0x4818EA
0x481916
0x481AA0
0x481B4E
0x481B52
0x481D25
0x481D29
0x481EB6
0x481EBA
0x481EBB
0x481ECA
0x481F76
0x481FBC
0x482016
0x4820EA
0x48214C
0x48220A
0x4822B6
0x48230E
0x4823FE
0x48242A
0x48242E
0x482638
0x482678
0x4826E6
0x4826F0
0x4827B2
0x482810
0x4828B0
0x48290E
0x482A54
0x482A90
0x482B62
0x482B78
0x482BA2
0x482BC2
0x482BD8
0x482BEA
0x482BFC
0x482C1A
0x482C38
0x4838E0
0x483A02
0x483A28
0x483A7C
0x483A9A
0x483AAC
0x483AE6
0x483BE2
0x483D3C
0x483D98
0x48408A
0x4841B2
0x4841B8
0x48427E
0x4842F2
0x4842F8
0x4843BE
0x4843F8
0x48444C
0x48447E
0x4844BA
0x4844F6
0x484532
0x48456E
0x4845CA
0x484766
0x484824
0x484906
0x4849C4
0x484AA6
0x484F7E
0x485496
0x4854A0
0x485816
0x4865CE
0x486768
0x486852
0x486858
0x486AAD
0x486AEB
0x486B00
0x486B24
0x486B40
0x486B5E
0x486B7C
0x486B9C
0x486BCA
0x486BEA
0x486C08
0x486C28
0x486C56
0x486C68
0x486C7A
0x486C98
0x486CB6
0x486CD5
0x486D28
0x486D44
0x486DAA
0x486DCA
0x486DF4
0x486E10
0x486E2C
0x486EAE
0x486EEC
0x486F08
0x486F24
0x486F30
0x486F3C
0x486F72
0x486FDC
0x487002
0x487090
0x4870A0
0x4870B0
0x4870B6
0x48711E
0x487166
0x4871AA
0x4871B0
0x487216
0x48721C
0x487282
0x4872C2
0x4872C8
0x48732E
0x487358
0x48738C
0x487392
0x4873F8
0x487468
0x48746E
0x4874D4
0x4874E6
0x48756C
0x4875CE
0x4875DE
0x4875EE
0x487640
0x487645
0x48772E
0x48784C
0x487936
0x487974
0x487989
0x487A08
0x487A90
0x487A96
0x487AE0
0x487AE6
0x487B26
0x487B30
0x487BA4
0x487BAA
0x487BEA
0x487BF4
0x487C68
0x487CBA
0x487D18
0x487D3E
0x487D44
0x487DA0
0x487DA6
0x487E02
0x487F08
0x487F92
0x487FE0
0x4880E8
0x488128
0x4881F4
0x488352
0x488358
0x4883DA
0x488424
0x48842A
0x488486
0x48848C
0x4884E8
0x48853A
0x488540
0x4885D6
0x4885F2
0x4886C4
0x48882E
0x488834
0x488890
0x488896
0x488956
0x48895C
0x488A20
0x488A70
0x488ABE
0x488AF6
0x488B32
0x488B58
0x488B8A
0x488B90
0x4890D0
0x489166
0x489312
0x48934A
0x489386
0x4893AC
0x48941C
0x4895A5
0x489629
0x48963E
0x48966C
0x4896FA
0x489700
0x48974A
0x4897DA
0x4897F0
0x48982C
0x489852
0x4898E2
0x489904
0x48990A
0x489954
0x489992
0x489A22
0x489A44
0x489A4A
0x489A94
0x489C32
0x489C58
0x489C7A
0x489C9C
0x489CBA
0x489CE4
0x489D46
0x489DAA
0x489DBC
0x489DCE
0x489DE0
0x489E2C
0x489E36
0x489E54
0x489EB8
0x489F68
0x489F82
0x48A032
0x48A050
0x48A0A0
0x48A0A5
0x48A43C
0x48A44E
0x48A573
0x48A582
0x48A64A
0x48A687
0x48A6A2
0x48A6EE
0x48A700
0x48A750
0x48A902
0x48A92E
0x48A95A
0x48A982
0x48A9E4
0x48AA4C
0x48AA73
0x48AA8D
0x48AAB8
0x48AB04
0x48AB18
0x48AB1E
0x48AB5E
0x48AB68
0x48ABDC
0x48AD12
0x48ADCA
0x48AE6A
0x48AEF0
0x48AF16
0x48B0AA
0x48B132
0x48B18C
0x48B2E4
0x48B326
0x48B394
0x48B578
0x48B6DE
0x48B706
0x48B7B8
0x48B903
0x48B964
0x48B97A
0x48B980
0x48B9CA
0x48B9DF
0x48BB36
0x48BB64
0x48BCAA
0x48BCAF
0x48BEC8
0x48BF30
0x48BF36
0x48BFEA
0x48BFF4
0x48C156
0x48C160
0x48C2C2
0x48C30A
0x48C514
0x48C688
0x48C724
0x48C74E
0x48C778
0x48C7A2
0x48C7FE
0x48C85A
0x48C8B6
0x48C98C
0x48CB16
0x48CC98
0x48CC9D
0x48CE60
0x48CEC1
0x48CED6
0x48CF18
0x48CF5A
0x48CF77
0x48CFE0
0x48D05C
0x48D0D8
0x48D154
0x48D17F
0x48DAEF
0x48E155
0x48E23A
0x48E304
0x48E4B5
0x48E5FE
0x48E650
0x48E6AD
0x48E7A0
0x48E82B
0x48E8C1
0x48E94D
0x48E9EB
0x48E9EF
0x48EA88
0x48EB8C
0x48EC6B
0x48ED9D
0x48EE9A
0x48EEC4
0x48EF92
0x48EFC5
0x48EFD1
0x48EFDE
0x48EFEB
0x48EFF7
0x48F004
0x48F017
0x48F02D
0x48F043
0x48F04F
0x48F062
0x48F0C3
0x48F0EF
0x48F16C
0x48F186
0x48F1AB
0x48F1C6
0x48F1D1
0x48F222
0x48F3E1
0x48F3F2
0x48F404
0x48F53A
0x48F560
0x48F6C4
0x48F73A
0x48F8E8
0x48F946
0x48F94B
0x48FA46
0x48FA4B
0x48FB46
0x48FB8E
0x48FBB0
0x48FBD6
0x48FBE2
0x48FBE8
0x48FC4C
0x48FC8F
0x48FCCD
0x48FCE2
0x48FD06
0x48FD22
0x48FDEC
0x48FE0A
0x48FE62
0x48FE7E
0x48FEE4
0x48FF00
0x48FF1C
0x48FF76
0x48FF9C
0x48FFBC
0x490020
0x49009C
0x4900B8
0x490234
0x490254
0x49027A
0x490294
0x4902B6
0x4902D4
0x49031C
0x490368
0x4903A2
0x4903BE
0x4903DA
0x49044C
0x49045A
0x490484
0x4904A0
0x4904BC
0x490522
0x490534
0x490588
0x4905DC
0x490618
0x490646
0x490956
0x49097C
0x490996
0x4909B8
0x4909DA
0x4909F8
0x490A32
0x490A96
0x490B82
0x490BCE
0x490BEC
0x490C09
0x490C51
0x490CD0
0x490D0E
0x490D2A
0x490D5F
0x490D86
0x490DE8
0x490DF3
0x490E05
0x490E18
0x490E52
0x490E70
0x490E7E
0x490EB6
0x490EC4
0x490F10
0x490F22
0x49100E
0x491052
0x491085
0x4910B7
0x4910DE
0x49112A
0x491176
0x491180
0x49119E
0x4911BC
0x491220
0x491232
0x491244
0x4912F4
0x491344
0x49135E
0x49136C
0x491386
0x4913C2
0x491483
0x491520
0x49153C
0x491547
0x491575
0x491584
0x4915A0
0x4915E2
0x491678
0x4916AE
0x4916C8
0x491720
0x491742
0x49176C
0x49179E
0x4917AE
0x4917C0
0x491870
0x49188A
0x491898
0x4918B2
0x491961
0x4919B0
0x4919C2
0x4919D4
0x4919EE
0x491A00
0x491A4A
0x491B2A
0x491B8C
0x491CAD
0x491D32
0x491D3E
0x491D62
0x491D6E
0x491DA2
0x491DBE
0x491DDD
0x491E0C
0x491E1A
0x491E28
0x491E42
0x491E73
0x491E8E
0x491E9C
0x491EDE
0x491F10
0x491F15
0x4922AC
0x4923D1
0x4923EB
0x4924A0
0x4924FC
0x492561
0x492689
0x492745
0x492782
0x4927A2
0x4927EF
0x49283B
0x492883
0x49294E
0x49295C
0x49297C
0x492988
0x4929AB
0x492A24
0x492A38
0x492A66
0x492AB2
0x492AC4
0x492AD6
0x492C88
0x492C9A
0x492CC6
0x492CF2
0x492D1A
0x492E00
0x492E3C
0x492EAB
0x492ECA
0x492EEA
0x492F10
0x492F2A
0x492FC0
0x492FDA
0x49301C
0x493027
0x493074
0x4930C0
0x4930FD
0x493102
0x4932ED
0x49332C
0x49333A
0x493354
0x4933AC
0x4933D4
0x49349C
0x4934E4
0x4934E9
0x49362E
0x493661
0x49367E
0x4936AF
0x4936DA
0x493710
0x493778
0x493792
0x4937D7
0x49383C
0x493888
0x49389C
0x493936
0x4939E2
0x493A2A
0x493A50
0x493C0E
0x493C7A
0x493CD4
0x493E5E
0x49411E
0x4941FA
0x4942BE
0x49439A
0x494442
0x494482
0x494508
0x4945C6
0x494604
0x49461A
0x49465E
0x4946A6
0x4946CC
0x4946EC
0x494708
0x49471A
0x49475E
0x4947A6
0x4947CC
0x4947EC
0x494808
0x49481A
0x494820
0x49486A
0x49487C
0x494890
0x4948A4
0x4948E0
0x494906
0x49490C
0x494956
0x494968
0x49497C
0x494990
0x494FBA
0x4951C6
0x4951CC
0x4953CA
0x4953D0
0x495596
0x4955BC
0x4956A8
0x4956CE
0x49571E
0x495724
0x4957E8
0x495908
0x495BE6
0x495BEC
0x495C7A
0x495D60
0x495E40
0x495E4A
0x496804
0x49688A
0x496904
0x496974
0x496ACA
0x496C1E
0x4976FC
0x497706
0x497E9A
0x497EA0
0x498012
0x498054
0x4983D4
0x4983DA
0x49865E
0x4988E0
0x4989BE
0x4989C4
0x498C2E
0x498C34
0x498C84
0x498C8A
0x498CDE
0x498CE4
0x498D34
0x498D80
0x498DCA
0x498E14
0x498E5E
0x498E9C
0x498EB2
0x498EDA
0x498F02
0x498F34
0x498F3A
0x498F84
0x498F96
0x498FB0
0x498FCE
0x498FE6
0x498FFE
0x499028
0x499064
0x49908A
0x49911C
0x499138
0x4991A8
0x49934A
0x499378
0x499408
0x49942E
0x49958C
0x49961A
0x499C29
0x49C9D8
0x49CAAE
0x49CB8A
0x49CC68
0x49CD58
0x49DED4
0x49DF0C
0x49DF62
0x49E078
0x49E0E6
0x49E10C
0x49E112
0x49E172
0x49E190
0x49E1DE
0x49E1FE
0x49E266
0x49E276
0x49E3F0
0x49E3F5
0x49E4F8
0x49E522
0x49E564
0x49E584
0x49E5E2
0x49E63D
0x49E665
0x49E68F
0x49E6B9
0x49E6E4
0x49E726
0x49E766
0x49E820
0x49E85E
0x49E8F8
0x49E9E6
0x49EAEA
0x49EB10
0x49EB16
0x49EB6A
0x49EB88
0x49EBA6
0x49EBC6
0x49EBF8
0x49EC2E
0x49ECF2
0x49ECF8
0x49EDA4
0x49EE80
0x49FCDA
0x49FEF0
0x4A002E
0x4A0144
0x4A027E
0x4A02AE
0x4A02D4
0x4A0304
0x4A032A
0x4A0342
0x4A0438
0x4A0456
0x4A0474
0x4A0492
0x4A04B0
0x4A04C2
0x4A04DA
0x4A0526
0x4A0572
0x4A058E
0x4A05F4
0x4A062C
0x4A0664
0x4A068E
0x4A06BC
0x4A071E
0x4A0730
0x4A075E
0x4A077A
0x4A07E0
0x4A085C
0x4A08BE
0x4A093A
0x4A0956
0x4A0972
0x4A09F4
0x4A0A02
0x4A0A2C
0x4A0A4A
0x4A0A66
0x4A0A82
0x4A0B04
0x4A0B12
0x4A0B3C
0x4A0B6A
0x4A0BCC
0x4A0C10
0x4A0C16
0x4A0FFA
0x4A1046
0x4A10BA
0x4A10CB
0x4A10FA
0x4A1116
0x4A11E2
0x4A11F4
0x4A1282
0x4A16C2
0x4A170E
0x4A174C
0x4A1768
0x4A179D
0x4A17C4
0x4A1802
0x4A181E
0x4A1853
0x4A187A
0x4A18E2
0x4A19A4
0x4A19B2
0x4A19FE
0x4A1C74
0x4A1D60
0x4A1DA8
0x4A1DFC
0x4A1E2F
0x4A1E61
0x4A1E88
0x4A1EA6
0x4A1F0E
0x4A1F1C
0x4A1F68
0x4A1F7A
0x4A2066
0x4A20AE
0x4A2102
0x4A2135
0x4A2167
0x4A218E
0x4A21AC
0x4A21C8
0x4A21D3
0x4A2201
0x4A223A
0x4A2256
0x4A2261
0x4A228F
0x4A22C7
0x4A22D6
0x4A22E4
0x4A2342
0x4A2396
0x4A23EA
0x4A241B
0x4A2435
0x4A248E
0x4A24C6
0x4A255D
0x4A25A9
0x4A25D3
0x4A261F
0x4A2650
0x4A2672
0x4A269C
0x4A26CE
0x4A26ED
0x4A2707
0x4A2760
0x4A2782
0x4A27AC
0x4A27D2
0x4A27DE
0x4A2801
0x4A280F
0x4A282A
0x4A2836
0x4A2859
0x4A2867
0x4A288A
0x4A28D4
0x4A2938
0x4A2955
0x4A2986
0x4A2994
0x4A29AE
0x4A29DF
0x4A29F9
0x4A2A8F
0x4A2AB5
0x4A2B0D
0x4A2B3E
0x4A2B58
0x4A2B66
0x4A2BB6
0x4A2BE7
0x4A2BF5
0x4A2C0F
0x4A2C40
0x4A2C5A
0x4A2CA6
0x4A2CCC
0x4A2D79
0x4A2DE5
0x4A2DF3
0x4A2E0D
0x4A2E27
0x4A2E58
0x4A2EAC
0x4A2EDD
0x4A2F6E
0x4A2F82
0x4A3013
0x4A3080
0x4A3094
0x4A30A3
0x4A30E0
0x4A3100
0x4A3111
0x4A3175
0x4A3192
0x4A31AF
0x4A321B
0x4A3258
0x4A3278
0x4A32E4
0x4A3348
0x4A3356
0x4A33E8
0x4A340E
0x4A357A
0x4A3580
0x4A35C5
0x4A35CF
0x4A3644
0x4A373C
0x4A381E
0x4A38EE
0x4A398E
0x4A3AEE
0x4A3B74
0x4A3B9A
0x4A3E52
0x4A3FA4
0x4A4020
0x4A4026
0x4A4082
0x4A4088
0x4A40E4
0x4A41DC
0x4A447E
0x4A484A
0x4A4AA2
0x4A4AFE
0x4A4B98
0x4A4BF4
0x4A4C50
0x4A4C96
0x4A4CDC
0x4A4D22
0x4A4D76
0x4A4ED9
0x4A4F3A
0x4A4F50
0x4A4F56
0x4A4FA0
0x4A4FBD
0x4A4FE6
0x4A5416
0x4A544C
0x4A5A2B
0x4A5A69
0x4A5A7E
0x4A5A9A
0x4A5ABC
0x4A5AE8
0x4A5B06
0x4A5B40
0x4A5B84
0x4A5CC4
0x4A5DDB
0x4A5E6E
0x4A5E85
0x4A5F0F
0x4A5F88
0x4A6083
0x4A616B
0x4A6546
0x4A65BF
0x4A698A
0x4A6C88
0x4A6E38
0x4A7ED2
0x4A7ED8
0x4A7F46
0x4A7F58
0x4A8331
0x4A845F
0x4A849D
0x4A84B2
0x4A8551
0x4A85ED
0x4A8689
0x4A8725
0x4A87C4
0x4A8863
0x4A8902
0x4A89A1
0x4A8A40
0x4A8A46
0x4A8A7C
0x4A8A86
0x4A8AFA
0x4A8CD0
0x4A8EF6
0x4A8F1C
0x4A8F76
0x4A93D4
0x4A944C
0x4A961E
0x4A9660
0x4A967E
0x4A9690
0x4A9870
0x4A99D8
0x4A9C20
0x4A9DAC
0x4A9EDE
0x4AA434
0x4AA694
0x4AA888
0x4AB750
0x4AB756
0x4AB97E
0x4AC28C
0x4AC9A4
0x4AC9AA
0x4ACDB0
0x4ACDB6
0x4AD496
0x4AD566
0x4AD56B
0x4AD674
0x4AD7C4
0x4AD86E
0x4AD918
0x4AD980
0x4AD9F6
0x4AD9FC
0x4ADCD2
0x4AE292
0x4AE438
0x4AE7D2
0x4AE864
0x4AE8F0
0x4AE99C
0x4AEAE6
0x4AEB56
0x4AFAA2
0x4AFAA8
0x4AFCF8
0x4AFE24
0x4AFE29
0x4AFF32
0x4AFF37
0x4B003C
0x4B01B2
0x4B0226
0x4B0400
0x4B0600
0x4B0646
0x4B06B4
0x4B0854
0x4B088E
0x4B0B08
0x4B0BD0
0x4B0E67
0x4B1029
0x4B103E
0x4B1067
0x4B1090
0x4B10C0
0x4B10E6
0x4B10FE
0x4B1188
0x4B126E
0x4B128C
0x4B12AA
0x4B12C8
0x4B12E4
0x4B1392
0x4B1424
0x4B144A
0x4B14A8
0x4B150A
0x4B1534
0x4B1544
0x4B1554
0x4B1572
0x4B1584
0x4B15AC
0x4B15E8
0x4B160E
0x4B1636
0x4B1672
0x4B1698
0x4B16B4
0x4B16D0
0x4B16EC
0x4B1708
0x4B1760
0x4B17F6
0x4B188C
0x4B189E
0x4B190E
0x4B192A
0x4B1990
0x4B19AC
0x4B19C8
0x4B1A22
0x4B1A3E
0x4B1A5A
0x4B1AB4
0x4B1AD0
0x4B1B36
0x4B1B52
0x4B1B78
0x4B1B92
0x4B1BAC
0x4B1BCE
0x4B1C2A
0x4B1C48
0x4B1CC4
0x4B1CE0
0x4B1CFC
0x4B1D22
0x4B1D3E
0x4B1E00
0x4B1E66
0x4B1E9E
0x4B1EC8
0x4B1EE8
0x4B20B2
0x4B20DA
0x4B2100
0x4B212A
0x4B2146
0x4B2166
0x4B2186
0x4B2204
0x4B222A
0x4B224C
0x4B2277
0x4B22AF
0x4B22EC
0x4B2312
0x4B232C
0x4B234E
0x4B239A
0x4B23A3
0x4B2570
0x4B2596
0x4B25B0
0x4B25D2
0x4B261E
0x4B27F4
0x4B282C
0x4B285C
0x4B28D8
0x4B28F2
0x4B2914
0x4B2970
0x4B298E
0x4B29B8
0x4B29DE
0x4B29F8
0x4B2A1A
0x4B2A38
0x4B2A52
0x4B2A74
0x4B2AA0
0x4B2AC6
0x4B2AE0
0x4B2B02
0x4B2B20
0x4B2B50
0x4B2B6A
0x4B2B8C
0x4B2BB8
0x4B2C14
0x4B2C70
0x4B2C8C
0x4B2CA8
0x4B2D2A
0x4B2D38
0x4B2D62
0x4B2D7E
0x4B2D9A
0x4B2E00
0x4B2E12
0x4B2E2E
0x4B2E4A
0x4B2EB0
0x4B2EC2
0x4B2EDE
0x4B2EFA
0x4B2F7C
0x4B2F8A
0x4B2FB4
0x4B2FD0
0x4B3016
0x4B3062
0x4B30AE
0x4B30CC
0x4B30FA
0x4B351A
0x4B3566
0x4B35A0
0x4B35DA
0x4B3620
0x4B3659
0x4B3668
0x4B36C6
0x4B371A
0x4B376E
0x4B37A0
0x4B37BC
0x4B382E
0x4B383C
0x4B3866
0x4B3874
0x4B389A
0x4B38B4
0x4B38D6
0x4B38F8
0x4B3916
0x4B3978
0x4B39DC
0x4B39E2
0x4B3AFE
0x4B3C58
0x4B3C73
0x4B3CA2
0x4B3D64
0x4B3DDE
0x4B4202
0x4B424E
0x4B4334
0x4B437C
0x4B43E6
0x4B44D2
0x4B451E
0x4B4544
0x4B4566
0x4B4584
0x4B45E6
0x4B464A
0x4B4736
0x4B4782
0x4B47A8
0x4B47CA
0x4B47E8
0x4B480E
0x4B4870
0x4B48D3
0x4B4902
0x4B495C
0x4B4DB2
0x4B4DFE
0x4B4E4A
0x4B4E68
0x4B4F54
0x4B4FA0
0x4B4FBE
0x4B500A
0x4B50F6
0x4B5142
0x4B5160
0x4B51AC
0x4B51EA
0x4B5206
0x4B523B
0x4B5262
0x4B52C4
0x4B52CF
0x4B52E1
0x4B52F4
0x4B532E
0x4B5390
0x4B539B
0x4B53AD
0x4B53C0
0x4B53FA
0x4B5438
0x4B5454
0x4B5489
0x4B54B0
0x4B5512
0x4B552C
0x4B553A
0x4B55A2
0x4B55B0
0x4B55FC
0x4B560E
0x4B56FA
0x4B5742
0x4B5796
0x4B57C9
0x4B57FB
0x4B5822
0x4B5840
0x4B5884
0x4B58C8
0x4B590C
0x4B5956
0x4B59B0
0x4B59CD
0x4B59FE
0x4B5A1A
0x4B5A4F
0x4B5A76
0x4B5AC2
0x4B5B0E
0x4B5B18
0x4B5B36
0x4B5B9A
0x4B5BA8
0x4B5C1A
0x4B5C2C
0x4B5C3E
0x4B5C50
0x4B5C62
0x4B5CC6
0x4B5CD8
0x4B5CF2
0x4B5D04
0x4B5D1E
0x4B5DB8
0x4B5DE2
0x4B5F4C
0x4B5F8A
0x4B5FF2
0x4B6000
0x4B604C
0x4B605E
0x4B614A
0x4B6192
0x4B61D6
0x4B6209
0x4B623B
0x4B6262
0x4B6280
0x4B6292
0x4B6342
0x4B6392
0x4B63AC
0x4B63B6
0x4B6552
0x4B6564
0x4B6614
0x4B6664
0x4B667E
0x4B66CA
0x4B66D4
0x4B66F2
0x4B6710
0x4B6774
0x4B6786
0x4B6836
0x4B6886
0x4B68A0
0x4B68EC
0x4B68F6
0x4B69B8
0x4B69D6
0x4B6A3A
0x4B6AA2
0x4B6AB0
0x4B6AFC
0x4B6B0E
0x4B6BFA
0x4B6C42
0x4B6C96
0x4B6CC9
0x4B6CFB
0x4B6D22
0x4B6D3F
0x4B6D4E
0x4B6D60
0x4B6D72
0x4B6E22
0x4B6E3C
0x4B6E4A
0x4B6E5C
0x4B6E6E
0x4B6F1E
0x4B6F38
0x4B6F46
0x4B6F62
0x4B6F6D
0x4B6F9B
0x4B6FD4
0x4B6FF0
0x4B7032
0x4B70C8
0x4B70FE
0x4B711A
0x4B715C
0x4B71F2
0x4B7228
0x4B7244
0x4B724F
0x4B727D
0x4B72B6
0x4B72D2
0x4B7314
0x4B732E
0x4B7386
0x4B73A8
0x4B73D2
0x4B7404
0x4B742A
0x4B7450
0x4B74FE
0x4B7509
0x4B7537
0x4B7570
0x4B7620
0x4B763A
0x4B7654
0x4B7704
0x4B772A
0x4B7894
0x4B78F4
0x4B7906
0x4B7918
0x4B7933
0x4B794D
0x4B79A6
0x4B79C8
0x4B79F2
0x4B7A24
0x4B7A43
0x4B7A92
0x4B7AAC
0x4B7ABE
0x4B7AEC
0x4B7B0C
0x4B7B5B
0x4B7B76
0x4B7B88
0x4B7B96
0x4B7BB0
0x4B7C5F
0x4B7CAE
0x4B7CC8
0x4B7CDA
0x4B7CE8
0x4B7CF6
0x4B7D54
0x4B7DA8
0x4B7DFC
0x4B7E2E
0x4B7E48
0x4B7EF7
0x4B7F11
0x4B7F6A
0x4B7F8C
0x4B7FB6
0x4B7FE8
0x4B800E
0x4B8020
0x4B8032
0x4B8044
0x4B8056
0x4B8062
0x4B8085
0x4B8093
0x4B80B6
0x4B80C2
0x4B80F6
0x4B8112
0x4B8131
0x4B8160
0x4B816E
0x4B817A
0x4B81AE
0x4B81CA
0x4B81E9
0x4B8218
0x4B8226
0x4B8232
0x4B8255
0x4B8263
0x4B8286
0x4B8291
0x4B829F
0x4B82B9
0x4B82EA
0x4B8304
0x4B8312
0x4B835E
0x4B8390
0x4B839F
0x4B83DC
0x4B83FC
0x4B840E
0x4B8431
0x4B843F
0x4B845A
0x4B84BE
0x4B84C3
0x4B885A
0x4B8980
0x4B8990
0x4B89F0
0x4B8A68
0x4B8A73
0x4B8A81
0x4B8A9B
0x4B8ACC
0x4B8AE6
0x4B8B28
0x4B8B59
0x4B8B73
0x4B8B8E
0x4B8B93
0x4B8F2A
0x4B904F
0x4B906A
0x4B90B4
0x4B911E
0x4B913B
0x4B916C
0x4B9171
0x4B9508
0x4B962D
0x4B963B
0x4B9655
0x4B9686
0x4B96A0
0x4B96F2
0x4B9724
0x4B9732
0x4B9752
0x4B975E
0x4B9782
0x4B9790
0x4B97B0
0x4B97BC
0x4B97DF
0x4B984C
0x4B9860
0x4B98F2
0x4B9900
0x4B994C
0x4B995E
0x4B9B10
0x4B9B3C
0x4B9B68
0x4B9B90
0x4B9CA0
0x4B9D68
0x4B9DA5
0x4B9E00
0x4B9E14
0x4B9EA6
0x4B9EF2
0x4B9F04
0x4B9F16
0x4BA0C8
0x4BA0DA
0x4BA106
0x4BA132
0x4BA15A
0x4BA180
0x4BA22E
0x4BA27A
0x4BA28C
0x4BA29E
0x4BA450
0x4BA462
0x4BA48E
0x4BA4BA
0x4BA4E2
0x4BA54E
0x4BA562
0x4BA5F4
0x4BA600
0x4BA60B
0x4BA670
0x4BA6BC
0x4BA71E
0x4BA786
0x4BA7AE
0x4BA7FA
0x4BA838
0x4BA847
0x4BA884
0x4BA8A4
0x4BA8B5
0x4BA91A
0x4BA957
0x4BA982
0x4BA9AA
0x4BAA72
0x4BAA80
0x4BAAA8
0x4BAB70
0x4BABBB
0x4BABE6
0x4BAC48
0x4BACB0
0x4BACDA
0x4BAD3C
0x4BADA4
0x4BADB8
0x4BAE04
0x4BAE56
0x4BAE6A
0x4BAE7E
0x4BAEEC
0x4BAF12
0x4BAF4E
0x4BAF74
0x4BAFE2
0x4BB06D
0x4BB0AB
0x4BB0C0
0x4BB0F4
0x4BB128
0x4BB192
0x4BB1B8
0x4BB244
0x4BB254
0x4BB264
0x4BB26A
0x4BB2D2
0x4BB312
0x4BB364
0x4BB36A
0x4BB3D0
0x4BB3D6
0x4BB43C
0x4BB47C
0x4BB482
0x4BB4E8
0x4BB50E
0x4BB53C
0x4BB542
0x4BB5A8
0x4BB618
0x4BB61E
0x4BB684
0x4BB696
0x4BB70E
0x4BB770
0x4BB780
0x4BB790
0x4BB7E8
0x4BB8CC
0x4BB9EA
0x4BBAC8
0x4BBB06
0x4BBB1C
0x4BBBA4
0x4BBBAA
0x4BBBF4
0x4BBBFA
0x4BBC35
0x4BBC3F
0x4BBCB3
0x4BBD14
0x4BBD70
0x4BBE1C
0x4BBEC2
0x4BBF38
0x4BBF5E
0x4BC0D2
0x4BC872
0x4BC9F6
0x4BCA74
0x4BCA7A
0x4BCAD6
0x4BCADC
0x4BCB38
0x4BCB4A
0x4BCB6C
0x4BCC38
0x4BCCA2
0x4BCD0A
0x4BCD76
0x4BCDEA
0x4BCE70
0x4BCF0A
0x4BCFB6
0x4BD076
0x4BD07C
0x4BD17E
0x4BD216
0x4BD2AC
0x4BD314
0x4BD3C6
0x4BD3CC
0x4BD480
0x4BD486
0x4BD576
0x4BD57C
0x4BD64C
0x4BD652
0x4BD886
0x4BD88C
0x4BD92A
0x4BD930
0x4BD9CE
0x4BD9D4
0x4BDA72
0x4BDAC4
0x4BDB0A
0x4BDD48
0x4BDD54
0x4BDD68
0x4BE82D
0x4BE93C
0x4BF296
0x4BF384
0x4BF90A
0x4BF910
0x4BF9D6
0x4BF9DC
0x4BFCDE
0x4BFD37
0x4BFD98
0x4BFDAE
0x4BFDB4
0x4BFDFE
0x4BFE10
0x4BFE90
0x4BFE96
0x4BFECC
0x4BFED6
0x4BFF4A
0x4BFF88
0x4C0044
0x4C00E8
0x4C0198
0x4C01BE
0x4C01FC
0x4C02BE
0x4C03B0
0x4C03B6
0x4C0412
0x4C0418
0x4C0473
0x4C04F7
0x4C050C
0x4C0512
0x4C054D
0x4C0557
0x4C05CB
0x4C0608
0x4C06AA
0x4C06C9
0x4C073A
0x4C07E6
0x4C089A
0x4C090C
0x4C0932
0x4C0938
0x4C0994
0x4C099A
0x4C09F6
0x4C0C04
0x4C0E30
0x4C0E62
0x4C0E94
0x4C0EB2
0x4C0F50
0x4C0F56
0x4C0FB2
0x4C0FC2
0x4C10CC
0x4C11DC
0x4C12BE
0x4C1534
0x4C1660
0x4C199A
0x4C1A8E
0x4C1C64
0x4C1CA0
0x4C1D3A
0x4C2010
0x4C2016
0x4C21B0
0x4C21F0
0x4C224A
0x4C22A6
0x4C262C
0x4C2844
0x4C284A
0x4C28A6
0x4C2AF0
0x4C2E10
0x4C2E40
0x4C2F1A
0x4C2FF0
0x4C314A
0x4C32A4
0x4C32FF
0x4C3360
0x4C3376
0x4C3388
0x4C33BC
0x4C33C2
0x4C340C
0x4C3434
0x4C3462
0x4C3490
0x4C34BE
0x4C34EE
0x4C3658
0x4C37A8
0x4C37CE
0x4C37EC
0x4C380A
0x4C3828
0x4C385C
0x4C3890
0x4C3895
0x4C3998
0x4C3ACE
0x4C3AE4
0x4C3AFA
0x4C3B10
0x4C3B26
0x4C3B3C
0x4C3C06
0x4C3CD4
0x4C3DAC
0x4C3DC8
0x4C3DEA
0x4C3DFC
0x4C3E8C
0x4C3F1E
0x4C3FDA
0x4C40CC
0x4C419C
0x4C4278
0x4C4370
0x4C4430
0x4C4494
0x4C449A
0x4C4610
0x4C4B3E
0x4C4B90
0x4C4C27
0x4C4CCA
0x4C4CCF
0x4C5364
0x4C547C
0x4C54BA
0x4C54D0
0x4C54EA
0x4C5506
0x4C556C
0x4C55E8
0x4C5602
0x4C5624
0x4C5680
0x4C569E
0x4C56C4
0x4C56DC
0x4C56F8
0x4C5714
0x4C5786
0x4C5794
0x4C57BE
0x4C57EC
0x4C5AFC
0x4C5B48
0x4C5B6E
0x4C5B7C
0x4C5C62
0x4C5CA0
0x4C5CBC
0x4C5CF1
0x4C5D18
0x4C5D50
0x4C5D5E
0x4C5DAA
0x4C5DBC
0x4C5EA8
0x4C5EF0
0x4C5F34
0x4C5F67
0x4C5F99
0x4C5FC0
0x4C5FDE
0x4C5FFA
0x4C6005
0x4C6033
0x4C6042
0x4C605C
0x4C60B4
0x4C60D6
0x4C6100
0x4C6132
0x4C6142
0x4C614E
0x4C6171
0x4C617F
0x4C6199
0x4C61CA
0x4C61E4
0x4C6226
0x4C6257
0x4C62D0
0x4C62E4
0x4C6311
0x4C635D
0x4C63B5
0x4C641A
0x4C644C
0x4C64BA
0x4C64E0
0x4C6574
0x4C65A6
0x4C65B2
0x4C65CA
0x4C661C
0x4C670C
0x4C6770
0x4C678E
0x4C67AE
0x4C684A
0x4C6969
0x4C69C4
0x4C6B02
0x4C6BFC
0x4C6CEC
0x4C6E2C
0x4C6EA4
0x4C6F0C
0x4C6F11
0x4C72F6
0x4C73FA
0x4C7552
0x4C75BE
0x4C762A
0x4C7696
0x4C76D0
0x4C76D5
0x4C778A
0x4C778F
0x4C78C4
0x4C78C9
0x4C79FE
0x4C7A03
0x4C7BEC
0x4C7C66
0x4C7CE0
0x4C7CE5
0x4C7F28
0x4C7F2D
0x4C8170
0x4C8480
0x4C8485
0x4C8694
0x4C8699
0x4C88B0
0x4C8A6E
0x4C8DC4
0x4C8DC9
0x4C9006
0x4C92B4
0x4C93BA
0x4C93BF
0x4C94F8
0x4C94FD
0x4C976A
0x4C976F
0x4C98A8
0x4C98AD
0x4C99E6
0x4C99EB
0x4C9D9A
0x4C9D9F
0x4C9F5E
0x4CA424
0x4CA50E
0x4CA696
0x4CA69B
0x4CA8F4
0x4CA9D4
0x4CAA56
0x4CAB86
0x4CABC0
0x4CAF66
0x4CAF9A
0x4CB338
0x4CB480
0x4CB57E
0x4CB583
0x4CB6CE
0x4CB6D3
0x4CB788
0x4CB78D
0x4CB916
0x4CB91B
0x4CBAA4
0x4CBAA9
0x4CBC32
0x4CBC37
0x4CBE42
0x4CBE47
0x4CBFD0
0x4CBFD5
0x4CC15E
0x4CC163
0x4CC2F4
0x4CC2F9
0x4CC538
0x4CC53D
0x4CC646
0x4CC64B
0x4CC7C6
0x4CC7CB
0x4CC9F6
0x4CC9FB
0x4CCC26
0x4CCC2B
0x4CCE56
0x4CCE5B
0x4CD080
0x4CD0C2
0x4CD0C7
0x4CD3D2
0x4CD3EE
0x4CDB7B
0x4CDBB9
0x4CDBCE
0x4CDBEC
0x4CDC02
0x4CDC20
0x4CDC3E
0x4CDC50
0x4CDC6E
0x4CDC84
0x4CDC96
0x4CDCB6
0x4CDCD4
0x4CDCF2
0x4CDD10
0x4CDD2E
0x4CDD44
0x4CDD64
0x4CDD82
0x4CDDA0
0x4CDDBE
0x4CDDDC
0x4CDDFC
0x4CDE1A
0x4CDE3A
0x4CDE58
0x4CDE78
0x4CDE96
0x4CDEB6
0x4CDED4
0x4CDEF4
0x4CDF12
0x4CDF32
0x4CDF50
0x4CDF70
0x4CDF86
0x4CDF9C
0x4CDFB2
0x4CDFD2
0x4CDFF2
0x4CE012
0x4CE042
0x4CE0AC
0x4CE0D2
0x4CE15E
0x4CE16E
0x4CE17E
0x4CE1BE
0x4CE1C4
0x4CE22A
0x4CE230
0x4CE298
0x4CE29E
0x4CE304
0x4CE30A
0x4CE370
0x4CE3B0
0x4CE3D6
0x4CE3DC
0x4CE442
0x4CE448
0x4CE4AE
0x4CE4B4
0x4CE51A
0x4CE58A
0x4CE590
0x4CE5F6
0x4CE608
0x4CE65E
0x4CE6C0
0x4CE6D0
0x4CE6E0
0x4CE738
0x4CE812
0x4CE988
0x4CEA6A
0x4CEAA8
0x4CEABE
0x4CEB46
0x4CEB4C
0x4CEB96
0x4CEB9C
0x4CEBD7
0x4CEBE1
0x4CEC56
0x4CECA6
0x4CECCE
0x4CEE78
0x4CEE98
0x4CEEE2
0x4CEF28
0x4CF00F
0x4CF0A7
0x4CF108
0x4CF11E
0x4CF124
0x4CF198
0x4CF1DA
0x4CF216
0x4CF23C
0x4CF24C
0x4CF278
0x4CF2BE
0x4CF2CE
0x4CF308
0x4CF338
0x4CF33E
0x4CF379
0x4CF383
0x4CF3F8
0x4CF4F4
0x4CF5A8
0x4CF662
0x4CF688
0x4CF6E8
0x4CF7A0
0x4CF7A5
0x4CF890
0x4CF95A
0x4CFA8C
0x4CFAE0
0x4CFB64
0x4CFCE0
0x4CFEB8
0x4D007A
0x4D00DB
0x4D00F0
0x4D00F6
0x4D0140
0x4D015C
0x4D0178
0x4D0194
0x4D01B0
0x4D020A
0x4D0226
0x4D0242
0x4D029C
0x4D02C6
0x4D02F0
0x4D030A
0x4D032A
0x4D04E2
0x4D04FE
0x4D067A
0x4D06A0
0x4D06BE
0x4D06D8
0x4D06FA
0x4D0718
0x4D073E
0x4D075C
0x4D0776
0x4D0798
0x4D07B6
0x4D07DC
0x4D07F6
0x4D0810
0x4D0832
0x4D085E
0x4D087A
0x4D0896
0x4D08FC
0x4D090E
0x4D092A
0x4D0946
0x4D09AC
0x4D09BE
0x4D0B18
0x4D0C72
0x4D0C84
0x4D0CAA
0x4D0CCC
0x4D0CEE
0x4D0D0C
0x4D0D30
0x4D0D6A
0x4D0DCE
0x4D0DF4
0x4D0E16
0x4D0E38
0x4D0E56
0x4D0E8E
0x4D0EF2
0x4D0FDE
0x4D102A
0x4D1048
0x4D1134
0x4D1180
0x4D119E
0x4D11E4
0x4D1230
0x4D127C
0x4D12DE
0x4D12E9
0x4D12FB
0x4D130E
0x4D1348
0x4D13AA
0x4D13B5
0x4D13C7
0x4D13DA
0x4D1414
0x4D14AE
0x4D14D8
0x4D151C
0x4D152E
0x4D1540
0x4D1552
0x4D1564
0x4D16CE
0x4D16E0
0x4D16FA
0x4D170C
0x4D1726
0x4D17C0
0x4D17EA
0x4D182E
0x4D1840
0x4D1852
0x4D1864
0x4D1876
0x4D19E0
0x4D19F2
0x4D1A0C
0x4D1A1E
0x4D1A38
0x4D1A84
0x4D1A8E
0x4D1AAC
0x4D1B10
0x4D1B5C
0x4D1B66
0x4D1B84
0x4D1BE8
0x4D1C98
0x4D1CE8
0x4D1D02
0x4D1D10
0x4D1DC0
0x4D1E10
0x4D1E2A
0x4D1E38
0x4D1E52
0x4D1E6E
0x4D1EB0
0x4D1F46
0x4D1F7C
0x4D1F98
0x4D1FDA
0x4D2070
0x4D20A6
0x4D2106
0x4D2118
0x4D212A
0x4D218A
0x4D219C
0x4D21AE
0x4D21BC
0x4D21D6
0x4D2285
0x4D2294
0x4D22AE
0x4D235D
0x4D23AC
0x4D23C6
0x4D23D8
0x4D2427
0x4D2442
0x4D2454
0x4D2460
0x4D2494
0x4D24B0
0x4D24CF
0x4D24FE
0x4D250C
0x4D2518
0x4D254C
0x4D2568
0x4D2587
0x4D25B6
0x4D25C4
0x4D263C
0x4D26B4
0x4D26B9
0x4D2A50
0x4D2B76
0x4D2B7B
0x4D2F12
0x4D3037
0x4D3051
0x4D306C
0x4D307A
0x4D309A
0x4D30A6
0x4D30CA
0x4D30D8
0x4D30F8
0x4D3104
0x4D3128
0x4D3238
0x4D3300
0x4D333E
0x4D344E
0x4D3516
0x4D3554
0x4D35A0
0x4D3752
0x4D377E
0x4D37AA
0x4D37D2
0x4D381E
0x4D3830
0x4D39E2
0x4D3A0E
0x4D3A3A
0x4D3A62
0x4D3A6E
0x4D3A7A
0x4D3AB4
0x4D3B1C
0x4D3B44
0x4D3B78
0x4D3BE0
0x4D3C08
0x4D3C54
0x4D3CA0
0x4D3CCA
0x4D3CF4
0x4D3D40
0x4D3D8C
0x4D3DA0
0x4D3DB4
0x4D3DE8
0x4D3DF4
0x4D3E0C
0x4D3E40
0x4D3E4E
0x4D3E8C
0x4D3EA2
0x4D3EA8
0x4D3EE3
0x4D3EED
0x4D3F62
0x4D3FB0
0x4D4008
0x4D400E
0x4D4160
0x4D4166
0x4D41C2
0x4D41C8
0x4D4223
0x4D4284
0x4D429A
0x4D4322
0x4D4328
0x4D4372
0x4D43AE
0x4D43D4
0x4D49E8
0x4D4C02
0x4D4CAC
0x4D5312
0x4D5328
0x4D53F4
0x4D54B8
0x4D5669
0x4D57B2
0x4D5861
0x4D5903
0x4D5954
0x4D59DF
0x4D5A75
0x4D5B01
0x4D5B9F
0x4D5BA3
0x4D5C3C
0x4D5D40
0x4D5E1F
0x4D5F51
0x4D604E
0x4D6078
0x4D6146
0x4D6179
0x4D6185
0x4D6192
0x4D619F
0x4D61AB
0x4D61B8
0x4D61CB
0x4D61E1
0x4D61F7
0x4D6203
0x4D6216
0x4D6277
0x4D62A3
0x4D6320
0x4D633A
0x4D635F
0x4D637A
0x4D6385
0x4D63D6
0x4D658C
0x4D659D
0x4D65AE
0x4D65EC
0x4D6601
0x4D69D0
0x4D69D6
0x4D6B06
0x4D6C00
0x4D6C3E
0x4D6C54
0x4D6CB8
0x4D6D1C
0x4D6E56
0x4D6EC0
0x4D7086
0x4D70C0
0x4D712E
0x4D71BE
0x4D71F8
0x4D725A
0x4D736A
0x4D7430
0x4D74A2
0x4D75A2
0x4D7618
0x4D769A
0x4D77D6
0x4D7858
0x4D79CF
0x4D7A2A
0x4D7BD2
0x4D7C3E
0x4D7C9E
0x4D7DDC
0x4D7F51
0x4D7F82
0x4D7FB4
0x4D8010
0x4D806C
0x4D80C0
0x4D80EA
0x4D816E
0x4D822A
0x4D82E6
0x4D83A2
0x4D83DA
0x4D841C
0x4D845E
0x4D84A6
0x4D84EC
0x4D855A
0x4D8598
0x4D85AE
0x4D85EA
0x4D8610
0x4D864C
0x4D8672
0x4D86C0
0x4D872C
0x4D8794
0x4D87CC
0x4D880E
0x4D88B2
0x4D897E
0x4D8A08
0x4D8A38
0x4D8A6E
0x4D8AAA
0x4D8B10
0x4D8B7E
0x4D8BB4
0x4D8BC6
0x4D8C0E
0x4D8C56
0x4D8CEA
0x4D8E66
0x4D9064
0x4D9286
0x4D92F0
0x4D94F6
0x4D99C2
0x4D9B01
0x4D9B8D
0x4D9BF2
0x4D9C76
0x4D9D04
0x4D9D3A
0x4D9D6E
0x4D9E0E
0x4D9E49
0x4D9EFA
0x4DA106
0x4DA192
0x4DA1F0
0x4DA216
0x4DA21C
0x4DA278
0x4DA27E
0x4DA2DA
0x4DA464
0x4DA700
0x4DA99A
0x4DAA32
0x4DAB08
0x4DAC1A
0x4DAD3E
0x4DAE62
0x4DAE68
0x4DAF72
0x4DB152
0x4DB31A
0x4DB40A
0x4DB56C
0x4DB82C
0x4DBA42
0x4DBBE8
0x4DBE22
0x4DBF71
0x4DBFAF
0x4DBFC4
0x4DC014
0x4DC055
0x4DC05F
0x4DC0D4
0x4DC0DA
0x4DC168
0x4DC16E
0x4DC202
0x4DC250
0x4DC2E4
0x4DC32C
0x4DC352
0x4DC438
0x4DC43E
0x4DC49A
0x4DC4A0
0x4DC4FC
0x4DC502
0x4DC55E
0x4DC667
0x4DC7CF
0x4DC886
0x4DC953
0x4DCB12
0x4DCB3A
0x4DCB62
0x4DCBC2
0x4DCC21
0x4DCC5A
0x4DCC82
0x4DD3FC
0x4DD402
0x4DD49E
0x4DD592
0x4DD598
0x4DD886
0x4DD8E7
0x4DD8FC
0x4DD926
0x4DD938
0x4DD970
0x4DD976
0x4DD9BF
0x4DD9F8
0x4DDA14
0x4DDA19
0x4DDAC0
0x4DDB30
0x4DDB5A
0x4DDBAA
0x4DDC0B
0x4DDC53
0x4DDCBE
0x4DDCDA
0x4DDD28
0x4DDDB2
0x4DDDE0
0x4DDE0E
0x4DDE1C
0x4DDE6A
0x4DDEA8
0x4DDED6
0x4DDFA4
0x4DDFC6
0x4DDFD7
0x4DDFFE
0x4DE078
0x4DE092
0x4DE09C
0x4DE238
0x4DE28A
0x4DE2A6
0x4DE410
0x4DE472
0x4DE4B8
0x4DE54A
0x4DE582
0x4DE5E4
0x4DE60E
0x4DE660
0x4DE694
0x4DE6A3
0x4DE6E6
0x4DE720
0x4DE73C
0x4DE776
0x4DE782
0x4DE812
0x4DE896
0x4DE8CA
0x4DE8E5
0x4DE914
0x4DEB37
0x4DEB61
0x4DEB71
0x4DEBA0
0x4DEBAB
0x4DEBD6
0x4DEBE4
0x4DEC04
0x4DEC10
0x4DEC33
0x4DEC7F
0x4DECCC
0x4DED0E
0x4DED32
0x4DED74
0x4DED7F
0x4DED99
0x4DEDF1
0x4DEE4A
0x4DEE5E
0x4DEE72
0x4DEE80
0x4DEE9A
0x4DEECB
0x4DEEFC
0x4DEF61
0x4DEFDA
0x4DF079
0x4DF115
0x4DF11B
0x4DF39C
0x4DF4A2
0x4DF4F2
0x4DF528
0x4DF5AA
0x4DFAFA
0x4DFB7C
0x4DFC70
0x4DFE10
0x4DFE92
0x4E00D6
0x4E01A2
0x4E03E6
0x4E0494
0x4E05E2
0x4E06A2
0x4E074A
0x4E0750
0x4E096E
0x4E0E1A
0x4E1220
0x4E16B4
0x4E17A9
0x4E1A4F
0x4E1CF4
0x4E1D4E
0x4E1DA8
0x4E1DF4
0x4E1EB4
0x4E20CC
0x4E21BC
0x4E21C0
0x4E25B1
0x4E2664
0x4E279E
0x4E288C
0x4E2892
0x4E2B74
0x4E2C41
0x4E2E30
0x4E2F7A
0x4E34DC
0x4E34E2
0x4E3674
0x4E367A
0x4E387C
0x4E3882
0x4E3CEE
0x4E3D9C
0x4E3ED6
0x4E3F04
0x4E3F84
0x4E4032
0x4E410C
0x4E4190
0x4E41A6
0x4E41BE
0x4E41DE
0x4E424C
0x4E427C
0x4E42A2
0x4E42BA
0x4E42F6
0x4E4320
0x4E4362
0x4E438A
0x4E43B0
0x4E43CA
0x4E43EC
0x4E440A
0x4E4430
0x4E4450
0x4E446C
0x4E44D0
0x4E468E
0x4E4709
0x4E473C
0x4E4828
0x4E4874
0x4E48AD
0x4E48EA
0x4E4910
0x4E4932
0x4E4950
0x4E496C
0x4E49CE
0x4E4A31
0x4E4A60
0x4E4D70
0x4E4DBC
0x4E4DCE
0x4E4E7E
0x4E4ECE
0x4E4EE8
0x4E4F2C
0x4E4F78
0x4E4F82
0x4E4F9E
0x4E5060
0x4E507E
0x4E50E2
0x4E511A
0x4E5128
0x4E5174
0x4E5186
0x4E5272
0x4E52BA
0x4E52FE
0x4E5331
0x4E5363
0x4E538A
0x4E53A7
0x4E53F6
0x4E5410
0x4E5422
0x4E5460
0x4E546E
0x4E547C
0x4E54DA
0x4E552E
0x4E5582
0x4E55B4
0x4E55CE
0x4E567D
0x4E5697
0x4E56F0
0x4E5712
0x4E573C
0x4E576E
0x4E577D
0x4E5798
0x4E57B6
0x4E57D2
0x4E581C
0x4E5876
0x4E5893
0x4E58C4
0x4E58C9
0x4E5C60
0x4E5D85
0x4E5D93
0x4E5DAD
0x4E5DDE
0x4E5DF8
0x4E5E3A
0x4E5E6B
0x4E5E7A
0x4E5E86
0x4E5EAC
0x4E5EDA
0x4E5F26
0x4E5F38
0x4E5F4A
0x4E60FC
0x4E610E
0x4E613A
0x4E6166
0x4E618E
0x4E6206
0x4E621A
0x4E6248
0x4E6257
0x4E62A4
0x4E62F0
0x4E632D
0x4E6379
0x4E6393
0x4E63EC
0x4E6414
0x4E64DC
0x4E6534
0x4E6542
0x4E655C
0x4E658D
0x4E65B8
0x4E661A
0x4E6682
0x4E66B3
0x4E66D0
0x4E6736
0x4E6788
0x4E6796
0x4E67AA
0x4E67E6
0x4E680C
0x4E686C
0x4E68AC
0x4E6A28
0x4E6B20
0x4E6B8C
0x4E6C64
0x4E6C8A
0x4E6DFC
0x4E6FFE
0x4E700E
0x4E7014
0x4E7086
0x4E708C
0x4E713C
0x4E7236
0x4E7376
0x4E737C
0x4E7426
0x4E75AE
0x4E76DE
0x4E76E3
0x4E785E
0x4E78C9
0x4E7907
0x4E791C
0x4E79B4
0x4E79BA
0x4E7A04
0x4E7A14
0x4E7A32
0x4E7A4E
0x4E7AB4
0x4E7ADA
0x4E7AFA
0x4E7B20
0x4E7B40
0x4E7BBC
0x4E7C20
0x4E7C68
0x4E7CCA
0x4E7CEF
0x4E7D27
0x4E7D64
0x4E7D80
0x4E7D9C
0x4E7E0E
0x4E7E1C
0x4E7E46
0x4E7E8B
0x4E7EBA
0x4E81CA
0x4E8216
0x4E826A
0x4E82BE
0x4E82FA
0x4E8318
0x4E83F3
0x4E845E
0x4E849C
0x4E84B8
0x4E84ED
0x4E8514
0x4E854C
0x4E855A
0x4E85A6
0x4E85B8
0x4E86A4
0x4E86E8
0x4E871B
0x4E874D
0x4E8774
0x4E8792
0x4E87A0
0x4E87DC
0x4E8828
0x4E8832
0x4E89CE
0x4E89EA
0x4E89F5
0x4E8A23
0x4E8A32
0x4E8A4C
0x4E8AA4
0x4E8AC6
0x4E8AF0
0x4E8B22
0x4E8B31
0x4E8B4B
0x4E8BE2
0x4E8C14
0x4E8C34
0x4E8C40
0x4E8C63
0x4E8C71
0x4E8C8B
0x4E8CBC
0x4E8CD6
0x4E8CE4
0x4E8D26
0x4E8D57
0x4E8D65
0x4E8D7F
0x4E8DB0
0x4E8E28
0x4E8E3C
0x4E8E69
0x4E8E86
0x4E8EEB
0x4E8F37
0x4E8F90
0x4E9074
0x4E9195
0x4E922E
0x4E93DE
0x4E959A
0x4E974C
0x4E9884
0x4E99DE
0x4E9A32
0x4E9A38
0x4E9D50
0x4E9E38
0x4E9E88
0x4E9FB8
0x4EA0A0
0x4EA100
0x4EA23E
0x4EA388
0x4EA4C8
0x4EA65F
0x4EA69D
0x4EA6B2
0x4EA6CA
0x4EA6D0
0x4EA772
0x4EA7FC
0x4EA822
0x4EA89E
0x4EAA2E
0x4EAA6C
0x4EAAA8
0x4EAABC
0x4EAACC
0x4EAAD8
0x4EAAE4
0x4EAB3C
0x4EAC52
0x4EAC78
0x4EADD4
0x4EADD9
0x4EAF71
0x4EAFAF
0x4EAFC4
0x4EAFE0
0x4EB004
0x4EB034
0x4EB05A
0x4EB06E
0x4EB07E
0x4EB090
0x4EB0A4
0x4EB0B4
0x4EB0C0
0x4EB0CC
0x4EB0DA
0x4EB0F6
0x4EB112
0x4EB12E
0x4EB188
0x4EB1A2
0x4EB1BC
0x4EB1DE
0x4EB20A
0x4EB228
0x4EB24E
0x4EB26A
0x4EB3E6
0x4EB402
0x4EB41E
0x4EB484
0x4EB496
0x4EB4E2
0x4EB52E
0x4EB54C
0x4EB632
0x4EB658
0x4EB67A
0x4EB69C
0x4EB6BA
0x4EB6F4
0x4EB758
0x4EB7BA
0x4EB7C5
0x4EB7D7
0x4EB7EA
0x4EB824
0x4EB83E
0x4EB84C
0x4EB85E
0x4EB90E
0x4EB95E
0x4EB9AA
0x4EB9B4
0x4EB9D2
0x4EBA36
0x4EBA52
0x4EBA94
0x4EBB2A
0x4EBB60
0x4EBBAF
0x4EBBCA
0x4EBBDC
0x4EBBF6
0x4EBCA6
0x4EBCB2
0x4EBCE6
0x4EBD02
0x4EBD21
0x4EBD50
0x4EBD5E
0x4EBD78
0x4EBD96
0x4EBD9B
0x4EC132
0x4EC258
0x4EC266
0x4EC286
0x4EC292
0x4EC2B5
0x4EC2C4
0x4EC310
0x4EC322
0x4EC334
0x4EC4E6
0x4EC4F8
0x4EC524
0x4EC54C
0x4EC558
0x4EC596
0x4EC5BE
0x4EC686
0x4EC6B0
0x4EC6E6
0x4EC74E
0x4EC79A
0x4EC7AE
0x4EC7C8
0x4EC804
0x4EC8CE
0x4EC8DE
0x4ECA83
0x4ECAC1
0x4ECAD6
0x4ECB29
0x4ECC8A
0x4ECD4B
0x4ED0C6
0x4ED111
0x4ED3FA
0x4ED490
0x4ED5E2
0x4ED6BA
0x4EDB70
0x4EDC8F
0x4EDE8A
0x4EE063
0x4EE0CD
0x4EE139
0x4EE257
0x4EE29C
0x4EE2E1
0x4EE4CC
0x4EE6D2
0x4EE78A
0x4EE85E
0x4EE8FD
0x4EE9D1
0x4EEA8B
0x4EEB74
0x4EEB93
0x4EEBB2
0x4EEBCC
0x4EEC1B
0x4EECA0
0x4EECA6
0x4EECDC
0x4EECE6
0x4EED5A
0x4EEDDC
0x4EEE72
0x4EEF34
0x4EEFD6
0x4EEFFC
0x4EF040
0x4EF056
0x4EF064
0x4EF0A2
0x4EF0A8
0x4EF104
0x4EF10A
0x4EF166
0x4EF16C
0x4EF1E0
0x4EF1E6
0x4EF25E
0x4EF264
0x4EF2DC
0x4EF2E2
0x4EF37A
0x4EF380
0x4EF3FE
0x4EF482
0x4EF498
0x4EF54C
0x4EF595
0x4EF738
0x4EF73E
0x4EFA4F
0x4EFAD4
0x4EFADA
0x4EFB80
0x4EFB9E
0x4EFD18
0x4EFE32
0x4EFF36
0x4EFFFE
0x4F0110
0x4F0222
0x4F0248
0x4F02F4
0x4F037C
0x4F038E
0x4F03AA
0x4F03C8
0x4F0400
0x4F0412
0x4F0438
0x4F04CC
0x4F051C
0x4F0574
0x4F05C6
0x4F05D8
0x4F05EA
0x4F05FC
0x4F060E
0x4F0620
0x4F06C8
0x4F079C
0x4F0840
0x4F08B0
0x4F0920
0x4F096E
0x4F09E0
0x4F0A94
0x4F0B04
0x4F0B50
0x4F0B62
0x4F0BA0
0x4F0BB6
0x4F0CDC
0x4F0EFC
0x4F0F22
0x4F0FEE
0x4F109A
0x4F10E0
0x4F1172
0x4F1200
0x4F1296
0x4F1364
0x4F140C
0x4F1411
0x4F1624
0x4F16CC
0x4F16D1
0x4F18E4
0x4F199E
0x4F1DA2
0x4F1E58
0x4F21CE
0x4F243A
0x4F2614
0x4F28AC
0x4F2984
0x4F2A89
0x4F2AC7
0x4F2ADC
0x4F2AFE
0x4F2B20
0x4F2B3C
0x4F2B58
0x4F2B74
0x4F2B90
0x4F2BEA
0x4F2C06
0x4F2C22
0x4F2C7C
0x4F2C96
0x4F2CB0
0x4F2CD2
0x4F2CFE
0x4F2D1C
0x4F2D38
0x4F2D52
0x4F2D6C
0x4F2D8E
0x4F2DBA
0x4F2DD8
0x4F2DF4
0x4F2E1A
0x4F2E38
0x4F2E54
0x4F2FD0
0x4F2FF6
0x4F3010
0x4F3032
0x4F3050
0x4F3076
0x4F3094
0x4F30B6
0x4F30D4
0x4F30DD
0x4F3210
0x4F322C
0x4F3248
0x4F32AE
0x4F32C0
0x4F32DC
0x4F32F8
0x4F335E
0x4F3370
0x4F33BC
0x4F3408
0x4F3426
0x4F3460
0x4F34AC
0x4F34F8
0x4F3516
0x4F3550
0x4F3636
0x4F365C
0x4F367E
0x4F36A0
0x4F36BE
0x4F36F8
0x4F375C
0x4F3848
0x4F3894
0x4F38B2
0x4F3998
0x4F39B6
0x4F39DC
0x4F39FE
0x4F3A20
0x4F3A3E
0x4F3A64
0x4F3A94
0x4F3AF8
0x4F3B5A
0x4F3B65
0x4F3B77
0x4F3B8A
0x4F3BC4
0x4F3C26
0x4F3C31
0x4F3C43
0x4F3C56
0x4F3C90
0x4F3CAA
0x4F3CB8
0x4F3CFC
0x4F3D16
0x4F3D24
0x4F3D68
0x4F3D7A
0x4F3E2A
0x4F3E7A
0x4F3EC6
0x4F3ED0
0x4F3F34
0x4F3F46
0x4F3F58
0x4F4008
0x4F4022
0x4F4030
0x4F4042
0x4F40F2
0x4F4141
0x4F4150
0x4F419C
0x4F41A6
0x4F420A
0x4F4226
0x4F4268
0x4F42FE
0x4F4334
0x4F4350
0x4F4392
0x4F440C
0x4F4442
0x4F4491
0x4F44AC
0x4F44BE
0x4F44D8
0x4F4587
0x4F4599
0x4F45AB
0x4F45FA
0x4F4614
0x4F4626
0x4F4640
0x4F46F0
0x4F46FC
0x4F4730
0x4F474C
0x4F476B
0x4F479A
0x4F47A8
0x4F47B4
0x4F47E8
0x4F4804
0x4F4813
0x4F4842
0x4F4850
0x4F486A
0x4F486F
0x4F4C06
0x4F4D2B
0x4F4D46
0x4F4D4B
0x4F50E2
0x4F5208
0x4F5216
0x4F5236
0x4F5242
0x4F5266
0x4F5274
0x4F5294
0x4F52A0
0x4F52C4
0x4F5310
0x4F5322
0x4F5334
0x4F54E6
0x4F54F8
0x4F5524
0x4F554C
0x4F5598
0x4F55AA
0x4F55BC
0x4F576E
0x4F5780
0x4F57AC
0x4F57D4
0x4F57E0
0x4F57EC
0x4F582A
0x4F5868
0x4F5890
0x4F5958
0x4F5980
0x4F5A01
0x4F5A2C
0x4F5A62
0x4F5ACA
0x4F5AF4
0x4F5B36
0x4F5B82
0x4F5BCE
0x4F5BE2
0x4F5BF6
0x4F5CF6
0x4F5D12
0x4F5DD8
0x4F5DDE
0x4F60DC
0x4F60E2
0x4F62B8
0x4F64AE
0x4F64EC
0x4F65AE
0x4F65D4
0x4F6754
0x4F67AE
0x4F6844
0x4F6876
0x4F695E
0x4F69A4
0x4F6A04
0x4F6A58
0x4F6A5E
0x4F6ABA
0x4F6B96
0x4F6C9C
0x4F6DA4
0x4F6E9C
0x4F6F7A
0x4F6F94
0x4F7018
0x4F7022
0x4FB556
0x4FCD10
0x4FCD40
0x4FCE28
0x4FCE3E
0x4FCE66
0x4FCEA2
0x4FCEC8
0x4FCEE8
0x4FCF70
0x4FCF76
0x4FCFD2
0x4FCFD8
0x4FD034
0x4FD05E
0x4FD084
0x4FD0BC
0x4FD0FE
0x4FD132
0x4FD19E
0x4FD1A4
0x4FD1EE
0x4FD206
0x4FD20E
0x4FD28A
0x4FD308
0x4FD499
0x4FD4CA
0x4FD4D0
0x4FD5AD
0x4FD5B3
0x4FD6A1
0x4FD77E
0x4FD8D8
0x4FE31A
0x4FE60E
0x4FE682
0x4FE6DC
0x4FE772
0x4FE868
0x4FE8F8
0x4FE9C0
0x4FE9FE
0x4FEA14
0x4FEAF2
0x4FEB18
0x4FEB2A
0x4FEB48
0x4FEB5A
0x4FEB6C
0x4FEC4E
0x4FED90
0x4FEDB6
0x4FEE1A
0x4FF19E
0x4FF1A4
0x4FF2BC
0x4FF484
0x4FF786
0x4FF78C
0x4FF7E8
0x4FF7EE
0x4FF8B4
0x4FF8BA
0x4FF990
0x4FF9A2
0x4FF9A8
0x4FFA42
0x4FFA60
0x4FFAE6
0x4FFAF8
0x4FFB24
0x4FFC02
0x4FFCB8
0x4FFCEE
0x4FFCF4
0x4FFE30
0x4FFEDA
0x50007A
0x50020D
0x50026E
0x500284
0x5002AA
0x5002C8
0x5002E4
0x5003C0
0x5003C6
0x500410
0x50042C
0x500492
0x5004BC
0x5004E2
0x500508
0x500528
0x5005A4
0x5005CE
0x50067A
0x5006DE
0x500740
0x500766
0x5007AE
0x50081A
0x500840
0x50085C
0x500878
0x5008FA
0x500908
0x500932
0x500978
0x5009BD
0x5009EC
0x500D5A
0x500DA6
0x500DDA
0x500E2E
0x500E82
0x500EBE
0x500F9A
0x500FB8
0x501094
0x5010D2
0x5010EE
0x501123
0x50114A
0x5011B2
0x501274
0x501282
0x5012CE
0x5012E0
0x50151A
0x501606
0x50165A
0x50168D
0x5016BF
0x5016E6
0x501B8C
0x501BAA
0x501BB8
0x501C04
0x501C40
0x501C8C
0x501CA8
0x501CB3
0x501CE1
0x501D19
0x501D28
0x501D86
0x501DB7
0x501DD1
0x501E2A
0x501E50
0x501EE7
0x501F33
0x501F5E
0x501F80
0x501FB7
0x501FE1
0x502012
0x502031
0x502063
0x5020B0
0x5020E1
0x5020FB
0x502191
0x5021AB
0x502242
0x50224E
0x502271
0x50227F
0x50229A
0x5022E4
0x50233D
0x50236E
0x50237C
0x502396
0x5023C7
0x5023E1
0x502477
0x50249D
0x5024B8
0x5024C6
0x502511
0x502542
0x50257C
0x5025AD
0x5025BB
0x5025D5
0x5025E3
0x5025FD
0x50262E
0x502654
0x502681
0x5026ED
0x5026FB
0x502715
0x502746
0x502756
0x50276A
0x5027FB
0x502828
0x502845
0x502862
0x5028CE
0x5028DD
0x502929
0x502946
0x5029AA
0x5029E2
0x502A3A
0x502A81
0x503653
0x503CB9
0x503D9E
0x503E68
0x504019
0x504162
0x504211
0x504304
0x50438F
0x504425
0x5044B1
0x50454F
0x504553
0x5045EC
0x504608
0x5046F0
0x5047CF
0x504901
0x5049FE
0x504A28
0x504AF6
0x504B29
0x504B35
0x504B42
0x504B4F
0x504B5B
0x504B68
0x504B7B
0x504B91
0x504BA7
0x504BB3
0x504BC6
0x504C27
0x504C53
0x504CD0
0x504CEA
0x504D0F
0x504D2A
0x504D35
0x504D86
0x504E6C
0x504F45
0x504F56
0x504F68
0x504F82
0x504FAD
0x504FDA
0x505002
0x50502A
0x5050CA
0x5050D0
0x505378
0x50550E
0x505780
0x505A40
0x505A46
0x505B3C
0x505C12
0x505EC2
0x505F12
0x505F18
0x506443
0x506605
0x5067CE
0x5068F8
0x50690E
0x506936
0x50696E
0x506994
0x5069C2
0x5069F2
0x506A12
0x506A2C
0x506A5A
0x506AD6
0x506B52
0x506B64
0x506B75
0x506B92
0x506BF0
0x506C90
0x506D28
0x506E2A
0x506E50
0x506ECA
0x506EE6
0x506EF2
0x506EFE
0x506F0E
0x506F14
0x506FA8
0x506FD2
0x5071AA
0x5071B0
0x5072E1
0x507346
0x50734C
0x5073E8
0x5074A2
0x507524
0x507694
0x5077A0
0x507918
0x50794A
0x50797C
0x507D52
0x507E9E
0x507ED8
0x507F14
0x507F75
0x507F8A
0x507FCA
0x507FF4
0x508010
0x508016
0x508051
0x50805B
0x5080D0
0x508180
0x508202
0x50826C
0x508292
0x5083E0
0x5083E6
0x508442
0x508448
0x5084A4
0x5084E0
0x50859C
0x5086F2
0x508732
0x5087C6
0x50885A
0x5088FE
0x5089CC
0x508A72
0x508B18
0x508B70
0x508B76
0x508BFC
0x508C5D
0x508C72
0x508CB6
0x508CCA
0x508CE2
0x508D26
0x508D2C
0x508D76
0x508D7B
0x508EDA
0x509588
0x5095A6
0x5095C0
0x5095E8
0x50961A
0x50964C
0x5096B0
0x509704
0x509758
0x509794
0x5097B2
0x5097C0
0x509824
0x5098AE
0x5098D4
0x50990A
0x509CA2
0x509CE2
0x509CF4
0x509D08
0x509D18
0x509D24
0x509D30
0x509D47
0x509DD1
0x509E4A
0x509F43
0x50A02B
0x50A405
0x50A47E
0x50B2F2
0x50B3A9
0x50B3AF
0x50B472
0x50B49E
0x50B503
0x50B52C
0x50B5A7
0x50B5D6
0x50B5DC
0x50B9C2
0x50BA0E
0x50BA76
0x50BA84
0x50BAD0
0x50BAE2
0x50BBCE
0x50BC16
0x50BC6A
0x50BC9D
0x50BCCF
0x50BCF6
0x50BD13
0x50BD2D
0x50BD86
0x50BDA8
0x50BDDF
0x50BE09
0x50BE3A
0x50BE59
0x50BE67
0x50BE81
0x50BEB2
0x50BECC
0x50BEDA
0x50BF25
0x50BF56
0x50BFC2
0x50BFD6
0x50C067
0x50C0CC
0x50C138
0x50C174
0x50C38C
0x50C3DC
0x50C41A
0x50C430
0x50C468
0x50C4A8
0x50C4E0
0x50C532
0x50C5D6
0x50C5FE
0x50C61A
0x50C796
0x50C7BC
0x50C7D6
0x50C7F8
0x50C81A
0x50C838
0x50C872
0x50C8D6
0x50C922
0x50C96E
0x50C978
0x50C996
0x50C9B4
0x50CA18
0x50CA2A
0x50CA3C
0x50CAEC
0x50CB06
0x50CB14
0x50CB2E
0x50CBDD
0x50CC2C
0x50CC3E
0x50CC50
0x50CC55
0x50CFEC
0x50CFFE
0x50D123
0x50D13E
0x50D18A
0x50D19C
0x50D1AE
0x50D1FE
0x50D3B0
0x50D3C2
0x50D3EE
0x50D41A
0x50D442
0x50D460
0x50D47A
0x50D4C6
0x50D503
0x50D512
0x50D53A
0x50D604
0x50D62E
0x50D63C
0x50D670
0x50D68C
0x50D6C2
0x50D72A
0x50D760
0x50D7AC
0x50D7BA
0x50D7DA
0x50D7E5
0x50D814
0x50D828
0x50D834
0x50D858
0x50D894
0x50D8BA
0x50D8F6
0x50D91C
0x50D9EA
0x50DA10
0x50DA3C
0x50DAB0
0x50DAEC
0x50DB1A
0x50DB7A
0x50DCB0
0x50DD3C
0x50DD4E
0x50DEC6
0x50DF4C
0x50DF94
0x50DFF6
0x50E026
0x50E056
0x50E086
0x50E0B6
0x50E0E6
0x50E116
0x50E146
0x50E234
0x50E322
0x50E41E
0x50E44E
0x50E53C
0x50E656
0x50E744
0x50E774
0x50E7CA
0x50E820
0x50E87E
0x50E8D4
0x50E92A
0x50E980
0x50EA4C
0x50EB9C
0x50ED80
0x50EEE0
0x50F33A
0x50F378
0x50F38E
0x50F460
0x50F666
0x50F68C
0x50F7E2
0x50F9F4
0x50F9FA
0x50FC26
0x5100F6
0x5100FC
0x5104B0
0x510568
0x510696
0x5108F4
0x5108FA
0x510BAA
0x510C44
0x510C4A
0x510DF8
0x510DFE
0x511080
0x5111FE
0x51131A
0x51131F
0x51141A
0x5114B6
0x511604
0x511B92
0x511E25
0x511EC8
0x5120AA
0x5123AC
0x512586
0x51258A
0x5130E4
0x5131C8
0x5131E4
0x513248
0x513262
0x51327E
0x5132C0
0x5132FC
0x513322
0x51333E
0x51335A
0x513376
0x5133AC
0x5133C8
0x5133E4
0x51343E
0x51345A
0x513476
0x5134D0
0x5134EC
0x513552
0x51356C
0x513586
0x5135A8
0x5135D4
0x5135F2
0x51360C
0x51362E
0x51364C
0x513672
0x51368E
0x51380A
0x513886
0x5138EA
0x513922
0x51394C
0x513994
0x513A00
0x513A26
0x513A4C
0x513A66
0x513A88
0x513AA6
0x513ACC
0x513AE6
0x513B08
0x513B26
0x513B40
0x513B5A
0x513B7C
0x513BA8
0x513BC4
0x513BE0
0x513C46
0x513C58
0x513C74
0x513C90
0x513CF6
0x513D12
0x513D2E
0x513DB0
0x513DBE
0x513DE8
0x513E34
0x513E80
0x513E9E
0x513F84
0x513FAA
0x513FCC
0x513FEE
0x51400C
0x514046
0x5140A9
0x5140D8
0x514112
0x514118
0x51448C
0x5144D8
0x51452C
0x514580
0x5145BC
0x5145DA
0x5146B6
0x5147A2
0x5147EE
0x5148DA
0x514926
0x514944
0x51495C
0x5149A8
0x514A0A
0x514A15
0x514A27
0x514A3A
0x514A74
0x514AD6
0x514AE2
0x514B1C
0x514B5A
0x514B76
0x514BAB
0x514BD2
0x514BEC
0x514BFA
0x514C0C
0x514CBC
0x514D0C
0x514D58
0x514D62
0x514D80
0x514DE4
0x514E4C
0x514E5A
0x514EA6
0x514EB8
0x514FA4
0x514FF8
0x51502B
0x51505D
0x515084
0x5150A2
0x5150B0
0x5150EC
0x515138
0x51514A
0x51515C
0x51520C
0x515226
0x515238
0x51524A
0x5152FA
0x515314
0x515322
0x51533E
0x515380
0x515416
0x51544C
0x515468
0x5154AA
0x515540
0x51555C
0x515567
0x515595
0x5155CD
0x51561C
0x515636
0x515648
0x515662
0x515711
0x51572B
0x515784
0x5157A6
0x5157D0
0x515802
0x515821
0x51583B
0x5158D1
0x5158E3
0x5158F5
0x515907
0x51591A
0x515926
0x51595A
0x515976
0x515995
0x5159C4
0x5159D2
0x5159DE
0x5159FE
0x515A0A
0x515A2D
0x515A3B
0x515A56
0x515A70
0x515A75
0x515E0C
0x515F31
0x515F3F
0x515F59
0x515F8A
0x515FA4
0x515FB2
0x515FFE
0x51602F
0x51603D
0x516057
0x516088
0x516096
0x5160B6
0x5160C2
0x5160E6
0x516132
0x516144
0x516156
0x516308
0x51631A
0x516346
0x51636E
0x5163DA
0x5163EE
0x51647F
0x51649C
0x516508
0x516514
0x516551
0x5165B6
0x5165DE
0x5166A6
0x5166D0
0x516706
0x51676E
0x5167BA
0x5167CE
0x516911
0x516957
0x516B5C
0x516C11
0x516CCD
0x516D18
0x516E15
0x516E4E
0x516EBE
0x51703C
0x51706C
0x517090
0x5170C0
0x5170E4
0x517114
0x517138
0x517168
0x51718C
0x5171C4
0x517212
0x51724C
0x517274
0x517344
0x5173B2
0x517408
0x51745E
0x517492
0x5174E2
0x517516
0x5175DE
0x51764C
0x517672
0x51770E
0x5177B0
0x5177DE
0x517886
0x5178DA
0x517A1E
0x517A5C
0x517A72
0x517A86
0x517AA2
0x517B30
0x517C2C
0x517C31
0x517E1A
0x517F9C
0x518086
0x518132
0x5181DE
0x51824C
0x518C38
0x518DE6
0x518E24
0x518E39
0x518ED6
0x518EDF
0x518F3E
0x518F70
0x518FAC
0x518FD2
0x518FE6
0x518FFA
0x51901E
0x519060
0x5190A4
0x5190BE
0x519102
0x5191C4
0x5191E2
0x5191F8
0x519212
0x519390
0x5195D6
0x5195EE
0x51964F
0x519664
0x519674
0x51967A
0x5196B5
0x5196BF
0x519733
0x5197C9
0x519866
0x51986C
0x5199DA
0x519A66
0x519A8C
0x519BE6
0x519D5E
0x519D64
0x519DC0
0x519DC6
0x519E22
0x519E28
0x519EC8
0x519F72
0x519F78
0x51A0CC
0x51A200
0x51A34C
0x51A43A
0x51A528
0x51A5A8
0x51A86B
0x51A91A
0x51A930
0x51A96E
0x51A9F6
0x51AA1C
0x51AA42
0x51AA6C
0x51AA8A
0x51AB40
0x51B2C2
0x51B300
0x51B36C
0x51B3CA
0x51B3F8
0x51B470
0x51B560
0x51B5B8
0x51B5D4
0x51B78C
0x51B7B2
0x51B7CC
0x51B7EE
0x51B810
0x51B82E
0x51B84A
0x51B870
0x51B88A
0x51B8AC
0x51B8CE
0x51B8EC
0x51B912
0x51B94E
0x51B9B2
0x51BA9E
0x51BAEA
0x51BB08
0x51BB6A
0x51BBB6
0x51BC02
0x51BC0C
0x51BC2A
0x51BC8E
0x51BCA0
0x51BCB2
0x51BD62
0x51BDB2
0x51BDCC
0x51BDDA
0x51BDF6
0x51BE38
0x51BE4A
0x51BEFA
0x51BF14
0x51BF2E
0x51BFDD
0x51C02C
0x51C03E
0x51C050
0x51C06A
0x51C07C
0x51C088
0x51C08D
0x51C424
0x51C549
0x51C564
0x51C5B0
0x51C5C2
0x51C5D4
0x51C786
0x51C798
0x51C7C4
0x51C7F0
0x51C818
0x51C864
0x51C8A2
0x51C8CA
0x51C992
0x51C9BC
0x51C9F8
0x51CA60
0x51CAA2
0x51CAB6
0x51CABC
0x51CAFC
0x51CB06
0x51CB7A
0x51CC2A
0x51CCA0
0x51CD0A
0x51CD30
0x51CE7E
0x51CED4
0x51CEDA
0x51CF36
0x51CF3C
0x51CF98
0x51D08A
0x51D29E
0x51D2BA
0x51D2FA
0x51D38E
0x51D422
0x51D534
0x51D728
0x51D89A
0x51DA0C
0x51DA36
0x51DA60
0x51DAB8
0x51DABE
0x51DB44
0x51DB56
0x51DB82
0x51DBCF
0x51DC30
0x51DC46
0x51DC8A
0x51DCB2
0x51DCCA
0x51DD0E
0x51DD14
0x51DD5E
0x51DD7A
0x51DD8C
0x51DE13
0x51DE29
0x51DEA4
0x51DEBF
0x51DFA2
0x51E08A
0x51E0C4
0x51E0E7
0x51E10F
0x51E239
0x51E299
0x51E29D
0x51E2A3
0x51F84F
0x51FBCA
0x5205A0
0x5215B8
0x5217AA
0x5225E2
0x5237A8
0x5257F1
0x525A94
0x525A96
0x525D8E
0x525D90
0x5260D9
0x5260DB
0x526475
0x526477
0x526F95
0x526FA8
0x527027
0x52703F
0x527190
0x5271A8
0x5271C5
0x5271DE
0x52728A
0x5272F9
0x527309
0x527319
0x527379
0x52746E
0x52750C
0x52753A
0x5275F4
0x527628
0x527667
0x5276D5
0x527765
0x5278A7
0x52798D
0x527A4A
0x527CB3
0x527CD7
0x527E98
0x528310
0x5284FB
0x528594
0x528700
0x5287BE
0x52884A
0x528A3C
0x528ABE
0x528E41
0x528EF2
0x52927C
0x52951D
0x5295AA
0x5297E5
0x529A88
0x529BB3
0x52A042
0x52A5EF
0x52A712
0x52AA88
0x52B251
0x52B275
0x52B2C3
0x52B319
0x52B34D
0x52B68E
0x52B694
0x52B70A
0x52B720
0x52B8D0
0x52BB94
0x52BC3E
0x52BC9A
0x52BCB0
0x52BCDA
0x52BD04
0x52BD22
0x52BD4C
0x52BD76
0x52BDA0
0x52BDCA
0x52BDE8
0x52BE16
0x52BE32
0x52BFC0
0x52C064
0x52C08E
0x52C416
0x52C432
0x52C437
0x52C4DE
0x52C511
0x52C517
0x52C776
0x52C790
0x52C7B6
0x52C7D2
0x52C7EC
0x52C806
0x52C822
0x52C870
0x52C8FA
0x52C928
0x52C956
0x52C964
0x52C9B2
0x52C9FD
0x52CB3E
0x52CB68
0x52CB6D
0x52CC3E
0x52CC6C
0x52CC99
0x52CDC4
0x52CE5C
0x52CEDE
0x52CF08
0x52CF78
0x52CFD6
0x52D032
0x52D084
0x52D1EE
0x52D250
0x52D296
0x52D328
0x52D336
0x52D344
0x52D3A2
0x52D421
0x52D49E
0x52D4EB
0x52D568
0x52D594
0x52D6A6
0x52D7B8
0x52D83A
0x52D85C
0x52D92A
0x52D9A8
0x52DA0A
0x52DA1C
0x52DA56
0x52DAE6
0x52DB6A
0x52DBBC
0x52DBF0
0x52DC24
0x52DC3F
0x52DC6D
0x52DC7E
0x52DCDB
0x52DD5A
0x52DD6A
0x52DD7A
0x52DDD9
0x52DDDD
0x52DDE2
0x52E0B8
0x52E11A
0x52E144
0x52E16E
0x52E18E
0x52E19A
0x52E1BE
0x52E1E4
0x52E25F
0x52E2C0
0x52E35E
0x52E40D
0x52E411
0x52E416
0x52EC96
0x52EEBA
0x52EEFC
0x52EF08
0x52EF17
0x52EFCA
0x52EFD4
0x52EFEA
0x52F11A
0x52F190
0x52F2BA
0x52F32F
0x52F3E1
0x52F499
0x52F504
0x52F681
0x52F739
0x52F8B6
0x52F902
0x52F94E
0x52F962
0x52F9B3
0x52FA92
0x52FAB4
0x52FB02
0x52FB2D
0x52FBD5
0x52FBFB
0x52FC6E
0x52FE0F
0x52FE29
0x52FE81
0x52FED9
0x52FF0A
0x52FF5B
0x52FFBA
0x530039
0x5300ED
0x53015C
0x530187
0x530195
0x5301AF
0x5301E0
0x530211
0x53023A
0x5302BE
0x53035F
0x53036E
0x5303D3
0x53044C
0x53045E
0x5304C0
0x530522
0x530604
0x530663
0x530768
0x53081C
0x5308B2
0x5308B7
0x530C02
0x530D1E
0x530D2E
0x530D3E
0x530D4E
0x530D7C
0x530DAA
0x530DBA
0x530DE8
0x530E16
0x530E26
0x530E36
0x530E46
0x530E56
0x530FE0
0x530FF0
0x531112
0x531122
0x531132
0x531142
0x5311F2
0x531202
0x5312A2
0x5312B2
0x531418
0x531460
0x531470
0x531480
0x531490
0x5314A0
0x5314B0
0x5314C0
0x5316D6
0x531C4C
0x531CB8
0x531F04
0x531F14
0x531F24
0x531F34
0x531F44
0x531F54
0x531F64
0x531F74
0x531F84
0x531F94
0x531FA4
0x531FB4
0x531FC4
0x531FD4
0x531FE4
0x531FF4
0x532258
0x532268
0x5322FE
0x532376
0x53237C
0x532410
0x532430
0x5324A6
0x532526
0x53297A
0x5329EC
0x532AAE
0x532ACA
0x532AF0
0x532B54
0x532B7D
0x532B8C
0x532BEA
0x532C1C
0x532C38
0x532C7E
0x532CD2
0x532D26
0x532D62
0x532DAC
0x532E16
0x532E48
0x532E86
0x532EA4
0x532EB2
0x532ED8
0x532F86
0x532FA2
0x532FB1
0x532FEE
0x53300E
0x533020
0x53302C
0x5330E2
0x53323C
0x533290
0x533314
0x53333E
0x533376
0x5333B4
0x5333CA
0x5333E2
0x533450
0x533476
0x53366C
0x533731
0x533950
0x5339F8
0x534260
0x53440E
0x534571
0x5345C6
0x5346A3
0x5346A9
0x534708
0x534755
0x5348BE
0x5348C4
0x534A22
0x534A28
0x534AE2
0x534B44
0x534B7E
0x534BE3
0x534C1B
0x534C57
0x534CB1
0x534D1F
0x534D73
0x534EF0
0x534F4D
0x53508C
0x535189
0x535245
0x5352FD
0x535389
0x53543F
0x53559F
0x535689
0x535760
0x535793
0x5357EA
0x535840
0x53588E
0x535AE5
0x535B23
0x535B38
0x535B3E
0x535B79
0x535B83
0x535BF7
0x535BFD
0x535C38
0x535C42
0x535CB6
0x535D36
0x535F44
0x535F4A
0x535FA6
0x535FAC
0x536008
0x53609A
0x5362E8
0x536518
0x53651E
0x536646
0x5366D8
0x536712
0x5369BE
0x536A1A
0x536AAC
0x536C10
0x536D36
0x536F44
0x536F4A
0x536FA6
0x536FAC
0x537008
0x537090
0x5373EA
0x5374E2
0x5374E6
0x53753C
0x5375DE
0x5376A4
0x537761
0x537809
0x53781E
0x537830
0x537842
0x537880
0x53790E
0x53798C
0x5379C8
0x5379EE
0x5379F4
0x537A3E
0x537A80
0x537ABE
0x537ACE
0x537B22
0x537B76
0x537BCE
0x537C18
0x537C2C
0x537C40
0x537C54
0x537C6A
0x537D3E
0x537D78
0x537DBC
0x537E62
0x537EA6
0x537F9E
0x537FC4
0x538232
0x5382D2
0x53832C
0x5383B8
0x5383DE
0x5383E4
0x538440
0x538446
0x5384A2
0x5385F2
0x5385F8
0x5386C2
0x5386C8
0x538792
0x5387FA
0x5389C2
0x538C03
0x538C41
0x538C56
0x538C94
0x539039
0x539094
0x53926A
0x53932A
0x53944C
0x5394A4
0x539510
0x5395F8
0x539772
0x5398B2
0x539904
0x539940
0x539966
0x539A10
0x539A3C
0x539A68
0x539A80
0x539A94
0x539AC0
0x539AEC
0x539B18
0x539B28
0x539B38
0x539B48
0x539B58
0x539B68
0x539B78
0x539B88
0x539BF4
0x539C04
0x539C70
0x539C80
0x539D68
0x539D78
0x539D88
0x539D98
0x539DA8
0x539E80
0x539E90
0x539EA0
0x539F14
0x539F24
0x53A0E6
0x53A41C
0x53A5D6
0x53A5E6
0x53A5F6
0x53A662
0x53A672
0x53A682
0x53A692
0x53A6A2
0x53A6B2
0x53A6C2
0x53A6D2
0x53A6E2
0x53A6F2
0x53A702
0x53A712
0x53A722
0x53A732
0x53A742
0x53A752
0x53A762
0x53A7C8
0x53A7D8
0x53A7E8
0x53A84E
0x53A8B4
0x53A91A
0x53A980
0x53A990
0x53A9A0
0x53AAB8
0x53AC88
0x53ACAE
0x53AD02
0x53ADBA
0x53ADBF
0x53AEBA
0x53AEBF
0x53AFA2
0x53AFDC
0x53B06E
0x53B0B6
0x53B0E8
0x53B128
0x53B38C
0x53B43E
0x53B444
0x53B5A0
0x53B5F4
0x53B6AC
0x53B6DE
0x53B790
0x53B926
0x53B97A
0x53BA32
0x53BA5C
0x53BA86
0x53BAB0
0x53BACA
0x53BAE4
0x53BAFE
0x53BB3C
0x53BB52
0x53BBDE
0x53BBFA
0x53BC16
0x53BC32
0x53BC4E
0x53BCA8
0x53BCC4
0x53BCE0
0x53BD3A
0x53BD54
0x53BD6E
0x53BD90
0x53BDBC
0x53BDDA
0x53BDF4
0x53BE0E
0x53BE30
0x53BE5C
0x53BE7A
0x53BEA0
0x53BEBA
0x53BEDC
0x53BEFA
0x53BF16
0x53C092
0x53C0B8
0x53C0DA
0x53C160
0x53C17C
0x53C198
0x53C1FE
0x53C210
0x53C22C
0x53C248
0x53C2AE
0x53C2C0
0x53C30C
0x53C358
0x53C376
0x53C3C2
0x53C40E
0x53C42C
0x53C518
0x53C564
0x53C582
0x53C5A8
0x53C5CA
0x53C5EC
0x53C60A
0x53C644
0x53C6A8
0x53C792
0x53C88E
0x53C8AC
0x53C8DC
0x53C93E
0x53C949
0x53C95B
0x53C96E
0x53C9A8
0x53CA0A
0x53CA15
0x53CA27
0x53CA3A
0x53CA74
0x53CA8E
0x53CA9C
0x53CAB6
0x53CAC4
0x53CAD6
0x53CAE8
0x53CB98
0x53CBE8
0x53CC02
0x53CC10
0x53CC5C
0x53CC66
0x53CC84
0x53CCE8
0x53CCFA
0x53CD0C
0x53CDC8
0x53CE18
0x53CFD8
0x53CFEA
0x53D004
0x53D12A
0x53D15A
0x53D174
0x53D190
0x53D1D2
0x53D268
0x53D29E
0x53D2BA
0x53D2FC
0x53D376
0x53D3AC
0x53D3FB
0x53D40D
0x53D41F
0x53D43A
0x53D44C
0x53D45E
0x53D50E
0x53D528
0x53D5D7
0x53D626
0x53D638
0x53D64A
0x53D664
0x53D676
0x53D6C2
0x53D6E4
0x53D710
0x53D738
0x53D744
0x53D778
0x53D794
0x53D7B3
0x53D7E2
0x53D7F0
0x53D7FC
0x53D830
0x53D84C
0x53D86A
0x53D879
0x53D8A8
0x53D8B6
0x53D8D0
0x53D8D5
0x53DC6C
0x53DD91
0x53DDAC
0x53DDEA
0x53DDF8
0x53DE18
0x53DE24
0x53DE48
0x53DE56
0x53DE76
0x53DE81
0x53DE90
0x53DEB4
0x53DF00
0x53DF12
0x53DF24
0x53E0D6
0x53E0E8
0x53E114
0x53E13C
0x53E164
0x53E1E6
0x53E1F2
0x53E1FE
0x53E23B
0x53E266
0x53E29E
0x53E2C6
0x53E38E
0x53E3DA
0x53E404
0x53E43A
0x53E4A2
0x53E4B6
0x53E502
0x53E516
0x53E560
0x53E586
0x53E5AA
0x53E5C4
0x53E744
0x53E766
0x53E788
0x53E78E
0x53E7F8
0x53E7FC
0x53E8F5
0x53E8F9
0x53E8FD
0x53E968
0x53E96C
0x53EA93
0x53EB1E
0x53EB58
0x53EB5E
0x53EC7A
0x53EC80
0x53EDBC
0x53EDCC
0x53EDDC
0x53EDE2
0x53EE3A
0x53EE4A
0x53EF4D
0x53EF8B
0x53EFA0
0x53EFE4
0x53F04C
0x53F05E
0x53F0A2
0x53F12A
0x53F13C
0x53F178
0x53F19E
0x53F1DA
0x53F200
0x53F206
0x53F241
0x53F24B
0x53F2C0
0x53F30A
0x53F346
0x53F36C
0x53F548
0x53F56E
0x53F574
0x53F5D0
0x53F5D6
0x53F632
0x53F638
0x53F6B4
0x53F754
0x53F7EA
0x53F7F0
0x53FA7A
0x53FA80
0x53FC14
0x53FC8C
0x53FD44
0x53FDB4
0x53FE04
0x53FEC9
0x53FF2A
0x53FF40
0x53FF72
0x53FFAE
0x53FFD4
0x53FFE4
0x540010
0x540038
0x540048
0x5400E7
0x5400ED
0x540123
0x54012D
0x5401A2
0x5401DA
0x540226
0x54024C
0x540364
0x540370
0x54046C
0x54049E
0x5404BC
0x540540
0x540556
0x54057E
0x5405BA
0x5405E0
0x540667
0x54067D
0x5406F8
0x54115D
0x5417C3
0x5418A8
0x541972
0x541B23
0x541C6C
0x541D1B
0x541E0E
0x541E99
0x541F2F
0x541FBB
0x542059
0x54205D
0x5420F6
0x5421FA
0x5422D9
0x54240B
0x542508
0x542532
0x542600
0x542633
0x54263F
0x54264C
0x542650
0x542659
0x542665
0x542672
0x542685
0x54269B
0x5426B1
0x5426BD
0x5426D0
0x542731
0x54275D
0x5427DA
0x5427F4
0x542819
0x542834
0x54283F
0x542890
0x5429A8
0x542A4F
0x542A60
0x542A71
0x542ACD
0x542AE2
0x542B02
0x542B22
0x542B34
0x542B58
0x542BA4
0x542BCA
0x542C12
0x542C44
0x542C70
0x542CA2
0x542EC6
0x542FAE
0x54307C
0x543081
0x543140
0x543146
0x54357E
0x5435EE
0x543858
0x54394C
0x543B72
0x543BA6
0x543BDA
0x543C80
0x543CC1
0x543CCB
0x543D40
0x543DE2
0x543E74
0x544034
0x54405A
0x544194
0x5441FC
0x544274
0x5442D2
0x5443B8
0x544416
0x54441C
0x544478
0x54447E
0x5444DA
0x544528
0x54452E
0x544670
0x5446AE
0x5446F6
0x544757
0x54476C
0x54478A
0x54479C
0x544844
0x544972
0x544A92
0x544C6A
0x544E34
0x544F62
0x54507D
0x54593A
0x54597C
0x5459C4
0x545A60
0x545B88
0x545C06
0x545C42
0x545C6C
0x546014
0x546070
0x546086
0x5460B6
0x546118
0x546150
0x546192
0x5461A2
0x5461B2
0x546254
0x5462B6
0x5462E8
0x546302
0x54631A
0x546334
0x54637C
0x5463DE
0x5463FA
0x54642C
0x54661E
0x54674C
0x5467BC
0x5467C2
0x54688C
0x546952
0x5469AA
0x5469E6
0x546A0C
0x546A12
0x546A60
0x546A9C
0x546AC2
0x546C90
0x546CFE
0x546D24
0x546D60
0x546D86
0x546DC2
0x546DE8
0x546E06
0x546E1E
0x546E3C
0x546F32
0x546F48
0x5470B6
0x547132
0x5471CE
0x547202
0x54723E
0x547264
0x54727F
0x547285
0x5472BB
0x5472C5
0x54733A
0x5473C0
0x5473C6
0x5473FC
0x547406
0x54747A
0x547552
0x54755E
0x547654
0x54774C
0x5478BA
0x547969
0x54797E
0x547A4C
0x547B1D
0x547B6D
0x547BC0
0x547BCC
0x547BD8
0x547BE4
0x547C0C
0x547C48
0x547C6E
0x547C75
0x547CF8
0x547D7B
0x547DFE
0x547E81
0x547F04
0x547F87
0x54800A
0x54808D
0x548110
0x548193
0x548216
0x548299
0x54831C
0x54839F
0x548422
0x548470
0x5484ED
0x548586
0x548603
0x54868E
0x54870B
0x548796
0x548813
0x54884F
0x5488CC
0x548928
0x5489A5
0x548A3B
0x548AB8
0x548AEC
0x548B69
0x548BA8
0x548C25
0x548C7E
0x548CFB
0x548E8D
0x548F0A
0x549030
0x5490AD
0x5491EC
0x549269
0x549391
0x54940E
0x54954F
0x5495CC
0x549624
0x5496A1
0x549735
0x5497B2
0x5498F3
0x549970
0x549976
0x549BD6
0x549C53
0x549E75
0x549EF2
0x549F97
0x54A014
0x54A067
0x54A0E4
0x54A298
0x54A315
0x54A31A
0x54A40F
0x54A48C
0x54A491
0x54A586
0x54A603
0x54A776
0x54A7F3
0x54A957
0x54A9D4
0x54AA6A
0x54AAE7
0x54AB88
0x54AC05
0x54AC4B
0x54ACC8
0x54AE8B
0x54AF08
0x54B1A2
0x54B21F
0x54B2DE
0x54B35B
0x54B3D4
0x54B451
0x54B510
0x54B58D
0x54B64C
0x54B68B
0x54B6C9
0x54B761
0x54B7DE
0x54B868
0x54B8E5
0x54B8EB
0x54B9F5
0x54BA72
0x54BA78
0x54BB65
0x54BBE2
0x54BBE8
0x54BCD5
0x54BD52
0x54BE11
0x54BE8E
0x54BF95
0x54C012
0x54C09C
0x54C119
0x54C1D8
0x54C255
0x54C339
0x54C3B6
0x54C442
0x54C4BF
0x54C53C
0x54C5B9
0x54C649
0x54C6C6
0x54C743
0x54C7C0
0x54C850
0x54C8CD
0x54C94A
0x54C9C7
0x54D354
0x54D369
0x54D3B3
0x54D3F0
0x54D426
0x54D482
0x54D4DE
0x54D4E4
0x54D51A
0x54D524
0x54D598
0x54D634
0x54D6D0
0x54D90C
0x54D9DC
0x54DA0E
0x54DA1E
0x54DA8A
0x54DACA
0x54DB0A
0x54DB4A
0x54DBF9
0x54DC0E
0x54DC5E
0x54DCAE
0x54DD0A
0x54DD9E
0x54DE1E
0x54DEC0
0x54DF56
0x54DFA6
0x54E072
0x54E079
0x54E082
0x54E0E2
0x54E114
0x54E150
0x54E176
0x54E18C
0x54E1EA
0x54E24A
0x54E32E
0x54E412
0x54E4F6
0x54E756
0x54E80C
0x54EAAC
0x54EB6C
0x54EC1A
0x54ECD2
0x54ECDB
0x54ED3A
0x54ED6C
0x54EDA8
0x54EDCE
0x54EE12
0x54EE70
0x54EED0
0x54EF8C
0x54F048
0x54F104
0x54F21C
0x54F2D2
0x54F3D4
0x54F4C2
0x54F570
0x54F628
0x54F631
0x54F690
0x54F6C2
0x54F6FE
0x54F724
0x54F768
0x54F7C6
0x54F826
0x54F8E2
0x54F99E
0x54FA5A
0x54FB52
0x54FC08
0x54FE6E
0x54FF2E
0x54FFEA
0x5500C2
0x5500CB
0x55012A
0x55015C
0x550198
0x5501BE
0x550202
0x550260
0x5502BE
0x55036C
0x55041A
0x5504C8
0x55057A
0x550630
0x5506F8
0x5507B8
0x550866
0x55091E
0x550927
0x550986
0x5509B8
0x5509F4
0x550A1A
0x550A5E
0x550ABC
0x550B1C
0x550BD8
0x550C94
0x550D50
0x550E84
0x550F4E
0x5511A4
0x551264
0x551320
0x5513F2
0x5513FB
0x55145A
0x55148C
0x5514C8
0x5514EE
0x551534
0x551592
0x5515F2
0x5516AE
0x55176A
0x551826
0x55195A
0x551A10
0x551B08
0x551BEA
0x551C98
0x551D50
0x551D59
0x551DB8
0x551DEA
0x551E26
0x551E4C
0x551E90
0x551EEE
0x551F4E
0x552022
0x5520F6
0x5521CA
0x552338
0x5523EE
0x5525C6
0x552686
0x552734
0x5527EC
0x5527F5
0x552854
0x552886
0x5528C2
0x5528E8
0x55292C
0x55298A
0x5529EA
0x552AA6
0x552B62
0x552C1E
0x552D36
0x552E0E
0x55307E
0x55313E
0x5531FA
0x5532D9
0x5532E2
0x553342
0x553374
0x5533B0
0x5533D6
0x55341A
0x553478
0x5534D8
0x5535C0
0x5536A8
0x553790
0x553A00
0x553AD8
0x553FAA
0x55406A
0x55413E
0x554254
0x55425D
0x5542BC
0x5542EE
0x55432A
0x554350
0x554394
0x5543F2
0x554452
0x55450E
0x5545CA
0x554686
0x55477E
0x554834
0x554A82
0x554B42
0x554BFE
0x554CCB
0x554CD4
0x554D34
0x554D66
0x554DA2
0x554DC8
0x554E0C
0x554E6A
0x554EC8
0x554F76
0x555024
0x5550D2
0x555184
0x55523A
0x555302
0x5553C2
0x555470
0x555528
0x555531
0x555590
0x5555C2
0x5555FE
0x555624
0x555668
0x5556C6
0x555724
0x5557D2
0x555880
0x55592E
0x5559E0
0x555A96
0x555B5E
0x555C1E
0x555CCC
0x555D84
0x555D8D
0x555DEC
0x555E1E
0x555E5A
0x555E80
0x555EC4
0x555F22
0x555F82
0x55604C
0x556116
0x5561E0
0x556344
0x5563FA
0x556568
0x556628
0x5566D6
0x55678E
0x556797
0x5567F6
0x556828
0x556864
0x55688A
0x5568CE
0x55692C
0x55698C
0x556A7E
0x556B70
0x556C62
0x556FCE
0x55709A
0x557506
0x5575C6
0x557690
0x557778
0x557781
0x5577E0
0x557812
0x55784E
0x557874
0x5578B8
0x557916
0x557976
0x557A5E
0x557B46
0x557C2E
0x557E60
0x557F16
0x5580C4
0x558184
0x558232
0x5582EA
0x5582F3
0x558352
0x558384
0x5583C0
0x5583E6
0x55842A
0x558488
0x5584E6
0x558594
0x558642
0x5586F0
0x5587A2
0x558858
0x558920
0x5589E0
0x558A8E
0x558B46
0x558B4F
0x558BAE
0x558BE0
0x558C1C
0x558C42
0x558C86
0x558CE4
0x558D42
0x558DF0
0x558E9E
0x558F4C
0x558FFE
0x5590B4
0x55917C
0x55923C
0x5592EA
0x5593A2
0x5593AB
0x55940A
0x55943C
0x559478
0x55949E
0x5594E2
0x559540
0x5595A0
0x55965C
0x559718
0x5597D4
0x5598EC
0x5599A2
0x559AA6
0x559B66
0x559C14
0x559CCC
0x559CD5
0x559D34
0x559D66
0x559DA2
0x559DC8
0x559E0C
0x559E6A
0x559EC8
0x559F76
0x55A024
0x55A0D2
0x55A184
0x55A23A
0x55A302
0x55A3C2
0x55A470
0x55A528
0x55A531
0x55A590
0x55A5C2
0x55A5FE
0x55A624
0x55A668
0x55A6C6
0x55A726
0x55A7E2
0x55A89E
0x55A95A
0x55AA72
0x55AB4A
0x55ADB0
0x55AE70
0x55AF2C
0x55B00B
0x55B014
0x55B074
0x55B0A6
0x55B0E2
0x55B108
0x55B14C
0x55B1AA
0x55B20A
0x55B33E
0x55B472
0x55B5A6
0x55BBBA
0x55BC70
0x55C4F8
0x55C5B8
0x55C6A0
0x55C7B8
0x55C7C1
0x55C820
0x55C852
0x55C88E
0x55C8B4
0x55C8F8
0x55C956
0x55C9B6
0x55CA80
0x55CB4A
0x55CC14
0x55CD96
0x55CE62
0x55D0FC
0x55D1E8
0x55D2A4
0x55D377
0x55D380
0x55D3E0
0x55D412
0x55D44E
0x55D474
0x55D4B8
0x55D516
0x55D576
0x55D6DA
0x55D83E
0x55D9A2
0x55E0E0
0x55E196
0x55EC22
0x55ED94
0x55EE82
0x55EFA8
0x55EFB1
0x55F010
0x55F042
0x55F07E
0x55F0A4
0x55F0E8
0x55F146
0x55F1A6
0x55F290
0x55F37A
0x55F464
0x55F76A
0x55F820
0x55FB92
0x55FCD4
0x55FD90
0x55FE5E
0x55FE67
0x55FEC6
0x55FEF8
0x55FF34
0x55FF5A
0x55FF9E
0x55FFFC
0x56005C
0x56015C
0x56025C
0x56035C
0x560582
0x560638
0x5608EA
0x5609AA
0x560A58
0x560B10
0x560B19
0x560B78
0x560BAA
0x560BE6
0x560C0C
0x560C50
0x560CAE
0x560D0C
0x560DBA
0x560E68
0x560F16
0x560FC8
0x56107E
0x561146
0x561206
0x5612B4
0x56136C
0x561375
0x5613D4
0x561406
0x561442
0x561468
0x5614AC
0x56150A
0x561568
0x561616
0x5616C4
0x561772
0x561824
0x5618DA
0x5619A2
0x561A62
0x561B10
0x561BC8
0x561BD1
0x561C30
0x561C62
0x561C9E
0x561CC4
0x561D08
0x561D66
0x561DC6
0x561EAA
0x561F8E
0x562072
0x5622D2
0x5623AA
0x5623AF
0x562736
0x5627F6
0x5628B2
0x56296A
0x562973
0x5629D2
0x562A04
0x562A40
0x562A66
0x562AAA
0x562B08
0x562B66
0x562C14
0x562CC2
0x562D70
0x562E22
0x562ED8
0x562FA0
0x563060
0x56310E
0x5631C6
0x5631CF
0x56322E
0x563260
0x56329C
0x5632C2
0x563306
0x563364
0x5633C2
0x563470
0x56351E
0x5635CC
0x56367E
0x563734
0x5637FC
0x5638BC
0x56396A
0x563A22
0x563A2B
0x563A8A
0x563ABC
0x563AF8
0x563B1E
0x563B62
0x563BC0
0x563C1E
0x563CCC
0x563D7A
0x563E28
0x563EDA
0x563F90
0x564058
0x564118
0x5641C6
0x56427E
0x564287
0x5642E6
0x564318
0x564354
0x56437A
0x5643BE
0x56441C
0x56447A
0x564528
0x5645D6
0x564684
0x564736
0x5647EC
0x5648B4
0x564974
0x564A22
0x564ADA
0x564AE3
0x564B42
0x564B74
0x564BB0
0x564BD6
0x564C1A
0x564C78
0x564CD6
0x564D84
0x564E32
0x564EE0
0x564F92
0x565048
0x565110
0x5651D0
0x56527E
0x565336
0x56533F
0x56539E
0x5653D0
0x56540C
0x565432
0x565476
0x5654D4
0x565532
0x5655E0
0x56568E
0x56573C
0x5657EE
0x5658A4
0x56596C
0x565A2C
0x565ADA
0x565B92
0x565B9B
0x565BFA
0x565C2C
0x565C68
0x565C8E
0x565CD2
0x565D30
0x565D8E
0x565E3C
0x565EEA
0x565F98
0x56604A
0x566100
0x5661C8
0x566288
0x566336
0x5663EE
0x5663F7
0x566456
0x566488
0x5664C4
0x5664EA
0x56652E
0x56658C
0x5665EA
0x566698
0x566746
0x5667F4
0x5668A6
0x56695C
0x566A24
0x566AE4
0x566B92
0x566C4A
0x566C53
0x566CB2
0x566CE4
0x566D20
0x566D46
0x566D8A
0x566DE8
0x566E46
0x566EF4
0x566FA2
0x567050
0x567102
0x5671B8
0x567280
0x567340
0x5673EE
0x5674A6
0x5674AF
0x56750E
0x567540
0x56757C
0x5675A2
0x5675E6
0x567644
0x5676A2
0x567750
0x5677FE
0x5678AC
0x56795E
0x567A14
0x567ADC
0x567B9C
0x567C4A
0x567D02
0x567D0B
0x567D6A
0x567D9C
0x567DD8
0x567DFE
0x567E42
0x567EA0
0x567EFE
0x567FAC
0x56805A
0x568108
0x5681BA
0x568270
0x568338
0x5683F8
0x5684A6
0x56855E
0x568567
0x5685C6
0x5685F8
0x568634
0x56865A
0x56869E
0x5686FC
0x56875C
0x568818
0x5688D4
0x568990
0x568A6C
0x568B22
0x568C82
0x568D42
0x568DF0
0x568EA8
0x568EB1
0x568F10
0x568F42
0x568F7E
0x568FA4
0x568FE8
0x569046
0x5690A6
0x569170
0x56923A
0x569304
0x56940A
0x5694C0
0x5695E8
0x5696A8
0x569756
0x56980E
0x569817
0x569876
0x5698A8
0x5698E4
0x56990A
0x56994E
0x5699AC
0x569A0C
0x569AE0
0x569BB4
0x569C88
0x569D8E
0x569E44
0x569F98
0x56A058
0x56A106
0x56A1BE
0x56A1C7
0x56A226
0x56A258
0x56A294
0x56A2BA
0x56A2FE
0x56A35C
0x56A3BC
0x56A4AE
0x56A5A0
0x56A692
0x56A814
0x56A8E0
0x56AAEC
0x56ABAC
0x56AC5A
0x56AD12
0x56AD1B
0x56AD7A
0x56ADAC
0x56ADE8
0x56AE0E
0x56AE52
0x56AEB0
0x56AF10
0x56AFE4
0x56B0B8
0x56B18C
0x56B322
0x56B3D8
0x56B53C
0x56B63A
0x56B6E8
0x56B7A0
0x56B7A9
0x56B808
0x56B83A
0x56B876
0x56B89C
0x56B8E0
0x56B93E
0x56B99E
0x56BA90
0x56BB82
0x56BC74
0x56BFA2
0x56C058
0x56C2B0
0x56C392
0x56C440
0x56C4F8
0x56C501
0x56C560
0x56C592
0x56C5CE
0x56C5F4
0x56C638
0x56C696
0x56C6F6
0x56C7DE
0x56C8C6
0x56C9AE
0x56CC1E
0x56CCD4
0x56CED2
0x56CFC2
0x56D070
0x56D128
0x56D131
0x56D190
0x56D1C2
0x56D1FE
0x56D224
0x56D268
0x56D2C6
0x56D326
0x56D3E2
0x56D49E
0x56D55A
0x56D636
0x56D6EC
0x56D7E2
0x56D8A2
0x56D950
0x56DA08
0x56DA11
0x56DA70
0x56DAA2
0x56DADE
0x56DB04
0x56DB48
0x56DBA6
0x56DC06
0x56DCD0
0x56DD9A
0x56DE64
0x56DFA6
0x56E072
0x56E30C
0x56E3CC
0x56E488
0x56E55B
0x56E564
0x56E5C4
0x56E5F6
0x56E632
0x56E658
0x56E69C
0x56E6FA
0x56E75A
0x56E82E
0x56E902
0x56E9D6
0x56EB8A
0x56EC62
0x56EF42
0x56F02E
0x56F0EA
0x56F1BD
0x56F1C6
0x56F226
0x56F258
0x56F294
0x56F2BA
0x56F2FE
0x56F35C
0x56F3BC
0x56F486
0x56F550
0x56F61A
0x56F720
0x56F7D6
0x56F900
0x56F9C0
0x56FA6E
0x56FB26
0x56FB2F
0x56FB8E
0x56FBC0
0x56FBFC
0x56FC22
0x56FC68
0x56FCC6
0x56FD26
0x56FDE2
0x56FE9E
0x56FF5A
0x570052
0x570108
0x570258
0x570318
0x5703C6
0x57047E
0x570487
0x5704E6
0x570518
0x570554
0x57057A
0x5705BE
0x57061C
0x57067C
0x57076E
0x570860
0x570952
0x570BE6
0x570CB2
0x5712AE
0x57136E
0x571458
0x571570
0x571579
0x5715D8
0x57160A
0x571646
0x57166C
0x5716B0
0x57170E
0x57176C
0x57181A
0x5718C8
0x571976
0x571A28
0x571ADE
0x571BA6
0x571C66
0x571D14
0x571DCC
0x571DD5
0x571E34
0x571E66
0x571EA2
0x571EC8
0x571F0C
0x571F6A
0x571FC8
0x572076
0x572124
0x5721D2
0x572284
0x57233A
0x572402
0x5724C2
0x572570
0x572628
0x572631
0x572690
0x5726C2
0x5726FE
0x572724
0x572768
0x5727C6
0x572824
0x5728D2
0x572980
0x572A2E
0x572AE0
0x572B96
0x572C5E
0x572D1E
0x572DCC
0x572E84
0x572E8D
0x572EEC
0x572F1E
0x572F5A
0x572F80
0x572FC6
0x573024
0x573084
0x57317C
0x573274
0x57336C
0x573666
0x573758
0x573D8C
0x573E4C
0x573F36
0x574058
0x574061
0x5740C0
0x5740F2
0x57412E
0x574154
0x57419A
0x5741F8
0x574258
0x574322
0x5743EC
0x5744B6
0x5745DC
0x574692
0x5747B6
0x574876
0x574924
0x5749DC
0x5749E5
0x574A44
0x574A76
0x574AB2
0x574AD8
0x574B1E
0x574B7C
0x574BDC
0x574CB0
0x574D84
0x574E58
0x574F88
0x57503E
0x5754A0
0x575560
0x575634
0x575727
0x575730
0x575790
0x5757C2
0x5757FE
0x575824
0x57586A
0x5758C8
0x575928
0x5759FC
0x575AD0
0x575BA4
0x575CD4
0x575D8A
0x5761EC
0x5762AC
0x576380
0x576473
0x57647C
0x5764DC
0x57650E
0x57654A
0x576570
0x5765B4
0x576612
0x576672
0x57673C
0x576806
0x5768D0
0x576A12
0x576ADE
0x576D78
0x576E38
0x576EF4
0x576FC7
0x576FD0
0x577030
0x577062
0x57709E
0x5770C4
0x57710A
0x577168
0x5771C8
0x5772B2
0x57739C
0x577486
0x577694
0x57774A
0x5779C4
0x577A84
0x577B32
0x577BEA
0x577F5D
0x5784CD
0x5784E2
0x578508
0x578532
0x578544
0x578558
0x57856A
0x578590
0x5785A2
0x5785C0
0x5785EA
0x578618
0x57862A
0x578654
0x57867E
0x578690
0x5786A2
0x5786D0
0x5786FE
0x57872C
0x57874A
0x57875C
0x578788
0x57879A
0x5787AC
0x578844
0x578854
0x57887E
0x578892
0x5788A4
0x5788B6
0x5788C8
0x5788DC
0x578900
0x578916
0x57892A
0x57893C
0x57894E
0x578986
0x5789C0
0x5789D2
0x578A0C
0x578A44
0x578A55
0x578A67
0x578A79
0x578A8B
0x578A9D
0x578AAF
0x578AC1
0x578AD3
0x578AE5
0x578AF7
0x578B09
0x578B1B
0x578B2D
0x578B3F
0x578B51
0x578B63
0x578B76
0x578D5C
0x578E14
0x578E3A
0x578E40
0x578F1A
0x578F4E
0x578F86
0x578FB8
0x579028
0x579058
0x57916A
0x5792B8
0x5793F8
0x579504
0x579522
0x579528
0x579924
0x579B3A
0x579D56
0x579F5E
0x57A106
0x57A2AE
