0x402335
0x402384
0x4023EA
0x402420
0x4026B1
0x4027EE
0x4032C0
0x403450
0x403480
0x4034C0
0x403600
0x403670
0x4036B0
0x4036F0
0x4037A0
0x4037F0
0x403854
0x4038B1
0x4038B3
0x403A61
0x403A63
0x403C11
0x404081
0x4040D2
0x404840
0x4048D4
0x404BB1
0x4053C0
0x4054B0
0x405511
0x405620
0x405A57
0x405E41
0x405E4A
0x4062B2
0x406750
0x406890
0x406893
0x406B60
0x406BF1
0x407491
0x407493
0x408230
0x408250
0x408570
0x4086C0
0x408960
0x4089C1
0x408E11
0x4091A1
0x4091AA
0x409521
0x409A20
0x409DA0
0x409DA4
0x409E76
0x40AD61
0x40AFA1
0x40B280
0x40B410
0x40B480
0x40B4F0
0x40B560
0x40B5E1
0x40B750
0x40B841
0x40BDF0
0x40BE81
0x40C06A
0x40C195
0x40C196
0x40C360
0x40C430
0x40C490
0x40C492
0x40C571
0x40C940
0x40D271
0x40D820
0x40D9B1
0x40DA92
0x40DB58
0x40DD90
0x40E060
0x40E260
0x40E4E0
0x40E501
0x40E707
0x40EC61
0x40ECF1
0x40EF2F
0x40F914
0x40F9E0
0x40FAA0
0x40FB10
0x40FE20
0x410890
0x410911
0x410A15
0x410C60
0x410E20
0x410EE0
0x410F0A
0x4113E1
0x411A10
0x411A18
0x411AF0
0x411BE5
0x411D20
0x411D80
0x411DE0
0x411E40
0x411EB0
0x411ED0
0x411FA0
0x4122C0
0x412421
0x41243F
0x412477
0x4126F1
0x4126F3
0x412750
0x412840
0x4128A0
0x412900
0x412960
0x4129F0
0x412A11
0x412CF1
0x412F01
0x412F03
0x4130E1
0x413582
0x413600
0x413781
0x4137F0
0x413880
0x413940
0x4139D0
0x413C35
0x414180
0x414231
0x41469C
0x41489C
0x414A41
0x414C00
0x414C04
0x415C4C
0x417F6F
0x417F91
0x417FBA
0x418630
0x418760
0x418810
0x4188C0
0x4189F0
0x418B20
0x418B24
0x419800
0x419804
0x419B31
0x41A021
0x41A1A6
0x41A421
0x41A750
0x41B1D3
0x41B5B4
0x41B678
0x41B740
0x41B744
0x41BA81
0x41C241
0x41C571
0x41C58D
0x41C631
0x41CAD1
0x41E2F1
0x41E360
0x41E6A3
0x41E6B7
0x41E6D9
0x41E821
0x41EB60
0x41EC69
0x41EC7D
0x41ECDB
0x41ED40
0x41EDF3
0x41EE07
0x41EF16
0x41F094
0x41F1A0
0x41F2F8
0x41F404
0x41F48C
0x41F511
0x420571
0x4206FA
0x420794
0x420832
0x4208CC
0x420991
0x421071
0x421791
0x422131
0x422161
0x4222C0
0x4226B0
0x422990
0x422B50
0x422CC0
0x422F90
0x4233D0
0x423520
0x423790
0x423F21
0x423F23
0x424290
0x424410
0x4247D0
0x424940
0x425020
0x425130
0x425490
0x425711
0x4259B0
0x4259B8
0x425D80
0x425EA0
0x425F30
0x426200
0x426440
0x426933
0x426AB0
0x426C60
0x426CF3
0x426E34
0x426FC4
0x4271A4
0x427230
0x4273B0
0x4273B2
0x4273C3
0x4273CC
0x4275A1
0x427EFD
0x428FC5
0x429190
0x42AD70
0x42BB80
0x42BBA1
0x42BCD1
0x42C211
0x42C213
0x42C401
0x42C5B1
0x42C6E1
0x42C6F4
0x42C770
0x42C860
0x42CB40
0x42CD01
0x42CFC4
0x42D80D
0x42D880
0x42DBC0
0x42DE50
0x42E070
0x42E171
0x42E701
0x42EA00
0x42EC84
0x42EDF0
0x42EE21
0x42F3B6
0x42F490
0x42F4F0
0x42F7A0
0x42F7C0
0x42F830
0x42F8C0
0x42F941
0x42F947
0x42FE00
0x430310
0x4308C0
0x430E51
0x431061
0x431321
0x431990
0x431B00
0x431F20
0x432070
0x432220
0x4322B0
0x432340
0x432541
0x432CB0
0x433410
0x43347F
0x4334A0
0x43350F
0x433530
0x43359F
0x4335C0
0x43362C
0x433692
0x433841
0x4338B5
0x433B6B
0x433BA2
0x433BE1
0x433C06
0x433C17
0x434220
0x434381
0x434A11
0x4352B1
0x435409
0x435BBA
0x435DF1
0x435E6A
0x436221
0x436840
0x436844
0x436DC0
0x436E90
0x436E93
0x437550
0x4375BE
0x437850
0x437ACF
0x437E70
0x438110
0x438190
0x438192
0x438194
0x4382E1
0x4382EA
0x438671
0x438872
0x438B4C
0x439620
0x439831
0x439D2B
0x439DE1
0x43A040
0x43A151
0x43AC91
0x43B23C
0x43B691
0x43B69A
0x43B900
0x43BA80
0x43BC80
0x43BD00
0x43BD80
0x43BE00
0x43BE90
0x43BF11
0x43BF9D
0x43C001
0x43C171
0x43D01C
0x43D371
0x43D990
0x43DAA1
0x43DD70
0x43DD72
0x43DDE6
0x43DF96
0x43E081
0x43E0C1
0x43E641
0x43E7C0
0x43EE81
0x43EF40
0x43F2D1
0x43F440
0x43F681
0x440581
0x440691
0x440A81
0x440A8A
0x440B98
0x440F03
0x440F1E
0x441040
0x44105B
0x4410E0
0x441250
0x441540
0x441548
0x441850
0x441A48
0x441BC2
0x441BEC
0x441C01
0x441F35
0x4439C1
0x444179
0x44454F
0x444551
0x445F37
0x445FA8
0x446181
0x4464F0
0x4464F2
0x4464F4
0x446761
0x446A80
0x446C81
0x448731
0x448921
0x448CCD
0x448F41
0x449D44
0x449D50
0x449D54
0x449D74
0x449D81
0x44A210
0x44AA40
0x44B021
0x44B4D0
0x44BAC1
0x44C271
0x44CC91
0x44CC9A
0x44CEBE
0x44CF1E
0x44CF2D
0x44DA64
0x44DA8F
0x44DB50
0x44DBE2
0x44DC61
0x44DD75
0x44E1B1
0x44E23C
0x44E361
0x44E36F
0x44E644
0x44E64E
0x44E650
0x44E890
0x44EB80
0x44ED24
0x44EEE0
0x44EF71
0x44F261
0x44F851
0x44F9A1
0x44FB91
0x44FE20
0x450110
0x4504D0
0x450630
0x4506B0
0x450730
0x4507B0
0x4508E8
0x4508E9
0x450936
0x450D31
0x450D3A
0x451210
0x451426
0x451440
0x451636
0x451650
0x451721
0x451930
0x451B70
0x451C00
0x452020
0x45208C
0x4520F0
0x4521B0
0x4521E0
0x4522D1
0x453339
0x453439
0x453890
0x453898
0x453B21
0x453B23
0x453B40
0x453CE0
0x453D41
0x453D43
0x453DA0
0x453E80
0x453F60
0x454040
0x454110
0x4543D1
0x4548F7
0x454901
0x454B20
0x454C01
0x455238
0x45524F
0x455270
0x455350
0x455354
0x4554A5
0x455508
0x455850
0x455921
0x456300
0x4568B7
0x457261
0x457721
0x457AD2
0x457C19
0x4581C8
0x45A924
0x45B9BE
0x45BCF0
0x45D4E8
0x45D4F2
0x45D4FC
0x45D516
0x45E0EF
0x45E9F6
0x45F0C8
0x4619E1
0x461C71
0x462D69
0x463046
0x463244
0x4632FF
0x463414
0x4635C0
0x4636A3
0x463841
0x463ED1
0x465D60
0x466141
0x466380
0x466491
0x466521
0x466631
0x4667EA
0x466970
0x4669C0
0x466B61
0x466EC6
0x467051
0x4685B0
0x468C80
0x468C82
0x468D61
0x469030
0x4698D0
0x469950
0x469F81
0x469F99
0x46A780
0x46A782
0x46AB90
0x46AC20
0x46AC24
0x46AE30
0x46AE93
0x46AEC1
0x46AECA
0x46B221
0x46B223
0x46B226
0x46B371
0x46B6E1
0x46B880
0x46B9E1
0x46BAA1
0x46BC40
0x46BC81
0x46BCF1
0x46BD61
0x46BD75
0x46BE71
0x46BFE1
0x46C41C
0x46C547
0x46C567
0x46C587
0x46C5A7
0x46C5D6
0x46C730
0x46C770
0x46C7A1
0x46C7AA
0x46D84A
0x46D897
0x46DEA0
0x46DF21
0x46E561
0x46E707
0x46F620
0x46F720
0x46F724
0x46F8A0
0x46FB01
0x46FC06
0x46FFB0
0x470141
0x470461
0x470970
0x470A4B
0x470B21
0x470D01
0x4719B0
0x471A56
0x471B51
0x4722A1
0x472710
0x4728D0
0x472A61
0x476E6A
0x478390
0x478392
0x47847C
0x4784F0
0x478530
0x478582
0x4785F0
0x478700
0x478780
0x4787F0
0x478870
0x478AB0
0x478B21
0x478F0C
0x479171
0x479291
0x4793D7
0x479710
0x479BA1
0x47A2E1
0x47A751
0x47BB10
0x47BB14
0x47BDA1
0x47BEA0
0x47C150
0x47C1E1
0x47C961
0x47CB91
0x47CC79
0x47D010
0x47D130
0x47D161
0x47D167
0x47D701
0x47E040
0x47E1D4
0x47E2C0
0x47E430
0x47E4D0
0x47E530
0x47E6C0
0x47E77B
0x47E77C
0x47E7A0
0x47E851
0x47E8B6
0x47EB20
0x47EC10
0x47ED3E
0x47EF21
0x47F291
0x47FE5C
0x480091
0x480093
0x480391
0x480E50
0x480EA0
0x480EF0
0x480F40
0x480FA0
0x480FF0
0x48110B
0x48110C
0x481131
0x48113A
0x481850
0x4818F1
0x481FC1
0x482250
0x482530
0x482660
0x482720
0x4827E0
0x4828A0
0x482960
0x4829D0
0x4831D1
0x484330
0x484631
0x484B43
0x484BD1
0x484C81
0x484C87
0x4851DF
0x4851E0
0x4854C0
0x485511
0x485C20
0x486060
0x486150
0x486290
0x486391
0x4864A1
0x486501
0x486661
0x486891
0x487114
0x487115
0x487421
0x4874E2
0x487A00
0x487AF1
0x4881E0
0x488330
0x4883E1
0x4884C0
0x488569
0x488620
0x488690
0x4886B7
0x4886D3
0x488710
0x48873C
0x488758
0x488790
0x488860
0x4889C1
0x4889C3
0x488A90
0x488AF1
0x488EF1
0x489100
0x489150
0x4891A1
0x4894A1
0x4897E1
0x4899C1
0x48A000
0x48A140
0x48A144
0x48AFC0
0x48AFC4
0x48C240
0x48C600
0x48C690
0x48C720
0x48C7B0
0x48C850
0x48C8E1
0x48CCB1
0x48CF47
0x48D015
0x48D360
0x48D601
0x48EEC0
0x48FCA1
0x48FE61
0x490BF0
0x490F10
0x4916F0
0x491A30
0x492208
0x492330
0x4925E0
0x4929D8
0x492ACD
0x492DC1
0x4933D0
0x4938DF
0x4939F1
0x493C21
0x493D41
0x4940D6
0x4940F7
0x4944E5
0x4948D1
0x494D71
0x495070
0x4951DE
0x49534B
0x495419
0x495432
0x495611
0x495A96
0x495AE0
0x495AEA
0x495C31
0x495C37
0x495EB4
0x495F91
0x495FF1
0x496341
0x498027
0x498040
0x498171
0x498560
0x498731
0x498769
0x4988A8
0x498961
0x4989B9
0x4989DF
0x498A40
0x498A43
0x498EA1
0x498EF1
0x499290
0x4993A1
0x4994E9
0x4998BA
0x4998BF
0x499C51
0x49A390
0x49A4F0
0x49A830
0x49A8B0
0x49A930
0x49A9B0
0x49AA40
0x49AAC1
0x49AB54
0x49ABC1
0x49AF7A
0x49B220
0x49B320
0x49B38F
0x49B3B0
0x49B3DF
0x49B5B0
0x49B5D1
0x49B5D3
0x49B7D2
0x49B8AF
0x49BC40
0x49BE10
0x49BE14
0x49DB41
0x49E168
0x49E36A
0x49E440
0x49E5A0
0x49E791
0x49EB66
0x49EF61
0x49F6D0
0x49F6E0
0x49F760
0x49F7E0
0x49F9D1
0x4A03D0
0x4A0410
0x4A07E1
0x4A1260
0x4A1331
0x4A133A
0x4A1D20
0x4A2140
0x4A2180
0x4A21C0
0x4A2200
0x4A2250
0x4A27D2
0x4A2831
0x4A2BB1
0x4A2BBA
0x4A3120
0x4A3170
0x4A31C1
0x4A33E1
0x4A3781
0x4A3C31
0x4A4990
0x4A59F8
0x4A6121
0x4A6301
0x4A6600
0x4A66C0
0x4A6731
0x4A6A07
0x4A6A70
0x4A6AF3
0x4A6B91
0x4A6C71
0x4A6C73
0x4A6D2D
0x4A72B0
0x4A74EE
0x4A7551
0x4A77B8
0x4A782D
0x4A8720
0x4A8AA8
0x4A8E20
0x4A9578
0x4A9631
0x4AA560
0x4AA570
0x4AA7C3
0x4AAC70
0x4AB167
0x4AB7F0
0x4AB880
0x4AB910
0x4AB931
0x4ABAB1
0x4ABE91
0x4ABE93
0x4AC0D1
0x4AC251
0x4AC29F
0x4AC5DC
0x4AC6BD
0x4AC711
0x4AC7C7
0x4AC7E1
0x4AC888
0x4AC8B8
0x4AC953
0x4ACB01
0x4ACB8B
0x4ACC00
0x4ACD39
0x4ACD81
0x4ACF29
0x4AD0C0
0x4AD521
0x4ADDE0
0x4ADE60
0x4ADEE0
0x4ADF60
0x4ADFE0
0x4AE39E
0x4AE400
0x4AE848
0x4AEF31
0x4AFA51
0x4B09A0
0x4B0AC0
0x4B0B80
0x4B0C40
0x4B0D00
0x4B0DD0
0x4B0DF1
0x4B1218
0x4B121C
0x4B189F
0x4B18BF
0x4B18DF
0x4B1902
0x4B1FE4
0x4B4600
0x4B49C1
0x4B5FE1
0x4B6880
0x4B68B0
0x4B68D0
0x4B68D3
0x4B6980
0x4B6A51
0x4B6C81
0x4B6E90
0x4B7060
0x4B7241
0x4B724A
0x4B74C0
0x4B7721
0x4B77C8
0x4B7871
0x4B7E71
0x4B85D7
0x4B87A6
0x4B8EB5
0x4B8F7C
0x4B9050
0x4B90F1
0x4B90FA
0x4B93AA
0x4B95D0
0x4B95D2
0x4B9780
0x4B9782
0x4B9A01
0x4B9C80
0x4B9C82
0x4B9C84
0x4BA5E0
0x4BA744
0x4BA7B1
0x4BB431
0x4BB571
0x4BB836
0x4BB9F0
0x4BBA20
0x4BBBB0
0x4BBBE0
0x4BBCA0
0x4BBCD0
0x4BBD10
0x4BBD50
0x4BBDC0
0x4BBDC2
0x4BBE90
0x4BBEC0
0x4BC0C0
0x4BC290
0x4BC2F0
0x4BC491
0x4BC681
0x4BCDB0
0x4BCE01
0x4BD711
0x4BD861
0x4BDB88
0x4BDC84
0x4BDCC0
0x4BDEB1
0x4BE011
0x4BE1A1
0x4BE837
0x4BF220
0x4BF296
0x4BF2A0
0x4BF300
0x4BF6F1
0x4BF6FA
0x4BFAB0
0x4BFB60
0x4BFB80
0x4BFC60
0x4BFCE1
0x4BFD81
0x4BFF71
0x4C00F1
0x4C01B1
0x4C02CF
0x4C0471
0x4C06D1
0x4C0A80
0x4C0BC1
0x4C0D95
0x4C0DF0
0x4C0FE1
0x4C1180
0x4C1271
0x4C1333
0x4C1601
0x4C1861
0x4C19E1
0x4C1B30
0x4C1B80
0x4C1BD1
0x4C1D10
0x4C1DA1
0x4C21E1
0x4C2401
0x4C2551
0x4C25D1
0x4C2651
0x4C2971
0x4C29D1
0x4C2A51
0x4C2AD1
0x4C2CF1
0x4C2CF6
0x4C2F70
0x4C2FB0
0x4C2FF0
0x4C3030
0x4C3070
0x4C30B1
0x4C31D5
0x4C3220
0x4C32F1
0x4C3491
0x4C34F0
0x4C3530
0x4C3570
0x4C35B0
0x4C3627
0x4C3750
0x4C3771
0x4C3821
0x4C3B91
0x4C3C31
0x4C3DB7
0x4C3DD1
0x4C3E60
0x4C4140
0x4C42A1
0x4C4471
0x4C4611
0x4C48E1
0x4C48FC
0x4C4AB7
0x4C4ADB
0x4C4B14
0x4C4BF1
0x4C4F51
0x4C5003
0x4C51E1
0x4C52D0
0x4C5331
0x4C5500
0x4C5580
0x4C5590
0x4C55A0
0x4C55C0
0x4C55D0
0x4C55E0
0x4C56B0
0x4C5780
0x4C5851
0x4C5991
0x4C5997
0x4C5B01
0x4C5C41
0x4C5D41
0x4C5D81
0x4C5E81
0x4C60C0
0x4C6250
0x4C6290
0x4C6620
0x4C6660
0x4C66D0
0x4C66D2
0x4C66D4
0x4C67F0
0x4C6830
0x4C6870
0x4C6961
0x4C6989
0x4C6AB1
0x4C6BF0
0x4C6C10
0x4C6C41
0x4C6CA1
0x4C6E80
0x4C6F30
0x4C7110
0x4C7112
0x4C7114
0x4C71F0
0x4C7270
0x4C78C1
0x4C7AA1
0x4C7AF0
0x4C7B20
0x4C7B80
0x4C7B82
0x4C7F21
0x4C802C
0x4C816C
0x4C83A1
0x4C868F
0x4C87DC
0x4C886A
0x4C8A5D
0x4C8A76
0x4C9001
0x4C9580
0x4C99E1
0x4CA331
0x4CA910
0x4CA951
0x4CAA90
0x4CAB11
0x4CAB17
0x4CAD30
0x4CAD61
0x4CB281
0x4CB5E1
0x4CB6C1
0x4CBB10
0x4CBD61
0x4CC249
0x4CC360
0x4CC3E3
0x4CC480
0x4CC6B1
0x4CC6BA
0x4CC920
0x4CEF8C
0x4CFE70
0x4E6810
0x4E8B0D
0x4E8E3F
0x4EA9CA
0x4ED1E8
