0x402215
0x402264
0x4022CA
0x40230A
0x402371
0x402590
0x402601
0x402AE1
0x402D60
0x402E50
0x402E90
0x402F40
0x402F80
0x402FB0
0x402FF0
0x403110
0x403170
0x4031A0
0x4031D0
0x403470
0x403830
0x403901
0x403907
0x403B61
0x403B67
0x403DC1
0x403F71
0x403F7A
0x403FC0
0x4042E0
0x404410
0x40444D
0x4046E1
0x404A10
0x404CC0
0x404E90
0x404E94
0x404FF0
0x405061
0x4052E1
0x405420
0x405850
0x405901
0x40590A
0x405DE0
0x405F21
0x405F2A
0x4060E0
0x406171
0x406500
0x4065F1
0x40663B
0x406770
0x406870
0x4068C1
0x406A61
0x406BF1
0x406F61
0x40708D
0x407100
0x407180
0x4071B1
0x407242
0x407269
0x407321
0x4073B1
0x407431
0x4074C0
0x407551
0x4076A6
0x407851
0x407C01
0x407CED
0x407DED
0x407EA1
0x408331
0x4086C0
0x4087E0
0x4089B0
0x4089B4
0x408A99
0x409561
0x4095A4
0x409759
0x409790
0x4098B0
0x409931
0x409AB0
0x409B70
0x409BA0
0x409BF1
0x409F11
0x40A110
0x40A261
0x40A26A
0x40A39B
0x40A4B0
0x40A550
0x40A5D0
0x40A670
0x40A6D0
0x40A791
0x40A9D1
0x40A9DA
0x40AC00
0x40ACD1
0x40AE91
0x40AF81
0x40B0D1
0x40B390
0x40B661
0x40B800
0x40B990
0x40BBD0
0x40BE00
0x40BED1
0x40C140
0x40C390
0x40C4B0
0x40C4D1
0x40C6C7
0x40CC00
0x40CC02
0x40CC04
0x40CCC1
0x40CDA1
0x40CE31
0x40CE7C
0x40D154
0x40D1B1
0x40D351
0x40D35A
0x40D430
0x40D4E0
0x40D650
0x40D6D0
0x40D700
0x40D940
0x40E320
0x40E3B1
0x40E4A5
0x40E740
0x40E800
0x40E940
0x40EA01
0x40EDB1
0x40EE80
0x40EE88
0x40EF60
0x40EF62
0x40F0B0
0x40F0E0
0x40F330
0x40F337
0x40F4B0
0x40F4B4
0x40F5B0
0x40FB31
0x40FB7B
0x40FD41
0x40FD43
0x40FDA0
0x40FE90
0x40FEF0
0x40FF50
0x40FFB0
0x410040
0x410061
0x41009D
0x4102A1
0x410411
0x410413
0x4104A0
0x410530
0x4105C0
0x410651
0x410BF0
0x410CB0
0x410F80
0x411021
0x4111B0
0x411210
0x411401
0x411601
0x41278F
0x412C10
0x412DC0
0x412E60
0x412F10
0x412FC0
0x4130F0
0x413190
0x413194
0x4135C1
0x4137F1
0x41380B
0x413D51
0x413E86
0x4140D1
0x4143A0
0x414580
0x4149B0
0x414A80
0x414C20
0x414CF1
0x414E10
0x414FA1
0x415110
0x4154C1
0x415591
0x415781
0x415D51
0x415DC0
0x4160D0
0x416191
0x4162D0
0x4162D4
0x4165B1
0x416C71
0x416E41
0x4170C1
0x417371
0x4176E1
0x4177A0
0x417920
0x417AB0
0x417C30
0x418360
0x4186E0
0x418D20
0x419000
0x419210
0x419821
0x419823
0x419BA0
0x419D40
0x41A1B0
0x41A340
0x41AA70
0x41ABD0
0x41ADF1
0x41AF70
0x41B251
0x41B253
0x41B4F0
0x41B4F8
0x41B750
0x41BA20
0x41BAB0
0x41BE30
0x41C090
0x41C3D0
0x41C630
0x41C64A
0x41C710
0x41C715
0x41C920
0x41CAD4
0x41CC84
0x41CDA8
0x41CE24
0x41CEB0
0x41CFE0
0x41CFFA
0x41D1D1
0x41EE44
0x420C80
0x4217D0
0x4217F1
0x421911
0x421E11
0x421E14
0x421F91
0x4220C0
0x422220
0x422300
0x4225E0
0x4227A1
0x423220
0x423230
0x423500
0x423760
0x423861
0x423A41
0x423C50
0x423D01
0x423EC0
0x423FF0
0x424194
0x424440
0x424471
0x424960
0x424A80
0x424AD0
0x424B70
0x424BE0
0x424C70
0x424CF1
0x424CF7
0x4251AE
0x4251C0
0x4256D0
0x425A61
0x425CE1
0x425CEA
0x425F21
0x426201
0x4263A0
0x426481
0x42648A
0x4266C1
0x426970
0x426D10
0x426D14
0x426DB0
0x426DB4
0x426E40
0x426E44
0x426EB0
0x426EB4
0x4272F0
0x4273C1
0x4274D0
0x427530
0x427817
0x427850
0x427BB0
0x427CC0
0x427F01
0x428131
0x428285
0x4282F6
0x4282FA
0x42832C
0x42832E
0x4283F1
0x42875E
0x428910
0x428A10
0x428A12
0x428A14
0x428A61
0x428F61
0x4295C1
0x429CB1
0x429F01
0x42A0A6
0x42A1D0
0x42A4FF
0x42A578
0x42A7E0
0x42A870
0x42A89C
0x42A930
0x42ABE0
0x42ABE8
0x42B190
0x42B194
0x42B2D0
0x42B33E
0x42B43B
0x42B580
0x42B620
0x42BCB1
0x42C2D0
0x42C470
0x42C601
0x42C790
0x42C950
0x42CA20
0x42CB00
0x42CB41
0x42D291
0x42D349
0x42D5E0
0x42D6ED
0x42D769
0x42DB91
0x42DEA1
0x42E070
0x42E0D0
0x42E130
0x42E241
0x42ED70
0x42EDC1
0x42EDCA
0x42F030
0x42F170
0x42F320
0x42F350
0x42F3D1
0x42F94E
0x42FDA1
0x42FE31
0x42FED1
0x430041
0x430043
0x4300F2
0x430151
0x43015A
0x4301B0
0x4304C1
0x430771
0x430A70
0x430E11
0x431018
0x43104E
0x43108C
0x4310BE
0x431107
0x431341
0x431866
0x431951
0x431A50
0x431FA1
0x432170
0x4321E1
0x4326C1
0x432AC1
0x432C60
0x432C8B
0x432D05
0x432EB1
0x4333E1
0x433511
0x433730
0x4337D8
0x433860
0x4339D1
0x433CA1
0x433F40
0x43429E
0x4342A5
0x4342E1
0x4343E1
0x434551
0x435881
0x435F31
0x435F3A
0x437561
0x43756A
0x4378F1
0x4378FA
0x437FD1
0x43802B
0x438173
0x4381D1
0x438421
0x43856A
0x4385B1
0x438701
0x438BA1
0x439151
0x439430
0x439621
0x43A4A1
0x43A8B1
0x43AD26
0x43AE99
0x43AF11
0x43B121
0x43B1D1
0x43C144
0x43C150
0x43C154
0x43C174
0x43C181
0x43CDE0
0x43CDE2
0x43CDE4
0x43D0B0
0x43D0B7
0x43D1A0
0x43D1E0
0x43D280
0x43D741
0x43D74A
0x43DDC1
0x43E151
0x43EA81
0x43EA8A
0x43EBED
0x43EC4D
0x43EC93
0x43EEAE
0x43F033
0x43F4D0
0x43F7D1
0x43F8D1
0x43FBB1
0x43FC3C
0x43FD61
0x43FD6F
0x440044
0x44004E
0x440050
0x440290
0x4404E0
0x4405E0
0x4406A1
0x440810
0x4408C1
0x440C61
0x440E71
0x441200
0x441251
0x4413B0
0x441451
0x441810
0x441920
0x441B10
0x441BB1
0x441DD0
0x441E51
0x442090
0x442200
0x4422F1
0x442436
0x442451
0x44245A
0x4424D1
0x442646
0x442660
0x442720
0x442A60
0x442AC0
0x442C00
0x442DA1
0x442EF0
0x442EF8
0x443170
0x4431F1
0x4433B1
0x4434E0
0x4434E8
0x443680
0x443770
0x443900
0x443A40
0x443AD0
0x443B00
0x443BE1
0x444030
0x444080
0x4440E1
0x4441D1
0x4442E1
0x444541
0x444A21
0x444A67
0x444B20
0x444B24
0x444B47
0x444BF0
0x444D01
0x444D03
0x444DBA
0x444DD0
0x444E31
0x444E33
0x444E90
0x444F80
0x445070
0x445160
0x445310
0x445312
0x445314
0x4454A0
0x445561
0x445745
0x4457D7
0x4457E1
0x4457EA
0x445950
0x445A51
0x445A5A
0x445B53
0x445E38
0x445E4A
0x445E60
0x445EF0
0x445EF4
0x446030
0x446055
0x44608C
0x446341
0x446343
0x446411
0x4467A0
0x446BF1
0x446CD7
0x446E00
0x446F71
0x446F77
0x4472E1
0x4476D1
0x4479B0
0x447A00
0x447A04
0x447C10
0x447CB0
0x447D40
0x447E80
0x447FC0
0x448010
0x4481A1
0x448380
0x4484CD
0x4487F0
0x4489A1
0x449479
0x449981
0x44A026
0x44A7BE
0x44A800
0x44A921
0x44AA81
0x44AE21
0x44AEC6
0x44AF06
0x44B0D0
0x44B151
0x44B2B0
0x44B2B4
0x44B410
0x44B414
0x44B4E1
0x44B771
0x44BEB1
0x44CBE0
0x44CD01
0x44CE11
0x44CE2E
0x44D013
0x44E0E0
0x44E140
0x44E2A0
0x44E2A8
0x44E4A0
0x44E591
0x44E621
0x44E6D1
0x44E6D7
0x44E820
0x44E870
0x44E921
0x44E995
0x44EB06
0x44EB23
0x44EC71
0x44F550
0x44F831
0x44FB70
0x44FB72
0x44FC50
0x44FE60
0x4502F8
0x4503E0
0x450630
0x450680
0x4506F0
0x4507E1
0x4509F0
0x4509F2
0x450C10
0x450CA1
0x450E80
0x4511E7
0x451243
0x451A20
0x451A73
0x451AA1
0x451AAA
0x451E01
0x451E03
0x451E06
0x451F51
0x452270
0x452360
0x4523C0
0x452440
0x4524B0
0x4525B1
0x4525C5
0x4526C1
0x452831
0x452C01
0x452CC3
0x452E04
0x452E25
0x452E46
0x452E67
0x452FE0
0x453051
0x453EB0
0x4543A0
0x4543E0
0x454411
0x454A01
0x454DB1
0x455840
0x455940
0x455944
0x455AC0
0x455D21
0x4561A0
0x4561A2
0x4561A4
0x456331
0x456601
0x456950
0x456B01
0x456CD1
0x4577B0
0x457856
0x457941
0x457F41
0x4582E0
0x458490
0x458610
0x45885D
0x458BE0
0x458CF1
0x458DB0
0x4598A1
0x4598E1
0x4598EF
0x45A021
0x45A2A0
0x45B051
0x45B330
0x45B400
0x45B520
0x45B731
0x45B851
0x45B951
0x45BC20
0x45BDE0
0x45BE61
0x45C870
0x45CAF0
0x45CB02
0x45CCF0
0x45CD30
0x45CDF0
0x45CEB0
0x45CF00
0x45CF40
0x45CFB0
0x45CFF0
0x45D1F0
0x45D271
0x45D4BF
0x45D6B1
0x45D701
0x45D7C1
0x45DAC0
0x45DACE
0x45DB61
0x45DC31
0x45E0C0
0x45E551
0x45EAF1
0x45EE61
0x45EE9C
0x45EF48
0x45FF70
0x460151
0x460250
0x460450
0x4604E1
0x460751
0x460A31
0x460C01
0x4610B0
0x461160
0x461191
0x461411
0x461656
0x461751
0x461ED1
0x461F60
0x462210
0x462230
0x462340
0x462470
0x462520
0x462620
0x4626A0
0x462840
0x4629E1
0x462A70
0x462CF1
0x462F30
0x4630E0
0x463110
0x463160
0x463591
0x46359A
0x463A6C
0x463AB1
0x463E70
0x463E72
0x464560
0x464611
0x464631
0x464A81
0x464CD1
0x464D60
0x464E30
0x464E34
0x464EA0
0x464F11
0x465033
0x46504C
0x465141
0x465390
0x465481
0x465487
0x4657F2
0x465B30
0x465DC1
0x465DCA
0x4660EE
0x46615A
0x466201
0x4663F3
0x466481
0x466530
0x466538
0x466AB9
0x466ABA
0x466D90
0x466DD0
0x466DE1
0x467500
0x467940
0x467A30
0x467B20
0x467C21
0x467D31
0x467EE1
0x468776
0x468777
0x468A8F
0x468B50
0x469060
0x469151
0x4697F0
0x469950
0x469A11
0x469A70
0x469B20
0x469B71
0x469B78
0x469CA0
0x469E01
0x469E03
0x469EC0
0x469ED0
0x469F31
0x46A0E6
0x46A1B1
0x46A440
0x46A461
0x46A681
0x46A931
0x46AA90
0x46B020
0x46B0C0
0x46B211
0x46C231
0x46C3D0
0x46C6D0
0x46C700
0x46C791
0x46C826
0x46D601
0x46D941
0x46D9F1
0x46DBA0
0x46DCB0
0x46DD50
0x46DE40
0x46DF21
0x46F9C0
0x46FB60
0x470CD1
0x470CD7
0x470E40
0x470E42
0x470F51
0x471051
0x471A46
0x471B10
0x471D80
0x471DF4
0x471F30
0x471F38
0x471F57
0x4723F0
0x472610
0x473240
0x473310
0x4734C0
0x47369F
0x4736A0
0x473A21
0x4742FF
0x474411
0x474621
0x474741
0x474AA0
0x474ABA
0x474ADB
0x474B90
0x4752D1
0x475501
0x4756A1
0x475B19
0x475B61
0x475C19
0x475C33
0x475DE1
0x476160
0x4761E6
0x4761F0
0x4761FB
0x476237
0x476301
0x476307
0x47639E
0x476681
0x4766E1
0x476BC1
0x476D3C
0x477D00
0x477E31
0x478240
0x478242
0x478401
0x478439
0x478578
0x478631
0x478689
0x4786AF
0x478710
0x478713
0x478B71
0x478BC1
0x478D90
0x478F10
0x478F30
0x479051
0x47918E
0x4798A0
0x479A20
0x479A24
0x479B40
0x479E20
0x479E50
0x479ED1
0x47A4C1
0x47A561
0x47A683
0x47A68B
0x47A9E0
0x47AAD0
0x47AAF1
0x47AAF7
0x47AC81
0x47AD10
0x47AD71
0x47AE60
0x47AF91
0x47B101
0x47C8D7
0x47CAA0
0x47CB71
0x47D0ED
0x47D421
0x47D740
0x47D7D1
0x47D8B1
0x47DD11
0x47E2F0
0x47E370
0x47E400
0x47E511
0x47EDE0
0x47EE21
0x47EF71
0x47F380
0x47F3F4
0x47F400
0x47F4F0
0x47F590
0x47F7B0
0x47F7E0
0x47F801
0x47F988
0x47FF21
0x47FF23
0x47FFA1
0x480221
0x480551
0x480970
0x480B01
0x480E31
0x480F98
0x481241
0x48124A
0x481C90
0x481C94
0x481EB1
0x481EB6
0x482050
0x482D31
0x482D37
0x483081
0x483221
0x4834B0
0x483550
0x483590
0x483600
0x4836F0
0x4836F2
0x4836F4
0x4837E7
0x483850
0x4838D3
0x483971
0x483AF0
0x483D80
0x483FD5
0x484480
0x484DDD
0x485291
0x485600
0x485690
0x485766
0x485843
0x4858C1
0x485B90
0x485B92
0x485B94
0x485CD0
0x485EA0
0x485F13
0x486100
0x4863B1
0x4864B0
0x48657A
0x4867D1
0x486AF1
0x486C1E
0x486C48
0x486CE3
0x486E81
0x486F0B
0x486FE0
0x487158
0x487181
0x487334
0x4875F0
0x4876E0
0x487B61
0x487B6A
0x487C40
0x487CF0
0x487DD0
0x487E90
0x487EC0
0x487EE1
0x487EE3
0x4882B1
0x488340
0x488360
0x488530
0x488534
0x488730
0x488981
0x488C10
0x488C18
0x488DF1
0x488F70
0x489060
0x489361
0x4895D0
0x489790
0x4897C0
0x4897E1
0x489BD1
0x48A150
0x48A4A0
0x48A4A2
0x48A4A4
0x48A691
0x48A791
0x48A8F0
0x48A9D0
0x48AA01
0x48AAE1
0x48AD91
0x48AD9A
0x48AF21
0x48B010
0x48B071
0x48B0E3
0x48B103
0x48B123
0x48B146
0x48B3D1
0x48BD71
0x48BF71
0x48BF7A
0x48C900
0x48CB41
0x48CF60
0x48D0B1
0x48D131
0x48D1E0
0x48D210
0x48D230
0x48D300
0x48D3D1
0x48D5D1
0x48D7C0
0x48D960
0x48DB21
0x48DB2A
0x48DD90
0x48DF71
0x48E0E1
0x48E241
0x48E29D
0x48E3A8
0x48E681
0x48E6B6
0x48E960
0x48EA40
0x48EC91
0x48EFF1
0x48F0F1
0x48F1F1
0x48F2F1
0x48F3F0
0x48F571
0x48F962
0x48FAA1
0x48FC61
0x48FEF1
0x48FFBF
0x490171
0x490F84
0x490FF1
0x4916C0
0x491940
0x492040
0x4921C0
0x4921F0
0x492290
0x4922B0
0x492360
0x492362
0x492410
0x492430
0x492450
0x492510
0x4925B1
0x4926A0
0x492781
0x4927A0
0x4927C0
0x4927E1
0x492800
0x492820
0x492950
0x4929B0
0x492A60
0x492AE1
0x492BC0
0x492C31
0x492F60
0x492F64
0x4930A1
0x493470
0x493540
0x4935A1
0x493691
0x4938BE
0x493900
0x4939E1
0x493B41
0x493BD1
0x494321
0x49432A
0x4944F0
0x494570
0x494670
0x4946F1
0x494781
0x494877
0x4948A1
0x4949B1
0x4949B3
0x494A81
0x494B9F
0x494C50
0x494CC1
0x494E71
0x495190
0x4951D0
0x495335
0x495390
0x495441
0x495511
0x495660
0x4956F3
0x495910
0x495B00
0x495B50
0x495BA1
0x495CE0
0x495D20
0x496110
0x496131
0x496189
0x4961F0
0x4962F0
0x496311
0x496461
0x4964E1
0x496561
0x496830
0x496851
0x4968B1
0x496931
0x4969B1
0x496BD0
0x496DE0
0x496E20
0x496E60
0x496EA0
0x496EE0
0x496F21
0x497045
0x497090
0x4971C0
0x4971E0
0x497241
0x4972A0
0x4972E0
0x497320
0x497360
0x4973D7
0x4973F0
0x4974B0
0x4974D3
0x497521
0x497721
0x4977C1
0x4978E0
0x497907
0x497921
0x4979D1
0x497BFF
0x497C70
0x497DD1
0x497FA1
0x498141
0x498351
0x49835A
0x49836C
0x4984F1
0x49852C
0x498564
0x498721
0x498811
0x498900
0x498961
0x498B30
0x498B70
0x498B80
0x498B90
0x498BB0
0x498BC0
0x498BD0
0x498CA0
0x498CA8
0x498D90
0x498E61
0x498FA1
0x498FA7
0x499111
0x499291
0x499331
0x499560
0x4996E0
0x499720
0x499A30
0x499A70
0x499AA0
0x499AA2
0x499AA4
0x499BE0
0x499C20
0x499C40
0x499D31
0x499EC1
0x49A030
0x49A050
0x49A081
0x49A0E1
0x49A2E0
0x49A390
0x49A3C0
0x49A4D0
0x49A4F0
0x49A4F4
0x49A510
0x49A512
0x49A514
0x49A5E0
0x49A620
0x49AC71
0x49AE11
0x49AE60
0x49AE90
0x49AEB0
0x49AF00
0x49B151
0x49B23B
0x49B36A
0x49B5A1
0x49B65A
0x49B810
0x49B9D4
0x49BA2D
0x49BC29
0x49C091
0x49C510
0x49C931
0x49D251
0x49D363
0x49D790
0x49D7D1
0x49D910
0x49D993
0x49DB11
0x49DB71
0x49DBD0
0x49DC70
0x49DCB0
0x49DCE1
0x49E201
0x49E561
0x49E641
0x49EA90
0x49ECE1
0x49F01A
0x49F120
0x49F3D1
0x49F431
0x49F490
0x49F540
0x49F571
0x49F790
0x49FBF1
0x49FC50
0x4B7A7D
0x4B7DAF
0x4B98CA
