0x402335
0x402384
0x4023EA
0x402420
0x4026C1
0x4027FE
0x403032
0x4032F0
0x403480
0x4034B0
0x4034F0
0x403630
0x4036A0
0x4036E0
0x403720
0x403820
0x403884
0x4038E0
0x4038E2
0x403D50
0x403D52
0x4041C1
0x404631
0x404682
0x404E00
0x405191
0x4052A8
0x4059D0
0x405AC0
0x405B21
0x405C30
0x406087
0x406481
0x40648A
0x4068F2
0x406D90
0x406ED0
0x4075F0
0x407681
0x408461
0x408463
0x409300
0x409320
0x409800
0x409C10
0x40A170
0x40A1D1
0x40A621
0x40A9B1
0x40A9BA
0x40AD31
0x40B230
0x40B8A0
0x40B8A4
0x40C861
0x40CAB1
0x40CDB0
0x40CF40
0x40CFB0
0x40D020
0x40D090
0x40D111
0x40D280
0x40D371
0x40D920
0x40D9B1
0x40DB9A
0x40DCC5
0x40DCC6
0x40DE90
0x40DF60
0x40DFC0
0x40DFC2
0x40E0A1
0x40E470
0x40EDB1
0x40F360
0x40F4F1
0x40F5D2
0x40F698
0x40F900
0x40FBD0
0x40FDD0
0x410050
0x410071
0x4101B1
0x4108B1
0x410941
0x410BB0
0x4115F4
0x4116C0
0x411780
0x4117F0
0x411B00
0x4125C0
0x412641
0x412685
0x4127A5
0x412A50
0x412C30
0x412CF0
0x4131F1
0x413840
0x413848
0x413920
0x413A15
0x413B50
0x413BB0
0x413C10
0x413C70
0x413CE0
0x413D00
0x413DD0
0x414100
0x414271
0x41428F
0x4142C7
0x414541
0x414543
0x4145A0
0x414690
0x4146F0
0x414750
0x4147B0
0x414840
0x414861
0x414BB1
0x414DD1
0x414DD3
0x414FB1
0x415472
0x4154F0
0x415671
0x4156E0
0x4157E0
0x4158A0
0x415930
0x415B95
0x4160E0
0x416191
0x4162E6
0x4166EC
0x4166FC
0x4169D1
0x416B90
0x416B94
0x418618
0x41A902
0x41A931
0x41AFE0
0x41B110
0x41B1C0
0x41B270
0x41B3A0
0x41B4D0
0x41B4D4
0x41C1B0
0x41C1B4
0x41C561
0x41CA91
0x41CC46
0x41CEF1
0x41D230
0x41DA93
0x41DDE4
0x41E270
0x41E274
0x41E5D1
0x41EDA1
0x41F0E1
0x41F0FD
0x41F1A1
0x41F651
0x420EA1
0x420F10
0x421253
0x421267
0x421289
0x4213D1
0x421710
0x421819
0x42182D
0x42188B
0x4218F0
0x4219A3
0x4219B7
0x421AC6
0x421C44
0x421D50
0x421EA8
0x421FB4
0x42203C
0x4220C1
0x423131
0x4232CC
0x423366
0x423404
0x42349E
0x423561
0x423C41
0x424361
0x424D21
0x424D51
0x424EB0
0x4252A0
0x425580
0x425740
0x4258B0
0x425B80
0x425FC0
0x426110
0x426380
0x426B31
0x426B33
0x426EA0
0x427020
0x4273E0
0x427550
0x427C30
0x427D50
0x4280B0
0x428331
0x4285D0
0x4285D8
0x4289B0
0x428AD0
0x428B60
0x428E30
0x429070
0x429583
0x429700
0x429897
0x429929
0x429A70
0x429AFC
0x429DD4
0x429FB4
0x42A040
0x42A1C0
0x42A1C2
0x42A1D3
0x42A1DC
0x42A3B1
0x42B620
0x42B9C0
0x42BDA8
0x42E5D7
0x42E730
0x42E9D0
0x42E9F1
0x42EB31
0x42F081
0x42F083
0x42F281
0x42F431
0x42F571
0x42F610
0x42F700
0x42F9E0
0x42FBA1
0x4306EB
0x4307A0
0x430AE0
0x430D70
0x430F90
0x431091
0x431621
0x431920
0x431C24
0x431DC1
0x43237C
0x432450
0x4324B0
0x432770
0x432790
0x432800
0x432890
0x432911
0x432917
0x432DD0
0x4332F0
0x4338B0
0x433E51
0x434061
0x434321
0x4349A0
0x434B10
0x434F30
0x435080
0x435240
0x4352E0
0x435370
0x435581
0x435D00
0x436460
0x4364CF
0x4364F0
0x43655F
0x436580
0x4365EF
0x436610
0x43667C
0x4366E2
0x436891
0x4368E7
0x436BCE
0x436C06
0x436C46
0x436C6B
0x436C7C
0x437330
0x437491
0x437B21
0x4383E1
0x43854A
0x438DAA
0x438FF1
0x43906A
0x439421
0x439A8E
0x439AA0
0x439AA4
0x43A020
0x43A110
0x43A113
0x43A810
0x43A87E
0x43AB30
0x43ADAF
0x43B170
0x43B400
0x43B480
0x43B482
0x43B484
0x43B5D1
0x43B5DA
0x43B971
0x43BBB2
0x43BE8C
0x43C990
0x43CBA1
0x43D0B2
0x43D161
0x43D3C0
0x43D4D1
0x43E011
0x43E01A
0x43E3BD
0x43E5CD
0x43EBC1
0x43EBCA
0x43EE40
0x43EFC0
0x43F1C0
0x43F240
0x43F2C0
0x43F340
0x43F3D0
0x43F450
0x43F560
0x43F821
0x43F941
0x43F995
0x4406C3
0x440A51
0x441080
0x441191
0x441460
0x441462
0x4414D6
0x441696
0x441781
0x4417C1
0x441D41
0x441EC0
0x442581
0x442640
0x4429D1
0x442B40
0x442D91
0x442DD6
0x443CB1
0x443DC1
0x4441C1
0x4441CA
0x4443AC
0x44468A
0x4446A5
0x4447C7
0x4447E2
0x444890
0x444A00
0x444D10
0x444D18
0x445020
0x4452CE
0x445392
0x4453D1
0x445705
0x4457F0
0x447261
0x44895C
0x448F2B
0x44903A
0x449D61
0x44A0D0
0x44A0D2
0x44A0D4
0x44A341
0x44A6A0
0x44A8A1
0x44C2E1
0x44C4D1
0x44C87D
0x44CAF1
0x44D8F4
0x44D900
0x44D904
0x44D924
0x44D931
0x44DDC0
0x44E5F0
0x44EBD1
0x44F080
0x44F671
0x44FE21
0x44FE2A
0x4509F1
0x450C02
0x450CFF
0x451718
0x45171C
0x45178D
0x4518D2
0x451EC9
0x451EF4
0x4521C1
0x45224C
0x452371
0x45237F
0x452654
0x45265E
0x452660
0x4528A0
0x452BA0
0x452D44
0x452F00
0x452F91
0x4532D1
0x4538F1
0x453D81
0x454020
0x454320
0x4546E0
0x454840
0x4548C0
0x454940
0x4549C0
0x454AF8
0x454AF9
0x454B46
0x454F41
0x454F4A
0x455440
0x455663
0x455690
0x455883
0x4558B0
0x455981
0x455B90
0x455DD0
0x455E70
0x4562A0
0x456360
0x456390
0x456481
0x4581D0
0x4581D8
0x458461
0x458463
0x458620
0x458681
0x458683
0x4586E0
0x4587C0
0x4588A0
0x458980
0x458A60
0x458D21
0x45918C
0x459287
0x459291
0x4594B0
0x459591
0x459DC8
0x459DDF
0x459E00
0x459EE0
0x459EE4
0x45A035
0x45A098
0x45A3E0
0x45A4C1
0x45AE90
0x45B447
0x45BAF0
0x45BDF1
0x45C311
0x45C809
0x4609DE
0x4612C8
0x461A49
0x4622E9
0x4628F8
0x462902
0x46290C
0x462926
0x465C29
0x4664C8
0x466E56
0x467101
0x4673E1
0x4684F9
0x468A24
0x468ADF
0x468BF4
0x468DA0
0x468F31
0x469008
0x469090
0x4690A0
0x4691D2
0x4695D0
0x469741
0x469A20
0x469EE8
0x46B660
0x46BA41
0x46BD90
0x46BEA1
0x46BF51
0x46C023
0x46C0A1
0x46C260
0x46C26A
0x46C3F0
0x46C440
0x46C457
0x46C6B1
0x46CCDA
0x46CE41
0x46CE9D
0x46D161
0x47066C
0x470780
0x470E50
0x470E52
0x470F31
0x471200
0x471B10
0x471C10
0x471D54
0x4721D1
0x4721E9
0x4729B0
0x4729B2
0x472DC0
0x472E50
0x472E54
0x473060
0x4730C3
0x4730F1
0x4730F7
0x4737F1
0x4737F3
0x4737F6
0x473941
0x473CB1
0x473E50
0x473FB1
0x474081
0x474230
0x474271
0x4742F1
0x474371
0x474385
0x474481
0x4745F1
0x474AB0
0x474BD7
0x474BF7
0x474C17
0x474C37
0x474C66
0x474DC0
0x474E41
0x474E4A
0x476087
0x4766D0
0x476751
0x476F26
0x476F91
0x478200
0x478300
0x478304
0x478480
0x478761
0x478C10
0x478DA1
0x4790C1
0x4796A1
0x4798D1
0x479AB1
0x47A880
0x47AB11
0x47B3E1
0x47B920
0x47BBB0
0x47BDD1
0x47F40F
0x483CF5
0x483D90
0x483D92
0x483F10
0x483F50
0x483FA2
0x484010
0x484120
0x4841A0
0x484210
0x484290
0x4844D0
0x484541
0x4849BF
0x484C31
0x484D51
0x484F44
0x485270
0x485701
0x485E51
0x4864F1
0x487900
0x487904
0x487B91
0x487CA0
0x487F50
0x487FE1
0x488180
0x488761
0x488991
0x488A79
0x488E10
0x488F30
0x488F61
0x488F67
0x488FDB
0x489521
0x489AB0
0x489E90
0x48A024
0x48A110
0x48A280
0x48A320
0x48A380
0x48A510
0x48A5CB
0x48A5CC
0x48A5F0
0x48A6A1
0x48A706
0x48A960
0x48AA50
0x48AB7E
0x48AD61
0x48B121
0x48B12A
0x48BDEC
0x48C021
0x48C023
0x48C321
0x48CE10
0x48D0D0
0x48D120
0x48D170
0x48D1C0
0x48D220
0x48D270
0x48D38B
0x48D38C
0x48D3B1
0x48D3BA
0x48DAF0
0x48DB91
0x48E291
0x48E550
0x48E830
0x48E960
0x48EA20
0x48EAE0
0x48EBA0
0x48EC60
0x48ECD0
0x48F4D1
0x490650
0x490951
0x4912E3
0x491371
0x491421
0x491427
0x491BB0
0x491F00
0x491F51
0x492660
0x492AC0
0x492BB0
0x492CF0
0x492DF1
0x492F01
0x492F61
0x4930C1
0x4932F1
0x493B74
0x493B75
0x493CDD
0x493EA1
0x493F62
0x494480
0x494571
0x494C70
0x494DC0
0x494E81
0x494F80
0x495029
0x4950F0
0x495180
0x4951A7
0x4951C3
0x495210
0x49523C
0x495258
0x4952A0
0x495380
0x4954E1
0x4954E3
0x495611
0x495A21
0x495C30
0x495C80
0x495CD1
0x495FD1
0x496321
0x496501
0x496B70
0x496CB0
0x496CB4
0x497B40
0x497B44
0x498E40
0x499200
0x499290
0x499320
0x4993B0
0x499450
0x4994E1
0x4998E1
0x499B8E
0x499C5C
0x499FC0
0x49A261
0x49BB80
0x49C971
0x49CC79
0x49CFE3
0x49DA30
0x49DD50
0x49DDC4
0x49E570
0x49E8B0
0x49F1E0
0x49F4E0
0x49F8E8
0x49FCD1
0x4A02E0
0x4A0638
0x4A0758
0x4A080F
0x4A087E
0x4A0931
0x4A0C31
0x4A0D51
0x4A10E6
0x4A1107
0x4A1535
0x4A1921
0x4A1DD1
0x4A238A
0x4A2458
0x4A2471
0x4A2641
0x4A2A1E
0x4A2A72
0x4A2C91
0x4A2C97
0x4A3031
0x4A3091
0x4A33E1
0x4A51C0
0x4A52F1
0x4A56E0
0x4A58B1
0x4A58E9
0x4A5A28
0x4A5AE1
0x4A5B39
0x4A5B5F
0x4A5BC0
0x4A5BC3
0x4A60A1
0x4A60F1
0x4A6490
0x4A65A1
0x4A66E9
0x4A6ABA
0x4A6ABF
0x4A6E51
0x4A7166
0x4A72D7
0x4A760C
0x4A7810
0x4A7970
0x4A7CD0
0x4A7D50
0x4A7DD0
0x4A7E50
0x4A7EE0
0x4A7F61
0x4A831A
0x4A85D0
0x4A86D0
0x4A873F
0x4A8760
0x4A878F
0x4A8960
0x4A8981
0x4A8983
0x4A8B82
0x4A8C5F
0x4A8FF0
0x4A91C0
0x4A91C4
0x4A93F3
0x4AB1E1
0x4AB838
0x4ABA4A
0x4ABB20
0x4ABCB0
0x4ABEA1
0x4AC296
0x4AC671
0x4ACE00
0x4ACE10
0x4ACEA0
0x4ACF20
0x4AD111
0x4ADB10
0x4ADB50
0x4ADF41
0x4AEFF0
0x4AF0C1
0x4AF0CA
0x4AF6BD
0x4AF844
0x4AFC95
0x4AFDB0
0x4B01D0
0x4B0210
0x4B0250
0x4B0290
0x4B02E0
0x4B0801
0x4B0B81
0x4B0B8A
0x4B1100
0x4B1150
0x4B11A1
0x4B13D1
0x4B17B1
0x4B1C61
0x4B2E50
0x4B3509
0x4B3EB8
0x4B3ED0
0x4B4601
0x4B4891
0x4B4B90
0x4B4C50
0x4B4CC1
0x4B4FA7
0x4B5010
0x4B5141
0x4B5251
0x4B5253
0x4B58D0
0x4B5A80
0x4B5BC1
0x4B5F0D
0x4B71E0
0x4B741E
0x4B7668
0x4B7DF8
0x4B7E61
0x4B84F7
0x4B8B76
0x4B9033
0x4B9687
0x4B9908
0x4B9A75
0x4BA0F0
0x4BA180
0x4BA210
0x4BA230
0x4BA411
0x4BA871
0x4BA873
0x4BA900
0x4BAAB1
0x4BAC31
0x4BAC63
0x4BAFCC
0x4BB0AD
0x4BB131
0x4BB201
0x4BB2A8
0x4BB2D8
0x4BB373
0x4BB581
0x4BB60B
0x4BB680
0x4BB801
0x4BB946
0x4BB9B9
0x4BBB90
0x4BC031
0x4BC8F0
0x4BC970
0x4BC9F0
0x4BCA70
0x4BCAF0
0x4BCEAE
0x4BCF10
0x4BD358
0x4BDA51
0x4BE591
0x4BF540
0x4BF660
0x4BF720
0x4BF7E0
0x4BF8A0
0x4BF970
0x4BF991
0x4BFF58
0x4BFF5C
0x4C05F0
0x4C0610
0x4C0630
0x4C0653
0x4C0E08
0x4C3085
0x4C3590
0x4C38D1
0x4C4FC1
0x4C5940
0x4C5970
0x4C5990
0x4C5993
0x4C5A40
0x4C5B11
0x4C5D21
0x4C5F20
0x4C60E0
0x4C62B1
0x4C62BA
0x4C6540
0x4C6791
0x4C68E1
0x4C6EF1
0x4C6EFA
0x4C7930
0x4C7AFE
0x4C820A
0x4C827B
0x4C8390
0x4C8431
0x4C843A
0x4C8646
0x4C86EA
0x4C8930
0x4C8932
0x4C8B00
0x4C8B02
0x4C8DA1
0x4C8E8B
0x4C9040
0x4C9042
0x4C9044
0x4C99C0
0x4C9B34
0x4C9BA1
0x4CA981
0x4CAAC1
0x4CAD96
0x4CAF50
0x4CAF80
0x4CB120
0x4CB150
0x4CB210
0x4CB240
0x4CB290
0x4CB2D0
0x4CB340
0x4CB342
0x4CB410
0x4CB440
0x4CB640
0x4CB810
0x4CB870
0x4CBA21
0x4CBC11
0x4CC2A0
0x4CC2F1
0x4CC8A1
0x4CCA30
0x4CCB81
0x4CCD10
0x4CCE61
0x4CD1B1
0x4CD5D4
0x4CD610
0x4CD7A1
0x4CD931
0x4CDA91
0x4CDC21
0x4CE2B7
0x4CE8F1
0x4CE8F7
0x4CED40
0x4CEDB6
0x4CEDC0
0x4CEE20
0x4CF211
0x4CF21A
0x4CF411
0x4CF5B1
0x4CF5B7
0x4CF6F1
0x4CF890
0x4CF970
0x4CFA91
0x4CFB31
0x4CFC37
0x4CFC61
0x4CFEA1
0x4CFF61
0x4D041F
0x4D0581
0x4D07E1
0x4D0BA0
0x4D0C81
0x4D0E15
0x4D0E70
0x4D1011
0x4D1063
0x4D10F1
0x4D10F7
0x4D1200
0x4D12C1
0x4D1431
0x4D1571
0x4D16D1
0x4D16D7
0x4D1810
0x4D1981
0x4D1B41
0x4D1CD1
0x4D1EA1
0x4D2060
0x4D20B0
0x4D2101
0x4D2250
0x4D22E1
0x4D2731
0x4D2951
0x4D2AA1
0x4D2B21
0x4D2BA1
0x4D2EC1
0x4D2F21
0x4D2FA1
0x4D3021
0x4D3241
0x4D3246
0x4D34C0
0x4D3500
0x4D3540
0x4D3580
0x4D35C0
0x4D3601
0x4D3725
0x4D3770
0x4D3841
0x4D39E1
0x4D3A40
0x4D3A80
0x4D3AC0
0x4D3B00
0x4D3B77
0x4D3CE0
0x4D3D01
0x4D3E41
0x4D41C1
0x4D4261
0x4D433B
0x4D43E7
0x4D4401
0x4D4490
0x4D47B0
0x4D4931
0x4D4BF1
0x4D4DE1
0x4D50C1
0x4D50DC
0x4D51FB
0x4D5391
0x4D5510
0x4D57A1
0x4D592E
0x4D59D1
0x4D5B10
0x4D5B71
0x4D5D40
0x4D5DC0
0x4D5DD0
0x4D5DE0
0x4D5E00
0x4D5E10
0x4D5E20
0x4D5EF0
0x4D5FC0
0x4D6091
0x4D61D1
0x4D61D7
0x4D6341
0x4D6481
0x4D6581
0x4D65C1
0x4D66C1
0x4D69B0
0x4D6BF0
0x4D6C30
0x4D7130
0x4D7170
0x4D71E0
0x4D71E2
0x4D71E4
0x4D7300
0x4D7340
0x4D7380
0x4D7471
0x4D7499
0x4D75C1
0x4D7700
0x4D7720
0x4D7751
0x4D77B1
0x4D7A30
0x4D7AE0
0x4D7B00
0x4D7BD0
0x4D7BF0
0x4D7C20
0x4D7C22
0x4D7C24
0x4D7D00
0x4D7D80
0x4D83D1
0x4D8590
0x4D8711
0x4D8760
0x4D8790
0x4D87F0
0x4D87F2
0x4D8B91
0x4D8C9C
0x4D8DDC
0x4D9021
0x4D9330
0x4D947D
0x4D950B
0x4D96FE
0x4D9717
0x4DA4C0
0x4DA921
0x4DB271
0x4DB850
0x4DB891
0x4DB9D0
0x4DBA51
0x4DBA57
0x4DBC70
0x4DBCA1
0x4DC1CC
0x4DC201
0x4DC561
0x4DC641
0x4DCA90
0x4DCD01
0x4DD1E9
0x4DD300
0x4DD420
0x4DD651
0x4DD65A
0x4DD7FF
0x4DFF9C
0x4E0BC5
0x4E0FD0
0x4FA34D
0x4FA67F
0x4FC20A
