0x402225
0x402274
0x4022DA
0x4022E6
0x402308
0x402326
0x402350
0x40238A
0x4023BE
0x4023F3
0x402413
0x402480
0x40252A
0x4025C9
0x4025DA
0x402627
0x402656
0x402674
0x40269E
0x4026D8
0x40271D
0x402752
0x4027BF
0x40280E
0x402C88
0x402D17
0x402D4B
0x402E02
0x402E37
0x402EA4
0x402F60
0x402FE6
0x403037
0x403066
0x403092
0x403142
0x4031F7
0x403262
0x4032BF
0x403707
0x40376D
0x4038B8
0x403A26
0x403A31
0x403A53
0x403F40
0x404301
0x40433A
0x404375
0x4043AA
0x4043E1
0x40454C
0x404AD3
0x404EAB
0x40515C
0x405244
0x405323
0x405B26
0x405B5E
0x405C6D
0x405C94
0x405DC1
0x405E15
0x405EF9
0x406B78
0x406EA6
0x407161
0x407459
0x407483
0x4074AD
0x4074D1
0x4075B1
0x40760A
0x40767E
0x407DA1
0x407DF4
0x407E75
0x407EBA
0x407F3B
0x407F80
0x407FF9
0x40803E
0x4080D2
0x408162
0x4081EF
0x408261
0x408340
0x408457
0x408509
0x408530
0x408574
0x4086EE
0x40877C
0x408783
0x4088FB
0x408940
0x408983
0x4089CF
0x408D18
0x408E14
0x409111
0x4091A7
0x4091E2
0x40921E
0x40928D
0x4093A2
0x409448
0x4094C4
0x409E82
0x409E8D
0x409E98
0x409EB6
0x409EE0
0x409EE4
0x409F18
0x409F1C
0x409F4E
0x409FA9
0x409FC7
0x40A005
0x40A030
0x40A08E
0x40A10C
0x40A167
0x40A1D5
0x40A250
0x40A298
0x40A64E
0x40AA57
0x40AB16
0x40B942
0x40BBCB
0x40BD27
0x40BE1C
0x40C470
0x40CB75
0x40CDD5
0x40CF78
0x40CFE6
0x40D098
0x40D228
0x40D41C
0x40D913
0x40DAAF
0x40DFAA
0x40E1F9
0x40E2F3
0x40E320
0x40E3EA
0x40E653
0x40E6F9
0x40E746
0x40EB47
0x40EBEE
0x40EC13
0x40ECD1
0x40ED1B
0x40EE80
0x40EFBF
0x40F273
0x40F277
0x40F4C1
0x41018A
0x410658
0x41068E
0x41078A
0x4107BE
0x4108EA
0x41094D
0x410A1A
0x410C43
0x410D1A
0x410D1E
0x410D4B
0x410DBA
0x410ECD
0x411054
0x411081
0x411085
0x4110C6
0x4110EC
0x41125F
0x41135F
0x41145F
0x41158A
0x411653
0x411731
0x411791
0x4117D7
0x41183B
0x4118C3
0x4119ED
0x411B58
0x411D6B
0x411F26
0x412011
0x412381
0x41255E
0x41279D
0x412A2D
0x412CB3
0x412E99
0x413079
0x4131DE
0x41348D
0x413669
0x413720
0x4137F1
0x4138C5
0x413D4A
0x413DD1
0x414077
0x4141DF
0x414204
0x4142DD
0x4142E4
0x41434C
0x41435D
0x41437C
0x414478
0x4144AC
0x4145D8
0x414667
0x414700
0x4147CA
0x4147FC
0x41481A
0x414844
0x41486E
0x4148AC
0x4148D7
0x414935
0x4149B3
0x414A0E
0x414A7C
0x414AA8
0x414B17
0x414B28
0x414BAF
0x414BD6
0x414D4E
0x414D7F
0x414FFF
0x41522A
0x41524D
0x4152D8
0x415390
0x41549B
0x4154ED
0x41554A
0x4155A2
0x4156C9
0x415928
0x415FFB
0x416114
0x41625E
0x416787
0x416951
0x416A3B
0x416B83
0x416BEE
0x416D6A
0x41717B
0x4171FA
0x417427
0x417730
0x417B00
0x417B78
0x41801A
0x418378
0x4183E8
0x418413
0x41841F
0x41843A
0x418460
0x4184B7
0x4184BE
0x4185D7
0x4186F0
0x4187BB
0x418865
0x4188D3
0x418908
0x418A43
0x418AEC
0x418B1C
0x418C54
0x418D5A
0x418DDB
0x418E47
0x41924C
0x4192E5
0x41938B
0x41964F
0x419684
0x419FE1
0x41A138
0x41A2E7
0x41A854
0x41A971
0x41A98F
0x41A9BC
0x41A9F6
0x41AA38
0x41AA67
0x41AADC
0x41AB28
0x41AB98
0x41AC6B
0x41ACDD
0x41AFFA
0x41B0E5
0x41B1B6
0x41B295
0x41B3E1
0x41B5AC
0x41B627
0x41B714
0x41BA7A
0x41BB51
0x41BC2D
0x41BDC6
0x41BFD9
0x41C14B
0x41C30D
0x41C3EC
0x41C54B
0x41C658
0x41C799
0x41C7AF
0x41C7BC
0x41C90F
0x41CA2A
0x41CA48
0x41CA7C
0x41CAB6
0x41CB05
0x41CB7A
0x41CBC9
0x41CBE7
0x41CC1A
0x41CC54
0x41CCAA
0x41CD1F
0x41CD6E
0x41CE91
0x41CEC2
0x41CFAD
0x41CFDD
0x41D00D
0x41D060
0x41D220
0x41D2F0
0x41D35F
0x41D427
0x41D496
0x41D55F
0x41D5C6
0x41D5E4
0x41D631
0x41D66B
0x41D6B0
0x41D6CC
0x41D701
0x41D76E
0x41D7BD
0x41D7D9
0x41D80E
0x41D87B
0x41D8CA
0x41D8E8
0x41D91F
0x41D965
0x41D9B2
0x41D9EC
0x41DA31
0x41DA65
0x41DA81
0x41DAEE
0x41DB3D
0x41DB8A
0x41DBC4
0x41DC09
0x41DC25
0x41DC5A
0x41DCC7
0x41DD16
0x41DDFC
0x41DF2E
0x41E123
0x41E171
0x41E206
0x41E2B7
0x41E323
0x41E405
0x41E468
0x41E517
0x41E55F
0x41E56C
0x41E5E7
0x41E617
0x41E625
0x41E63D
0x41E655
0x41E66B
0x41E683
0x41E8B9
0x41EA3F
0x41EA81
0x41EB7C
0x41F2B9
0x41F33A
0x41F38C
0x41F4B8
0x41F643
0x41F7EA
0x41F998
0x41FAD8
0x41FC58
0x41FCF9
0x420C54
0x420FC5
0x4223EF
0x422482
0x422649
0x422FD8
0x4230C6
0x42314C
0x423497
0x423560
0x423612
0x42371D
0x4237B3
0x423946
0x423A29
0x423C2C
0x423DF4
0x423E21
0x423E67
0x423FC9
0x4240DA
0x424116
0x424151
0x4241AD
0x4241B2
0x4242A8
0x424432
0x424532
0x424632
0x424652
0x424BC8
0x424D1F
0x424F99
0x424FB7
0x42510F
0x4251C4
0x4257AA
0x42629F
0x426338
0x426400
0x42649B
0x426755
0x42679C
0x42689B
0x426C6C
0x426DE6
0x426E69
0x4278D0
0x427D24
0x427EAC
0x428F48
0x429E55
0x42A13F
0x42A4B7
0x42A743
0x42A97C
0x42A9FB
0x42AA4C
0x42ACCA
0x42AEC1
0x42B064
0x42B13F
0x42B24C
0x42BC9A
0x42BCD6
0x42BE9B
0x42C3DC
0x42C74C
0x42CB08
0x42CF98
0x42D1E6
0x42D660
0x42DA7A
0x42DA99
0x42DB98
0x42DF17
0x42E0F4
0x42E1AA
0x42E2AB
0x42E2B6
0x42E311
0x42E3B7
0x42E3DD
0x42E521
0x42E660
0x42E79F
0x42E8E7
0x42EA73
0x42ECF8
0x42ED8C
0x42EEB8
0x42FF10
0x4302CD
0x43053F
0x430585
0x4310BC
0x4311D2
0x431215
0x43123C
0x4313EA
0x4314A4
0x431525
0x431594
0x431693
0x4317D7
0x4318A7
0x431931
0x433B21
0x433D6D
0x433D9E
0x433E4D
0x433F07
0x433F88
0x433FF7
0x4340EE
0x43422A
0x4342F2
0x43437C
0x435B25
0x436564
0x4367B0
0x4367E1
0x4368AA
0x436933
0x4369AC
0x436A13
0x436ADC
0x436BEB
0x436CB4
0x436D39
0x4389D0
0x43962F
0x43964E
0x4396F5
0x439713
0x43973D
0x43978A
0x4397CF
0x439804
0x439824
0x439840
0x439875
0x439893
0x4398CA
0x4398FD
0x439937
0x43998D
0x439A02
0x439A51
0x439A77
0x439A9D
0x439AD6
0x439AF3
0x439B12
0x439B31
0x439B67
0x439C72
0x439CEF
0x439D14
0x439D7E
0x439EEC
0x439F62
0x439F71
0x439FFC
0x43A119
0x43A14B
0x43AE4D
0x43B0A0
0x43BA5E
0x43BAE0
0x43BB24
0x43BB6B
0x43BBB5
0x43BBBA
0x43C306
0x43C438
0x43C54C
0x43C56A
0x43C5AC
0x43C5FC
0x43CD39
0x43CFC9
0x43D356
0x43D407
0x43D497
0x43D5CD
0x43D6A2
0x43D801
0x43D9D2
0x43DB72
0x43DE4B
0x43E183
0x43E446
0x43E936
0x43ECBB
0x43EDA8
0x43EE0B
0x43EE94
0x43EFF0
0x43F094
0x43F143
0x43F1F9
0x43F378
0x43F8D2
0x440193
0x4404C3
0x44057D
0x44084A
0x440C7B
0x44177C
0x441FE8
0x4420D4
0x442228
0x4422B9
0x4422EF
0x4424A6
0x442535
0x443235
0x4434F0
0x443827
0x4440D1
0x44427E
0x444380
0x44475D
0x444762
0x445ED8
0x4466A8
0x446734
0x446A23
0x446ADB
0x446BBF
0x446C77
0x446CD8
0x446DAF
0x446E61
0x446F29
0x446FE2
0x447034
0x447B1C
0x447B4C
0x447C14
0x447D20
0x447D43
0x447E6F
0x4482A4
0x448330
0x448A5A
0x448D68
0x449020
0x4490AC
0x449188
0x44925F
0x4492A2
0x449303
0x44961D
0x449707
0x449DDC
0x449EEC
0x449FAA
0x44A0F2
0x44A25C
0x44A483
0x44AB30
0x44AB7A
0x44AC15
0x44AF9F
0x44AFA4
0x44B0DA
0x44B4C0
0x44B9CE
0x44BA83
0x44BECC
0x44BF0E
0x44C0C5
0x44C2C5
0x44C339
0x44C37C
0x44C3C9
0x44C823
0x44CA2C
0x44CC0A
0x44CCE1
0x44CE01
0x44D069
0x44D1C4
0x44D23E
0x44D374
0x44D3AC
0x44D401
0x44D795
0x44D7BC
0x44D897
0x44D943
0x44FDFE
0x44FFE1
0x450030
0x450051
0x4500CB
0x4500EC
0x450166
0x450994
0x450C32
0x450C8C
0x450FF4
0x45118F
0x451307
0x451366
0x4514E0
0x451C95
0x451E84
0x451EE0
0x451FEE
0x45200C
0x452036
0x452083
0x4520BD
0x452102
0x452136
0x45216B
0x452187
0x4521F4
0x452212
0x452245
0x45229B
0x4522CA
0x452314
0x45235A
0x452395
0x4523EA
0x45241B
0x45248D
0x452553
0x4526D1
0x4527F2
0x452964
0x452B8D
0x452CC0
0x453BD0
0x453F35
0x453FDB
0x45406A
0x4540D8
0x4541EA
0x45456C
0x454629
0x454887
0x454A6A
0x454ADF
0x454CE0
0x455016
0x4551C1
0x455AC5
0x455CB5
0x455DA2
0x455EE6
0x455F8B
0x45609A
0x456228
0x456281
0x4562F0
0x456342
0x456C77
0x456E92
0x456EC0
0x456F3C
0x457027
0x45721F
0x457430
0x4574F4
0x4577A0
0x457A9D
0x457E3C
0x458188
0x4584DC
0x4584FB
0x45851A
0x45856D
0x458A7A
0x459350
0x45962A
0x459748
0x4597D6
0x459924
0x45A6F1
0x45A7E8
0x45AABB
0x45AC11
0x45ACAB
0x45AD05
0x45B49A
0x45B5A0
0x45B6B4
0x45B7A0
0x45BA05
0x45BC4E
0x45BE17
0x45C032
0x45C0D0
0x45E43D
0x45F040
0x45F19C
0x45F7C8
0x46015A
0x460690
0x46079C
0x460E4E
0x461540
0x4619A0
0x462BD0
0x462C9C
0x462F2C
0x4630B0
0x463CC8
0x46492C
0x46553B
0x4657EC
0x465B9C
0x466828
0x466B2C
0x4675CC
0x4683D8
0x46937C
0x469558
0x469DC4
0x46A1E0
0x46A6D8
0x46A718
0x46CA02
0x46CA4C
0x46CB52
0x46CB9C
0x46CC08
0x46D1F2
0x46D20C
0x46D2F0
0x46D3A0
0x46DA70
0x46E376
0x46E448
0x46E484
0x46E4F8
0x46E54C
0x46E68B
0x46E799
0x46E84E
0x46E884
0x46E8C7
0x46E91C
0x46ED6B
0x46EEEE
0x46EFB1
0x46F1E3
0x46F289
0x46F478
0x46F74F
0x47056E
0x470677
0x4706E4
0x470751
0x470834
0x4708CE
0x470968
0x4709D5
0x470A29
0x470A96
0x470AFF
0x470B68
0x470BBC
0x470C21
0x470CB7
0x470DAC
0x470E76
0x470F59
0x471058
0x47117A
0x47124B
0x47131C
0x471A5F
0x471C34
0x471F71
0x472026
0x47222C
0x472380
0x47269F
0x4727FE
0x47298F
0x472A34
0x472AD1
0x472B7F
0x472BEC
0x472C91
0x472CFE
0x472D5B
0x472F79
0x47326A
0x473418
0x4734E4
0x473616
0x4736B2
0x473707
0x47374A
0x4737B1
0x47389A
0x4738F2
0x473A0C
0x473AA2
0x473B1E
0x473B3C
0x473B66
0x473BA0
0x473BE5
0x473C19
0x473C86
0x473CD5
0x4740D8
0x474199
0x4742B3
0x474336
0x474556
0x4745C3
0x474809
0x4748C5
0x4749F2
0x474A4D
0x474AC6
0x474D89
0x474EFA
0x474F45
0x4753E7
0x475421
0x4754AB
0x4759F3
0x475A31
0x475B65
0x475CD8
0x475D1C
0x475EA2
0x475F2D
0x475FE7
0x476032
0x476528
0x47658B
0x4765E0
0x476B0F
0x476C0B
0x476C45
0x476CEC
0x476D0A
0x476D44
0x476D89
0x476DBB
0x476E28
0x476E77
0x476ED1
0x476F17
0x476F53
0x477012
0x477093
0x477102
0x477183
0x477204
0x477273
0x4772F4
0x47736D
0x4773E6
0x47745F
0x47746C
0x4774EF
0x47757B
0x4775B8
0x477604
0x477766
0x4777BD
0x477967
0x4786B0
0x478788
0x4787EB
0x478E0F
0x478F0A
0x478F50
0x47908E
0x4791D1
0x479293
0x479330
0x47950B
0x4795F6
0x479804
0x479869
0x479962
0x4799BC
0x4799F3
0x479A6B
0x479ACB
0x479B21
0x479B77
0x479B9C
0x479BED
0x479C4B
0x479D77
0x479E22
0x479E86
0x47A047
0x47A1B0
0x47A408
0x47A4F0
0x47A56F
0x47A8ED
0x47A974
0x47AA48
0x47ABAF
0x47AE7C
0x47B2E9
0x47C2ED
0x47C59C
0x47C97E
0x47CC2C
0x47CC71
0x47CCD9
0x47CD1B
0x47D094
0x47D1DF
0x47D622
0x47DB5A
0x47DCEA
0x47DD6B
0x47DDDE
0x47DE47
0x47DEAD
0x47E06E
0x47E1D9
0x47E987
0x47EA56
0x47EB1C
0x47ED4D
0x47ED73
0x47EDAC
0x47EDCB
0x47EE01
0x47EF2E
0x47F161
0x47F19D
0x47F287
0x47F3B3
0x47F578
0x47F78A
0x47F7CD
0x47F822
0x47F866
0x47F915
0x47F9F2
0x47FB98
0x47FBC3
0x47FCB6
0x47FCE5
0x47FD35
0x47FE02
0x47FE51
0x47FECC
0x47FF23
0x480095
0x48018A
0x480254
0x48038C
0x4803EB
0x480497
0x4804F4
0x480533
0x4805E5
0x480929
0x480938
0x48099B
0x4809CE
0x4809EC
0x480A86
0x480ADD
0x480AFB
0x480B25
0x480B5F
0x480BA4
0x480C11
0x480C60
0x480DCF
0x4810AE
0x4810EA
0x481113
0x48113A
0x481164
0x481263
0x48128D
0x48138C
0x4813B6
0x481468
0x481555
0x481617
0x48163A
0x4816C6
0x48171B
0x481770
0x481886
0x481972
0x481A1D
0x481B22
0x481BC8
0x481C58
0x481C88
0x481E6B
0x4820F4
0x4827FB
0x482850
0x482F5A
0x4834FA
0x483500
0x483A8D
0x483F78
0x484022
0x48420C
0x4842C5
0x484588
0x484957
0x484AE0
0x484C73
0x484E98
0x4852A8
0x485398
0x485414
0x48559F
0x485657
0x485730
0x485BEE
0x485DF4
0x485F20
0x486103
0x48688E
0x486A05
0x486A9C
0x487012
0x48734C
0x4873C7
0x487943
0x4879EA
0x487A45
0x487A9F
0x487C16
0x487D30
0x487EA7
0x48806A
0x488190
0x48833C
0x488670
0x488727
0x48872C
0x488B07
0x488DF3
0x488E6A
0x488F79
0x489231
0x4894D0
0x4897CF
0x48A628
0x48A8E7
0x48B3CA
0x48B66E
0x48B97C
0x48B982
0x48CCD3
0x48CF6A
0x48CF70
0x48D59F
0x48D717
0x48D7F0
0x48DA7B
0x48DD84
0x48DF6E
0x48E072
0x48E19D
0x48E39D
0x48E408
0x48E4F8
0x48E5D0
0x48E646
0x48E8E3
0x48EA00
0x48EAFB
0x48EC9F
0x48EDAF
0x48EE3B
0x48EEFD
0x48EFC0
0x48F09D
0x48F12E
0x48F34D
0x48F359
0x48F3BE
0x48F456
0x48F6E7
0x48F74A
0x48F8BB
0x48F930
0x48FAB7
0x48FADE
0x48FB05
0x48FC59
0x48FC80
0x48FD29
0x48FD50
0x48FDAD
0x48FF20
0x48FFB4
0x49000B
0x490032
0x4901A3
0x4904AE
0x4904D5
0x49052C
0x490856
0x490892
0x490998
0x490B70
0x490BB3
0x490CA4
0x490D47
0x49199E
0x491A1C
0x491A55
0x491A8E
0x491CEA
0x491D75
0x491FB9
0x492035
0x49208A
0x4920CD
0x492267
0x492456
0x49253D
0x4925E2
0x492683
0x4926FD
0x49274A
0x49275C
0x492913
0x4929C8
0x492AC0
0x492B6E
0x492B8C
0x492BBF
0x492BFA
0x492C4F
0x492C80
0x492C9D
0x492CC8
0x492CF3
0x492D1E
0x492D49
0x492D74
0x492D9F
0x492DCA
0x492DF5
0x492E20
0x492E4B
0x492E76
0x492EA1
0x492ECC
0x492EF7
0x492F56
0x492F9C
0x493003
0x493141
0x4931C4
0x49325D
0x4937B4
0x4939BB
0x493B1A
0x493B8C
0x493CEA
0x493D75
0x493DB3
0x493E4D
0x493E90
0x493F0E
0x494098
0x494115
0x494153
0x494233
0x4942B8
0x494388
0x49440C
0x49459D
0x494696
0x4947FF
0x4948A0
0x4949C2
0x494A18
0x494AA1
0x494C32
0x494D88
0x494DD1
0x494E34
0x495005
0x495055
0x49513F
0x4953DD
0x49541B
0x4954A8
0x495BF7
0x495C6D
0x495D51
0x495DA3
0x495F2B
0x495FA7
0x49607F
0x496155
0x4961FC
0x4962E9
0x496391
0x49641D
0x4964E1
0x49656D
0x496606
0x49669F
0x496777
0x496815
0x496B53
0x496BCB
0x496D35
0x496DD1
0x496E0A
0x496EA0
0x496EE3
0x496F43
0x496F86
0x496FCA
0x49700E
0x49724F
0x497293
0x4974BD
0x497DEF
0x497EAE
0x497ED3
0x497EE4
0x497FE0
0x498014
0x498140
0x49816A
0x498196
0x4981E7
0x49822C
0x498240
0x4984A9
0x498513
0x498992
0x4989EE
0x498A23
0x498AB0
0x498AE8
0x498B72
0x499E94
0x49A817
0x49A925
0x49AA92
0x49AE00
0x49AE2B
0x49B153
0x49B427
0x49B48E
0x49B7CA
0x49B887
0x49B8AF
0x49BC16
0x49BC27
0x49BC62
0x49BCB7
0x49BCE8
0x49BD77
0x49BD8B
0x49BD9E
0x49BDA2
0x49BDBF
0x49BDC3
0x49BDFA
0x49BE48
0x49BE8C
0x49BE90
0x49BEAC
0x49BECB
0x49BF05
0x49BF39
0x49BF68
0x49C067
0x49C06C
0x49C4E1
0x49C7FD
0x49C821
0x49C881
0x49C8EE
0x49CA2E
0x49CAA7
0x49CF6F
0x49D149
0x49D224
0x49D57A
0x49D5F5
0x49E0D1
0x49E2B2
0x49E3A8
0x49E562
0x49E8BF
0x49EAC7
0x49EACC
0x49F1CB
0x49F26D
0x49F39E
0x49F3A3
0x49F7E6
0x49F888
0x49F9BA
0x49FA9D
0x49FBA0
0x49FD33
0x4A0730
0x4A0CB7
0x4A0CB8
0x4A28B4
0x4A296D
0x4A2A8D
0x4A2A91
0x4A2F20
0x4A34E5
0x4A4543
0x4A4553
0x4A4A32
0x4A4AE8
0x4A4B2C
0x4A4BEB
0x4A4C35
0x4A4C3B
0x4A5580
0x4A5A8A
0x4A5AD8
0x4A5B42
0x4A5C3E
0x4A5C72
0x4A5D9E
0x4A5E2D
0x4A5E4B
0x4A5E75
0x4A5EAF
0x4A5EF4
0x4A5F28
0x4A5F85
0x4A5FF2
0x4A6041
0x4A606B
0x4A60A0
0x4A60DE
0x4A6109
0x4A6167
0x4A61E5
0x4A6240
0x4A6287
0x4A62F5
0x4A6315
0x4A6334
0x4A635E
0x4A63A5
0x4A6471
0x4A64A0
0x4A66A6
0x4A66C2
0x4A6709
0x4A6754
0x4A6933
0x4A6937
0x4A69A4
0x4A69D2
0x4A6A31
0x4A6B01
0x4A6BAF
0x4A6C2F
0x4A6D25
0x4A6D88
0x4A6DD6
0x4A6E2D
0x4A6E7C
0x4A6F63
0x4A6F99
0x4A6FDC
0x4A734E
0x4A7436
0x4A746F
0x4A77B2
0x4A7D81
0x4A7E5A
0x4A7E75
0x4A80B1
0x4A821A
0x4A83C5
0x4A83FF
0x4A8498
0x4A84C9
0x4A8632
0x4A8855
0x4A8907
0x4A89D1
0x4A89FB
0x4A8A62
0x4A8C72
0x4A8CCD
0x4A9052
0x4A9276
0x4A9679
0x4A9691
0x4A96C3
0x4A9765
0x4A97D0
0x4A97F4
0x4A9897
0x4A98B8
0x4A993D
0x4A9973
0x4A9A33
0x4A9A69
0x4A9B29
0x4A9B7F
0x4A9C0F
0x4A9D0B
0x4A9E9E
0x4A9ED2
0x4A9FFE
0x4AA1BF
0x4AA24E
0x4AA2E0
0x4AA379
0x4AA443
0x4AA475
0x4AA493
0x4AA4CD
0x4AA50F
0x4AA53E
0x4AA564
0x4AA599
0x4AA60E
0x4AA65A
0x4AA678
0x4AA6A2
0x4AA6A6
0x4AA6DA
0x4AA718
0x4AA743
0x4AA7A1
0x4AA802
0x4AA880
0x4AA8DB
0x4AA922
0x4AA990
0x4AA9FE
0x4AAB39
0x4AAC72
0x4AAD3C
0x4AB124
0x4AB31B
0x4AB4EC
0x4AB648
0x4AB67A
0x4AB6AC
0x4AB81C
0x4ABBC9
0x4ABD00
0x4ABD78
0x4ABE51
0x4ABF13
0x4ABFA3
0x4ABFE5
0x4AC003
0x4AC092
0x4AC160
0x4AC165
0x4AC50D
0x4AC660
0x4ACBFB
0x4ACC00
0x4ACFF7
0x4AD067
0x4AD0BE
0x4AD219
0x4AD25A
0x4AD68A
0x4AD828
0x4AD86D
0x4ADA3C
0x4ADACB
0x4ADAE9
0x4ADB13
0x4ADB17
0x4ADB4B
0x4ADBA6
0x4ADBE4
0x4ADC0F
0x4ADC6D
0x4ADCEB
0x4ADD46
0x4ADD8D
0x4ADDFB
0x4ADED8
0x4AE00F
0x4AE072
0x4AE115
0x4AE4B0
0x4AE7DB
0x4AE83B
0x4AEA45
0x4AECEA
0x4AEFFB
0x4AF07C
0x4AF30A
0x4AF31B
0x4AF334
0x4AF430
0x4AF55C
0x4AF57A
0x4AF5A4
0x4AF5C2
0x4AF5F4
0x4AF629
0x4AF62D
0x4AF661
0x4AF665
0x4AF697
0x4AF6F2
0x4AF74B
0x4AF769
0x4AF786
0x4AF7C4
0x4AF7EF
0x4AF84D
0x4AF8CB
0x4AF926
0x4AF96D
0x4AF9DB
0x4AFA16
0x4AFA5D
0x4AFDA8
0x4AFF49
0x4B0008
0x4B0768
0x4B0F73
0x4B10AE
0x4B121C
0x4B1504
0x4B1B5B
0x4B1DDC
0x4B22AF
0x4B3335
0x4B337E
0x4B3D81
0x4B41C0
0x4B4214
0x4B42D0
0x4B4398
0x4B4A03
0x4B4B5A
0x4B4BF8
0x4B4D5C
0x4B4E9B
0x4B4EB6
0x4B4F31
0x4B4F4F
0x4B4F79
0x4B4F97
0x4B4FCA
0x4B50C6
0x4B50FA
0x4B5226
0x4B5244
0x4B526E
0x4B5272
0x4B52A6
0x4B5301
0x4B531F
0x4B535D
0x4B5388
0x4B53E6
0x4B5464
0x4B54BF
0x4B5506
0x4B5574
0x4B55A8
0x4B55C7
0x4B55E7
0x4B5620
0x4B5634
0x4B5647
0x4B564B
0x4B5668
0x4B567A
0x4B568C
0x4B569D
0x4B56A1
0x4B56BC
0x4B56C0
0x4B56F7
0x4B56FB
0x4B5733
0x4B5737
0x4B5760
0x4B5764
0x4B578D
0x4B57E9
0x4B57ED
0x4B5816
0x4B581A
0x4B5843
0x4B589F
0x4B58DB
0x4B58EC
0x4B593A
0x4B597E
0x4B5996
0x4B59B5
0x4B59D4
0x4B5A0B
0x4B5A23
0x4B5A67
0x4B5A6B
0x4B5A87
0x4B5AA6
0x4B5AC5
0x4B5AFF
0x4B5B3D
0x4B5B5C
0x4B5B7F
0x4B5BA4
0x4B5BC1
0x4B5BDE
0x4B5BFB
0x4B5C18
0x4B5C35
0x4B5C57
0x4B5C6C
0x4B5C8B
0x4B5CAA
0x4B5D23
0x4B5D42
0x4B5D61
0x4B5D72
0x4B5D84
0x4B5DD0
0x4B5DD4
0x4B5DF0
0x4B5DF4
0x4B5E23
0x4B5E42
0x4B5E61
0x4B5E86
0x4B5EA5
0x4B5F1D
0x4B5F7E
0x4B5FF6
0x4B6006
0x4B6023
0x4B6030
0x4B6085
0x4B60CA
0x4B611D
0x4B615E
0x4B617D
0x4B61D0
0x4B6216
0x4B622B
0x4B623C
0x4B625E
0x4B626F
0x4B62F6
0x4B6342
0x4B63D8
0x4B642F
0x4B6570
0x4B65DA
0x4B6644
0x4B6686
0x4B6712
0x4B6797
0x4B685C
0x4B687B
0x4B68DE
0x4B6ABF
0x4B6B68
0x4B6BDA
0x4B6BFE
0x4B6C1D
0x4B6C21
0x4B6C6B
0x4B6C97
0x4B6D34
0x4B6DBA
0x4B6E05
0x4B70F1
0x4B7286
0x4B7320
0x4B73B3
0x4B7530
0x4B75DC
0x4B76AB
0x4B773E
0x4B77F1
0x4B796B
0x4B7ACD
0x4B7C20
0x4B7FC4
0x4B8142
0x4B8296
0x4B8300
0x4B8503
0x4B86B6
0x4B87F1
0x4B8B3B
0x4B8C57
0x4B8CE9
0x4B8D0E
0x4B8DCD
0x4B8E3E
0x4B8EAB
0x4B9225
0x4B933B
0x4B93A6
0x4B94EF
0x4B9584
0x4B95A4
0x4B95C4
0x4B95C9
0x4B96B7
0x4B971E
0x4B97BE
0x4B9820
0x4B98E5
0x4B99F4
0x4B9EC7
0x4B9F8B
0x4BA0F5
0x4BA1A9
0x4BA7D7
0x4BAABD
0x4BAFEC
0x4BB13F
0x4BB4A9
0x4BB56B
0x4BB62D
0x4BB692
0x4BB79D
0x4BB815
0x4BB874
0x4BB879
0x4BE4E4
0x4BE653
0x4BF4BE
0x4BF744
0x4BF79F
0x4BFB30
0x4BFD22
0x4BFE38
0x4BFFE9
0x4C0258
0x4C0824
0x4C0842
0x4C086C
0x4C0896
0x4C08DB
0x4C08F7
0x4C092C
0x4C0930
0x4C0964
0x4C0968
0x4C099A
0x4C09F5
0x4C0A4E
0x4C0A6C
0x4C0A89
0x4C0AC7
0x4C0AF2
0x4C0B50
0x4C0BCE
0x4C0C29
0x4C0C70
0x4C0CDE
0x4C0CFC
0x4C0D26
0x4C0D94
0x4C0DA6
0x4C0DB8
0x4C0DCA
0x4C0DF4
0x4C0E17
0x4C0E78
0x4C17BD
0x4C1AC8
0x4C1B59
0x4C1BDD
0x4C1D01
0x4C1D42
0x4C1E8E
0x4C200A
0x4C2029
0x4C2089
0x4C2230
0x4C254C
0x4C25F0
0x4C2614
0x4C2674
0x4C26CF
0x4C2725
0x4C293C
0x4C2D58
0x4C2D91
0x4C2E9D
0x4C2F1B
0x4C3295
0x4C32E9
0x4C333D
0x4C3391
0x4C33CA
0x4C3403
0x4C3410
0x4C343C
0x4C34A7
0x4C34BC
0x4C3519
0x4C3567
0x4C35C9
0x4C35F3
0x4C362D
0x4C3672
0x4C368E
0x4C36C3
0x4C3730
0x4C377F
0x4C380E
0x4C382C
0x4C3855
0x4C388F
0x4C38D1
0x4C38F7
0x4C392C
0x4C39A1
0x4C39ED
0x4C3A0B
0x4C3A35
0x4C3A39
0x4C3A6B
0x4C3AC4
0x4C3AE1
0x4C3B1F
0x4C3B4A
0x4C3BA8
0x4C3C26
0x4C3C81
0x4C3CC8
0x4C3D36
0x4C3DC3
0x4C3F83
0x4C3FED
0x4C41CF
0x4C4203
0x4C423D
0x4C428A
0x4C42B0
0x4C42E5
0x4C435A
0x4C43A9
0x4C443E
0x4C4464
0x4C44A9
0x4C44C9
0x4C44D5
0x4C44FF
0x4C450C
0x4C45CF
0x4C45E4
0x4C465D
0x4C46A7
0x4C4801
0x4C491D
0x4C4921
0x4C4939
0x4C4A17
0x4C4A71
0x4C4A8D
0x4C4AE8
0x4C4B04
0x4C4B67
0x4C4D02
0x4C4F60
0x4C5B33
0x4C5C2F
0x4C5DDE
0x4C5F80
0x4C604A
0x4C618A
0x4C6338
0x4C63A5
0x4C64A1
0x4C6634
0x4C6A00
0x4C6A4A
0x4C6A8C
0x4C6AB2
0x4C6AE7
0x4C6B76
0x4C6C08
0x4C6C26
0x4C6C50
0x4C6C9D
0x4C6CD7
0x4C6D1C
0x4C6D51
0x4C6DBE
0x4C6E0D
0x4C6E2B
0x4C6E55
0x4C6E8F
0x4C6ED4
0x4C6F06
0x4C6F3B
0x4C6FA8
0x4C6FF7
0x4C6FFB
0x4C702F
0x4C708A
0x4C70A8
0x4C70E6
0x4C7111
0x4C716F
0x4C71ED
0x4C7248
0x4C72B6
0x4C72D4
0x4C72FE
0x4C734B
0x4C7385
0x4C73CA
0x4C73FE
0x4C7433
0x4C744F
0x4C7484
0x4C74F1
0x4C7538
0x4C753C
0x4C756A
0x4C75D8
0x4C7627
0x4C7646
0x4C766D
0x4C76AC
0x4C7764
0x4C7A35
0x4C7A47
0x4C7A93
0x4C7AA3
0x4C7AC0
0x4C7ACD
0x4C7AE2
0x4C7B04
0x4C7C1F
0x4C7C8F
0x4C7D05
0x4C7DB8
0x4C8026
0x4C80F8
0x4C8188
0x4C8230
0x4C8432
0x4C8588
0x4C85CA
0x4C866A
0x4C86E5
0x4C87D6
0x4C8CE8
0x4C8DFE
0x4C90F0
0x4C91A1
0x4C91C5
0x4C92E1
0x4C9487
0x4C9532
0x4C95AF
0x4C962A
0x4C967B
0x4C96A1
0x4C96BE
0x4C9847
0x4C993C
0x4C9A21
0x4C9A68
0x4C9CA3
0x4C9CCC
0x4C9CF3
0x4C9D5B
0x4C9D99
0x4C9FA5
0x4CA103
0x4CA181
0x4CA1C6
0x4CA223
0x4CA3A4
0x4CA470
0x4CA5F5
0x4CA772
0x4CA864
0x4CA8CC
0x4CA95E
0x4CA998
0x4CB5D1
0x4CB5FA
0x4CB6AB
0x4CB6FE
0x4CB766
0x4CB7FD
0x4CB81B
0x4CB845
0x4CB883
0x4CB8AE
0x4CB90C
0x4CB98A
0x4CB9E5
0x4CBA53
0x4CBA71
0x4CBA9B
0x4CBA9F
0x4CBACD
0x4CBB3B
0x4CBB8A
0x4CBBB1
0x4CBC16
0x4CC0BA
0x4CC1B3
0x4CC303
0x4CC503
0x4CC533
0x4CC58C
0x4CC65B
0x4CC7E2
0x4CC899
0x4CC9AE
0x4CCAAA
0x4CCADE
0x4CCC0A
0x4CCC99
0x4CCD2B
0x4CCD75
0x4CCDB7
0x4CCDDD
0x4CCE12
0x4CCE30
0x4CCE5A
0x4CCEA7
0x4CCEE1
0x4CCF26
0x4CCF5B
0x4CCFC8
0x4CD017
0x4CD064
0x4CD09E
0x4CD0E3
0x4CD118
0x4CD185
0x4CD1D4
0x4CD1D8
0x4CD20C
0x4CD210
0x4CD242
0x4CD29D
0x4CD2F6
0x4CD314
0x4CD352
0x4CD37D
0x4CD3DB
0x4CD459
0x4CD4B4
0x4CD522
0x4CD540
0x4CD56A
0x4CD5B7
0x4CD5F1
0x4CD636
0x4CD6A3
0x4CD6F2
0x4CD739
0x4CD73D
0x4CD76B
0x4CD7D9
0x4CD828
0x4CD847
0x4CD86E
0x4CD926
0x4CDBF7
0x4CDC17
0x4CDC50
0x4CDC64
0x4CDC77
0x4CDC7B
0x4CDC98
0x4CDC9C
0x4CDCD3
0x4CDCE4
0x4CDD32
0x4CDD76
0x4CDDE1
0x4CDE00
0x4CDE28
0x4CDE89
0x4CDEB0
0x4CDEF6
0x4CDF95
0x4CDFB2
0x4CE0E9
0x4CE293
0x4CE61E
0x4CE710
0x4CEB01
0x4CEB3B
0x4CED6F
0x4CEDBB
0x4CEF6E
0x4CF21D
0x4CF223
0x4CF662
0x4CF90C
0x4CFA8F
0x4CFAFE
0x4CFB4F
0x4CFBAD
0x4CFC28
0x4CFC5E
0x4CFCA6
0x4CFE53
0x4D1242
0x4D125A
0x4D12EB
0x4D15F1
0x4D1685
0x4D174A
0x4D18DB
0x4D18E1
0x4D1BEB
0x4D1BF0
0x4D1F57
0x4D1FE6
0x4D2004
0x4D202E
0x4D2068
0x4D20AD
0x4D210A
0x4D2177
0x4D21C6
0x4D21E4
0x4D220E
0x4D2248
0x4D227D
0x4D229D
0x4D230A
0x4D23B4
0x4D2453
0x4D2457
0x4D248B
0x4D248F
0x4D24C1
0x4D251C
0x4D253A
0x4D2578
0x4D25A3
0x4D2601
0x4D267F
0x4D26DA
0x4D2721
0x4D278F
0x4D27BA
0x4D280A
0x4D2A81
0x4D2B18
0x4D2B9F
0x4D2D98
0x4D2E0B
0x4D2F16
0x4D2F4B
0x4D2FDA
0x4D305E
0x4D30B4
0x4D30CB
0x4D30ED
0x4D3171
0x4D31D4
0x4D3209
0x4D3282
0x4D3483
0x4D371C
0x4D384D
0x4D3853
0x4D38C6
0x4D3FC0
0x4D44BF
0x4D4639
0x4D46E9
0x4D4EFA
0x4D4F1F
0x4D4F80
0x4D50C7
0x4D50DA
0x4D5327
0x4D53FF
0x4D57C8
0x4D598E
0x4D5ADF
0x4D6111
0x4D62B6
0x4D635C
0x4D6DB2
0x4D74D7
0x4D7D7E
0x4D7DE1
0x4D7E3E
0x4D820C
0x4D8255
0x4D8585
0x4D86AE
0x4D8CBB
0x4D8DC4
0x4D8DCF
0x4D8E51
0x4D8E73
0x4D8F99
0x4D928C
0x4D93AF
0x4D947F
0x4D94C4
0x4D9660
0x4D9825
0x4D985A
0x4D986E
0x4D9881
0x4D9885
0x4D98A2
0x4D98B4
0x4D98B8
0x4D98EF
0x4D993D
0x4D9981
0x4D9985
0x4D99A1
0x4D99C0
0x4D99FA
0x4D9A17
0x4D9A64
0x4D9AA1
0x4D9B18
0x4D9B68
0x4D9BB2
0x4D9C29
0x4D9C79
0x4D9CC3
0x4D9D3A
0x4D9D8A
0x4D9DD4
0x4D9E4B
0x4D9E9B
0x4D9EEA
0x4D9F08
0x4D9F61
0x4D9FB1
0x4DA000
0x4DA01C
0x4DA056
0x4DA0B3
0x4DA14F
0x4DA387
0x4DA53F
0x4DA56A
0x4DA684
0x4DA78B
0x4DA7E4
0x4DA811
0x4DA84C
0x4DAA10
0x4DAA32
0x4DAA52
0x4DAB9D
0x4DACC3
0x4DADD5
0x4DAF54
0x4DB005
0x4DB2E9
0x4DB357
0x4DB40F
0x4DB462
0x4DB4A1
0x4DB511
0x4DB600
0x4DB6BB
0x4DB7B8
0x4DB849
0x4DB8B1
0x4DB998
0x4DBA5C
0x4DBC00
0x4DC379
0x4DC3D8
0x4DC467
0x4DC4BA
0x4DC4E9
0x4DC532
0x4DC586
0x4DC5F5
0x4DC627
0x4DC64D
0x4DCF96
0x4DCFBB
0x4DD018
0x4DD02E
0x4DD115
0x4DD194
0x4DD1C9
0x4DD33F
0x4DD6C0
0x4DD81F
0x4DDCFE
0x4DDD77
0x4DDE6A
0x4DE0EF
0x4DE14B
0x4DE2B3
0x4DE39D
0x4DE40E
0x4DE483
0x4DE508
0x4DE589
0x4DE5A8
0x4DE5E1
0x4DE5F5
0x4DE608
0x4DE60C
0x4DE629
0x4DE62D
0x4DE664
0x4DE675
0x4DE6C3
0x4DE707
0x4DE748
0x4DE74C
0x4DE768
0x4DE787
0x4DE7A6
0x4DE7C5
0x4DE7FF
0x4DE822
0x4DE847
0x4DE859
0x4DE86B
0x4DE87D
0x4DE8DE
0x4DE8EE
0x4DE90B
0x4DE918
0x4DEA80
0x4DEB4A
0x4DEBD8
0x4DEBDE
0x4DED00
0x4DF0A5
0x4DF10E
0x4DF114
0x4DF118
0x4DF2F1
0x4DF313
0x4DF331
0x4DF36B
0x4DF3B0
0x4DF3E4
0x4DF404
0x4DF471
0x4DF4C0
0x4DF4DC
0x4DF511
0x4DF546
0x4DF564
0x4DF58E
0x4DF592
0x4DF5C6
0x4DF621
0x4DF640
0x4DF660
0x4DF699
0x4DF6AD
0x4DF6C0
0x4DF6C4
0x4DF6E1
0x4DF6F3
0x4DF704
0x4DF708
0x4DF73F
0x4DF743
0x4DF77B
0x4DF77F
0x4DF7A8
0x4DF7E4
0x4DF7F5
0x4DF843
0x4DF887
0x4DF8F2
0x4DF8F6
0x4DF912
0x4DF95A
0x4DF979
0x4DF9BC
0x4DF9F6
0x4DFA38
0x4DFA7A
0x4DFABC
0x4DFB1D
0x4DFB7E
0x4DFB8E
0x4DFBAB
0x4DFBB8
0x4DFBD6
0x4DFC00
0x4DFC4D
0x4DFC8A
0x4DFD70
0x4DFEAE
0x4DFF2A
0x4DFFA6
0x4DFFF8
0x4E01F9
0x4E039D
0x4E052F
0x4E065A
0x4E06DD
0x4E0854
0x4E08A8
0x4E08EA
0x4E08F0
0x4E109B
0x4E11A7
0x4E13E8
0x4E143D
0x4E14A0
0x4E1550
0x4E171F
0x4E1C0E
0x4E1C99
0x4E1E77
0x4E1F7F
0x4E242B
0x4E2DF3
0x4E2FCA
0x4E2FF1
0x4E3151
0x4E3499
0x4E34EF
0x4E35E2
0x4E384B
0x4E3ADE
0x4E3AFB
0x4E3B8D
0x4E3DE3
0x4E3F0D
0x4E41F6
0x4E435F
0x4E4365
0x4E4369
0x4E461E
0x4E46D0
0x4E4A98
0x4E4B00
0x4E4B11
0x4E4B2F
0x4E4B59
0x4E4B5D
0x4E4B91
0x4E4B95
0x4E4BC7
0x4E4C22
0x4E4C7B
0x4E4C98
0x4E4CB7
0x4E4CE3
0x4E4D34
0x4E4D73
0x4E4D91
0x4E4DC4
0x4E4E1A
0x4E4E54
0x4E4E74
0x4E4EA9
0x4E4F1E
0x4E4FC8
0x4E5066
0x4E50D1
0x4E5468
0x4E55A9
0x4E5728
0x4E57C5
0x4E5879
0x4E5BA0
0x4E5CA9
0x4E6046
0x4E60C2
0x4E6A58
0x4E6BD0
0x4E6C53
0x4E6E67
0x4E71A6
0x4E79F2
0x4E7D0C
0x4E7E00
0x4E81EE
0x4E82E1
0x4E85A5
0x4E85EF
0x4E86BA
0x4E8759
0x4E886E
0x4E8901
0x4EB500
0x4EDBBA
0x4EDC89
0x4EDCDB
0x4EE448
0x4EED9A
0x4EED9F
0x4EF7CB
0x4F00F9
0x4F14E3
0x4F2ABC
0x4F3516
0x4F37B8
0x4F37FF
0x4F38AC
0x4F3A78
0x4F424E
0x4F45BC
0x4F45F5
0x4F4611
0x4F467D
0x4F5406
0x4F5597
0x4F63CC
0x4F6439
0x4F688B
0x4F68B1
0x4F68B7
0x4F8313
0x4F8D0C
0x4F937C
0x4F94C4
0x4F9CB1
0x4FA214
0x4FA219
0x4FA440
0x4FA749
0x4FA7EF
0x4FAA46
0x4FAC29
0x4FACC1
0x4FAF04
0x4FB090
0x4FB4A6
0x4FCCEA
0x4FCD91
0x4FD2B7
0x4FD546
0x4FFE61
0x5007BC
0x500A24
0x500CA9
0x500FC1
0x5010E3
0x5012AB
0x501360
0x501512
0x50172A
0x5017C1
0x501910
0x501939
0x501A80
0x501A85
0x501B98
0x501EA3
0x5020E3
0x502343
0x5023F8
0x5025CB
0x5027DC
0x502823
0x502E85
0x503012
0x50305F
0x50414E
0x50446A
0x504507
0x504568
0x50458F
0x5045D2
0x504615
0x504626
0x50462B
0x5046B9
0x5046CA
0x50471A
0x504796
0x5048FA
0x504932
0x5049CC
0x504BAB
0x504CD6
0x505006
0x50552B
0x50553C
0x505573
0x5055FC
0x5056AF
0x50578F
0x50587D
0x50595D
0x505A96
0x505BE8
0x505DC9
0x506189
0x506B10
0x506EE7
0x506F78
0x5080D4
0x5082EA
0x50837C
0x50857B
0x5085AD
0x5085CC
0x508603
0x50871C
0x5087A8
0x508802
0x508865
0x5088C9
0x50894E
0x508973
0x5089FE
0x508A44
0x508B16
0x508B64
0x508CB0
0x508CE9
0x508D41
0x508D6A
0x508DF8
0x508EA5
0x508EBE
0x508ED7
0x508EFF
0x508F4B
0x508F7E
0x509087
0x509622
0x509681
0x5098BC
0x509A57
0x509AF5
0x509BB5
0x509E2C
0x509EB1
0x50A017
0x50A154
0x50A25C
0x50A3DD
0x50A4FB
0x50A75B
0x50ADC1
0x50AF8D
0x50B08B
0x50B0F0
0x50B132
0x50B182
0x50B1D3
0x50B224
0x50B27E
0x50B2D8
0x50B336
0x50B3E0
0x50B42A
0x50B47B
0x50B4BE
0x50B507
0x50B557
0x50B5A0
0x50B5E9
0x50B62C
0x50B66F
0x50B6BF
0x50B75B
0x50B7C0
0x50B811
0x50B966
0x50BB41
0x50BC40
0x50BDDB
0x50BF2B
0x50BF7F
0x50C039
0x50C083
0x50C1B9
0x50C366
0x50C3A6
0x50C608
0x50CAA2
0x50CBA0
0x50CD19
0x50D545
0x50D67E
0x50D73C
0x50D875
0x50D918
0x50D932
0x50DA9D
0x50DB61
0x50DC81
0x50DD14
0x50DD9E
0x50DF03
0x50DFBF
0x50E0CF
0x50E621
0x50E7F7
0x50E9C1
0x50EA1C
0x50EB74
0x50EC66
0x50ECD0
0x50EF8C
0x50EFE7
0x50F0B2
0x50F167
0x50F19D
0x50F220
0x50F239
0x50F255
0x50F2B5
0x50F31C
0x50F36B
0x50F3A0
0x50F403
0x50F418
0x50F4C5
0x50F56E
0x50F5D3
0x50F62F
0x50F747
0x50F78C
0x50F803
0x5115DA
0x51177D
0x511A42
0x511C16
0x511DF3
0x511F15
0x511F71
0x5120D2
0x512170
0x512174
0x51259B
0x512643
0x51268C
0x5126BC
0x512702
0x512731
0x512735
0x512A14
0x512A6A
0x512AC0
0x512B35
0x512BE4
0x512CED
0x512EA2
0x512EB5
0x512FC1
0x51309D
0x5130D5
0x513133
0x513151
0x513A29
0x513B07
0x513B4C
0x513B9C
0x513D14
0x514361
0x514569
0x5145BE
0x5149A8
0x514AAF
0x514AD6
0x514B38
0x5155F5
0x51579A
0x51599B
0x515B8D
0x515D66
0x51611F
0x516A0B
0x516CB2
0x517313
0x517381
0x51757D
0x517839
0x517FC0
0x518852
0x518937
0x518AFC
0x51903B
0x51913B
0x519A50
0x51A46C
0x51A5DC
0x51A713
0x51A800
0x51A9C0
0x51AAD8
0x51ABDF
0x51ACAA
0x51AD1C
0x51AE2D
0x51AEBD
0x51B27D
0x51B342
0x51BBA7
0x51BCA8
0x51BCFD
0x51BD33
0x51BD4D
0x51BDC9
0x51BE54
0x51BEB6
0x51BEFC
0x51BF53
0x51BFEE
0x51C04F
0x51C06D
0x51C09A
0x51C0F7
0x51C177
0x51C293
0x51C2CB
0x51C3BB
0x51C50D
0x51C69B
0x51C9E7
0x51CAA6
0x51CBD3
0x51CCAD
0x51CDBD
0x51CE0A
0x51CE2F
0x51CF69
0x51D10D
0x51D2C9
0x51D2E9
0x51D309
0x51D362
0x51D41F
0x51D4CF
0x51D750
0x51D9FB
0x51DA8C
0x51DB48
0x51DB6D
0x51DB92
0x51DC33
0x51DC67
0x51DCC1
0x51DEFD
0x51DF49
0x51DFC8
0x51E02E
0x51E0DF
0x51E12E
0x51E1C7
0x51E21E
0x51E2C1
0x51E2FE
0x51E65B
0x51E6C0
0x51E8F9
0x51EB62
0x51EC62
0x51ECD1
0x51EDE2
0x51EE10
0x51EF15
0x51F3B2
0x51F420
0x51F5BD
0x51F764
0x51F7C4
0x51F8BA
0x51F9C6
0x51FB5A
0x51FDAB
0x51FFC4
0x52015E
0x52022D
0x52030B
0x520494
0x520576
0x52069E
0x5207AB
0x52086E
0x520931
0x52097F
0x520AF9
0x520B24
0x520B4F
0x520C68
0x520C7C
0x520C90
0x520CBE
0x520CFA
0x520F1B
0x5210D4
0x521169
0x521194
0x5211B9
0x5211D3
0x52121A
0x5212D2
0x52174C
0x5217F7
0x521AB1
0x521CB0
0x521D1E
0x521DAE
0x521E3A
0x521EBA
0x521FC2
0x522116
0x5222AB
0x5222D8
0x522546
0x5226BE
0x52273C
0x52287D
0x522B25
0x522C61
0x522F01
0x52338A
0x5235FE
0x523612
0x5237B3
0x5238E6
0x52394A
0x5239A2
0x523B1A
0x523D10
0x523F26
0x524030
0x5240CC
0x525092
0x5250EF
0x5251F8
0x525211
0x52543C
0x52549E
0x5254EE
0x5256D4
0x525809
0x525AF6
0x525B7E
0x525CDB
0x525D68
0x525DB3
0x525E77
0x525F14
0x525FC4
0x525FFF
0x526099
0x526133
0x5261D2
0x5263BC
0x5264CE
0x52652A
0x5268CB
0x5269E3
0x5271E9
0x5274E0
0x5276C2
0x5279F3
0x527D52
0x5282BD
0x5282C3
0x528AB4
0x528B8E
0x528CB9
0x528D44
0x528D8E
0x528E6D
0x528F6E
0x529014
0x5290D1
0x5291D6
0x529257
0x5293EF
0x529594
0x52959A
0x529719
0x529A7E
0x529BCE
0x529F0C
0x52A3EE
0x52A60A
0x52A73A
0x52A886
0x52A9C9
0x52AC31
0x52AE02
0x52AF61
0x52AF9B
0x52AFD5
0x52B00F
0x52B049
0x52B0FC
0x52B126
0x52B3BD
0x52B3C3
0x52B697
0x52B6A2
0x52B7C4
0x52B803
0x52BBEB
0x52BF5A
0x52C070
0x52C22F
0x52C398
0x52C48A
0x52C72B
0x52C82A
0x52CB74
0x52CC36
0x52CDEC
0x52D026
0x52D170
0x52D38E
0x52D59A
0x52D5C6
0x52D5F1
0x52D616
0x52D643
0x52D65D
0x52D70E
0x52D76C
0x52DD3A
0x52DEE1
0x52DF58
0x52E314
0x52E591
0x52E665
0x52E789
0x52ED16
0x52EE01
0x52EE6D
0x52F279
0x52F84F
0x52F893
0x52F90B
0x52F980
0x52F9F8
0x52FA89
0x52FBB5
0x52FC46
0x53000B
0x53006E
0x5300BE
0x53015D
0x53021B
0x5302A2
0x53047F
0x5304C0
0x530661
0x5308C7
0x530966
0x530A60
0x53118E
0x531553
0x5316E2
0x531BFD
0x531C17
0x531CF8
0x531D57
0x531F1D
0x531FFA
0x5320C2
0x532156
0x5321B9
0x53221B
0x5322DB
0x532338
0x53301E
0x533111
0x5331D7
0x533289
0x5333A8
0x5336ED
0x533863
0x533A56
0x533C51
0x533D63
0x533F89
0x53400B
0x534093
0x5340C9
0x5344C6
0x534721
0x5347E4
0x5348CB
0x534928
0x534983
0x534A13
0x534AE5
0x534B2F
0x534F29
0x535084
0x53510E
0x5351A0
0x53520C
0x5357E3
0x535874
0x535A83
0x535BDA
0x535CD4
0x535D08
0x535D65
0x535D9A
0x535F1B
0x53604D
0x536062
0x536183
0x536254
0x536386
0x536437
0x5365C1
0x536781
0x536804
0x536911
0x536A85
0x536AAA
0x536ACF
0x536AE9
0x536B0B
0x536C97
0x536D96
0x536DF1
0x536E22
0x536E87
0x536F14
0x537013
0x537111
0x537152
0x5373C3
0x5374E7
0x537846
0x537B68
0x537C3A
0x537DDF
0x537E88
0x537F59
0x537F62
0x538246
0x5383B2
0x538440
0x53878B
0x538F92
0x538FEC
0x538FFD
0x53908C
0x53911E
0x53913C
0x539166
0x539190
0x539194
0x5391C8
0x5391CC
0x5391FE
0x539259
0x539297
0x5392C2
0x539320
0x53939E
0x5393F9
0x539467
0x5394F1
0x53951D
0x53956E
0x5395AD
0x5395C7
0x53968D
0x53973F
0x539810
0x53986B
0x5398F2
0x5399BD
0x539ABC
0x539B73
0x539BBD
0x539C61
0x539D4F
0x53A062
0x53A152
0x53A557
0x53A7DA
0x53A88A
0x53A9FC
0x53AAB0
0x53AC54
0x53AE26
0x53AFD2
0x53B018
0x53B0B2
0x53B1A2
0x53B298
0x53B29E
0x53B975
0x53B9E4
0x53BC18
0x53BC98
0x53BD06
0x53C176
0x53C204
0x53C331
0x53C56F
0x53C705
0x53C8D1
0x53C916
0x53D0ED
0x53D130
0x53D160
0x53D1B2
0x53D8AF
0x53DB72
0x53DBE6
0x53DDEA
0x53E1A9
0x53F944
0x53FABE
0x53FCD8
0x53FE60
0x53FEA7
0x540788
0x543038
0x543C31
0x545D1A
0x545D83
0x545F0C
0x5461CC
0x546212
0x546828
0x5468C1
0x54694F
0x546A49
0x546C62
0x546FF6
0x547367
0x547425
0x547818
0x54788A
0x5478EB
0x547ADA
0x547C9C
0x547D44
0x547E1A
0x547EB4
0x5484DA
0x548871
0x548882
0x54895D
0x548983
0x548A52
0x548A78
0x548A7D
0x548B57
0x548B68
0x548B94
0x548BD4
0x548C8E
0x548D15
0x548D53
0x548D91
0x548DD5
0x548DE6
0x548F14
0x5490D8
0x5490E4
0x549212
0x54922A
0x549358
0x549462
0x549501
0x549601
0x54961E
0x54963A
0x54967D
0x5496EA
0x5496EF
0x54979C
0x549C95
0x549D0C
0x54A162
0x54A328
0x54A417
0x54A5AF
0x54A87F
0x54A8E9
0x54A95B
0x54A9D3
0x54ACF8
0x54B1F2
0x54B518
0x54B871
0x54B8DB
0x54B9A4
0x54BC35
0x54BC49
0x54BE1C
0x54BE9A
0x54BF58
0x54BF7B
0x54C1B4
0x54C81A
0x54CA30
0x54CBE4
0x54CCA5
0x54CF34
0x54CFEC
0x54D00A
0x54D034
0x54D081
0x54D0C6
0x54D0E6
0x54D102
0x54D137
0x54D148
0x54D17C
0x54D27B
0x54D2A0
0x54D2AC
0x54D2D9
0x54D340
0x54D3F4
0x54D4B9
0x54D52E
0x54D582
0x54D5F4
0x54D666
0x54D6E8
0x54D7E9
0x54D820
0x54D842
0x54D9E8
0x54DAE8
0x54DB54
0x54DF16
0x54DF1D
0x54E227
0x54E38F
0x54E473
0x54E49D
0x54E7CC
0x54E870
0x54E895
0x54E8AB
0x54E952
0x54E9E8
0x54EA33
0x54EA88
0x54EAA0
0x54EB40
0x54EBC3
0x54EC51
0x54EC82
0x54ECB3
0x54ECF3
0x54ED6B
0x54ED8E
0x54EDCA
0x54EED1
0x54F459
0x54F53F
0x54F7BC
0x54FA35
0x54FD14
0x550500
0x550C30
0x551170
0x5522AB
0x55239B
0x552486
0x552602
0x552616
0x55284C
0x552960
0x552A00
0x552B32
0x552B37
0x552BFA
0x552E98
0x5530F0
0x553702
0x553BB3
0x5541F6
0x55445A
0x55450F
0x5547C8
0x55492D
0x55510C
0x55520C
0x555493
0x555507
0x555537
0x555567
0x555785
0x555896
0x5558C7
0x5558F8
0x555917
0x555974
0x5559D4
0x555A2A
0x555A4C
0x555AC7
0x555B11
0x555BA8
0x555C6D
0x555DA7
0x555E4F
0x555E6D
0x555EA7
0x555EEC
0x555F1E
0x555F53
0x555FC0
0x55600F
0x556020
0x5560AF
0x5560CD
0x5560F7
0x556121
0x55615F
0x55618A
0x5561E8
0x556266
0x5562C1
0x55632F
0x5563B9
0x5563F8
0x556437
0x556476
0x556491
0x5564D0
0x556672
0x5566C5
0x5567B8
0x5567FA
0x55683C
0x556886
0x557622
0x557710
0x55774F
0x5578DB
0x557AF6
0x557B9E
0x557CBC
0x557D46
0x557D91
0x557E3F
0x557E74
0x55824F
0x558568
0x558919
0x558970
0x5589AF
0x5589C5
0x5589F9
0x558A0A
0x558B06
0x558B3A
0x558C66
0x558CF5
0x558D8E
0x558E58
0x558E8A
0x558EC9
0x558F1B
0x558FEB
0x55900D
0x559037
0x55905F
0x559095
0x5590BC
0x5590F2
0x55920D
0x55922B
0x5594DA
0x55963F
0x5598B2
0x559979
0x559B48
0x559E89
0x55A26E
0x55A3B1
0x55A43C
0x55A595
0x55A773
0x55A8BB
0x55A954
0x55AA18
0x55AAE2
0x55AC62
0x55ACC2
0x55AD46
0x55ADB7
0x55AE25
0x55AE87
0x55AF4F
0x55B017
0x55B05B
0x55B08D
0x55B25C
0x55B2B8
0x55B6DE
0x55B7B6
0x55B98B
0x55B992
0x55B99D
0x55B9AC
0x55B9C4
0x55B9D3
0x55B9DE
0x55B9ED
0x55B9F8
0x55BA06
0x55BA1C
0x55BA26
0x55BA33
0x55BA41
0x55BA4B
0x55BA71
0x55BBD5
0x55BBE6
0x55BBF7
0x55BC36
0x55BC4D
0x55BC68
0x55BCA8
0x55BF00
0x55C158
0x55C17C
0x55C26C
0x55C2B6
0x55C2D0
0x55C2EF
0x55C308
0x55C69A
0x55C86B
0x55C8CA
0x55D2CE
0x55D36C
0x55D3F8
0x55D46C
0x55D517
0x55D5A3
0x55D602
0x55D661
0x55D6FF
0x55DA4B
0x55DBE5
0x55DC44
0x55E07C
0x55E11A
0x55E1A6
0x55E21A
0x55E2AD
0x55E32B
0x55E38A
0x55E3E9
0x55E487
0x55E91E
0x55EAC5
0x55EB24
0x55F11E
0x55F1BC
0x55F248
0x55F2BC
0x55F652
0x55F770
0x55F808
0x55F889
0x55F8E8
0x55F947
0x55F9E5
0x55FA41
0x55FAEE
0x55FC45
0x55FDA3
0x55FDD1
0x55FDFF
0x5605EC
0x560694
0x56071D
0x560AED
0x560B76
0x560BFF
0x560C88
0x560F4E
0x560FD7
0x561060
0x5610F3
0x5613F5
0x5616B3
0x561746
0x561876
0x561DD1
0x561E5A
0x561EE3
0x561F6C
0x561FF5
0x562090
0x56218F
0x562298
0x5624A0
0x562867
0x562902
0x562985
0x5634BD
0x563546
0x563573
0x563669
0x5636F2
0x56377B
0x563804
0x563D10
0x563DD4
0x563F53
0x5641DB
0x5650A8
0x565131
0x565278
0x56530D
0x5656D4
0x5657DD
0x56586D
0x56596F
0x5659AC
0x5659E9
0x565A4C
0x565B00
0x565C1E
0x565CA3
0x565D28
0x565D8B
0x565D96
0x565DCB
0x566643
0x567419
0x5681A3
0x5689D1
0x568B25
0x569857
0x56A341
0x56AE2E
0x56B1CD
0x56B6A1
0x56B911
0x56BBDF
0x56BC7C
0x56C0E0
0x56C2FE
0x56C347
0x56C5D2
0x56C846
0x56C8B3
0x56CD05
0x56D152
0x56D17E
0x56D3D5
0x56D51C
0x56D5A0
0x56D7BF
0x56D89A
0x56DACF
0x56DC35
0x56DC94
0x56DE9A
0x56DEF6
0x56DF85
0x56E16E
0x56E28C
0x56E3DF
0x56E4E6
0x56E4F7
0x56E5F3
0x56E627
0x56E753
0x56E7E2
0x56E800
0x56E82A
0x56E854
0x56E889
0x56E8C7
0x56E8F2
0x56E950
0x56E9CE
0x56EA29
0x56EA97
0x56EBE1
0x56EC21
0x56EC63
0x56F088
0x56F201
0x56F37F
0x56F53C
0x56F54D
0x56F55E
0x56F65A
0x56F865
0x56FA73
0x56FC08
0x56FE18
0x56FEA2
0x56FF9A
0x56FF9F
0x570372
0x5703D4
0x570409
0x5704A2
0x570532
0x57057B
0x5705CB
0x5705D0
0x570612
0x570663
0x5706DD
0x57076E
0x5707D7
0x570B80
0x570D58
0x570F84
0x571091
0x571178
0x57125F
0x57133B
0x571366
0x5714E2
0x57150D
0x571607
0x571759
0x571851
0x5718DD
0x571A39
0x571B44
0x571BD6
0x571C68
0x571D45
0x571DDC
0x571E4F
0x57206B
0x57209D
0x572199
0x572292
0x572468
0x57249B
0x5724CD
0x5724EF
0x572514
0x57254F
0x57258A
0x5725C3
0x5725D4
0x5726D0
0x572704
0x572830
0x57284E
0x572878
0x5728A2
0x5728E0
0x57290B
0x572969
0x5729E7
0x572A42
0x572AB0
0x572B3A
0x572B79
0x572BB8
0x572BF7
0x572C36
0x572C75
0x572CB4
0x572CCE
0x572CE9
0x572D51
0x572DB9
0x572E61
0x572F57
0x5730E7
0x5730F6
0x573164
0x573232
0x573237
0x5734BB
0x57358C
0x573696
0x573833
0x5739FA
0x573BD6
0x573C89
0x573E3C
0x574034
0x5740D3
0x57423F
0x574352
0x5743D3
0x5743E4
0x574461
0x574513
0x5746B3
0x574776
0x574A98
0x574AE4
0x574C12
0x574CAE
0x574D61
0x574DB8
0x574E54
0x574EB6
0x574F72
0x5750BC
0x5751FF
0x5752E0
0x575480
0x575686
0x57568B
0x5756BA
0x575768
0x5758B8
0x575957
0x5759D4
0x575A86
0x575C4E
0x575D11
0x575F7A
0x576025
0x5760EE
0x576153
0x5761FB
0x5762ED
0x57645D
0x5765A0
0x576681
0x576821
0x576A00
0x576A34
0x576A86
0x576CE4
0x576D44
0x576DDD
0x576E55
0x576E93
0x577206
0x577252
0x577266
0x577421
0x577638
0x5776BC
0x577717
0x577952
0x577C08
0x577C50
0x577C80
0x577CB0
0x577D2D
0x577DDF
0x577E5D
0x577F34
0x577F9A
0x5783B6
0x5783E4
0x5784A7
0x5789F3
0x578A36
0x578AD2
0x578B85
0x578BE9
0x578C92
0x578CF4
0x578DDF
0x578EB7
0x578F24
0x578F29
0x578F58
0x579089
0x5791A6
0x57925E
0x57939E
0x5793B8
0x5793E6
0x579554
0x579629
0x5796CC
0x5797D1
0x579890
0x5799C0
0x579AC0
0x57A0A4
0x57A3A7
0x57A49D
0x57A4B7
0x57A4C8
0x57A54D
0x57A5D6
0x57A65A
0x57A6B9
0x57A77C
0x57A80F
0x57A87F
0x57A8EF
0x57AA48
0x57AAC5
0x57AB93
0x57AD81
0x57AE18
0x57AEDE
0x57AFF7
0x57B178
0x57B49E
0x57B561
0x57B644
0x57B6F1
0x57B72D
0x57B7BC
0x57B8FE
0x57BA08
0x57BA75
0x57BA86
0x57BA97
0x57BB93
0x57BBC7
0x57BCF3
0x57BD11
0x57BD3B
0x57BD65
0x57BDA3
0x57BDCE
0x57BE2C
0x57BEAA
0x57BF05
0x57BF73
0x57BFFD
0x57C029
0x57C068
0x57C082
0x57C09D
0x57C0BB
0x57C0E5
0x57C132
0x57C148
0x57C182
0x57C1C7
0x57C1FB
0x57C230
0x57C250
0x57C272
0x57C2A7
0x57C314
0x57C363
0x57C381
0x57C3AB
0x57C3F8
0x57C40E
0x57C448
0x57C48D
0x57C4C1
0x57C4F6
0x57C516
0x57C538
0x57C56D
0x57C5DA
0x57C629
0x57C84A
0x57C8AB
0x57CBBF
0x57CC04
0x57CD4D
0x57D096
0x57D116
0x57D6A3
0x57D74B
0x57D75C
0x57DAA3
0x57DB2E
0x57DB8B
0x57DC57
0x57DDFF
0x57DEA9
0x57DEAD
0x57DEB1
0x57DEB5
0x57DEB9
0x57E1CD
0x57E277
0x57E524
0x57E5AD
0x57E77F
0x57E82F
0x57E875
0x57E8C6
0x57E91E
0x57EBB3
0x57ED71
0x57F2F4
0x57F55A
0x57F796
0x57FB3A
0x57FC08
0x57FECC
0x57FF20
0x580933
0x580992
0x580A13
0x580BC0
0x580BC9
0x580D76
0x580EB1
0x580F9A
0x58114F
0x581218
0x5813E5
0x581508
0x58161C
0x5816A0
0x581B50
0x581D40
0x581FAC
0x582071
0x582273
0x5823D0
0x582463
0x582576
0x5828E6
0x582931
0x582AB3
0x582C54
0x582D01
0x582FFE
0x583330
0x5835BB
0x58362B
0x583901
0x5839EE
0x584286
0x58437E
0x58440C
0x584835
0x584ACA
0x584BEC
0x584ECB
0x58528C
0x5853CE
0x58543C
0x5854DB
0x585790
0x58586F
0x585972
0x585977
0x585AC9
0x585D07
0x585E7E
0x585F85
0x585F8A
0x5860DF
0x58613F
0x58621B
0x586243
0x586266
0x586279
0x5862C0
0x586351
0x5864F3
0x586545
0x58668F
0x586787
0x586939
0x586BED
0x586CF7
0x586E01
0x5870D0
0x587120
0x58713A
0x58723F
0x5872BB
0x587428
0x5874C0
0x587555
0x587603
0x5876AF
0x587789
0x587863
0x5878F2
0x587970
0x587AF3
0x587C44
0x587CC3
0x587D1C
0x587E21
0x587EF7
0x587FCD
0x588076
0x588186
0x5882B6
0x588622
0x5886AE
0x58878E
0x5887B2
0x5888D2
0x58893F
0x58897A
0x588A7E
0x588B7A
0x588BF1
0x588EC7
0x588F0E
0x588F30
0x588F81
0x5891A8
0x58946D
0x58953F
0x589666
0x5897DD
0x5898D8
0x5899F0
0x589B03
0x589C15
0x589D27
0x589E4B
0x589F47
0x58A05F
0x58A15A
0x58A256
0x58A366
0x58A476
0x58A550
0x58A5D8
0x58A624
0x58A653
0x58A671
0x58A682
0x58A6A9
0x58A6DE
0x58A720
0x58A759
0x58A7A2
0x58A7D0
0x58A812
0x58A952
0x58A971
0x58B2E8
0x58BC10
0x58BD93
0x58BE63
0x58BF10
0x58C031
0x58C186
0x58C21E
0x58C480
0x58C926
0x58C965
0x58C9A3
0x58C9E2
0x58CA20
0x58CA5F
0x58CA9D
0x58CADC
0x58CF45
0x58CF4A
0x58D100
0x58D1FC
0x58D230
0x58D35C
0x58D3A6
0x58D3E0
0x58D422
0x58D457
0x58D4CC
0x58D518
0x58D536
0x58D560
0x58D57E
0x58D5A8
0x58D5F5
0x58D62F
0x58D674
0x58D6D1
0x58D73E
0x58D78D
0x58D791
0x58D7C3
0x58D81C
0x58D839
0x58D877
0x58D8A2
0x58D900
0x58D97E
0x58D9D9
0x58DA47
0x58DD16
0x58DD49
0x58DE23
0x58E180
0x58E198
0x58E370
0x58E4F6
0x58E5EE
0x58E6F1
0x58E9C1
0x58EE30
0x58EED2
0x58EFBF
0x58F218
0x58F2BF
0x58F2EC
0x58F336
0x58F40E
0x58F4FF
0x58F64E
0x58F73E
0x58F821
0x58F8AD
0x58FA0D
0x58FAD5
0x58FB35
0x58FB95
0x58FD7E
0x58FEF1
0x5900D6
0x590109
0x590608
0x590C1F
0x590CF1
0x590DA7
0x590DEE
0x590E40
0x590E6C
0x590E9F
0x590ED0
0x590F5A
0x59103A
0x591064
0x591082
0x5910A0
0x5910DA
0x59111F
0x591151
0x591186
0x5911F3
0x591242
0x591550
0x591573
0x591605
0x59163A
0x591685
0x5916EA
0x591747
0x5917A6
0x59185E
0x591874
0x591895
0x5918DB
0x5918E0
0x591932
0x59194D
0x591968
0x5919F0
0x591A78
0x591ADA
0x591B7F
0x591BE2
0x591C45
0x591C9E
0x591CCC
0x591D20
0x591D74
0x591DCD
0x591E03
0x591E57
0x591EAB
0x591F1C
0x591F91
0x591FB0
0x59201D
0x59209D
0x592117
0x5921AE
0x592337
0x5923BC
0x59241C
0x592679
0x59268A
0x592786
0x5927BA
0x5928E6
0x592978
0x592A11
0x592ADB
0x592B0D
0x592B2B
0x592B55
0x592B59
0x592B8D
0x592BE8
0x592C06
0x592C44
0x592C6F
0x592CCD
0x592D4B
0x592DA6
0x592E14
0x592E53
0x592E75
0x592E9F
0x592EEC
0x592F26
0x592F6B
0x592FA0
0x59300D
0x59305C
0x59308E
0x5930A6
0x593122
0x59315D
0x5931B9
0x5934B9
0x59362A
0x5936E0
0x59388A
0x593928
0x59396D
0x593AA3
0x593BBD
0x593C56
0x593CD7
0x593D30
0x594197
0x5941FB
0x59427D
0x5942F3
0x59433F
0x5943CD
0x595381
0x5953D8
0x5955D3
0x595727
0x5957BD
0x595A32
0x595DE6
0x5961F8
0x596715
0x59673D
0x596B65
0x59728D
0x597354
0x5978DE
0x597ABE
0x597CE2
0x597E86
0x597FC6
0x597FF9
0x598071
0x598147
0x5981CC
0x59845D
0x5984E2
0x59854E
0x59871E
0x5987CD
0x59889D
0x598AB8
0x598B97
0x598C19
0x598CD2
0x598DE6
0x598DEB
0x599006
0x599403
0x5995B4
0x5996A1
0x59988B
0x599B64
0x599BB6
0x599D20
0x599D54
0x599D88
0x599E2E
0x599EEE
0x59A0C0
0x59A248
0x59A393
0x59A4DE
0x59A614
0x59ABBA
0x59ABDE
0x59AC27
0x59AC9B
0x59ACEA
0x59AD50
0x59AE90
0x59AF28
0x59B068
0x59B1EC
0x59B252
0x59B309
0x59B4A5
0x59B601
0x59B62D
0x59B939
0x59B957
0x59B981
0x59B9CE
0x59BA08
0x59BA4D
0x59BA7F
0x59BA9B
0x59BB08
0x59BB57
0x59BB75
0x59BBA8
0x59BBFE
0x59BC14
0x59BC32
0x59BC6C
0x59BCB1
0x59BCE3
0x59BD17
0x59BD33
0x59BD68
0x59BDD5
0x59BE24
0x59BE40
0x59BEAD
0x59BEFC
0x59BF0D
0x59BF41
0x59BF70
0x59BFCD
0x59C034
0x59C08C
0x59C0CA
0x59C0ED
0x59C16A
0x59C1C0
0x59C1D2
0x59C337
0x59C437
0x59C474
0x59C4BC
0x59C53D
0x59C562
0x59C80E
0x59C94C
0x59CA37
0x59CAA3
0x59CB22
0x59CCFC
0x59CE16
0x59CE4C
0x59CE86
0x59CEB6
0x59CEEA
0x59D0A7
0x59D2E5
0x59D539
0x59D954
0x59D9B4
0x59DA7D
0x59DD65
0x59DE27
0x59DFB5
0x59E08F
0x59E1A3
0x59E273
0x59E312
0x59E420
0x59E62B
0x59E6B3
0x59E721
0x59F890
0x59FCF5
0x59FF51
0x59FFED
0x5A0098
0x5A00E5
0x5A0286
0x5A02E2
0x5A07EB
0x5A0A60
0x5A0AEF
0x5A0B0D
0x5A0B47
0x5A0B7C
0x5A0B9C
0x5A0BB8
0x5A0BED
0x5A0C5A
0x5A0D04
0x5A0DA3
0x5A1243
0x5A1905
0x5A2185
0x5A2356
0x5A27E2
0x5A28E1
0x5A2945
0x5A298A
0x5A29C8
0x5A2B4C
0x5A2B6A
0x5A2B9D
0x5A2BD7
0x5A2C2D
0x5A2CA2
0x5A2CF1
0x5A3308
0x5A3369
0x5A33AF
0x5A33EA
0x5A3565
0x5A35AB
0x5A3759
0x5A3805
0x5A3CC6
0x5A3D2F
0x5A3F44
0x5A3FB1
0x5A4038
0x5A40C9
0x5A41C5
0x5A42A1
0x5A4405
0x5A4423
0x5A4456
0x5A44AC
0x5A44E6
0x5A454C
0x5A4566
0x5A45F7
0x5A465A
0x5A4680
0x5A46F5
0x5A4744
0x5A4762
0x5A47B8
0x5A47F2
0x5A4848
0x5A486E
0x5A48E3
0x5A4932
0x5A4988
0x5A49C2
0x5A4A18
0x5A4A3E
0x5A4AB3
0x5A4B02
0x5A4B20
0x5A4B7C
0x5A4BB6
0x5A4C1A
0x5A4C8F
0x5A4CDE
0x5A4CFC
0x5A4D53
0x5A4D8D
0x5A4DDC
0x5A4E51
0x5A4EA0
0x5A4EB6
0x5A4EBA
0x5A4F10
0x5A4F5C
0x5A4F97
0x5A5534
0x5A5E79
0x5A5F62
0x5A603A
0x5A60C1
0x5A6116
0x5A6127
0x5A6185
0x5A61CA
0x5A622B
0x5A626D
0x5A62CE
0x5A6310
0x5A637D
0x5A63F0
0x5A6454
0x5A6471
0x5A64A1
0x5A6573
0x5A65E4
0x5A6670
0x5A66B5
0x5A67A5
0x5A680D
0x5A6862
0x5A68A4
0x5A68A8
0x5A68D8
0x5A6920
0x5A6981
0x5A69C3
0x5A6A2B
0x5A6A6D
0x5A6AAF
0x5A6B10
0x5A6B51
0x5A6BB2
0x5A6BF4
0x5A6C5D
0x5A6CC6
0x5A6D2F
0x5A6D90
0x5A6DF4
0x5A6ED8
0x5A6F15
0x5A6F52
0x5A6F92
0x5A6FD2
0x5A7012
0x5A7052
0x5A7092
0x5A70CB
0x5A710A
0x5A7143
0x5A7234
0x5A72FE
0x5A73E9
0x5A744D
0x5A74D0
0x5A7568
0x5A7647
0x5A76D2
0x5A76E4
0x5A76FF
0x5A7710
0x5A7734
0x5A775F
0x5A7770
0x5A7794
0x5A77D2
0x5A7823
0x5A797E
0x5A79AE
0x5A7A00
0x5A7FD5
0x5A8072
0x5A8097
0x5A80C1
0x5A8108
0x5A812E
0x5A81D4
0x5A8454
0x5A8586
0x5A8632
0x5A86A6
0x5A8786
0x5A8849
0x5A8D8C
0x5A9189
0x5A9C7F
0x5A9EC8
0x5A9F44
0x5AA22C
0x5AA28A
0x5AA4B0
0x5AA521
0x5AA71E
0x5AA74B
0x5AA7D4
0x5AA824
0x5AA89B
0x5AA9D6
0x5AA9FF
0x5AAA47
0x5AAA87
0x5AABB1
0x5AAC07
0x5AAE0C
0x5AAE95
0x5AAEFD
0x5AAFA0
0x5AB00D
0x5AB16B
0x5AB31D
0x5AB391
0x5AB4F6
0x5AB580
0x5AB5E9
0x5AB7BA
0x5AB7E3
0x5AB812
0x5AB835
0x5AB99F
0x5ABBED
0x5ABC54
0x5ABCE3
0x5ABDB4
0x5ABDB9
0x5AC126
0x5AC184
0x5AC46C
0x5AC505
0x5AC577
0x5AC5F4
0x5AC6E1
0x5AC7A0
0x5AC7E6
0x5ACAD2
0x5ACB12
0x5ACCC0
0x5ACD4C
0x5ACDA8
0x5ACDED
0x5ACFF4
0x5AD05C
0x5ADA05
0x5ADA93
0x5ADBFB
0x5ADC62
0x5ADD7D
0x5ADDAA
0x5ADE09
0x5ADE5A
0x5ADFE0
0x5AE1AE
0x5AE26E
0x5AE589
0x5AE632
0x5AE65E
0x5AE75E
0x5AE999
0x5AEAA8
0x5AEBF0
0x5AF7D6
0x5B025C
0x5B038A
0x5B0543
0x5B05D5
0x5B06F5
0x5B0832
0x5B0925
0x5B0975
0x5B09E3
0x5B0A9F
0x5B0FC6
0x5B11A4
0x5B13BE
0x5B1466
0x5B14A7
0x5B1516
0x5B15BD
0x5B165C
0x5B18B4
0x5B1975
0x5B1B0B
0x5B1D63
0x5B1D67
0x5B1DC1
0x5B1F36
0x5B1FFD
0x5B2150
0x5B21B6
0x5B3BEA
0x5B3D0B
0x5B3E16
0x5B485B
0x5B491B
0x5B4967
0x5B4C33
0x5B4E5D
0x5B4EA6
0x5B4F7D
0x5B5037
0x5B5131
0x5B53F4
0x5B6866
0x5B68CB
0x5B690D
0x5B6931
0x5B6955
0x5B699C
0x5B6B16
0x5B6B75
0x5B6DA2
0x5B6DD7
0x5B6E1D
0x5B6EE1
0x5B746F
0x5B763A
0x5B79D3
0x5B7E99
0x5B8025
0x5B8237
0x5B828E
0x5B89DC
0x5B8B37
0x5B8BD7
0x5B8F2E
0x5B8FF4
0x5B904E
0x5B908F
0x5B90FF
0x5B93E1
0x5B9543
0x5B95D0
0x5B96DB
0x5B975E
0x5B97AD
0x5B9895
0x5B9968
0x5B99EA
0x5B9B90
0x5B9BB0
0x5B9BD9
0x5B9D6E
0x5B9DAF
0x5B9DF8
0x5B9DFC
0x5B9E34
0x5B9F30
0x5B9FB2
0x5BA089
0x5BA0B2
0x5BA468
0x5BA75A
0x5BA7E5
0x5BAB4E
0x5BAC04
0x5BAC90
0x5BAEEC
0x5BB0E4
0x5BB1CE
0x5BB1F6
0x5BB36F
0x5BB4C5
0x5BB61C
0x5BB660
0x5BB722
0x5BB762
0x5BB78E
0x5BC2FD
0x5BC336
0x5BC387
0x5BCEFA
0x5BCFC3
0x5BD167
0x5BD1FE
0x5BD37B
0x5BD3F1
0x5BD4DA
0x5BD675
0x5BD712
0x5BD971
0x5BDA46
0x5BDBF6
0x5BDFA5
0x5BE075
0x5BE1F0
0x5BE7CA
0x5BE7F5
0x5BE9AF
0x5BEB0A
0x5BEC32
0x5BED24
0x5BED7B
0x5BEE00
0x5BEF0A
0x5BEF9B
0x5BF006
0x5BF0CD
0x5BF274
0x5BF823
0x5BF858
0x5BF889
0x5BFBE6
0x5BFD24
0x5BFEAA
0x5BFF66
0x5BFF90
0x5BFFC9
0x5C0002
0x5C01CD
0x5C020D
0x5C0232
0x5C02F4
0x5C038C
0x5C03A8
0x5C042C
0x5C04BF
0x5C0553
0x5C05FF
0x5C060F
0x5C0631
0x5C06CD
0x5C073C
0x5C0793
0x5C07D0
0x5C085C
0x5C0A46
0x5C0A7C
0x5C0B83
0x5C0C64
0x5C0CD3
0x5C0D4D
0x5C0DC7
0x5C135D
0x5C1364
0x5C140A
0x5C1471
0x5C14CF
0x5C15AE
0x5C1711
0x5C17CA
0x5C18D2
0x5C19FA
0x5C1AFC
0x5C1B4C
0x5C1E75
0x5C1EB7
0x5C1F00
0x5C1F4A
0x5C20DE
0x5C229A
0x5C231D
0x5C254A
0x5C2A30
0x5C3029
0x5C305A
0x5C30B4
0x5C31B7
0x5C3207
0x5C32B2
0x5C338E
0x5C3418
0x5C34D1
0x5C37AC
0x5C3836
0x5C388A
0x5C38BB
0x5C38EC
0x5C391D
0x5C39F9
0x5C3AAE
0x5C3AF2
0x5C3B7C
0x5C3BD0
0x5C3F10
0x5C4016
0x5C4138
0x5C42A2
0x5C436C
0x5C4436
0x5C4500
0x5C45CA
0x5C4694
0x5C46C5
0x5C471F
0x5C481A
0x5C486A
0x5C4915
0x5C49E9
0x5C4A73
0x5C4B24
0x5C4DE7
0x5C4E71
0x5C4EC5
0x5C4EF6
0x5C4F27
0x5C4F58
0x5C502C
0x5C50D9
0x5C511D
0x5C51A7
0x5C51FB
0x5C5513
0x5C5611
0x5C572B
0x5C588D
0x5C5947
0x5C5A01
0x5C5ABB
0x5C5B75
0x5C5C2F
0x5C5C4E
0x5C5C92
0x5C5D46
0x5C5D87
0x5C5E0C
0x5C5EB4
0x5C5F39
0x5C5FE1
0x5C6275
0x5C62FA
0x5C635D
0x5C637C
0x5C639B
0x5C63BA
0x5C6462
0x5C654D
0x5C658E
0x5C6613
0x5C6676
0x5C69FF
0x5C6B72
0x5C6CAD
0x5C6DE0
0x5C6E81
0x5C6F22
0x5C6FC3
0x5C7064
0x5C7105
0x5C719D
0x5C7266
0x5C72F7
0x5C7354
0x5C73B4
0x5C740A
0x5C749E
0x5C752E
0x5C756A
0x5C75BB
0x5C7618
0x5C7678
0x5C76CE
0x5C772B
0x5C778B
0x5C77E1
0x5C7875
0x5C7905
0x5C7992
0x5C7C2B
0x5C7F1F
0x5C81B1
0x5C820B
0x5C823B
0x5C8266
0x5C829C
0x5C8306
0x5C8327
0x5C8397
0x5C83FB
0x5C8422
0x5C8449
0x5C852A
0x5C85F3
0x5C8698
0x5C8718
0x5C879A
0x5C8819
0x5C88DA
0x5C8928
0x5C89B7
0x5C8A49
0x5C8AE2
0x5C8BAC
0x5C8BDE
0x5C8D40
0x5C8E5D
0x5C8E8F
0x5C8F1C
0x5C8F7E
0x5C8FAF
0x5C8FF4
0x5C9036
0x5C9089
0x5C90CB
0x5C913D
0x5C91C9
0x5C93B1
0x5C95DE
0x5C96E6
0x5C97AF
0x5C989D
0x5C98C2
0x5C9A4C
0x5C9C69
0x5CA164
0x5CA622
0x5CA817
0x5CABA9
0x5CAC51
0x5CAD3A
0x5CAD4B
0x5CAD5D
0x5CAD83
0x5CADE2
0x5CAE81
0x5CAEBB
0x5CAF16
0x5CAFC7
0x5CB0AC
0x5CB1E2
0x5CB20D
0x5CB25F
0x5CB314
0x5CB348
0x5CB3D4
0x5CB403
0x5CB44E
0x5CB4A5
0x5CB4F0
0x5CB53F
0x5CB68C
0x5CB7AF
0x5CB7E7
0x5CB82D
0x5CB87A
0x5CB8DC
0x5CBC25
0x5CBC83
0x5CBCD0
0x5CBE2F
0x5CBE92
0x5CBEDC
0x5CBF1C
0x5CC0DA
0x5CC14D
0x5CC191
0x5CC1CD
0x5CC217
0x5CC3BB
0x5CC3F6
0x5CC4E1
0x5CC6E9
0x5CC722
0x5CC766
0x5CC7D7
0x5CC7DB
0x5CC877
0x5CC883
0x5CC88F
0x5CC89B
0x5CC8C4
0x5CCB2A
0x5CCC4B
0x5CCCC4
0x5CCCFB
0x5CCD8D
0x5CCD91
0x5CCDFA
0x5CCF5C
0x5CD016
0x5CD080
0x5CD30C
0x5CDBB2
0x5CDFDB
0x5CE009
0x5CE101
0x5CE130
0x5CE226
0x5CE255
0x5CE25B
0x5CE349
0x5CE376
0x5CE470
0x5CE49F
0x5CE598
0x5CE5C7
0x5CE689
0x5CE6AE
0x5CE939
0x5CEC4E
0x5CEC53
0x5CF036
0x5CF08B
0x5CF271
0x5CF2B4
0x5CF2E0
0x5CF5C8
0x5CF6F1
0x5CF847
0x5CF84B
0x5CF885
0x5CF8C6
0x5CFA34
0x5CFA65
0x5CFB8D
0x5CFDFB
0x5CFFC6
0x5D0054
0x5D010E
0x5D012C
0x5D036B
0x5D049A
0x5D0599
0x5D0695
0x5D06A2
0x5D06DD
0x5D06EA
0x5D0725
0x5D077C
0x5D0813
0x5D08C3
0x5D08CF
0x5D0919
0x5D0973
0x5D09E2
0x5D0A19
0x5D0A70
0x5D0AA7
0x5D0AFE
0x5D0B35
0x5D0B6C
0x5D0BCA
0x5D0C28
0x5D0C61
0x5D0CCA
0x5D0CCE
0x5D0D08
0x5D0D0C
0x5D0D46
0x5D0D7D
0x5D0DB4
0x5D0E28
0x5D0F2B
0x5D149E
0x5D1511
0x5D15B4
0x5D1633
0x5D16B2
0x5D16F0
0x5D1715
0x5D1969
0x5D1BBD
0x5D1BFB
0x5D1E9F
0x5D1F28
0x5D1F5E
0x5D2048
0x5D216A
0x5D2237
0x5D22F2
0x5D23AD
0x5D2468
0x5D24B6
0x5D2505
0x5D2586
0x5D26E6
0x5D2787
0x5D2811
0x5D289B
0x5D2925
0x5D2973
0x5D29C2
0x5D2A43
0x5D2AD5
0x5D2B72
0x5D2BFF
0x5D2C97
0x5D2D24
0x5D2DBC
0x5D2E49
0x5D2EBE
0x5D2F6E
0x5D300B
0x5D309E
0x5D3136
0x5D31C9
0x5D3261
0x5D32F4
0x5D3369
0x5D33FD
0x5D3491
0x5D3515
0x5D3568
0x5D356C
0x5D35A7
0x5D35E5
0x5D3651
0x5D36C2
0x5D36E6
0x5D371D
0x5D374E
0x5D3772
0x5D37A9
0x5D37DA
0x5D37EB
0x5D38F8
0x5D3A7F
0x5D3B3E
0x5D3BBE
0x5D3BCC
0x5D3C20
0x5D3C4E
0x5D3CAB
0x5D3D08
0x5D3D7A
0x5D3D90
0x5D3E0F
0x5D41F0
0x5D4240
0x5D443E
0x5D452A
0x5D4603
0x5D47C8
0x5D5645
0x5D58E7
0x5D59C2
0x5D5A01
0x5D5A3E
0x5D5A6C
0x5D5A9A
0x5D5B3C
0x5D6018
0x5D60B5
0x5D615F
0x5D61D6
0x5D623C
0x5D6257
0x5D63E4
0x5D657B
0x5D6705
0x5D6874
0x5D68D0
0x5D68EE
0x5D6918
0x5D6965
0x5D699F
0x5D69E4
0x5D6A00
0x5D6A6D
0x5D6ABC
0x5D6ADA
0x5D6B22
0x5D6B5C
0x5D6B99
0x5D6BBF
0x5D6C34
0x5D6C80
0x5D6C9E
0x5D6CC7
0x5D6D01
0x5D6D30
0x5D6D65
0x5D6DDA
0x5D6E84
0x5D6EA2
0x5D6ECC
0x5D6F06
0x5D6F4B
0x5D6F67
0x5D6FD4
0x5D7023
0x5D7057
0x5D70E6
0x5D7104
0x5D712E
0x5D717B
0x5D71B5
0x5D71FA
0x5D722F
0x5D729C
0x5D72EB
0x5D7309
0x5D7333
0x5D7380
0x5D73BA
0x5D73FF
0x5D7434
0x5D74A1
0x5D74F0
0x5D7577
0x5D7595
0x5D75BF
0x5D75C3
0x5D75F7
0x5D7652
0x5D7690
0x5D76BB
0x5D7719
0x5D7797
0x5D77F2
0x5D7839
0x5D78A7
0x5D78BB
0x5D78CE
0x5D78D2
0x5D78EF
0x5D78F3
0x5D792A
0x5D793B
0x5D7989
0x5D79F4
0x5D7A76
0x5D7AC2
0x5D7B01
0x5D7B39
0x5D7B5C
0x5D7C53
0x5D7C72
0x5D7C91
0x5D7D88
0x5D7DE4
0x5D7E03
0x5D7EA0
0x5D7EE0
0x5D7F01
0x5D7F41
0x5D7F62
0x5D7FF6
0x5D8017
0x5D8030
0x5D82E0
0x5D83A5
0x5D84CE
0x5D84FE
0x5D851D
0x5D85A4
0x5D85F7
0x5D8626
0x5D8644
0x5D867F
0x5D86D6
0x5D87A2
0x5D8978
0x5D8BF7
0x5D8D04
0x5D8EC9
0x5D9056
0x5D9281
0x5D94DD
0x5D94F3
0x5D957F
0x5D9ADA
0x5D9C29
0x5D9DF2
0x5D9E25
0x5D9EC8
0x5DA053
0x5DA108
0x5DA167
0x5DA1CF
0x5DA246
0x5DA328
0x5DA3EF
0x5DA58B
0x5DA5D7
0x5DA623
0x5DA643
0x5DA797
0x5DA896
0x5DA8FE
0x5DAAC0
0x5DAB67
0x5DABB6
0x5DAC08
0x5DAD15
0x5DAD28
0x5DADC8
0x5DAE2B
0x5DAE77
0x5DAFAF
0x5DB067
0x5DB0C6
0x5DB114
0x5DB13C
0x5DB262
0x5DB4AF
0x5DB54F
0x5DC0CE
0x5DC0E7
0x5DC128
0x5DC19A
0x5DC230
0x5DC4A2
0x5DC563
0x5DC69F
0x5DC7FF
0x5DC9A9
0x5DCCDA
0x5DCE9C
0x5DCF21
0x5DCF3F
0x5DCF54
0x5DCFC9
0x5DD036
0x5DD42F
0x5DD454
0x5DD83E
0x5DD88E
0x5DD8DE
0x5DD91F
0x5DD930
0x5DD964
0x5DDA10
0x5DDD96
0x5DDF22
0x5DDFFD
0x5DE087
0x5DE18F
0x5DE1D9
0x5DE550
0x5DE5E1
0x5DE774
0x5DE7E5
0x5DE804
0x5DE8A0
0x5DEC43
0x5DECBA
0x5DED12
0x5DED62
0x5DEDD5
0x5DEEA6
0x5DEF08
0x5DEF50
0x5DEFB0
0x5DEFF8
0x5DF154
0x5DF286
0x5DF30A
0x5DF36E
0x5DF407
0x5DF428
0x5DF80A
0x5DF820
0x5DF869
0x5DFC79
0x5DFFAF
0x5E0081
0x5E00A7
0x5E0108
0x5E0119
0x5E0148
0x5E0B91
0x5E0BE9
0x5E0CA0
0x5E0D15
0x5E22AE
0x5E2308
0x5E2803
0x5E2AF3
0x5E2BD2
0x5E2BD7
0x5E4412
0x5E445C
0x5E473E
0x5E48D4
0x5E49DF
0x5E4A89
0x5E4C50
0x5E4D95
0x5E4FAF
0x5E5019
0x5E5083
0x5E5795
0x5E7185
0x5E769B
0x5E7CFA
0x5E7D89
0x5E839F
0x5E83C0
0x5E86E4
0x5E8756
0x5E88B2
0x5E8980
0x5E8E46
0x5E91E3
0x5E95D2
0x5E96B6
0x5E9731
0x5E9B59
0x5EA280
0x5EA372
0x5EA3C7
0x5EB563
0x5EB588
0x5ED3C1
0x5ED65C
0x5EDD6D
0x5EDE2C
0x5EE284
0x5EE8C8
0x5EEC1B
0x5EF0F8
0x5EF64D
0x5EFAB8
0x5EFB2D
0x5EFB4F
0x5EFB60
0x5EFB7E
0x5EFBB1
0x5EFC07
0x5EFC36
0x5EFC7C
0x5EFCB0
0x5EFCDF
0x5EFD05
0x5EFD26
0x5EFD43
0x5EFD62
0x5EFD76
0x5EFD89
0x5EFD8D
0x5EFDAA
0x5EFDAE
0x5EFDE5
0x5EFE41
0x5EFE52
0x5EFEA0
0x5EFEE4
0x5EFEFC
0x5EFF1B
0x5EFF52
0x5EFF96
0x5F002E
0x5F0050
0x5F0079
0x5F040F
0x5F042A
0x5F0AD2
0x5F18A4
0x5F18CE
0x5F1CE2
0x5F1D37
0x5F22FC
0x5F24A9
0x5F265F
0x5F2987
0x5F29C4
0x5F2B7A
0x5F2EC9
0x5F3078
0x5F3168
0x5F3181
0x5F31E1
0x5F3445
0x5F3504
0x5F3599
0x5F3722
0x5F3728
0x5F41C1
0x5F42CA
0x5F43E2
0x5F44A5
0x5F4579
0x5F4EE0
0x5F5196
0x5F521D
0x5F5293
0x5F5304
0x5F535C
0x5F5361
0x5F560F
0x5F5860
0x5F58D3
0x5F58EB
0x5F5C28
0x5F5D66
0x5F5FDC
0x5F6010
0x5F61BF
0x5F62C8
0x5F6328
0x5F66B6
0x5F687D
0x5F6AD7
0x5F6CF6
0x5F6DDA
0x5F6FDC
0x5F710D
0x5F71B8
0x5F735E
0x5F743A
0x5F750D
0x5F77C3
0x5F79E0
0x5F7CED
0x5F7FB8
0x5F8100
0x5F82E6
0x5F82EC
0x5F8B8E
0x5F8B92
0x5F8BD6
0x5F9223
0x5F9EDF
0x5F9F85
0x5FA126
0x5FB11C
0x5FB62A
0x5FB679
0x5FB8A7
0x5FB959
0x5FB9CD
0x5FBB6D
0x5FCAA0
0x5FCD0A
0x5FD7A4
0x5FDE0B
0x5FE263
0x5FE4A6
0x5FE545
0x5FE65E
0x5FE707
0x5FE785
0x5FE8A3
0x5FE9A7
0x5FE9AD
0x5FF176
0x5FF8E3
0x5FFA22
0x5FFAFB
0x5FFB3E
0x5FFBD8
0x5FFCEC
0x5FFD2F
0x60027B
0x6003B5
0x6006B9
0x600708
0x60085E
0x602DF1
0x602E80
0x603594
0x604418
0x60441E
0x605018
0x608623
0x6087F6
0x608959
0x608D74
0x6091B3
0x6091F3
0x609385
0x6094D2
0x6094F2
0x609574
0x609739
0x609860
0x60990A
0x6099AE
0x6099C3
0x6099FC
0x609A4B
0x609AAF
0x609B41
0x609B6B
0x609B95
0x609C9A
0x609CE9
0x609DFF
0x609E31
0x609E73
0x609EEF
0x609F2D
0x609F47
0x60A028
0x60A084
0x60A0CA
0x60A330
0x60A3A4
0x60A3C2
0x60A403
0x60A43F
0x60A4A3
0x60A52A
0x60A5D3
0x60A5F8
0x60A609
0x60A627
0x60A661
0x60A681
0x60A6A7
0x60A6DC
0x60A751
0x60A7FB
0x60A819
0x60A843
0x60A864
0x60A881
0x60A8AC
0x60A90A
0x60A95D
0x60A988
0x60A9E3
0x60AA51
0x60AA96
0x60AAC2
0x60AAD1
0x60AADC
0x60AB15
0x60AB4E
0x60ABDB
0x60AD86
0x60ADA5
0x60ADC4
0x60AE37
0x60AE7E
0x60AEC6
0x60B043
0x60B146
0x60B1F8
0x60B486
0x60B703
0x60B7FB
0x60C95F
0x60C9BF
0x60CA0F
0x60CAF2
0x60CC38
0x60CC7A
0x60CDFE
0x60CE24
0x60CE40
0x60CFC9
0x60D088
0x60D145
0x60D1EC
0x60D289
0x60D2CA
0x60D2E5
0x60D433
0x60D44A
0x60D463
0x60D49E
0x60D4F2
0x60D9C0
0x60DB06
0x60DB72
0x60E5B6
0x60E6BC
0x60E94C
0x60EA3B
0x60EC79
0x60EE2B
0x60EEF1
0x60F076
0x60F128
0x60F160
0x60F30D
0x60F492
0x60FD9E
0x60FE7D
0x60FEE8
0x60FF0D
0x60FF69
0x60FF6E
0x60FFBA
0x610019
0x61053F
0x610B8F
0x610C05
0x610E7C
0x611000
0x611018
0x611074
0x611096
0x6111F5
0x611273
0x6112AA
0x6112FD
0x61132A
0x611576
0x6118B0
0x6118FB
0x61194F
0x611979
0x611B4A
0x611EE8
0x61200A
0x61227F
0x612629
0x61262D
0x612671
0x612AB0
0x6132B3
0x61395C
0x613961
0x613CBA
0x613EAD
0x614079
0x61436C
0x614371
0x614493
0x6148A8
0x614C66
0x61507E
0x6153C2
0x6154EE
0x6155A5
0x6155B8
0x61564C
0x6158E1
0x615909
0x615989
0x615A9C
0x615D99
0x615EAE
0x616288
0x6162B2
0x6162FD
0x61631B
0x61634E
0x61637D
0x6163C7
0x61640D
0x616448
0x61649D
0x6164CE
0x6164DF
0x6164F4
0x61654B
0x6165AB
0x616736
0x616832
0x6168F0
0x616964
0x616C76
0x616E57
0x61701F
0x61710A
0x6171F1
0x617CE8
0x617EDE
0x617FF2
0x618008
0x618111
0x618135
0x618150
0x618161
0x6181CD
0x618209
0x6182D6
0x61985E
0x61B164
0x61B238
0x61B5D2
0x61B80E
0x61B940
0x61BF85
0x61D095
0x61D0C2
0x61D244
0x61D435
0x61D587
0x61D7C8
0x61D88A
0x61D90E
0x61DA75
0x61E5C0
0x61E685
0x61E68B
0x61E763
0x61E769
0x61E860
0x61E866
0x61E93E
0x61EB23
0x61EBB6
0x61ED07
0x61F474
0x61F4B9
0x61F51C
0x61F55F
0x61F664
0x61F6DE
0x61F77D
0x61F818
0x61FE32
0x6210D9
0x6212FC
0x6215FF
0x621962
0x621A65
0x621B68
0x621C2E
0x622986
0x6229F0
0x622C13
0x622E7D
0x623020
0x6233C4
0x623410
0x623726
0x6239EC
0x623A32
0x623AFB
0x623C73
0x623D4B
0x623DB3
0x623EFF
0x623F05
0x624C26
0x6252A8
0x62533B
0x6253CE
0x6253D3
0x625ACE
0x62691A
0x62809E
0x6281C4
0x628349
0x628499
0x62869D
0x628E0B
0x628E62
0x628EB9
0x628F10
0x629E12
0x62A0FA
0x62A16E
0x62A1E1
0x62B2AB
0x62B31B
0x62B560
0x62C00F
0x62C9BA
0x62CE62
0x62D52E
0x62D68C
0x62D818
0x62D926
0x62D994
0x62DBA8
0x62DF09
0x62E0E5
0x62E4C9
0x62E6C8
0x62ECDD
0x62EDFB
0x62EF49
0x62EFDA
0x62F122
0x62F281
0x62F335
0x62F483
0x62F5EA
0x62F650
0x62F728
0x62F82C
0x62F8C4
0x62F937
0x62FA38
0x62FA72
0x630D28
0x631BDA
0x6323A1
0x63242B
0x632601
0x632985
0x632A79
0x632C18
0x634D4A
0x6365B8
0x636724
0x636953
0x637F61
0x63893A
0x63AD85
0x63BCE4
0x63BE30
0x63C93C
0x63D2EC
0x63DCD7
0x63E7F0
0x63F648
0x63FCAC
0x644063
0x644142
0x644507
0x645A0E
0x64601F
0x6488F0
0x64890A
0x649D49
0x649DFE
0x649EB3
0x649F68
0x64BD7C
0x64BE07
0x64BFDD
0x64C054
0x64CF12
0x64CF59
0x64CF88
0x64E3D3
0x64E48C
0x64E548
0x64E5D4
0x64E8EB
0x64ED0E
0x64ED6D
0x64EDD8
0x64EE7A
0x64EEBA
0x64EF7B
0x64F047
0x64F11E
0x64F1EA
0x64F502
0x64F54E
0x64F755
0x64FC24
0x64FD24
0x650310
0x65056D
0x6506D4
0x65073A
0x6507F7
0x650AD5
0x650C5B
0x650E0C
0x650E72
0x650ECE
0x650F1F
0x651206
0x6513C4
0x651562
0x6515E6
0x6517C7
0x6517F6
0x651997
0x651A29
0x65200B
0x652079
0x6520BC
0x652203
0x652428
0x652566
0x652659
0x652749
0x652801
0x652EF1
0x652EFC
0x652F00
0x652F17
0x652F4B
0x652F84
0x652FBA
0x652FFB
0x65300C
0x653036
0x653083
0x6530BD
0x653102
0x653134
0x653169
0x6531DA
0x6531F6
0x65322B
0x653298
0x6532E7
0x65333B
0x653359
0x653393
0x6533B3
0x653420
0x6534CA
0x653569
0x65359D
0x6535CC
0x6535EA
0x653614
0x653618
0x65364C
0x653668
0x6536A7
0x6536C8
0x6536E5
0x653710
0x65376E
0x6537C1
0x6537EC
0x653847
0x65388E
0x6538FC
0x65391B
0x653960
0x65399A
0x6539DF
0x653A11
0x653A7E
0x653ACD
0x653B0D
0x653B6D
0x653B84
0x653B90
0x653C0B
0x653C1B
0x653C85
0x653CF9
0x653DFF
0x653E3F
0x653FE7
0x654011
0x654088
0x6540D7
0x65414E
0x654152
0x65418C
0x6541E4
0x654237
0x65429D
0x6542B5
0x6542F9
0x654373
0x6543AC
0x6543B0
0x6543CC
0x65458C
0x6545B9
0x6545D3
0x6548E4
0x654B59
0x654B83
0x654D04
0x654EF8
0x6550B7
0x65511E
0x655359
0x6553C3
0x6553D9
0x655447
0x6554B7
0x6555CA
0x655710
0x655798
0x65579D
0x6558AC
0x655E90
0x655EE8
0x6560CD
0x65619B
0x656270
0x6563A1
0x656548
0x65654D
0x65676C
0x656835
0x656A5E
0x656B98
0x656C6C
0x656CBB
0x656D29
0x656FA8
0x657157
0x6573EA
0x657466
0x6575EB
0x65766E
0x6576F2
0x65784E
0x657BD9
0x657C68
0x657DE9
0x657E76
0x657F93
0x657FCC
0x657FD1
0x6582F8
0x658D9F
0x6590E9
0x65953E
0x659543
0x6596EB
0x659A12
0x659E83
0x659F3D
0x65A385
0x65A567
0x65A772
0x65A777
0x65A97F
0x65ABF5
0x65AC71
0x65ADB9
0x65AECB
0x65AF26
0x65AFE0
0x65B022
0x65B126
0x65B1F9
0x65B248
0x65B2E5
0x65B33F
0x65B3E7
0x65B474
0x65B4F7
0x65B53C
0x65B56B
0x65B5A8
0x65B5BD
0x65B757
0x65B78B
0x65B79B
0x65B80F
0x65B81E
0x65B84B
0x65B910
0x65B926
0x65B92D
0x65B9A6
0x65BA98
0x65BD40
0x65BF8C
0x65BFCF
0x65BFDE
0x65C02F
0x65C0F3
0x65C112
0x65C1DE
0x65C1FD
0x65C213
0x65C2A8
0x65C4A1
0x65C8E4
0x65C992
0x65CA25
0x65CA5D
0x65CABF
0x65CAE3
0x65CB44
0x65CBF7
0x65CC4C
0x65CC7D
0x65CD75
0x65D576
0x65D819
0x65D84E
0x65D859
0x65D8F9
0x65D9D2
0x65D9FE
0x65DA41
0x65DA63
0x65DAB5
0x65DBAF
0x65DBD3
0x65DCEC
0x65DFF2
0x65E171
0x65E1E0
0x65E28F
0x65E359
0x65E3C8
0x65E46F
0x65E529
0x65E590
0x65E637
0x65E6D8
0x65E6E9
0x65E707
0x65E731
0x65E735
0x65E767
0x65E7C0
0x65E7DD
0x65E81C
0x65E85B
0x65E89A
0x65E8B4
0x65E8CF
0x65E8ED
0x65E917
0x65E985
0x65E9A3
0x65E9CD
0x65EA07
0x65EA4C
0x65EA7E
0x65EAB3
0x65EAD3
0x65EAEF
0x65EB24
0x65EB91
0x65EBFE
0x65ECA8
0x65ED47
0x65ED96
0x65ED9A
0x65EDB8
0x65EDD1
0x65EF27
0x65EF90
0x65F038
0x65F247
0x65F329
0x65F4BB
0x65F54F
0x65F68F
0x65F787
0x65FCC4
0x65FEB5
0x65FEF6
0x660070
0x660145
0x660392
0x660644
0x660692
0x66072F
0x6608AA
0x660CBE
0x660CE5
0x660F25
0x6612C0
0x6616E5
0x6618FB
0x66192F
0x6619A4
0x6619CA
0x661AA9
0x661B88
0x661B99
0x661C95
0x661E28
0x661E5C
0x661F88
0x662149
0x6621D8
0x66226A
0x662288
0x6622B2
0x6622FF
0x662334
0x662338
0x66236C
0x662370
0x6623A2
0x6623FD
0x66243B
0x662466
0x6624C4
0x662542
0x66259D
0x6625E4
0x662652
0x6626B8
0x6626EB
0x662719
0x662759
0x66287E
0x662940
0x662B41
0x662BEF
0x662C50
0x662CA0
0x662D7A
0x663018
0x6630EA
0x66322D
0x663257
0x663281
0x6632D3
0x6632F4
0x663320
0x6635C3
0x6637DA
0x6639C0
0x663E29
0x663E3C
0x663E4F
0x663F9E
0x664172
0x6641F4
0x664313
0x664402
0x66449B
0x66473D
0x6647C6
0x6647E4
0x66482F
0x6648A1
0x6648E1
0x66494A
0x664A17
0x664A57
0x664A72
0x664C6A
0x664CA3
0x664D5B
0x664DDC
0x664EFE
0x664F67
0x664FAA
0x6654AD
0x6654F8
0x665665
0x665914
0x665A3D
0x665DE8
0x665EDA
0x666066
0x6661E8
0x666383
0x666417
0x6666DA
0x66687D
0x6668A6
0x6669E6
0x666D1A
0x666E20
0x666EAA
0x667409
0x667479
0x667692
0x667727
0x667806
0x667B51
0x667D1C
0x667D7D
0x667E40
0x668218
0x668280
0x6685A0
0x66884F
0x6689B8
0x668B56
0x668DA4
0x668E72
0x6690B3
0x66921C
0x66935A
0x669405
0x66947F
0x669621
0x66967E
0x669861
0x669968
0x669E2A
0x66A039
0x66A0A7
0x66A0E4
0x66A222
0x66A25D
0x66A2D0
0x66A43B
0x66A4C9
0x66A4D6
0x66A4E8
0x66A578
0x66A611
0x66A725
0x66A96D
0x66AAAB
0x66AC45
0x66AD5A
0x66B0DD
0x66B15A
0x66B1E0
0x66B266
0x66B2A0
0x66B2EE
0x66B33C
0x66B37A
0x66B3B8
0x66B44F
0x66B4F2
0x66B595
0x66B62C
0x66B6C5
0x66B710
0x66B79E
0x66B7E9
0x66B863
0x66B8C1
0x66B8EF
0x66B92D
0x66B98B
0x66B9C9
0x66BA1C
0x66BA67
0x66BAB1
0x66BAEF
0x66BB45
0x66BBA1
0x66BBFC
0x66BC47
0x66BCA2
0x66BCDD
0x66BD28
0x66BD76
0x66BDE4
0x66BE32
0x66BE90
0x66BEEE
0x66BF4C
0x66BFAA
0x66C015
0x66C063
0x66C0AB
0x66C0F9
0x66C293
0x66C30A
0x66C370
0x66C3BD
0x66C3F7
0x66C43C
0x66C4A9
0x66C4F8
0x66C51F
0x66C56C
0x66C5A6
0x66C5EB
0x66C658
0x66C6A7
0x66C6CE
0x66C74A
0x66C8DB
0x66C99C
0x66C9D3
0x66CA51
0x66CA74
0x66CAAD
0x66CADB
0x66CB09
0x66CC47
0x66CCC7
0x66CCDC
0x66CCFB
0x66CD76
0x66CE13
0x66CE73
0x66CF05
0x66D068
0x66D2C8
0x66D3B7
0x66D751
0x66DAAB
0x66DABD
0x66DAFC
0x66DB07
0x66DBC7
0x66DC68
0x66DEF0
0x66DEFC
0x66DF76
0x66E03D
0x66E138
0x66E1F4
0x66E35E
0x66E406
0x66E431
0x66E475
0x66E4BD
0x66E947
0x66E94F
0x66E9A5
0x66EAD0
0x66EB95
0x66EBB2
0x66EEF7
0x66F085
0x66F182
0x66F245
0x66F278
0x66F41D
0x66F4B1
0x66F6A3
0x66F6B2
0x66F6BD
0x66F7E1
0x66F7E6
0x66F97D
0x66FCB3
0x66FCBA
0x670136
0x67014B
0x6701BB
0x6701F0
0x67022E
0x6702B6
0x670355
0x670364
0x67054A
0x67059B
0x67072A
0x670B59
0x670B77
0x670BA1
0x670BDB
0x670C20
0x670C52
0x670C6E
0x670CA3
0x670D10
0x670D5F
0x670D8E
0x670DD8
0x670E1E
0x670E3C
0x670E76
0x670EAB
0x670ECB
0x670F38
0x670FE2
0x671081
0x6710BB
0x671100
0x67116D
0x6711BC
0x6711DB
0x6711FB
0x67122E
0x671257
0x67126B
0x67127E
0x671282
0x67129F
0x6712A3
0x6712D9
0x6712EB
0x6712FD
0x671318
0x671329
0x671341
0x671345
0x671360
0x67138E
0x671392
0x6713C9
0x6713CD
0x671405
0x671409
0x671432
0x671475
0x671479
0x6714A2
0x6714E5
0x6714E9
0x671512
0x671516
0x67153F
0x671582
0x6715C5
0x671621
0x671625
0x671654
0x671674
0x671685
0x67169D
0x6716EB
0x67172F
0x671770
0x6717DB
0x6717DF
0x6717FB
0x671813
0x671832
0x67187A
0x671899
0x6718C1
0x6718F8
0x671920
0x671964
0x671968
0x671984
0x6719A3
0x6719C2
0x671A0A
0x671A29
0x671A48
0x671A82
0x671AC0
0x671ADF
0x671AFE
0x671B26
0x671B49
0x671B6E
0x671B93
0x671BC1
0x671C03
0x671C20
0x671C62
0x671C7F
0x671CC1
0x671CDE
0x671D20
0x671D3D
0x671D7F
0x671D9C
0x671DBE
0x671DD9
0x671E01
0x671E29
0x671E51
0x671E79
0x671ECA
0x671EE9
0x671F11
0x671F39
0x671F4B
0x671F66
0x671F78
0x671F93
0x671FA5
0x671FEC
0x672001
0x672016
0x67202B
0x672071
0x6720E1
0x672134
0x6721B2
0x67223D
0x67229D
0x672328
0x672345
0x672357
0x672369
0x67237B
0x672396
0x6723B1
0x6723C3
0x6723D5
0x6723E7
0x672402
0x67241D
0x672438
0x67244A
0x67245C
0x672477
0x672492
0x6724A4
0x6724BF
0x6724D0
0x67251C
0x6725DB
0x67265D
0x672685
0x672689
0x6726A5
0x6726CD
0x6726F5
0x672707
0x672722
0x672734
0x672746
0x672761
0x672773
0x672785
0x6727A0
0x6727B2
0x672807
0x67285C
0x6728BB
0x672910
0x672965
0x6729C4
0x672A19
0x672A6E
0x672ACD
0x672B22
0x672B77
0x672BD6
0x672BE8
0x672C03
0x672C15
0x672C27
0x672C42
0x672C54
0x672C66
0x672C81
0x672C93
0x672CA5
0x672CC0
0x672CD2
0x672CE4
0x672CFF
0x672D11
0x672D23
0x672D3E
0x672D50
0x672D62
0x672D7D
0x672D8F
0x672DA1
0x672DBC
0x672DCE
0x672DE0
0x672DFB
0x672E0D
0x672E1F
0x672E3A
0x672E4C
0x672E67
0x672E79
0x672E8B
0x672EA6
0x672EB8
0x672ECA
0x672EE5
0x672F65
0x672FB8
0x672FD3
0x672FE5
0x673000
0x673012
0x67302D
0x67303F
0x673051
0x67306C
0x67307E
0x673099
0x6730B8
0x6730E0
0x673109
0x67314B
0x6731E4
0x67325C
0x6732D4
0x6732E4
0x673301
0x67330E
0x673323
0x673334
0x673356
0x673367
0x6733FD
0x67353E
0x673580
0x673599
0x6735BA
0x673632
0x67366E
0x6736A9
0x6736ED
0x673754
0x6737E4
0x673973
0x673B11
0x673BC6
0x673C29
0x673CC6
0x673D2B
0x673DD5
0x673FE0
0x67404E
0x6740B3
0x6740F0
0x67412D
0x674142
0x6741B6
0x674277
0x6744AD
0x674503
0x674559
0x6745D9
0x67466A
0x6746A9
0x6746DC
0x67474F
0x6748CA
0x674979
0x6749AC
0x674A45
0x674A9B
0x674B44
0x674BC8
0x674C8A
0x674CC9
0x674D08
0x674D57
0x674D96
0x674DCE
0x674E24
0x674E39
0x674E8F
0x674EDE
0x674F16
0x674F5F
0x674FD8
0x675092
0x67515D
0x67521B
0x67527A
0x67538A
0x675476
0x67559D
0x675679
0x67576A
0x6758B3
0x6762F5
0x676690
0x6766E2
0x676711
0x67675F
0x6767DC
0x67683C
0x6768A9
0x6768EC
0x676A11
0x676B4D
0x676BB2
0x676CF3
0x676D3D
0x676DA9
0x676E1C
0x677537
0x6775D0
0x6777B3
0x6779FB
0x677BED
0x677C0C
0x677C4F
0x677C74
0x677CC7
0x677CCB
0x677CFE
0x677D02
0x677D22
0x677D7E
0x677DC2
0x677E3C
0x677E9D
0x677F02
0x677FF9
0x677FFD
0x678096
0x678107
0x678178
0x6781AD
0x6781E2
0x678299
0x6782E3
0x6782E7
0x678341
0x67838B
0x678474
0x6784C7
0x67853C
0x67857C
0x678580
0x6785D1
0x67860E
0x678645
0x678699
0x67869D
0x678784
0x678878
0x678A2E
0x678C89
0x678CDA
0x678D48
0x678F81
0x67909F
0x6791F9
0x6795BF
0x679F2B
0x67A064
0x67A0E1
0x67A85A
0x67A9D1
0x67AA06
0x67ACAF
0x67ACB8
0x67AD1A
0x67AE12
0x67AE1A
0x67AE40
0x67AF24
0x67B078
0x67B158
0x67B336
0x67B4A0
0x67B6D0
0x67BBE0
0x67BF67
0x67BF86
0x67BFA5
0x67C0E4
0x67C1A7
0x67C378
0x67C37C
0x67C3FB
0x67CAAF
0x67CC42
0x67CDA5
0x67CE2A
0x67CE62
0x67CED9
0x67CF0B
0x67CFDB
0x67D091
0x67D0AF
0x67D0D9
0x67D0DD
0x67D111
0x67D115
0x67D147
0x67D1A2
0x67D1FB
0x67D239
0x67D264
0x67D2C2
0x67D340
0x67D39B
0x67D409
0x67D428
0x67D448
0x67D463
0x67D47D
0x67D4A6
0x67D4DF
0x67D4F3
0x67D506
0x67D50A
0x67D527
0x67D539
0x67D54A
0x67D562
0x67D566
0x67D59D
0x67D5A1
0x67D5D9
0x67D5DD
0x67D606
0x67D60A
0x67D633
0x67D637
0x67D660
0x67D664
0x67D68D
0x67D691
0x67D6C0
0x67D6EB
0x67D739
0x67D77D
0x67D781
0x67D79D
0x67D7A1
0x67D7BD
0x67D7DC
0x67D827
0x67D873
0x67D8EB
0x67D94C
0x67D9AD
0x67D9BD
0x67D9DA
0x67D9E7
0x67D9F8
0x67DA02
0x67DA57
0x67DA79
0x67DACB
0x67DADC
0x67DB63
0x67DCA4
0x67DD0E
0x67DD93
0x67DDC6
0x67DE8D
0x67DED3
0x67E02B
0x67E106
0x67E13E
0x67E2B6
0x67E391
0x67E3C9
0x67E480
0x67E55B
0x67E6B8
0x67E71A
0x67E752
0x67E7B4
0x67E7EC
0x67E91F
0x67EA86
0x67EADB
0x67EB30
0x67EBD5
0x67EBFF
0x67EC36
0x67EC3C
0x67EF4E
0x67EFFD
0x67F0AC
0x67F0C4
0x67F18A
0x67F244
0x67F29B
0x67F2BA
0x67F2ED
0x67F30D
0x67F340
0x67F354
0x67F367
0x67F36B
0x67F388
0x67F39A
0x67F3AC
0x67F3C7
0x67F3D8
0x67F3F0
0x67F3F4
0x67F42B
0x67F43C
0x67F48A
0x67F4CE
0x67F539
0x67F558
0x67F5A0
0x67F5BF
0x67F5F9
0x67F61C
0x67F641
0x67F653
0x67F665
0x67F677
0x67F689
0x67F69B
0x67F6B3
0x67F6C5
0x67F6D7
0x67F6E9
0x67F704
0x67F723
0x67F79B
0x67F813
0x67F823
0x67F840
0x67F84D
0x67F873
0x67F894
0x67F8B1
0x67F8D0
0x67F8EE
0x67F925
0x67F958
0x67F992
0x67F9E8
0x67FA1C
0x67FA42
0x67FA77
0x67FAEC
0x67FB48
0x67FB4E
0x68008F
0x6802D5
0x68037E
0x680425
0x6806BE
0x68086D
0x680984
0x680B03
0x680C50
0x680D3C
0x680D5E
0x680EEA
0x681212
0x6812C3
0x6812E8
0x681306
0x681330
0x68136E
0x681399
0x6813F7
0x681475
0x6814D0
0x68153E
0x68155D
0x681590
0x6815B9
0x6815F2
0x681606
0x681619
0x68161D
0x68163A
0x68164C
0x68165D
0x681661
0x68167C
0x681680
0x6816B7
0x6816BB
0x6816F3
0x6816F7
0x681720
0x681724
0x68174D
0x6817A9
0x6817AD
0x6817DC
0x6817E0
0x681817
0x681866
0x681888
0x681899
0x6818E7
0x68192B
0x681943
0x681962
0x681981
0x6819B8
0x6819D0
0x681A14
0x681A33
0x681A52
0x681A71
0x681A94
0x681AB9
0x681AD6
0x681AF3
0x681B10
0x681B25
0x681B44
0x681B63
0x681B82
0x681BA1
0x681BC0
0x681BDF
0x681BF1
0x681C03
0x681C18
0x681C2D
0x681C42
0x681C57
0x681C9D
0x681CF0
0x681D50
0x681DB0
0x681DC2
0x681DDF
0x681DF1
0x681E03
0x681E15
0x681E27
0x681E39
0x681E51
0x681E63
0x681E75
0x681E86
0x681E98
0x681EE4
0x681EF5
0x681F06
0x681F43
0x681F62
0x681FB3
0x681FB7
0x681FD3
0x681FF2
0x682011
0x682023
0x682035
0x682047
0x682059
0x6820AE
0x682103
0x682158
0x6821AD
0x6821BF
0x6821D1
0x6821E3
0x6821F5
0x682207
0x682219
0x68222B
0x68223D
0x68224F
0x682261
0x682273
0x682285
0x6822D8
0x6822EA
0x6822FC
0x68230E
0x682320
0x682332
0x682351
0x682369
0x682382
0x6823FA
0x68245B
0x68246B
0x682493
0x6824B0
0x6824BD
0x68252C
0x682541
0x682577
0x68257B
0x6825C9
0x6825F2
0x68261C
0x68265B
0x6826A9
0x6826ED
0x68272D
0x682773
0x6827C3
0x6828EA
0x682930
0x68295C
0x682DB6
0x6830F1
0x68339A
0x68345E
0x6835B9
0x68366E
0x683755
0x68399D
0x683B07
0x683B98
0x683D4F
0x683E2F
0x683EB1
0x683FF6
0x684209
0x684261
0x6842B2
0x684318
0x684369
0x6843CF
0x684457
0x6844DD
0x684563
0x6845C7
0x684643
0x68476C
0x684B25
0x684B76
0x684C31
0x684D99
0x684F5B
0x6850BC
0x685220
0x6852AC
0x6858D4
0x685BC6
0x685E53
0x685F29
0x686126
0x686177
0x686257
0x6862FA
0x68644A
0x686A64
0x686FD7
0x687175
0x6872B9
0x6873CD
0x687706
0x6878F9
0x68793F
0x68795D
0x687987
0x6879C1
0x687A06
0x687A38
0x687AAB
0x687ACB
0x687B38
0x687B87
0x687BA3
0x687BD8
0x687C45
0x687C94
0x687CB2
0x687CE5
0x687D3B
0x687DC6
0x687DF5
0x687E3F
0x687E85
0x687EA3
0x687ED1
0x687F0B
0x687F50
0x687F82
0x687F9E
0x687FD3
0x688040
0x68808F
0x6880AE
0x6880E1
0x688101
0x688134
0x68815D
0x688171
0x688184
0x688188
0x6881A5
0x6881B7
0x6881C8
0x6881E0
0x6881E4
0x6881FF
0x68822D
0x6882B2
0x6882D3
0x6882D7
0x68830E
0x68836A
0x6883A6
0x6883B7
0x688405
0x688449
0x68848A
0x6884F5
0x6884F9
0x688515
0x68852D
0x68854C
0x68856B
0x68856F
0x68858B
0x6885D3
0x6885F2
0x68862C
0x68864E
0x68866D
0x68868C
0x68869E
0x6886B9
0x6886CB
0x6886E6
0x6886F8
0x68873F
0x688754
0x688769
0x6887AF
0x688802
0x688844
0x688886
0x68889E
0x688909
0x68891B
0x688933
0x68894F
0x68896E
0x6889CD
0x688A2C
0x688A8B
0x688AEA
0x688B6A
0x688B7C
0x688BF4
0x688C6C
0x688C7C
0x688CA4
0x688CC1
0x688CCE
0x688CDF
0x688D05
0x688D2B
0x688D4C
0x688D6B
0x688DA8
0x688DD1
0x688E05
0x688E31
0x688E35
0x688E95
0x688EBF
0x688F8C
0x689057
0x689115
0x689153
0x68922D
0x689281
0x6892B2
0x6892E2
0x6892F3
0x689308
0x68931F
0x68938D
0x6893BD
0x689453
0x68948E
0x689536
0x689572
0x68959F
0x6895C5
0x689670
0x6896C6
0x68984C
0x689918
0x689981
0x6899B1
0x689AE9
0x689AED
0x689B25
0x689B8E
0x689D24
0x689D50
0x689D7F
0x689E47
0x689EBD
0x689F70
0x68A0D3
0x68A0D7
0x68A0FE
0x68A102
0x68A11D
0x68A121
0x68A142
0x68A1A2
0x68A1A8
0x68A28D
0x68A367
0x68A414
0x68A4EF
0x68A535
0x68A5CA
0x68A65F
0x68A692
0x68A943
0x68A9CE
0x68AD23
0x68AF6E
0x68B0B6
0x68B2CF
0x68B392
0x68B3B7
0x68B483
0x68B4EE
0x68B550
0x68BB8E
0x68BC0F
0x68BC6B
0x68BCD5
0x68BD32
0x68BF15
0x68C0EA
0x68C399
0x68C626
0x68CC17
0x68CF2B
0x68CFFE
0x68D08C
0x68D91A
0x68DC40
0x68DCFA
0x68E52A
0x68E74F
0x68E867
0x68E925
0x68F369
0x68F3D8
0x68F5C5
0x68F7C1
0x68F94F
0x68FB2C
0x68FD52
0x68FD9A
0x68FE09
0x690122
0x69014C
0x690236
0x6903CB
0x690FE4
0x69127A
0x6913FF
0x69164F
0x691669
0x691DE2
0x691F43
0x6922B8
0x6924E4
0x692525
0x69268D
0x6927C1
0x692854
0x692908
0x6929FE
0x692C79
0x692DF8
0x693124
0x693377
0x693723
0x6939EA
0x693B98
0x693DAE
0x693E24
0x693EEA
0x69408E
0x69439F
0x69486C
0x6949FC
0x694A9B
0x694F95
0x6951A7
0x695399
0x6954D4
0x6955EF
0x6957CE
0x695EDD
0x695FE4
0x696115
0x69628A
0x696402
0x6978A4
0x698492
0x6987A2
0x69898D
0x698C65
0x698F92
0x6991FD
0x699AEE
0x699CE5
0x699E3B
0x699E59
0x699E83
0x699EAD
0x699EEB
0x699F16
0x699F74
0x699FF2
0x69A04D
0x69A0BB
0x69A10D
0x69A18C
0x69A2A5
0x69A3A8
0x69A496
0x69A4D4
0x69A515
0x69AC11
0x69AD37
0x69AD6E
0x69AEB5
0x69AFB1
0x69AFE5
0x69B111
0x69B12F
0x69B158
0x69B192
0x69B1D4
0x69B209
0x69B27E
0x69B2CA
0x69B448
0x69B48D
0x69B52E
0x69B622
0x69B646
0x69B66A
0x69B6E5
0x69B752
0x69B793
0x69BB33
0x69BB38
0x69BD34
0x69BDA5
0x69BE36
0x69C005
0x69C35C
0x69C372
0x69C386
0x69C399
0x69C39D
0x69C3BA
0x69C6D5
0x69C751
0x69C7D2
0x69C822
0x69C8A3
0x69C924
0x69C9F4
0x69CAA3
0x69CC4D
0x69CCBA
0x69CD27
0x69CE08
0x69CE89
0x69CEEA
0x69CF3A
0x69CFBB
0x69D139
0x69D1BA
0x69D227
0x69D54A
0x69D5CB
0x69D638
0x69D6E7
0x69D768
0x69D819
0x69D8A3
0x69D924
0x69DAA7
0x69DB56
0x69DBF1
0x69DC5E
0x69DCDD
0x69DD8C
0x69DEA6
0x69DF27
0x69E06F
0x69E0F0
0x69E17A
0x69E1E7
0x69E237
0x69E287
0x69E2F4
0x69E3F4
0x69E446
0x69E6EE
0x69E740
0x69E81C
0x69E8F8
0x69E979
0x69E9AA
0x69EB38
0x69EB69
0x69EB9A
0x69EC1B
0x69ECA5
0x69ECF5
0x69ED7F
0x69EDEC
0x69EE59
0x69EED6
0x69F079
0x69F169
0x69F26A
0x69F322
0x69F3D3
0x6A01D5
0x6A0256
0x6A265A
0x6A26E4
0x6A2891
0x6A2B35
0x6A2C07
0x6A2CB9
0x6A2D0E
0x6A2D8F
0x6A2E1C
0x6A2E8E
0x6A2F58
0x6A2F9C
0x6A2FE0
0x6A30AA
0x6A3174
0x6A323E
0x6A3308
0x6A33D2
0x6A349C
0x6A3566
0x6A3630
0x6A36FA
0x6A37C4
0x6A3808
0x6A38D2
0x6A3916
0x6A39E0
0x6A3AAA
0x6A3B74
0x6A3C3E
0x6A3D08
0x6A4013
0x6A408F
0x6A4110
0x6A4160
0x6A41E1
0x6A4262
0x6A432A
0x6A43D1
0x6A4573
0x6A45E0
0x6A464D
0x6A4726
0x6A47A7
0x6A4808
0x6A4858
0x6A48D9
0x6A4A54
0x6A4AD5
0x6A4B42
0x6A4E62
0x6A4EE3
0x6A4F50
0x6A4FF7
0x6A5078
0x6A5121
0x6A51AB
0x6A522C
0x6A53A7
0x6A544E
0x6A54E9
0x6A5556
0x6A55D5
0x6A567C
0x6A578E
0x6A580F
0x6A594F
0x6A59D0
0x6A5A5A
0x6A5AC7
0x6A5B17
0x6A5B67
0x6A5BD4
0x6A5CD1
0x6A5D23
0x6A5FC3
0x6A6015
0x6A60E9
0x6A61BD
0x6A623E
0x6A626F
0x6A63F5
0x6A6426
0x6A6457
0x6A64D8
0x6A6562
0x6A65B2
0x6A663C
0x6A66A9
0x6A6716
0x6A6793
0x6A6933
0x6A6A1B
0x6A6B19
0x6A6BD1
0x6A6C7A
0x6A7A6C
0x6A7AED
0x6A9EE6
0x6A9F70
0x6AA115
0x6AA3A1
0x6AA46B
0x6AA50D
0x6AA562
0x6AA5E3
0x6AA670
0x6AA6E2
0x6AA79C
0x6AA7E0
0x6AA824
0x6AA8DE
0x6AA998
0x6AAA52
0x6AAB0C
0x6AABC6
0x6AAC80
0x6AAD3A
0x6AADF4
0x6AAEAE
0x6AAF68
0x6AAFAC
0x6AB066
0x6AB0AA
0x6AB164
0x6AB21E
0x6AB2D8
0x6AB392
0x6AB44C
0x6AB727
0x6AB768
0x6AB7E1
0x6AB822
0x6AB89B
0x6AB914
0x6AB9DD
0x6ABA84
0x6ABC49
0x6ABCAC
0x6ABD0F
0x6ABDB6
0x6ABE2F
0x6ABE92
0x6ABED3
0x6ABF4C
0x6AC05D
0x6AC0D6
0x6AC139
0x6AC431
0x6AC4AA
0x6AC50D
0x6AC5B4
0x6AC62D
0x6AC6D8
0x6AC75D
0x6AC7D6
0x6AC931
0x6AC9D8
0x6ACA3B
0x6ACA9E
0x6ACB27
0x6ACBCE
0x6ACCF8
0x6ACD71
0x6ACEE4
0x6ACF5D
0x6ACFE2
0x6AD045
0x6AD086
0x6AD0C7
0x6AD12A
0x6AD1AF
0x6AD1F4
0x6AD539
0x6AD57E
0x6AD626
0x6AD6CE
0x6AD747
0x6AD766
0x6AD91D
0x6AD93C
0x6AD95B
0x6AD9D4
0x6ADA59
0x6ADA9A
0x6ADB1F
0x6ADB82
0x6ADBE5
0x6ADC6A
0x6ADD9E
0x6ADE87
0x6ADF0C
0x6ADF91
0x6AE044
0x6AEF9F
0x6AF018
0x6B17EA
0x6B186F
0x6B1A5C
0x6B1D9F
0x6B1EBC
0x6B1F62
0x6B1FC9
0x6B2070
0x6B2117
0x6B21A0
0x6B2241
0x6B2282
0x6B22C3
0x6B2364
0x6B2405
0x6B24A6
0x6B2547
0x6B25E8
0x6B2689
0x6B272A
0x6B27CB
0x6B286C
0x6B290D
0x6B294E
0x6B29EF
0x6B2A30
0x6B2AD1
0x6B2B72
0x6B2C13
0x6B2CB4
0x6B2D55
0x6B2DE9
0x6B2E79
0x6B2F06
0x6B2F9A
0x6B2FC9
0x6B302A
0x6B30B7
0x6B3104
0x6B313E
0x6B3183
0x6B31B8
0x6B3225
0x6B3274
0x6B3285
0x6B32BB
0x6B33B7
0x6B33EB
0x6B3517
0x6B3535
0x6B355E
0x6B3598
0x6B35C7
0x6B35E7
0x6B361C
0x6B3691
0x6B373B
0x6B37DA
0x6B37F8
0x6B3822
0x6B386F
0x6B38B4
0x6B38D0
0x6B3905
0x6B3943
0x6B396E
0x6B39CC
0x6B3A4A
0x6B3AA5
0x6B3B13
0x6B3B9D
0x6B3BE2
0x6B3BF8
0x6B3C16
0x6B3C4F
0x6B3CAB
0x6B3CE5
0x6B3D05
0x6B3D3A
0x6B3DAF
0x6B3E59
0x6B3F0B
0x6B3F50
0x6B3FA2
0x6B4072
0x6B4094
0x6B40BE
0x6B4115
0x6B436E
0x6B4518
0x6B4536
0x6B454C
0x6B46CA
0x6B47B8
0x6B4931
0x6B4A46
0x6B4A90
0x6B4AAC
0x6B4B12
0x6B4BBD
0x6B4BE5
0x6B4CB8
0x6B4DEC
0x6B4F01
0x6B4F6F
0x6B4F8E
0x6B5029
0x6B50D8
0x6B5224
0x6B5698
0x6B5A0C
0x6B5BC8
0x6B5C76
0x6B5E18
0x6B6223
0x6B6300
0x6B644E
0x6B6518
0x6B653E
0x6B6596
0x6B67C3
0x6B68E4
0x6B693D
0x6B6A6E
0x6B6ADC
0x6B6B8D
0x6B6B93
0x6B6C29
0x6B6CC1
0x6B6CE0
0x6B6D00
0x6B6DF2
0x6B7040
0x6B713A
0x6B7196
0x6B7628
0x6B7939
0x6B79B6
0x6B7B3B
0x6B7C6E
0x6B7CB2
0x6B7CDA
0x6B7DCE
0x6B8139
0x6B823F
0x6B851E
0x6B875E
0x6B87D9
0x6B8B43
0x6B8B9B
0x6B8FB4
0x6B8FD3
0x6B955F
0x6BA818
0x6BAA03
0x6BABDB
0x6BAC3C
0x6BAC41
0x6BAF71
0x6BAF9E
0x6BB111
0x6BB255
0x6BB31B
0x6BB4E8
0x6BB7E6
0x6BBBC8
0x6BC061
0x6BC2B9
0x6BC485
0x6BC5C0
0x6BC66E
0x6BC6AF
0x6BC6D0
0x6BC755
0x6BC75B
0x6BC956
0x6BCA4A
0x6BD25A
0x6BD2E5
0x6BD48D
0x6BD53B
0x6BD86C
0x6BD986
0x6BDAA9
0x6BE8C7
0x6BEC76
0x6BECD2
0x6BED66
0x6BEE12
0x6BEF23
0x6BEFFD
0x6BF178
0x6BF2D0
0x6BF458
0x6BF630
0x6BF6EF
0x6BF74D
0x6BF957
0x6BF9C9
0x6BFA83
0x6BFAEA
0x6BFB0C
0x6BFB3F
0x6BFB63
0x6BFB96
0x6BFBEB
0x6BFD5E
0x6BFD83
0x6BFE40
0x6BFEBD
0x6BFED8
0x6BFEDC
0x6BFF13
0x6BFF18
0x6BFF2F
0x6BFFCE
0x6BFFD2
0x6C0123
0x6C01A0
0x6C026D
0x6C0302
0x6C0360
0x6C03B2
0x6C03CC
0x6C040F
0x6C04AB
0x6C04BD
0x6C04D9
0x6C04EB
0x6C050B
0x6C052A
0x6C0572
0x6C05C0
0x6C06C5
0x6C07E8
0x6C084E
0x6C088C
0x6C08CA
0x6C09E8
0x6C0BBC
0x6C0C8B
0x6C0E97
0x6C0FAB
0x6C0FE2
0x6C120B
0x6C1249
0x6C1281
0x6C1301
0x6C139D
0x6C141E
0x6C148B
0x6C1510
0x6C1558
0x6C155C
0x6C1569
0x6C1633
0x6C1775
0x6C1781
0x6C18C9
0x6C18D0
0x6C18D7
0x6C18E2
0x6C18ED
0x6C18FD
0x6C190E
0x6C191C
0x6C192E
0x6C1940
0x6C194F
0x6C196A
0x6C1985
0x6C1998
0x6C19AE
0x6C19CC
0x6C19DB
0x6C19EE
0x6C19FD
0x6C1A11
0x6C1A27
0x6C1A39
0x6C1A44
0x6C1A4F
0x6C1A5E
0x6C1A6D
0x6C1A7C
0x6C1A8B
0x6C1A9A
0x6C1AAD
0x6C1AC0
0x6C1AD4
0x6C1AE3
0x6C1AF6
0x6C1B15
0x6C1B23
0x6C1B32
0x6C1B44
0x6C1B5A
0x6C1B69
0x6C1B81
0x6C1B94
0x6C1BAB
0x6C1BBA
0x6C1BCD
0x6C1BDF
0x6C1BF5
0x6C1C04
0x6C1C08
0x6C1C38
0x6C1C3C
0x6C1C6C
0x6C1C83
0x6C1C9A
0x6C1CB4
0x6C1CCE
0x6C1CE1
0x6C1CF4
0x6C1D0B
0x6C1D22
0x6C1D39
0x6C1D50
0x6C1D6B
0x6C1D82
0x6C1D99
0x6C1DB4
0x6C1DC5
0x6C1DE3
0x6C1E0D
0x6C1E4B
0x6C1E76
0x6C1ED4
0x6C1F52
0x6C1FAD
0x6C201B
0x6C2060
0x6C2094
0x6C20C3
0x6C2117
0x6C28BF
0x6C2EFD
0x6C2F8D
0x6C3080
0x6C314D
0x6C39A0
0x6C3F26
0x6C3F4C
0x6C3FBF
0x6C3FE5
0x6C4058
0x6C407E
0x6C4308
0x6C442D
0x6C4484
0x6C4A51
0x6C4CBC
0x6C4E1A
0x6C4F6B
0x6C5136
0x6C5561
0x6C574D
0x6C5851
0x6C5965
0x6C5A2C
0x6C5B0E
0x6C5C6B
0x6C5E8E
0x6C5F41
0x6C617C
0x6C61CB
0x6C6398
0x6C6670
0x6C67C8
0x6C6944
0x6C6A53
0x6C6A7C
0x6C6B7B
0x6C6C25
0x6C6C78
0x6C6CD3
0x6C6CE3
0x6C6D40
0x6C6D44
0x6C6D6D
0x6C6D79
0x6C6D7E
0x6C6DC9
0x6C6DD0
0x6C7046
0x6C7293
0x6C7328
0x6C73E1
0x6C7BE8
0x6C813E
0x6C824B
0x6C8251
0x6C89B1
0x6C8BF8
0x6C8D3D
0x6C8DC7
0x6C8E5D
0x6C918A
0x6C929C
0x6C9424
0x6C94D4
0x6C94EF
0x6C96B1
0x6C97EF
0x6C9857
0x6C9AB8
0x6C9B73
0x6C9C83
0x6C9CF8
0x6C9D62
0x6C9D88
0x6C9EB0
0x6C9F0D
0x6C9FFF
0x6CA036
0x6CA12B
0x6CA2C1
0x6CA2DD
0x6CA2FC
0x6CA318
0x6CA76B
0x6CA816
0x6CA870
0x6CA87F
0x6CA8A5
0x6CA909
0x6CA9D8
0x6CAA52
0x6CABD3
0x6CAC4F
0x6CACBE
0x6CAD45
0x6CAE31
0x6CAF4B
0x6CAFE7
0x6CB077
0x6CB093
0x6CB0C6
0x6CB3FB
0x6CB764
0x6CB7EE
0x6CB88F
0x6CB9B4
0x6CBA10
0x6CBA7D
0x6CBAE2
0x6CBB9D
0x6CBBAC
0x6CBBC9
0x6CC159
0x6CC1D8
0x6CC2A0
0x6CC37B
0x6CC408
0x6CC47F
0x6CC5BE
0x6CC641
0x6CC731
0x6CC748
0x6CC835
0x6CC842
0x6CC8C5
0x6CC8CB
0x6CD36F
0x6CD515
0x6CD705
0x6CD77E
0x6CD859
0x6CD997
0x6CDA8F
0x6CDD0B
0x6CE248
0x6CE9D8
0x6CEA30
0x6CEFE5
0x6CF1C8
0x6CF1F7
0x6CF3C2
0x6CF405
0x6CF503
0x6CF712
0x6CFC29
0x6CFC75
0x6CFC97
0x6CFCE4
0x6D0286
0x6D0316
0x6D0444
0x6D08B5
0x6D0BCB
0x6D0C86
0x6D1453
0x6D1A3E
0x6D1ADE
0x6D1B9C
0x6D1E34
0x6D1E4E
0x6D21A9
0x6D26C8
0x6D2723
0x6D27DB
0x6D37BF
0x6D3C6F
0x6D40E9
0x6D4276
0x6D43E1
0x6D4519
0x6D4D1E
0x6D4E0E
0x6D5164
0x6D52EA
0x6D5328
0x6D56B5
0x6D56EC
0x6D5722
0x6D57B7
0x6D581C
0x6D586D
0x6D59C9
0x6D5C4B
0x6D5F7A
0x6D5FA0
0x6D6737
0x6D67F7
0x6D68ED
0x6D6A9A
0x6D6AE7
0x6D6C0E
0x6D6D12
0x6D6E8F
0x6D7186
0x6D7510
0x6D75FA
0x6D77AF
0x6D77DC
0x6D7841
0x6D7902
0x6D7C14
0x6D7FA0
0x6D7FC7
0x6D80A2
0x6D80F6
0x6D81A8
0x6D8207
0x6D825B
0x6D83A2
0x6D83DA
0x6D843B
0x6D860F
0x6D8775
0x6D89CE
0x6D8BD2
0x6D8CCD
0x6D9086
0x6D91B5
0x6D924F
0x6D9273
0x6D9377
0x6D93D0
0x6D93F7
0x6D949D
0x6D954B
0x6D960A
0x6D9662
0x6D992B
0x6D997F
0x6DA0AF
0x6DA1A9
0x6DA4D4
0x6DA6D1
0x6DA761
0x6DA7DA
0x6DA847
0x6DACC7
0x6DACCD
0x6DB786
0x6DBE30
0x6DC2B7
0x6DC35C
0x6DC4FD
0x6DC5F3
0x6DC896
0x6DCB26
0x6DCC42
0x6DCFA5
0x6DD10C
0x6DD25D
0x6DD4F7
0x6DDA4A
0x6DE36E
0x6DE474
0x6DEBF4
0x6DEBF9
0x6DF066
0x6DF06B
0x6DF3C0
0x6DF41E
0x6DF51D
0x6DF5A2
0x6DF61B
0x6DF6E3
0x6DF71F
0x6DFC39
0x6DFCA4
0x6DFD0E
0x6E00C7
0x6E0312
0x6E039B
0x6E0596
0x6E0AAD
0x6E0B7D
0x6E1104
0x6E1339
0x6E1877
0x6E1A9A
0x6E1D53
0x6E21A2
0x6E227D
0x6E229D
0x6E2AF1
0x6E2B39
0x6E2B81
0x6E2E3D
0x6E321C
0x6E3295
0x6E3D4F
0x6E42EA
0x6E43B3
0x6E45D8
0x6E4601
0x6E4861
0x6E493C
0x6E4C30
0x6E4C72
0x6E4DA4
0x6E4DF7
0x6E4E42
0x6E5060
0x6E50E1
0x6E5279
0x6E5309
0x6E53EA
0x6E5412
0x6E5449
0x6E5615
0x6E5699
0x6E5B0F
0x6E5B3D
0x6E5FB8
0x6E5FEE
0x6E6B05
0x6E7672
0x6E7753
0x6E7833
0x6E7A50
0x6E7B6E
0x6E7CA8
0x6E7E0F
0x6E7E75
0x6E7FAB
0x6E8528
0x6E853F
0x6E8765
0x6E8850
0x6E887B
0x6E88AA
0x6E8BD1
0x6E9279
0x6E94C6
0x6E9866
0x6E986B
0x6E9BD7
0x6E9BDC
0x6E9F22
0x6EA7BA
0x6EAD6A
0x6EAE29
0x6EB7D1
0x6EBE08
0x6EBE90
0x6EC03C
0x6EC1D3
0x6EC3DC
0x6ED088
0x6ED305
0x6ED5FB
0x6ED655
0x6ED746
0x6ED7D0
0x6ED9E0
0x6EDBA6
0x6EDDD5
0x6EDE60
0x6EDE7F
0x6EE0AE
0x6EE18E
0x6EE222
0x6EE3E7
0x6EE410
0x6EE4AB
0x6EE7B8
0x6EE8A8
0x6EE8CD
0x6EEB04
0x6EEDEE
0x6EEE33
0x6EEF55
0x6EFE7A
0x6F0022
0x6F00CF
0x6F0211
0x6F027B
0x6F02D8
0x6F03F1
0x6F0466
0x6F0791
0x6F083B
0x6F088F
0x6F0A5B
0x6F0CDA
0x6F0DAE
0x6F0FF5
0x6F1039
0x6F10AB
0x6F110D
0x6F116F
0x6F1377
0x6F13F7
0x6F19B1
0x6F1F2F
0x6F2114
0x6F21EC
0x6F26B5
0x6F2A88
0x6F2B7B
0x6F2B80
0x6F3263
0x6F3438
0x6F3D56
0x6F4245
0x6F4341
0x6F437A
0x6F448E
0x6F44B8
0x6F4526
0x6F45A6
0x6F45D8
0x6F4749
0x6F48CA
0x6F4A90
0x6F4CCC
0x6F5162
0x6F518C
0x6F5232
0x6F5295
0x6F54C7
0x6F56A3
0x6F57D8
0x6F58A0
0x6F592A
0x6F5A5B
0x6F5B7C
0x6F5CC9
0x6F5F57
0x6F621C
0x6F6585
0x6F675D
0x6F6762
0x6F69AC
0x6F6C0A
0x6F6C31
0x6F6DB5
0x6F6E73
0x6F6FE0
0x6F7045
0x6F7596
0x6F7716
0x6F79E4
0x6F7D41
0x6F7EEE
0x6F7EF4
0x6F810E
0x6F87B9
0x6F8B70
0x6F9073
0x6F90FB
0x6F92AC
0x6F932E
0x6F93E5
0x6F9513
0x6F9517
0x6F9990
0x6F9A3E
0x6F9ABB
0x6F9C41
0x6F9D09
0x6F9D1A
0x6F9DB1
0x6F9DC7
0x6F9E36
0x6F9EA5
0x6F9F0C
0x6FA814
0x6FA970
0x6FA9CE
0x6FA9E0
0x6FA9F1
0x6FAAED
0x6FAB21
0x6FAC4D
0x6FAC97
0x6FACD1
0x6FAD13
0x6FAD48
0x6FADBD
0x6FAE09
0x6FAE27
0x6FAE51
0x6FAE55
0x6FAE89
0x6FAE8D
0x6FAEBF
0x6FAF1A
0x6FAF73
0x6FAF91
0x6FAFAE
0x6FAFEC
0x6FB017
0x6FB075
0x6FB0F3
0x6FB14E
0x6FB1BC
0x6FB201
0x6FB263
0x6FB3D1
0x6FB475
0x6FB523
0x6FB5C0
0x6FB7E9
0x6FB8AA
0x6FBEAF
0x6FC13A
0x6FC46B
0x6FC4F9
0x6FC85B
0x6FC9B4
0x6FCE3C
0x6FCF71
0x6FD1CB
0x6FD38E
0x6FD504
0x6FD526
0x6FD68C
0x6FE018
0x6FE576
0x6FE9D6
0x6FF01B
0x6FF2AD
0x6FF615
0x6FF61B
0x6FF772
0x6FF7D2
0x6FF919
0x6FFA59
0x700355
0x7006EF
0x700987
0x700F62
0x70144D
0x7017B9
0x701AB2
0x701CC3
0x702429
0x702558
0x70255E
0x7028E0
0x702992
0x702DB9
0x70307C
0x70309E
0x704320
0x704325
0x704438
0x7045C5
0x7045EF
0x704640
0x704684
0x704688
0x7046C8
0x704776
0x704887
0x704B82
0x704F42
0x704FC4
0x70518A
0x7051CA
0x705222
0x7052B8
0x7053CE
0x7053E0
0x70541F
0x70545E
0x70576B
0x70578C
0x7057AC
0x7057F1
0x7059F1
0x705BEC
0x705C6E
0x706E28
0x707C25
0x709BDC
0x70A278
0x70AA31
0x70AA83
0x70AA9A
0x70AF16
0x70B030
0x70B892
0x70BBEC
0x70C928
0x70C947
0x70DC48
0x70E278
0x70E9F8
0x70F2F8
0x70FEA8
0x710628
0x710DB0
0x711EA8
0x712368
0x712778
0x712E28
0x7130F8
0x714828
0x714B28
0x7154B4
0x7157D0
0x7158F8
0x715EF8
0x7161A8
0x7163ED
0x716878
0x7168A8
0x716EFA
0x717FCF
0x7182F8
0x718378
0x7185A8
0x7186F0
0x718728
0x718C30
0x71A4F8
0x71A606
0x71AAF8
0x71ACA8
0x71AD28
0x71D5F8
0x71D8F8
0x71D9E7
0x71DA88
0x71DB78
0x71DCF8
0x71F3A7
0x71F5A8
0x71FCE7
0x71FE80
0x720CA8
0x7219F8
0x721A50
0x721C01
0x721EF8
0x72231D
0x722D2E
0x723B48
0x7240A8
0x724278
0x724806
0x7248F8
0x7249B4
0x725670
0x7265A8
0x727190
0x727977
0x7283A8
0x728A23
0x728AF8
0x729278
0x729449
0x7299A4
0x7299C0
0x729DA8
0x72AEB3
0x72B178
0x72C228
0x72D347
0x72D4A8
0x72E627
0x72E815
0x72EEA8
0x72F227
0x72F5F8
0x730541
0x730BA8
0x7319D7
0x7329F8
0x7330F8
0x7331A8
0x733778
0x7337CC
0x7343C7
0x734AA8
0x7354CC
0x7356A8
0x735CFE
0x736508
0x7366B8
0x7377A8
0x737A4A
0x737B28
0x7386AC
0x73924D
0x739A9B
0x739B87
0x73AA0C
0x73AA28
0x73AA2B
0x73AA5B
0x73AA8B
0x73AABB
0x73AF78
0x73B087
0x73B1A8
0x73B5F8
0x73B8EA
0x73BDF8
0x73C3F8
0x73CFA8
0x73D1F8
0x73D8F8
0x73EEA8
0x73F7A8
0x740217
0x7404A8
0x7409F8
0x7434A8
0x743A0A
0x743A3B
0x743A81
0x743AB0
0x743CD6
0x743CF8
0x743D07
0x743D4D
0x743D78
0x743D7C
0x744327
0x744456
0x74466C
0x74479B
0x74486A
0x7448AA
0x744969
0x744984
0x74499F
0x744A17
0x744A46
0x744A98
0x744ADE
0x744B0E
0x744B65
0x744BBD
0x744C49
0x744D08
0x744D3D
0x744D7D
0x744E3C
0x744E57
0x744E72
0x744F0A
0x744F39
0x744F77
0x744F8B
0x744FD1
0x745001
0x745058
0x7450B0
0x74513C
0x745147
0x7451FB
0x745230
0x745270
0x745310
0x74532F
0x74534A
0x745365
0x7453DD
0x74540C
0x74545E
0x7454A4
0x7454D4
0x74552B
0x745583
0x7456DE
0x7456FD
0x74574C
0x74579B
0x7457D0
0x745810
0x7458CF
0x7458EA
0x745905
0x745924
0x74599C
0x7459CB
0x745A1D
0x745A63
0x745A93
0x745AEA
0x745B42
0x745C9D
0x745CBC
0x745D0B
0x745D5A
0x745D8F
0x745DCF
0x745EB8
0x745ED3
0x745EEE
0x745F66
0x745F95
0x745FE7
0x74602D
0x74605D
0x7460B4
0x74610C
0x7461F8
0x74636B
0x7463A0
0x7463E0
0x74648A
0x7464C9
0x7464E4
0x7464FF
0x7465A3
0x7465D2
0x746624
0x74666A
0x74669A
0x7466F1
0x746749
0x7469A8
0x7469DD
0x746A1D
0x746ADC
0x746AF7
0x746B12
0x746B8A
0x746BB9
0x746C0B
0x746C51
0x746C81
0x746CD8
0x746D30
0x746D4F
0x746E0E
0x746E43
0x746E83
0x746F6C
0x746F87
0x746FA2
0x74701A
0x747049
0x74709B
0x7470E1
0x747111
0x747168
0x747190
0x7471C0
0x7474D2
0x7474F8
0x747507
0x747547
0x747630
0x74764B
0x747666
0x74770A
0x747739
0x74778B
0x7477D1
0x747801
0x747858
0x7478B0
0x747978
0x747BC2
0x747E6F
0x748029
0x748069
0x7480AA
0x748193
0x7481C3
0x7481DE
0x74824C
0x74827B
0x7482CD
0x748313
0x748343
0x748389
0x7483B9
0x748410
0x748451
0x7484A8
0x748500
0x748535
0x748574
0x7485A9
0x7485E9
0x7486D2
0x7486ED
0x748708
0x748780
0x7487AF
0x748801
0x748847
0x748877
0x7488CE
0x748926
0x74895B
0x74899A
0x748B28
0x748C7E
0x748CAF
0x748CF5
0x748DC4
0x748F1A
0x748F4B
0x748F91
0x7490A6
0x7490E6
0x74919F
0x7491CE
0x7491E9
0x749204
0x749278
0x74927C
0x7492AB
0x7492FD
0x749343
0x749373
0x7493CA
0x749422
0x749456
0x749475
0x7494AA
0x7494EA
0x7495DF
0x7495FA
0x749615
0x74968D
0x7496BC
0x74970E
0x749754
0x749784
0x7497DB
0x749833
0x749A0A
0x749D81
0x749F17
0x749F28
0x749FB6
0x749FF6
0x74A0B5
0x74A0D0
0x74A0EB
0x74A163
0x74A192
0x74A1E4
0x74A22A
0x74A25A
0x74A2B1
0x74A309
0x74A328
0x74A424
0x74A49F
0x74A4B3
0x74A626
0x74A687
0x74A8F8
0x74A9A8
0x74AB80
0x74AE1E
0x74AE7F
0x74B8EA
0x74BB78
0x74BC2C
0x74BEAF
0x74BEDF
0x74C26F
0x74C2F5
0x74C377
0x74C3F9
0x74C428
0x74C488
0x74C624
0x74C748
0x74CB78
0x74EFF8
0x74F028
0x74FB60
0x74FD78
0x750328
0x751294
0x751741
0x7518F8
0x751FC8
0x752567
0x752F28
0x7548F8
0x755301
0x755C66
0x755D5A
0x756C22
0x758428
0x7591A3
0x7591A8
0x7595A3
0x7595A8
0x75A1F8
0x75C0A8
0x75CAF8
0x75D997
0x75E21C
0x75EA30
0x75FAF8
0x7614F8
0x7615F9
0x7616A8
0x761931
0x761C78
0x761D78
0x7620F8
0x7624A8
0x7628A8
0x7629F8
0x762FF8
0x7630C1
0x7633CC
0x763528
0x763CA8
0x7640F8
0x7645F8
0x7646A8
0x764A30
0x7654B1
0x765950
0x765A11
0x765DAE
0x766128
0x767360
0x767BF8
0x7680A8
0x768530
0x7686F8
0x7688A8
0x768968
0x768FA8
0x76A531
0x76A6A5
0x76A900
0x76B128
0x76B201
0x76B528
0x76B580
0x76CB01
0x76D678
0x76D728
0x76F120
0x76F8B5
0x76FB30
0x7708A8
0x770A74
0x771780
0x771931
0x77202D
0x772798
0x7749F8
0x775051
0x7758B1
0x775C78
0x776838
0x7769F8
0x776EF8
0x776FF8
0x7772F8
0x7774F8
0x777678
0x7798F8
0x779BA8
0x77A0F8
0x77A5F8
0x77A980
0x77A9F8
0x77B038
0x77B6F8
0x77B8F8
0x77BE31
0x77BF30
0x77BFA8
0x77D0A0
0x77D0F8
0x77D32F
0x77D39B
0x77D453
0x77D720
0x77D7A8
0x77E30C
0x77E5C0
0x77ECF8
0x77EF51
0x77F080
0x77F2F8
0x77F768
0x77F7A0
0x77FAA8
0x77FB78
0x77FF2E
0x780B78
0x780EA8
0x781148
0x781530
0x781DF8
0x782578
0x782DF8
0x782F28
0x78385C
0x7841B1
0x784F11
0x78648A
0x786878
0x786F80
0x787128
0x787230
0x788238
0x788678
0x788888
0x788E28
0x78A2F8
0x78A9B1
0x78B0A8
0x78B6F8
0x78BEA8
0x78C0F1
0x78C1F8
0x78C606
0x78CBC1
0x78D281
0x78D5A1
0x78E610
0x78ECF8
0x78F2F8
0x78F6A0
0x78FAE9
0x78FEA8
0x78FF6F
0x7903A8
0x790460
0x791FA1
0x7928F8
0x792BA8
0x793328
0x794AF8
0x794FF0
0x7953C1
0x795940
0x7959A8
0x795DAE
0x796BF8
0x7970B0
0x797190
0x7974F8
0x797811
0x7983A8
0x7987A8
0x799371
0x79B1A1
0x79BFE1
0x79C0A8
0x79C1F8
0x79C817
0x79CDA8
0x79CF88
0x79D278
0x79EAA8
0x7A0051
0x7A1931
0x7A4702
0x7A5428
0x7A5F10
0x7A67C1
0x7A72A8
0x7A7628
0x7A7A4A
0x7A8168
0x7A8878
0x7A8BD0
0x7A8D78
0x7A94A8
0x7A9DE0
0x7AB6A8
0x7AB6F1
0x7ABBA8
0x7ACA71
0x7ACB5A
0x7ACFF8
0x7AD0F8
0x7AD281
0x7ADEA8
0x7AE3F3
0x7AF0B1
0x7AF391
0x7AFB60
0x7B012E
0x7B0EF8
0x7B12A8
0x7B13A8
0x7B19D4
0x7B21A0
0x7B25F0
0x7B2968
0x7B2AA8
0x7B3CF8
0x7B42F8
0x7B46F8
0x7B4B78
0x7B4C28
0x7B57A8
0x7B57E4
0x7B598F
0x7B5B70
0x7B5DF8
0x7B6728
0x7B7486
0x7B75F8
0x7B7778
0x7B87F8
0x7B8870
0x7B8D64
0x7B9BF8
0x7BA448
0x7BAC21
0x7BB2A8
0x7BB528
0x7BBB29
0x7BC2C1
0x7BC4A8
0x7BE078
0x7BE478
0x7BE678
0x7BE828
0x7BEF51
0x7BF120
0x7BF7E1
0x7BFDF8
0x7C0C91
0x7C3BF8
0x7C41F8
0x7C5310
0x7C56A8
0x7C57A1
0x7C6A42
0x7C7C78
0x7C8773
0x7C8887
0x7C8A2E
0x7C8DB1
0x7C9C44
0x7C9CED
0x7C9DA0
0x7CA880
0x7CAA68
0x7CAC5E
0x7CB78D
0x7CBE78
0x7CC0F2
0x7CCC97
0x7CD170
0x7CDDC4
0x7CDE58
0x7CE930
0x7CED50
0x7CEF88
0x7CF028
0x7CF369
0x7CF57B
0x7CF8E5
0x7CF9C2
0x7D099D
0x7D0B78
0x7D175D
0x7D2154
0x7D25F0
0x7D2948
0x7D29A0
0x7D3C0B
0x7D3DC8
0x7D4129
0x7D4C30
0x7D4D7A
0x7D522B
0x7D5777
0x7D57DB
0x7D5AEF
0x7D61D2
0x7D66AC
0x7D70D6
0x7D7D3C
0x7D803F
0x7D8798
0x7D886A
0x7D8A31
0x7D8E78
0x7DAA4D
0x7DAAD2
0x7DBA35
0x7DDDDC
0x7DE083
0x7DE380
0x7DE4C4
0x7E0476
0x7E04EC
0x7E0563
0x7E05B3
0x7E0603
0x7E0612
0x7E0616
0x7E062C
0x7E0637
0x7E065C
0x7E0677
0x7E0773
0x7E0E07
0x7E0E37
0x7E13CF
0x7E2BAF
0x7E31AF
0x7E46DB
0x7E4EAF
0x7E630F
0x7E6B3F
0x7E7219
0x7E7C21
0x7E7CA2
0x7E7F3D
0x7E7F89
0x7E7FE7
0x7E8020
0x7E808C
0x7E80A2
0x7E80B9
0x7E80D0
0x7E80E3
0x7E80F4
0x7E8156
0x7E81BE
0x7E8286
0x7E82A8
0x7E82DB
0x7E836A
0x7E83ED
0x7E8470
0x7E84B4
0x7E84F8
0x7E853C
0x7E8580
0x7E85C4
0x7E8608
0x7E864C
0x7E8690
0x7E86D4
0x7E8718
0x7E87AD
0x7E8842
0x7E88D7
0x7E8990
0x7E8A49
0x7E8B02
0x7E8BDF
0x7E8CE0
0x7E8D92
0x7E8E44
0x7E8F1A
0x7E8FF0
0x7E9052
0x7E90BA
0x7E919E
0x7E9282
0x7E9366
0x7E9454
0x7E948F
0x7E94D5
0x7E9532
0x7E95C0
0x7E964E
0x7E9689
0x7E96CF
0x7E972C
0x7E9797
0x7E9802
0x7E986D
0x7E9938
0x7E9A03
0x7E9ACE
0x7E9BC7
0x7E9CC0
0x7E9D79
0x7E9E32
0x7E9E75
0x7E9EAB
0x7E9EE6
0x7E9EFB
0x7E9F74
0x7E9FD7
0x7EA03A
0x7EA047
0x7EA0D6
0x7EA111
0x7EA1AA
0x7EA256
0x7EA26B
0x7EA274
0x7EA376
0x7EA3F9
0x7EA47C
0x7EA51E
0x7EA5A1
0x7EA624
0x7EA62A
0x7EA6C1
0x7EA744
0x7EA846
0x7EA919
0x7EA974
0x7EA9CF
0x7EAA13
0x7EAA69
0x7EAABF
0x7EAC31
0x7EADA3
0x7EAE83
0x7EAF87
0x7EB08B
0x7EB13B
0x7EB1FD
0x7EB2BF
0x7EB3A1
0x7EB483
0x7EB537
0x7EB603
0x7EB6CF
0x7EB783
0x7EB84F
0x7EB91B
0x7EB9FB
0x7EBAFF
0x7EBC03
0x7EBC66
0x7EBCC9
0x7EBD24
0x7EBDD0
0x7EBEA0
0x7EBEFB
0x7EBF56
0x7EBFFB
0x7EC0A0
0x7EC13A
0x7EC203
0x7EC2F7
0x7EC40F
0x7EC4D8
0x7EC5A1
0x7EC68E
0x7EC77B
0x7EC815
0x7EC8DE
0x7EC9D2
0x7ECAEA
0x7ECBB3
0x7ECC7C
0x7ECD69
0x7ECE56
0x7ECEF0
0x7ECFB9
0x7ED053
0x7ED11C
0x7ED177
0x7ED1D2
0x7ED22D
0x7ED288
0x7ED2E3
0x7ED319
0x7ED368
0x7ED3B7
0x7ED406
0x7ED455
0x7ED51B
0x7ED521
0x7ED619
0x7ED642
0x7ED648
0x7ED711
0x7ED717
0x7ED7E0
0x7ED894
0x7ED948
0x7ED9AB
0x7EDA0E
0x7EDA71
0x7EDACB
0x7EDB26
0x7EDB81
0x7EDBE4
0x7EDC47
0x7EDCA2
0x7EDD05
0x7EDEA5
0x7EE045
0x7EE0DD
0x7EE12C
0x7EE17B
0x7EE1BF
0x7EE227
0x7EE28F
0x7EE2D3
0x7EE34F
0x7EE39E
0x7EE3ED
0x7EE43C
0x7EE48B
0x7EE4DA
0x7EE529
0x7EE578
0x7EE5C7
0x7EE616
0x7EE665
0x7EE6B4
0x7EE715
0x7EE776
0x7EE7D7
0x7EE853
0x7EE8CF
0x7EE94B
0x7EE998
0x7EEA22
0x7EEA6F
0x7EEAF9
0x7EEBA9
0x7EEC59
0x7EECF8
0x7EED97
0x7EEE1F
0x7EEEB0
0x7EEF2C
0x7EEF8F
0x7EEFEA
0x7EF07F
0x7EF0DA
0x7EF135
0x7EF190
0x7EF1EB
0x7EF282
0x7EF2DD
0x7EF338
0x7EF393
0x7EF3EE
0x7EF449
0x7EF4A4
0x7EF4FF
0x7EF55A
0x7EF5B5
0x7EF610
0x7EF66B
0x7EF6C6
0x7EF721
0x7EF77C
0x7EF7D7
0x7EF832
0x7EF88D
0x7EF8E8
0x7EF960
0x7EF9D8
0x7EFA50
0x7EFAC8
0x7EFB40
0x7EFBB8
0x7EFC07
0x7EFC56
0x7EFCA5
0x7EFCF4
0x7EFD43
0x7EFD92
0x7EFE0A
0x7EFE82
0x7EFEDD
0x7EFF38
0x7EFFC0
0x7F0004
0x7F0048
0x7F008C
0x7F00D0
0x7F0141
0x7F01B2
0x7F020D
0x7F0268
0x7F02F0
0x7F0368
0x7F03E0
0x7F0458
0x7F04D0
0x7F0573
0x7F060B
0x7F06A3
0x7F073B
0x7F0A5B
0x7F0D7B
0x7F1397
0x7F19B3
0x7F1CD3
0x7F1FF3
0x7F2193
0x7F2333
0x7F239E
0x7F2409
0x7F2474
0x7F24DF
0x7F2573
0x7F2607
0x7F265B
0x7F26AF
0x7F2703
0x7F2757
0x7F27D4
0x7F2846
0x7F2851
0x7F2936
0x7F2A1B
0x7F2B00
0x7F2BE5
0x7F2C46
0x7F2CA7
0x7F2D08
0x7F2D69
0x7F2DCA
0x7F2E2B
0x7F2E97
0x7F2F03
0x7F2F6F
0x7F2FDB
0x7F304A
0x7F30B9
0x7F3137
0x7F31B5
0x7F3221
0x7F328D
0x7F32F9
0x7F3365
0x7F33FA
0x7F348F
0x7F34FB
0x7F3567
0x7F35D3
0x7F363F
0x7F36D4
0x7F3769
0x7F37D8
0x7F3847
0x7F38B6
0x7F3925
0x7F39BD
0x7F3A55
0x7F3AD3
0x7F3B51
0x7F3BCF
0x7F3C4D
0x7F3CF4
0x7F3D9B
0x7F3E30
0x7F3EC5
0x7F3F5A
0x7F3FEF
0x7F4087
0x7F411F
0x7F41C6
0x7F426D
0x7F4302
0x7F4397
0x7F442C
0x7F44C1
0x7F4559
0x7F45F1
0x7F4698
0x7F473F
0x7F47FD
0x7F48BB
0x7F4979
0x7F4A37
0x7F4AF8
0x7F4BB9
0x7F4C89
0x7F4D59
0x7F4E09
0x7F4E32
0x7F4F00
0x7F4FCE
0x7F509C
0x7F5175
0x7F5243
0x7F5311
0x7F53DF
0x7F54E1
0x7F55D8
0x7F56CF
0x7F57C6
0x7F58C8
0x7F59BF
0x7F5AB6
0x7F5BAD
0x7F5C30
0x7F5CDB
0x7F5D6F
0x7F5DF2
0x7F5E90
0x7F5EEB
0x7F5F72
0x7F5FB6
0x7F5FFA
0x7F603E
0x7F6099
0x7F60F4
0x7F614F
0x7F6193
0x7F61D7
0x7F621B
0x7F625F
0x7F62BA
0x7F62FE
0x7F6381
0x7F641F
0x7F647A
0x7F6501
0x7F6545
0x7F65D3
0x7F662E
0x7F6672
0x7F66F5
0x7F67B0
0x7F67F4
0x7F6838
0x7F68C6
0x7F68F0
0x7F6976
0x7F6A26
0x7F6A73
0x7F6AFD
0x7F6BAD
0x7F6BFA
0x7F6C84
0x7F6D34
0x7F6D7D
0x7F6E07
0x7F6EB3
0x7F6EFC
0x7F6F86
0x7F7032
0x7F70F6
0x7F71A3
0x7F7250
0x7F7268
0x7F72CC
0x7F7365
0x7F73E1
0x7F747D
0x7F74A0
0x7F74D6
0x7F7547
0x7F75B8
0x7F7623
0x7F769F
0x7F771B
0x7F7797
0x7F7813
0x7F78A0
0x7F792D
0x7F79BA
0x7F7A47
0x7F7A88
0x7F7A8F
0x7F7AFC
0x7F7B44
0x7F7BB1
0x7F7BB5
0x7F7C47
0x7F7CD3
0x7F7CD7
0x7F7D69
0x7F7DF5
0x7F7EA5
0x7F7F47
0x7F7F52
0x7F7FF1
0x7F8090
0x7F8131
0x7F81D2
0x7F8247
0x7F8258
0x7F82BC
0x7F834E
0x7F83E3
0x7F8406
0x7F843C
0x7F8480
0x7F84CF
0x7F851E
0x7F856D
0x7F85BC
0x7F860B
0x7F865A
0x7F86A9
0x7F86F8
0x7F8747
0x7F8796
0x7F87E5
0x7F8834
0x7F8883
0x7F88D2
0x7F8921
0x7F8970
0x7F89D1
0x7F8A32
0x7F8A93
0x7F8AF4
0x7F8B70
0x7F8BEC
0x7F8C68
0x7F8C6C
0x7F8D02
0x7F8DA7
0x7F8DAB
0x7F8E41
0x7F8EE6
0x7F8F33
0x7F8FBD
0x7F900A
0x7F9094
0x7F9144
0x7F91F4
0x7F9285
0x7F92D1
0x7F933E
0x7F93F3
0x7F9464
0x7F94D9
0x7F9528
0x7F958B
0x7F95E6
0x7F9641
0x7F969C
0x7F96F7
0x7F9752
0x7F978D
0x7F97E7
0x7F9822
0x7F9865
0x7F98B0
0x7F9ECC
0x7FA1EC
0x7FA50C
0x7FA6AC
0x7FACC8
0x7FAE48
0x7FAFE8
0x7FB604
0x7FB668
0x7FB924
0x7FBA30
0x7FBC44
0x7FBDE4
0x7FC010
0x7FC12C
0x7FC400
0x7FC720
0x7FC76F
0x7FC80B
0x7FC8BC
0x7FC958
0x7FCA08
0x7FCB2A
0x7FCC50
0x7FCCB3
0x7FCD16
0x7FCD79
0x7FCDDC
0x7FCE3F
0x7FCEA2
0x7FCF05
0x7FCF68
0x7FCFD3
0x7FD03E
0x7FD082
0x7FD0C6
0x7FD10A
0x7FD14E
0x7FD192
0x7FD1D6
0x7FD231
0x7FD28C
0x7FD32A
0x7FD3C8
0x7FD433
0x7FD496
0x7FD50C
0x7FD56F
0x7FD593
0x7FD5C9
0x7FD5ED
0x7FD623
0x7FD647
0x7FD67D
0x7FD6A1
0x7FD6D7
0x7FD742
0x7FD7AD
0x7FD818
0x7FD883
0x7FD8A7
0x7FD8DD
0x7FD901
0x7FD937
0x7FD9A2
0x7FDA0D
0x7FDA78
0x7FDAE3
0x7FDB4E
0x7FDBB9
0x7FDC24
0x7FDC8F
0x7FDCEA
0x7FDD55
0x7FDDD1
0x7FDE3C
0x7FDE60
0x7FDE96
0x7FDEF1
0x7FDF39
0x7FDFB8
0x7FE057
0x7FE0E5
0x7FE184
0x7FE212
0x7FE222
0x7FE2A0
0x7FE2E8
0x7FE367
0x7FE406
0x7FE494
0x7FE533
0x7FE5C1
0x7FE64F
0x7FE6BF
0x7FE72F
0x7FE79F
0x7FE80F
0x7FE87F
0x7FE8EF
0x7FE952
0x7FE9B5
0x7FEA18
0x7FEA7B
0x7FEB0B
0x7FEB9B
0x7FEB9F
0x7FED96
0x7FEEF7
0x7FF058
0x7FF161
0x7FF303
0x7FF422
0x7FF541
0x7FF63B
0x7FF6A7
0x7FF713
0x7FF77F
0x7FF7EB
0x7FF906
0x7FFA33
0x7FFB60
0x7FFC70
0x7FFC90
0x7FFD9D
0x7FFEAD
0x7FFFFC
0x80014B
0x8003B0
0x800551
0x800615
0x800639
0x80066F
0x800693
0x8006C9
0x8006ED
0x800723
0x800747
0x80077D
0x8007A1
0x8007D7
0x8007FB
0x800831
0x800855
0x80088B
0x8008AF
0x8008E5
0x800909
0x80093F
0x800963
0x800999
0x8009BD
0x8009F3
0x800A17
0x800A4D
0x800A96
0x800B32
0x800BCA
0x800BD0
0x800E0E
0x8011F2
0x801320
0x801326
0x801520
0x80162C
0x801675
0x801711
0x8017A9
0x8017AF
0x8019ED
0x801B48
0x801DD1
0x801EFF
0x801F05
0x802058
0x8020FF
0x80220B
0x802254
0x8022F0
0x802388
0x8024B6
0x80252A
0x8025C2
0x80262D
0x8026F1
0x8027B5
0x802879
0x8028C8
0x802917
0x802966
0x8029B5
0x802A04
0x802A53
0x802AA2
0x802AF1
0x802BBA
0x802C83
0x802D4C
0x802E15
0x802EDE
0x802FA7
0x803070
0x803139
0x803202
0x8032CB
0x803394
0x80345D
0x8034B8
0x803513
0x80359B
0x803623
0x80367E
0x8036D9
0x80372D
0x803781
0x8037D5
0x803829
0x80387D
0x8038D1
0x803925
0x803979
0x8039F6
0x803A73
0x803AF0
0x803B6D
0x803BD8
0x803C43
0x803CAE
0x803D19
0x803D8F
0x803E05
0x803E7B
0x803EF1
0x803F54
0x803FB7
0x80401A
0x80407D
0x8040D8
0x80413B
0x8041A6
0x8041EA
0x80422E
0x804272
0x8042B6
0x804301
0x80434C
0x804397
0x8043E2
0x80442D
0x804478
0x8044DB
0x80453E
0x8045A1
0x804604
0x8046A0
0x80473C
0x804758
0x8047D5
0x80486E
0x80491B
0x8049C8
0x804A72
0x804B1C
0x804B68
0x804BF1
0x804C3D
0x804CC3
0x804CC7
0x804D5D
0x804E05
0x804E09
0x804E9F
0x804F44
0x804FAB
0x805012
0x805079
0x8050E0
0x805147
0x8051AE
0x805215
0x80527C
0x8052D7
0x805332
0x80538D
0x8053E8
0x805443
0x80549E
0x80553C
0x805633
0x8056DD
0x8057CE
0x8058BF
0x8059B0
0x805A64
0x805B18
0x805BCC
0x805C87
0x805D42
0x805DFD
0x805EB8
0x805F73
0x80602E
0x8060E9
0x8061A4
0x80625F
0x80631A
0x8063D5
0x806490
0x80654B
0x806606
0x8066C1
0x80679A
0x806873
0x80694C
0x806A25
0x806AFE
0x806BD7
0x806CB0
0x806D0C
0x806D2F
0x806DA0
0x806E4A
0x806EF4
0x806F9E
0x807048
0x8070F2
0x80719C
0x807246
0x8072F0
0x807418
0x807540
0x807668
0x807790
0x8078B8
0x807A0D
0x807B62
0x807BD7
0x807C4C
0x807D52
0x807DC7
0x807EAF
0x807ECD
0x807F42
0x807F7F
0x807FBC
0x808031
0x8080CE
0x8080E7
0x80810B
0x8081AE
0x808223
0x80829C
0x808381
0x8083F6
0x8084DB
0x808518
0x808555
0x8085CA
0x808607
0x80872A
0x80879F
0x8087DC
0x8088C1
0x8088FE
0x808A79
0x808BF4
0x808BF9
0x808D35
0x808D3A
0x808E76
0x808E7B
0x808FB7
0x808FF4
0x809104
0x8091DA
0x80925D
0x8092DF
0x8093A2
0x809478
0x8094FB
0x80957D
0x809640
0x809716
0x809795
0x80984A
0x809924
0x80992A
0x809A44
0x809A4A
0x809BBD
0x809D37
0x809EEB
0x809FE5
0x80A11D
0x80A255
0x80A3A4
0x80A636
0x80A764
0x80A892
0x80A9CB
0x80AC77
0x80AD05
0x80ADDE
0x80AF78
0x80B112
0x80B1D0
0x80B28E
0x80B310
0x80B392
0x80B4CD
0x80B608
0x80B743
0x80B87E
0x80BA54
0x80BC2A
0x80BD65
0x80BEA0
0x80BFDB
0x80C20A
0x80C439
0x80C476
0x80C4B3
0x80C5B9
0x80C6BF
0x80C74D
0x80C7DB
0x80C869
0x80C8F7
0x80CA16
0x80CA20
0x80CB49
0x80CC68
0x80CC72
0x80CD9B
0x80CE5B
0x80CF1B
0x80CFDB
0x80D0EB
0x80D1FB
0x80D30B
0x80D3B5
0x80D3EB
0x80D4CB
0x80D5AB
0x80D6DA
0x80D809
0x80D938
0x80DAA0
0x80DBD8
0x80DBDE
0x80DD14
0x80DD1A
0x80DE50
0x80DE56
0x80DF50
0x80DF56
0x80E050
0x80E094
0x80E0D8
0x80E11C
0x80E20A
0x80E2F8
0x80E3E6
0x80E4A1
0x80E55C
0x80E617
0x80E699
0x80E71B
0x80E79D
0x80E8D2
0x80E9EB
0x80EA99
0x80EBB2
0x80EC60
0x80ED0E
0x80EDFC
0x80EF6B
0x80F059
0x80F1C8
0x80F2B6
0x80F30D
0x80F425
0x80F4A7
0x80F529
0x80F5E4
0x80F69F
0x80F8E0
0x80FB21
0x80FC03
0x80FCE5
0x80FEC0
0x81009B
0x81017D
0x81025F
0x8102E1
0x810363
0x81041E
0x8104D9
0x81055B
0x8105DD
0x810698
0x810753
0x81080E
0x8108C9
0x810984
0x810A3F
0x810AC1
0x810B43
0x810BC5
0x810C47
0x810CC9
0x810D4B
0x810F00
0x8110B5
0x81126A
0x8112EC
0x81136E
0x8113F0
0x8114DE
0x8115CC
0x8116BA
0x8117D5
0x8118F0
0x811A0B
0x811BA4
0x811D10
0x811D3D
0x811E90
0x811F16
0x811F9C
0x812022
0x8120A8
0x8122DA
0x81241F
0x81253D
0x812588
0x8126A6
0x8127B3
0x812839
0x8128BF
0x812945
0x8129CB
0x812BE9
0x812CB8
0x812D87
0x812E56
0x812F25
0x812FF4
0x8130C3
0x813192
0x813261
0x8132B0
0x8132FF
0x81334E
0x81339D
0x8133EC
0x81343B
0x8134C9
0x813557
0x8135E5
0x81369E
0x813757
0x813810
0x8138C9
0x813A8F
0x813C55
0x813CA4
0x813CF3
0x813D42
0x813D91
0x813DE0
0x813F19
0x813FEE
0x8140C3
0x81431C
0x8145A8
0x81467D
0x814752
0x8148E0
0x814A6E
0x814AE6
0x814B5E
0x814B88
0x814BFC
0x814C01
0x814E6F
0x814F27
0x814FB7
0x8150D5
0x81515B
0x815188
0x8151E1
0x81520E
0x815267
0x815312
0x8153AF
0x8153BD
0x8154B1
0x81552C
0x81560A
0x815650
0x8156C7
0x815821
0x8158A7
0x81592D
0x8159B3
0x815A39
0x815ABF
0x815B45
0x815C23
0x815C69
0x815CE0
0x815DBE
0x815E04
0x815E7B
0x815FD5
0x81612F
0x816158
0x81619E
0x8161E7
0x816284
0x8162FE
0x816378
0x8163F2
0x81646C
0x8166FF
0x816779
0x8167F3
0x81686D
0x8168E7
0x816961
0x8169DB
0x816A55
0x816ACF
0x816B68
0x816D2A
0x816E8B
0x816F7D
0x816FE8
0x81714F
0x8171CB
0x817247
0x8172C3
0x817300
0x81733D
0x81737A
0x8173B7
0x8173F4
0x817431
0x8174AB
0x817525
0x81759F
0x8175A5
0x8176E4
0x8176EA
0x817829
0x81782F
0x81796E
0x817974
0x817AB3
0x817AB9
0x817B62
0x817C0A
0x817C90
0x817D4B
0x817D92
0x817F3C
0x817F41
0x8180C9
0x81814F
0x81827E
0x818374
0x8183FA
0x818480
0x818506
0x81850B
0x8186B4
0x81876F
0x8187B6
0x8187BB
0x818964
0x8189F2
0x818A78
0x818AFE
0x818B84
0x818C0A
0x818CC5
0x818D0C
0x818D92
0x818E18
0x818E9E
0x818F4D
0x8191FE
0x819284
0x81930A
0x8193DD
0x819463
0x819512
0x8197C3
0x819849
0x8198CF
0x8199A2
0x819A28
0x819AF2
0x819B56
0x819C20
0x819C84
0x819D62
0x819E8E
0x819F81
0x819FFD
0x81A079
0x81A15F
0x81A245
0x81A301
0x81A426
0x81A4D8
0x81A5E8
0x81A679
0x81A789
0x81A83B
0x81A94B
0x81A9DC
0x81AAEC
0x81AB70
0x81ABFC
0x81AC00
0x81ACE2
0x81ACE6
0x81ADC8
0x81ADCC
0x81AEAE
0x81AEB2
0x81AEF0
0x81AEF4
0x81AFD6
0x81AFDA
0x81B018
0x81B046
0x81B18E
0x81B2C7
0x81B400
0x81B4A2
0x81B537
0x81B5C6
0x81B5CC
0x81B679
0x81B719
0x81B7B9
0x81B7C2
0x81B90A
0x81B9E5
0x81BA70
0x81BA9E
0x81BAD1
0x81BB04
0x81BBEC
0x81BC27
0x81BC2D
0x81BD84
0x81C011
0x81C017
0x81C366
0x81C36C
0x81C542
0x81C6B8
0x81C6BE
0x81C894
0x81C9C7
0x81CB23
0x81CBBE
0x81CCB9
0x81CCC3
0x81CCC9
0x81CEDB
0x81D10D
0x81D113
0x81D281
0x81D481
0x81D487
0x81D5E8
0x81D738
0x81D961
0x81DA6A
0x81DB5C
0x81DC75
0x81DD8E
0x81DEA7
0x81DFC0
0x81E03E
0x81E1F3
0x81E32A
0x81E43B
0x81E5AB
