0x401B58
0x4021E5
0x402234
0x40229A
0x4022B0
0x4022E0
0x402370
0x4023C0
0x4024A0
0x4024F0
0x402540
0x4025C0
0x4026D0
0x402C90
0x402DB0
0x402E00
0x402E70
0x402F10
0x402FC0
0x403180
0x4031F0
0x403220
0x4033C0
0x403400
0x403450
0x4034C0
0x4034D0
0x403500
0x403560
0x4035C0
0x403790
0x4037B0
0x403D00
0x403D30
0x403D80
0x403ED0
0x403F20
0x405080
0x40517E
0x405250
0x4052F0
0x405400
0x405830
0x405C00
0x406680
0x4067B0
0x4067F0
0x406970
0x4069E0
0x406D80
0x406DB0
0x407190
0x4071C0
0x4072E0
0x407390
0x407400
0x407C7C
0x407CE0
0x407D40
0x407E00
0x408260
0x4082B0
0x408300
0x408340
0x4083A0
0x408460
0x4084C0
0x408580
0x408610
0x408670
0x4086C0
0x408710
0x4087D0
0x408860
0x4088B0
0x408900
0x408A20
0x4090B0
0x4096A0
0x4097C0
0x409800
0x409890
0x4098E0
0x409F70
0x40A050
0x40A110
0x40A1E0
0x40A320
0x40A390
0x40A4E0
0x40A5C0
0x40A5F0
0x40A640
0x40A7C0
0x40A880
0x40A890
0x40A9E0
0x40AA40
0x40AD90
0x40ADE0
0x40AF40
0x40B260
0x40B2E0
0x40B390
0x40B3D0
0x40B440
0x40B4E0
0x40BFA0
0x40C110
0x40C150
0x40C1D0
0x40C1E0
0x40C1F0
0x40C480
0x40C4F0
0x40C8D0
0x40D830
0x40D940
0x40D970
0x40D9D0
0x40DB40
0x40DBF0
0x40EA90
0x40EB10
0x40EB70
0x40EBA0
0x40EBF0
0x40EC40
0x40ED00
0x40EDD0
0x40EF10
0x40F150
0x40F5B0
0x40F610
0x40F910
0x40F970
0x40FA00
0x40FA20
0x40FAA0
0x40FEF0
0x40FF30
0x410010
0x4100E0
0x410150
0x4101E0
0x410430
0x410460
0x410630
0x410B80
0x410C80
0x410E10
0x410F90
0x411290
0x411520
0x4122C0
0x4127A0
0x4127D0
0x4128C0
0x412960
0x412A90
0x412C40
0x412C5C
0x412C80
0x412CB0
0x412CD8
0x412D00
0x412E00
0x413060
0x413140
0x413310
0x413340
0x413440
0x413530
0x413700
0x413780
0x413810
0x413870
0x413930
0x413B30
0x413D80
0x414020
0x414150
0x414380
0x4147D0
0x4148E0
0x414B50
0x414DF0
0x415110
0x415420
0x415680
0x4158E0
0x415A80
0x415DB0
0x415FD0
0x4160E0
0x4161F0
0x416310
0x416830
0x4168A0
0x416BD0
0x416D70
0x416DA0
0x416E60
0x416F90
0x4170E0
0x417110
0x417120
0x4171B0
0x417220
0x417240
0x417260
0x417320
0x417740
0x417790
0x417930
0x417E40
0x4188D0
0x418A00
0x418B20
0x4190C0
0x4192D0
0x419570
0x419620
0x419690
0x4196D0
0x4199A0
0x4199C0
0x419AF0
0x419B60
0x419B80
0x419EA0
0x419F70
0x41A020
0x41A060
0x41A0B0
0x41A130
0x41A1D0
0x41A2A0
0x41A2D0
0x41A469
0x41A540
0x41A610
0x41A640
0x41A6A0
0x41A750
0x41AB90
0x41AC70
0x41B160
0x41B290
0x41B3E0
0x41B410
0x41B490
0x41B4F0
0x41B520
0x41B570
0x41B5C0
0x41B5F0
0x41B750
0x41B9DC
0x41BA80
0x41BBA0
0x41BCE0
0x41BD20
0x41BD90
0x41BDA0
0x41BF70
0x41C140
0x41C1A7
0x41C250
0x41C320
0x41C360
0x41C420
0x41C510
0x41C590
0x41C600
0x41C710
0x41C740
0x41C860
0x41C8D0
0x41CD60
0x41D090
0x41DCC0
0x41E2C0
0x41E3F0
0x41E4D0
0x41E5B0
0x41E9A0
0x41EAC0
0x41EBD0
0x41ECE0
0x41ED70
0x41F110
0x41F240
0x41F2B0
0x41F410
0x41F440
0x41F490
0x41F4C0
0x41F4E0
0x41F4F0
0x41F6A0
0x41F6D0
0x41F720
0x41F750
0x41F8B0
0x41F8E0
0x41F950
0x41F9A0
0x41FBAC
0x41FC30
0x420150
0x4202A0
0x420490
0x4206F0
0x420890
0x420A90
0x420B50
0x420CB0
0x420DC0
0x420F20
0x421120
0x421240
0x4213D0
0x4214F0
0x4215A0
0x4216C0
0x4217A0
0x421840
0x4218B0
0x421950
0x421990
0x4219E0
0x421A50
0x421AC0
0x421AF0
0x421B90
0x421BF0
0x421C40
0x421CE0
0x421D30
0x421D80
0x421E00
0x421F20
0x4220A0
0x422200
0x422210
0x4223C0
0x4224A0
0x422520
0x422530
0x4225F0
0x422640
0x422650
0x422680
0x4226A0
0x4226D0
0x422700
0x422A00
0x422C39
0x423430
0x4235F0
0x423640
0x423690
0x423720
0x4239D0
0x423A50
0x423B70
0x423CC0
0x423D30
0x423F00
0x424950
0x4249E0
0x424C10
0x424D50
0x4250C0
0x425160
0x425240
0x425330
0x425450
0x425520
0x4255E0
0x4257B0
0x425820
0x425890
0x425900
0x4259B0
0x425AA0
0x425C80
0x425ED0
0x425F30
0x425F60
0x425FD0
0x426160
0x426260
0x4262B0
0x4263D0
0x426590
0x4266C0
0x4267F0
0x426810
0x426DD0
0x426F40
0x427110
0x427340
0x427600
0x427650
0x427664
0x427670
0x427710
0x42A470
0x42A763
0x42A797
0x42A7CB
0x42A7F4
0x42ABB0
0x42B380
0x42B647
0x42B9AD
0x42BA44
0x42C1A0
0x42C2F0
0x42C310
0x42C360
0x42C3A0
0x42C420
0x42C4D0
0x42C5C0
0x42C871
0x42C920
0x42C980
0x42D110
0x42D119
0x42D450
0x42D490
0x42D770
0x42D790
0x42D7B0
0x42D959
0x42DA70
0x42DAE0
0x42DB93
0x42E7B0
0x42E900
0x42EB00
0x42EB50
0x42EDA0
0x42EDE0
0x42EE20
0x42EE90
0x42F0B0
0x42F6D0
0x42FB20
0x430570
0x4305F0
0x430620
0x430730
0x4309B0
0x430D6E
0x430DE9
0x431350
0x431790
0x4319C0
0x431A90
0x431BB0
0x431C30
0x431CD0
0x431D00
0x431E90
0x432010
0x432190
0x432320
0x432500
0x4327E0
0x432880
0x432A60
0x432C1C
0x434490
0x4347F0
0x434840
0x435B80
0x435D90
0x435EF4
0x435F00
0x435F50
0x436080
0x439210
0x4392D0
0x439380
0x439500
0x4396F0
0x439810
0x4398E0
0x439940
0x439A40
0x439AB0
0x439BB0
0x439C40
0x43CD90
0x43CE50
0x43CEE0
0x43CF80
0x43CFF0
0x43D140
0x43D300
0x43D3E0
0x43D520
0x43D640
0x43D720
0x43D7E0
0x43D870
0x440290
0x4402E0
0x4403F0
0x440410
0x4404C0
0x440520
0x440590
0x440620
0x440670
0x441AE0
0x443000
0x443250
0x4433B0
0x443570
0x443590
0x443620
0x443670
0x4436C0
0x443720
0x443750
0x4437A0
0x443970
0x443A30
0x443D80
0x444210
0x4442A0
0x4442F0
0x444340
0x444370
0x4443E0
0x444470
0x444500
0x4446E0
0x4447A0
0x4447F0
0x445630
0x445740
0x445A70
0x445AC0
0x445BF0
0x4469B0
0x447400
0x447460
0x447650
0x447740
0x447748
0x447970
0x447B40
0x447D00
0x447E50
0x4480E0
0x448360
0x448750
0x448A80
0x448CE4
0x448D0B
0x448D3C
0x448E50
0x4494D0
0x449730
0x44C180
0x44C640
0x44C7E0
0x44C8C0
0x44C8C8
0x44CA20
0x44CA28
0x44CBA0
0x44CC50
0x44CC70
0x44CCC0
0x44D5F0
0x44D630
0x44D660
0x44D6B0
0x44E720
0x44E760
0x44E768
0x44E860
0x44EA86
0x44FD06
0x4500A0
0x4500AB
0x450470
0x4504C0
0x450790
0x4507D0
0x450893
0x4508E0
0x450B30
0x450C00
0x450CB0
0x451E40
0x451FA0
0x452250
0x4523F0
0x4524A0
0x452550
0x452980
0x4534C0
0x454370
0x454740
0x454940
0x454F90
0x457290
0x457650
0x4576C0
0x4577D0
0x457860
0x4578F0
0x457980
0x457C40
0x457D10
0x457E70
0x4583A0
0x458D40
0x45A070
0x45A07B
0x45A880
0x45AB80
0x45AC90
0x45AD60
0x45AD90
0x45B040
0x45B0C0
0x45B3F0
0x45B850
0x45B8A0
0x45BCC0
0x45BF00
0x45BFC0
0x45C100
0x45CB00
0x45CB60
0x45CF70
0x45D000
0x45D090
0x45D6D0
0x45D900
0x45DB60
0x45DC60
0x45DDE0
0x45E090
0x45E270
0x45E3F0
0x45E4B0
0x45E500
0x45E580
0x45E5B0
0x45EA70
0x45EB80
0x45EBB0
0x45EBF0
0x45EC10
0x45EC1F
0x45EC30
0x45EC60
0x45EC80
0x45ED40
0x45F1C0
0x45F240
0x45F270
0x45F2F0
0x45F320
0x45F3A0
0x45FCE0
0x45FCFC
0x45FD20
0x45FD90
0x460080
0x460244
0x4609D0
0x460E50
0x460EC0
0x460F30
0x460F70
0x460FC0
0x461070
0x461830
0x461880
0x4618F0
0x461990
0x4619F0
0x461A40
0x461E90
0x462020
0x462280
0x462420
0x462C80
0x462C90
0x462DD1
0x462E10
0x462FF0
0x463080
0x463140
0x463240
0x4632AA
0x463400
0x463530
0x463710
0x4639B0
0x463B10
0x465430
0x465530
0x465610
0x4656D0
0x465830
0x465D20
0x465DB0
0x4660B0
0x466100
0x466370
0x466420
0x466444
0x4666D0
0x466A40
0x468790
0x468A20
0x468A40
0x469650
0x469680
0x4697B0
0x469A30
0x46A250
0x46A2C0
0x46A600
0x46A700
0x46C540
0x46C720
0x46C7C0
0x46C9C0
0x46D9E0
0x46DCF2
0x46DDF1
0x46DE70
0x46E060
0x46E0F0
0x46E190
0x46E41C
0x46EAEE
0x46EB57
0x46EBA0
0x46ED50
0x46F220
0x46F325
0x46F390
0x46F5C2
0x46F6A0
0x46F910
0x4710D0
0x4710F0
0x4710F4
0x47378A
0x473EAB
0x4743CE
0x47492D
0x47569D
0x475A3A
0x475B09
0x475BD8
0x4761D3
0x4762A2
0x476371
0x476440
0x4778A5
0x4788C2
0x478991
0x478A60
0x478B2F
0x478BFE
0x478CCD
0x478D9C
0x478E6B
0x478F3A
0x47911A
0x479F05
0x479FD4
0x47C0BE
0x47C18D
0x47C25C
0x47C32B
0x47D116
0x47D1E5
0x47D2B4
0x47DC17
0x47DCE6
0x47DDB5
0x47E0B6
0x47E453
0x47EF92
0x47F061
0x47F130
0x47F1FF
0x47F2CE
0x47F39D
0x47F46C
0x47F53B
0x47F60A
0x48B770
0x48B7F0
0x48B830
0x48B8C0
0x48BA30
0x48BB20
0x48BB90
0x48BC20
0x48BCA0
0x48C1A0
0x48C3C0
0x48C5D0
0x48C890
0x48C980
0x48CA50
0x48CC50
0x48D350
0x48D530
0x48DA80
0x48DAE0
0x48DB50
0x48DB80
0x48DBD0
0x48DC60
0x48DD50
0x48DEF0
0x48E160
0x48E190
0x48E200
0x48E4A0
0x48E530
0x48E620
0x48E690
0x48E7D0
0x48EB40
0x48EBD0
0x48ED70
0x48EDE0
0x48EE30
0x48F420
0x48F4F0
0x48FB00
0x48FB30
0x48FB80
0x48FBF0
0x48FC50
0x48FE40
0x490010
0x490200
0x490250
0x4902A0
0x490370
0x490470
0x4904D0
0x490B10
0x490B90
0x490C00
0x4912F0
0x491410
0x491470
0x491534
0x491550
0x491600
0x491630
0x491660
0x491680
0x4916F0
0x491750
0x4917C0
0x491820
0x491870
0x491960
0x4919F0
0x491A20
0x491A90
0x491B50
0x491BF0
0x491CB0
0x491CB9
0x491D70
0x491E00
0x491E90
0x491F20
0x491FE0
0x492070
0x4921D0
0x492250
0x4922E0
0x492400
0x492490
0x492500
0x492590
0x492620
0x4926B0
0x492720
0x492800
0x492950
0x492A70
0x492B90
0x492CF0
0x492DF0
0x492EF0
0x493890
0x493AD0
0x493F00
0x493FF0
0x4942C0
0x494450
0x494520
0x4945F0
0x494680
0x494750
0x4947E0
0x494870
0x494B50
0x494FA0
0x4953D0
0x4955D0
0x4957C0
0x495850
0x495990
0x495A00
0x495B70
0x495C70
0x495D60
0x495E20
0x495EE0
0x495F70
0x496010
0x496100
0x496290
0x4962F0
0x496360
0x496410
0x4965A0
0x4966E0
0x4967A0
0x496990
0x496A10
0x496CD0
0x497AF0
0x497AF4
0x497CD0
0x497D40
0x497ED0
0x497F60
0x497FB0
0x498000
0x4980B0
0x498120
0x498160
0x4981A0
0x498230
0x498280
0x4982D0
0x498320
0x4983F0
0x4984B0
0x498570
0x4987C0
0x4989D0
0x498AB7
0x499990
0x4999F0
0x499A20
0x499AC0
0x499B20
0x499BC0
0x499CD0
0x499D30
0x499DA0
0x49A570
0x49A670
0x49A730
0x49A9D0
0x49AA40
0x49AA80
0x49ABA0
0x49AE90
0x49B050
0x49B1D0
0x49B2F0
0x49B360
0x49B4B0
0x49B4D1
0x49B550
0x49B630
0x49B6DE
0x49B890
0x49B8E1
0x49BAC0
0x49BE00
0x49BF60
0x49C1F0
0x49C400
0x49C590
0x49CD60
0x49CE90
0x49CFA0
0x49D4B0
0x49DD2B
0x49E033
0x49FA60
0x49FC20
0x49FD30
0x4A0160
0x4A01CD
0x4A0220
0x4A0370
0x4A0A60
0x4A0CF0
0x4A0D90
0x4A0E30
0x4A0E70
0x4A0FA0
0x4A0FD0
0x4A1010
0x4A1030
0x4A1330
0x4A1370
0x4A1480
0x4A1530
0x4A1570
0x4A1960
0x4A1A20
0x4A1AD5
0x4A1BC0
0x4A1BF0
0x4A1C50
0x4A1CB0
0x4A1D98
0x4A1DD0
0x4A1E40
0x4A1F10
0x4A1F70
0x4A2100
0x4A2115
0x4A2190
0x4A21F0
0x4A2270
0x4A23C0
0x4A2560
0x4A2660
0x4A2770
0x4A27D0
0x4A2830
0x4A2880
0x4A2900
0x4A2950
0x4A2D70
0x4A2D80
0x4A2DF0
0x4A2E30
0x4A2E60
0x4A2F10
0x4A2F90
0x4A31A0
0x4A3230
0x4A3270
0x4A33F0
0x4A34B0
0x4A3550
0x4A37B0
0x4A3870
0x4A3930
0x4A39C0
0x4A3E00
0x4A3F20
0x4A3F60
0x4A4020
0x4A4110
0x4A4140
0x4A41A0
0x4A4500
0x4A4540
0x4A4600
0x4A4690
0x4A46E0
0x4A49F0
0x4A4B10
0x4A4C50
0x4A4E70
0x4A50B0
0x4A51A0
0x4A58C0
0x4A59D0
0x4A5B70
0x4A5BB0
0x4A5C80
0x4A5DA0
0x4A5EB0
0x4A5F10
0x4A5FBD
0x4A6110
0x4A6190
0x4A6230
0x4A64E0
0x4A6650
0x4A6720
0x4A68A0
0x4A68D0
0x4A6B10
0x4A6C80
0x4A73D9
0x4A7450
0x4A7520
0x4A752B
0x4A7944
0x4A794C
0x4A7A50
0x4A7F2E
0x4A7F36
0x4A7FD0
0x4A7FD8
0x4A8280
0x4A8780
0x4A8A30
0x4A9010
0x4A9CF0
0x4A9DB0
0x4AA040
0x4AA04B
0x4AA177
0x4AA720
0x4AA840
0x4AAB80
0x4AB580
0x4AB58B
0x4AB6D0
0x4AB990
0x4AB9E0
0x4ABA50
0x4ABAC3
0x4ABAE0
0x4ABB30
0x4ABD10
0x4AC3C0
0x4AC4D0
0x4AC670
0x4AC730
0x4AC760
0x4AC7B0
0x4AC7BB
0x4ACA70
0x4ACD70
0x4ADFE0
0x4AE600
0x4AE700
0x4AE7C0
0x4AEB10
0x4AEB40
0x4AECB0
0x4AF230
0x4AF2E0
0x4AF440
0x4AF600
0x4AF740
0x4AF910
0x4AFB27
0x4AFD00
0x4AFF33
0x4B0140
0x4B02F0
0x4B03F0
0x4B0470
0x4B0630
0x4B0790
0x4B0810
0x4B0870
0x4B0930
0x4B0A70
0x4B0D30
0x4B0DD0
0x4B0EE0
0x4B13A0
0x4B16B0
0x4B19F0
0x4B1D70
0x4B2630
0x4B27B0
0x4B27F0
0x4B2890
0x4B28D0
0x4B2B30
0x4B2D00
0x4B2D80
0x4B2F40
0x4B3220
0x4B3320
0x4B33B0
0x4B33F0
0x4B3430
0x4B36C0
0x4B3760
0x4B37E0
0x4B3840
0x4B3870
0x4B3BD0
0x4B4820
0x4B4AF0
0x4B4CA0
0x4B4CD0
0x4B4D00
0x4B4EB0
0x4B4EE0
0x4B4F90
0x4B4FC0
0x4B5020
0x4B5260
0x4B52C0
0x4B52F0
0x4B54A0
0x4B5800
0x4B5830
0x4B5890
0x4B5910
0x4B5B90
0x4B5B9B
0x4B5CB0
0x4B5EA0
0x4B5FE0
0x4B60A0
0x4B6190
0x4B6200
0x4B6220
0x4B6250
0x4B6280
0x4B62B0
0x4B62E0
0x4B6310
0x4B6340
0x4B6370
0x4B63A0
0x4B63D0
0x4B6400
0x4B6430
0x4B6460
0x4B6490
0x4B64C0
0x4B6560
0x4B66E0
0x4B6750
0x4B67D0
0x4B6F90
0x4B6FE0
0x4B70B0
0x4B7340
0x4B7520
0x4B7740
0x4B7780
0x4B7870
0x4B78D0
0x4B7970
0x4B7AE0
0x4B7C20
0x4B7C60
0x4B7D60
0x4B7E50
0x4B7EB0
0x4B7F30
0x4B7FC0
0x4B80E0
0x4B8250
0x4B8420
0x4B8530
0x4B8600
0x4B87D0
0x4B8930
0x4B8990
0x4B8A30
0x4B8C20
0x4B8EF0
0x4B8F50
0x4B9000
0x4B9740
0x4B9770
0x4B97A0
0x4B9810
0x4B99D0
0x4B9A60
0x4B9BD0
0x4B9C00
0x4B9C50
0x4B9E20
0x4B9ED0
0x4B9F20
0x4B9FC0
0x4BA060
0x4BA110
0x4BA220
0x4BA2B0
0x4BA390
0x4BA420
0x4BA4D0
0x4BA5C0
0x4BA650
0x4BA654
0x4BA65C
0x4BA8C0
0x4BA950
0x4BAAC0
0x4BABC0
0x4BAC80
0x4BAD20
0x4BADC0
0x4BAE00
0x4BAE40
0x4BB1A0
0x4BB1E0
0x4BB230
0x4BB2A0
0x4BB2F0
0x4BB330
0x4BB370
0x4BB650
0x4BB690
0x4BC320
0x4BC5C0
0x4BC710
0x4BC750
0x4BCCD0
0x4BCCF0
0x4BD020
0x4BD0A0
0x4BE08E
0x4BE300
0x4BE340
0x4BE380
0x4BE4D0
0x4BE560
0x4BE690
0x4BE7E0
0x4BE810
0x4BE8C0
0x4BE910
0x4BF460
0x4BF840
0x4BF880
0x4BF994
0x4BFC40
0x4C0010
0x4C03D0
0x4C03F0
0x4C0440
0x4C04A0
0x4C0540
0x4C0940
0x4C0980
0x4C09D0
0x4C0B60
0x4C0C40
0x4C0D80
0x4C0DB0
0x4C11B0
0x4C1220
0x4C1250
0x4C12B0
0x4C1350
0x4C1540
0x4C15E0
0x4C1760
0x4C1780
0x4C1784
0x4C229D
0x4C3912
0x4C4AA0
0x4C4AD0
0x4C4B40
0x4C4B80
0x4C4CE0
0x4C4CE4
0x4C4CED
0x4C5B60
0x4C5DF0
0x4C6170
0x4C6248
0x4C6480
0x4C64B0
0x4C6570
0x4C6C60
0x4C6D30
0x4C7240
0x4C74C0
0x4C74C4
0x4C74C6
0x4C7E0C
0x4C8463
0x4C8620
0x4C8760
0x4C8DB0
0x4C8DB4
0x4C9330
0x4C94D0
0x4C95C0
0x4C96A0
0x4C9830
0x4C9834
0x4C983A
0x4CACE4
0x4CB9B0
0x4CBB40
0x4CBBC0
0x4CBC80
0x4CBCA0
0x4CBCC0
0x4CBD10
0x4CBD60
0x4CBDD0
0x4CBE00
0x4CBE20
0x4CBE60
0x4CBFF0
0x4CC0A0
0x4CC220
0x4CC2F0
0x4CC550
0x4CC580
0x4CC5E0
0x4CC5F8
0x4CC610
0x4CC6C0
0x4CC720
0x4CC750
0x4CC7A0
0x4CC7F0
0x4CCA70
0x4CCAB0
0x4CCB40
0x4CCBD0
0x4CCC00
0x4CCC80
0x4CCD90
0x4CCE00
0x4CCEB0
0x4CCF00
0x4CCF50
0x4CD030
0x4CD130
0x4CD15A
0x4CD180
0x4CD250
0x4CD290
0x4CD2F0
0x4CD6F0
0x4CD720
0x4CD7F0
0x4CD920
0x4CDA70
0x4CDAA0
0x4CDAE0
0x4CDCF1
0x4CDE50
0x4CE0E0
0x4CE6E0
0x4CE700
0x4CE720
0x4CE810
0x4CE830
0x4CE9F0
0x4CEC20
0x4CEC70
0x4CED60
0x4CEF20
0x4CF1B0
0x4CF260
0x4CF350
0x4CF380
0x4CF400
0x4CF450
0x4CF464
0x4CF4C0
0x4CF62A
0x4CF6D0
0x4CFAC0
0x4CFB10
0x4CFB60
0x4CFD60
0x4D0130
0x4D0220
0x4D0240
0x4D0280
0x4D0330
0x4D0370
0x4D0400
0x4D04E0
0x4D0520
0x4D0600
0x4D0660
0x4D06F0
0x4D0790
0x4D07F0
0x4D0870
0x4D08D0
0x4D0920
0x4D0990
0x4D0A20
0x4D0A70
0x4D0AC0
0x4D0B20
0x4D0B70
0x4D0D30
0x4D0D90
0x4D0E20
0x4D0F70
0x4D0FA0
0x4D1000
0x4D10B0
0x4D1180
0x4D1580
0x4D15E0
0x4D1690
0x4D16C0
0x4D1740
0x4D1960
0x4D19B0
0x4D1B90
0x4D1D30
0x4D1D70
0x4D1EE0
0x4D22F0
0x4D2380
0x4D2510
0x4D25C0
0x4D2660
0x4D2730
0x4D2760
0x4D2820
0x4D285F
0x4D2870
0x4D28F0
0x4D2910
0x4D29D0
0x4D2A80
0x4D2AF0
0x4D2B40
0x4D2CA0
0x4D2CE0
0x4D2D92
0x4D30F0
0x4D37D0
0x4D3980
0x4D3A81
0x4D3E10
0x4D4240
0x4D42F0
0x4D4350
0x4D4364
0x4D44F0
0x4D4593
0x4D46D0
0x4D4710
0x4D4840
0x4D4990
0x4D49D0
0x4D4A00
0x4D4A30
0x4D4A60
0x4D4C40
0x4D4E40
0x4D4EB0
0x4D4EF0
0x4D4F70
0x4D4FC0
0x4D5010
0x4D50B0
0x4D5100
0x4D5250
0x4D53E0
0x4D54B0
0x4D5540
0x4D5554
0x4D5880
0x4D5B70
0x4D6380
0x4D63B0
0x4D6410
0x4D64C0
0x4D6870
0x4D6AE0
0x4D6B70
0x4D6BC0
0x4D6C40
0x4D6CA0
0x4D6CD0
0x4D6D20
0x4D6D70
0x4D6E20
0x4D6E80
0x4D6F10
0x4D7150
0x4D7180
0x4D71B0
0x4D71F0
0x4D73B0
0x4D7590
0x4D7E60
0x4D7EB0
0x4D7EE0
0x4D7F50
0x4D7FE0
0x4D8040
0x4D80D0
0x4D80F0
0x4D8110
0x4D8170
0x4D8510
0x4D8930
0x4D9250
0x4D9810
0x4D9860
0x4D9890
0x4D98F0
0x4D99A0
0x4D9B00
0x4D9B50
0x4D9BE4
0x4D9CA0
0x4D9D20
0x4D9D80
0x4D9DD0
0x4D9E20
0x4DA3BE
0x4DA700
0x4DA900
0x4DAA00
0x4DAB30
0x4DAC80
0x4DACB0
0x4DACD0
0x4DB7E0
0x4DCBF0
0x4DD280
0x4DD2F0
0x4DD610
0x4DD640
0x4DDFB0
0x4DDFD0
0x4DE060
0x4DE3D0
0x4DE3F0
0x4DE480
0x4DE4D0
0x4DE4F0
0x4DE510
0x4DE560
0x4DE590
0x4DE5B0
0x4DE5D0
0x4DE720
0x4DE7A0
0x4DECB0
0x4DED70
0x4DEE70
0x4DEF30
0x4DEF50
0x4DEFA0
0x4DEFF0
0x4DF060
0x4DF090
0x4DF0B0
0x4DF0D0
0x4DF141
0x4DF150
0x4DF1E0
0x4DF210
0x4DF300
0x4DF390
0x4DF580
0x4DF650
0x4DF840
0x4DF8E0
0x4DF9B0
0x4DFA60
0x4DFC30
0x4E05F0
0x4E0710
0x4E0DC0
0x4E0E70
0x4E1120
0x4E1150
0x4E11B0
0x4E1260
0x4E20D0
0x4E22C0
0x4E26A0
0x4E26F0
0x4E2960
0x4E29C0
0x4E2A30
0x4E2A50
0x4E2A60
0x4E2A90
0x4E2D90
0x4E2DB0
0x4E2E10
0x4E2E50
0x4E2FE0
0x4E31E0
0x4E32F0
0x4E3580
0x4E36F0
0x4E3770
0x4E3A10
0x4E3A40
0x4E3A70
0x4E3B20
0x4E3C30
0x4E3D00
0x4E3EA0
0x4E4030
0x4E40C0
0x4E4280
0x4E4670
0x4E47A0
0x4E48F0
0x4E4920
0x4E4950
0x4E4980
0x4E49D0
0x4E4B00
0x4E4B30
0x4E4B80
0x4E4C00
0x4E4C60
0x4E4CB0
0x4E4D50
0x4E4DB0
0x4E4DD0
0x4E4DF0
0x4E4E80
0x4E4F20
0x4E50B0
0x4E5190
0x4E51D0
0x4E51F0
0x4E5260
0x4E5274
0x4E527C
0x4E52D0
0x4E5300
0x4E5350
0x4E536B
0x4E53B0
0x4E53C4
0x4E53CC
0x4E5470
0x4E54A0
0x4E54AF
0x4E54D0
0x4E5500
0x4E5540
0x4E55B0
0x4E55F0
0x4E5680
0x4E5730
0x4E5DB0
0x4E5DD0
0x4E5E10
0x4E5E30
0x4E5EB0
0x4E5EE0
0x4E5F10
0x4E62A0
0x4E6330
0x4E6350
0x4E64D0
0x4E6510
0x4E6530
0x4E6B60
0x4E6B80
0x4E6BA0
0x4E6DB4
0x4E6DE0
0x4E6E0C
0x4E6E38
0x4E6EB0
0x4E6ED0
0x4E6F10
0x4E6F30
0x4E6F60
0x4E6F80
0x4E6FE0
0x4E7020
0x4E7040
0x4E7070
0x4E70A0
0x4E70D0
0x4E7100
0x4E7130
0x4E7160
0x4E7310
0x4E7350
0x4E7390
0x4E73D0
0x4E7410
0x4E7460
0x4E7640
0x4E7660
0x4E7750
0x4E77C0
0x4E7860
0x4E78F0
0x4E7970
0x4E79D0
0x4E79F3
0x4E7A0E
0x4E7A20
0x4E7A40
0x4E7AA0
0x4E7AC0
0x4E7AF0
0x4E7B60
0x4E7BD0
0x4E7BF0
0x4E7C10
0x4E7C30
0x4E7CB0
0x4E7DA0
0x4E7E30
0x4E7E90
0x4E8D26
0x4E979F
0x4E9CAF
0x4EAB90
0x4EAC50
0x4EACC0
0x4EAD80
0x4EAE10
0x4EAF20
0x4EAFC0
0x4EAFF0
0x4EB040
0x4EB060
0x4EB080
0x4EB0A0
0x4EB0A8
0x4EB0D0
0x4EB100
0x4EB1B0
0x4EBAD0
0x4EBB20
0x4EBB50
0x4EBBB0
0x4EBC60
0x4EBE6B
0x4EBF50
0x4EBFF0
0x4EC0A0
0x4EC0D0
0x4EC260
0x4EC2B0
0x4EC2F0
0x4EC450
0x4EC470
0x4EC490
0x4EC620
0x4EC640
0x4EC6B0
0x4EC8D0
0x4ECC10
0x4ECCA0
0x4ECD30
0x4ECDE0
0x4ECE10
0x4ECE80
0x4ECEE0
0x4ECF40
0x4ED170
0x4ED5C0
0x4ED610
0x4ED630
0x4ED680
0x4ED6C0
0x4ED770
0x4ED7B0
0x4ED8E0
0x4ED940
0x4ED9E0
0x4EDD60
0x4EDDC0
0x4EDE20
0x4EDE80
0x4EDEC0
0x4EDF00
0x4EDF40
0x4EDFE0
0x4EE060
0x4EE0C0
0x4EE140
0x4EE1C0
0x4EE220
0x4EE270
0x4EE2D0
0x4EE300
0x4EE350
0x4EE3F0
0x4EE490
0x4EE4D0
0x4EE4F0
0x4EE530
0x4EE560
0x4EE670
0x4EE6D0
0x4EE710
0x4EE750
0x4EE790
0x4EE7C0
0x4EE7D0
0x4EE810
0x4EE820
0x4EE890
0x4EE900
0x4EE970
0x4EEAC0
0x4EEAF0
0x4EEB40
0x4EEB90
0x4EEBF0
0x4EEC10
0x4EEC70
0x4EEC90
0x4EED10
0x4EEEC0
0x4EF090
0x4EF0B0
0x4EF130
0x4EF2D0
0x4EF590
0x4EF720
0x4EF830
0x4EFA10
0x4EFBF0
0x4EFC70
0x4EFEB0
0x4EFF90
0x4F0090
0x4F0260
0x4F0430
0x4F0674
0x4F1260
0x4F13E0
0x4F1410
0x4F1470
0x4F1520
0x4F18B0
0x4F1950
0x4F1990
0x4F19E0
0x4F1A70
0x4F1AC0
0x4F1B10
0x4F1BB0
0x4F1C00
0x4F1C50
0x4F1C60
0x4F1CF0
0x4F1D40
0x4F1FB0
0x4F2000
0x4F2080
0x4F20E0
0x4F2110
0x4F2160
0x4F21B0
0x4F2230
0x4F2250
0x4F22E0
0x4F2340
0x4F23D0
0x4F2420
0x4F2470
0x4F2530
0x4F27D0
0x4F2870
0x4F28E0
0x4F2920
0x4F29D0
0x4F2BA0
0x4F2C60
0x4F2CE0
0x4F2E89
0x4F2F1E
0x4F3070
0x4F3120
0x4F3230
0x4F32D0
0x4F3310
0x4F33C0
0x4F3430
0x4F3690
0x4F36C0
0x4F3720
0x4F3790
0x4F37C0
0x4F37F0
0x4F38A0
0x4F38E0
0x4F3920
0x4F3AB0
0x4F3B80
0x4F3BE0
0x4F3C60
0x4F3EA2
0x4F407A
0x4F4240
0x4F4350
0x4F4400
0x4F4450
0x4F44A0
0x4F4540
0x4F4570
0x4F45D0
0x4F4690
0x4F46E0
0x4F4750
0x4F4860
0x4F4960
0x4F49B0
0x4F4B5D
0x4F4C10
0x4F4E50
0x4F4E80
0x4F4FC0
0x4F5040
0x4F51C0
0x4F51E0
0x4F5220
0x4F5250
0x4F52B0
0x4F52FD
0x4F5350
0x4F53D0
0x4F5410
0x4F55A0
0x4F5610
0x4F5720
0x4F5750
0x4F57B1
0x4F58F0
0x4F5A90
0x4F5B10
0x4F5B50
0x4F5B90
0x4F5C40
0x4F6900
0x4F6960
0x4F6980
0x4F69B0
0x4F6A60
0x4F6AB0
0x4F6B70
0x4F6BE0
0x4F6C70
0x4F6D00
0x4F6D40
0x4F6D80
0x4F6DE0
0x4F6E40
0x4F6E80
0x4F6F00
0x4F6F60
0x4F6FB0
0x4F7000
0x4F7090
0x4F70E0
0x4F7130
0x4F71C0
0x4F7210
0x4F7230
0x4F72E0
0x4F73F0
0x4F75F0
0x4F7720
0x4F7AA0
0x4F7AC0
0x4F7AD0
0x4F7AF0
0x4F7B20
0x4F7B40
0x4F7B60
0x4F7BD0
0x4F7C00
0x4F7C90
0x4F7CE0
0x4F7D30
0x4F7DC0
0x4F7E40
0x4F8340
0x4F83C0
0x4F83F0
0x4F8450
0x4F8500
0x4F8550
0x4F85A0
0x4F85C0
0x4F8720
0x4F88E0
0x4F8AF0
0x4F8B40
0x4F8BB0
0x4F8D60
0x4F8E90
0x4F8F70
0x4F9090
0x4F9140
0x4F9170
0x4F91F0
0x4F9250
0x4F9280
0x4F92D0
0x4F9320
0x4F9820
0x4F9880
0x4F9910
0x4F99C0
0x4F9B10
0x4F9C00
0x4F9CB0
0x4F9CE0
0x4F9D40
0x4F9DF0
0x4F9E40
0x4F9EB0
0x4F9EF0
0x4FA2B0
0x4FA320
0x4FA350
0x4FA4F6
0x4FA520
0x4FA560
0x4FA5B0
0x4FA7A0
0x4FA810
0x4FA8A0
0x4FAC20
0x4FAC40
0x4FADC0
0x4FADE0
0x4FAE10
0x4FB070
0x4FB0B0
0x4FB100
0x4FB160
0x4FB1B0
0x4FBC33
0x4FC5D0
0x4FC640
0x4FC6B0
0x4FC860
0x4FC990
0x4FCAE0
0x4FCB10
0x4FCB80
0x4FCBB0
0x4FCF60
0x4FCFC0
0x4FD050
0x4FD0A0
0x4FD110
0x4FD2B9
0x4FD34E
0x4FD4A0
0x4FD550
0x4FD570
0x4FD610
0x4FD910
0x4FDA90
0x4FDDE0
0x4FDE60
0x4FDEB0
0x4FDEE0
0x4FDF10
0x4FDF60
0x4FDFA0
0x4FE020
0x4FE080
0x4FE0D0
0x4FE160
0x4FE1B0
0x4FE200
0x4FE2B0
0x4FE470
0x4FE5A0
0x4FE610
0x4FE650
0x4FE6C0
0x4FE750
0x4FE7A0
0x4FE7F0
0x4FE850
0x4FE890
0x4FE8E0
0x4FE930
0x4FE9A0
0x4FE9C0
0x4FE9F0
0x4FEA10
0x4FEAA0
0x4FEAC0
0x4FEB50
0x4FEBA0
0x4FEBF0
0x4FEC30
0x4FECA0
0x4FECE0
0x4FED40
0x4FEDA0
0x4FEDE0
0x4FF102
0x4FF120
0x4FF190
0x4FF260
0x4FFD60
0x4FFE10
0x4FFE70
0x500110
0x500170
0x5001B0
0x5001F0
0x500274
0x5002A0
0x500300
0x500360
0x500374
0x5003F0
0x500420
0x500470
0x5005A0
0x500780
0x500800
0x500890
0x501100
0x501130
0x501180
0x5011E0
0x501270
0x5012A0
0x5017F7
0x5017FE
0x501AA0
0x501F10
0x501F70
0x501FD0
0x502080
0x502130
0x5027C0
0x502A00
0x502AB0
0x502B30
0x502D30
0x502D50
0x502DD0
0x502E30
0x502E80
0x502EE0
0x502F50
0x502FE0
0x503030
0x503080
0x5038F0
0x5039F0
0x503AD6
0x503B30
0x503C10
0x503C80
0x503EE0
0x503F70
0x50405A
0x5041B0
0x5041D0
0x504370
0x504670
0x504900
0x504910
0x50493B
0x504A80
0x504B70
0x504BA0
0x504F60
0x505C40
0x505C70
0x505D30
0x505E50
0x505E90
0x505F20
0x505F70
0x506140
0x5066D0
0x506790
0x5067B0
0x506950
0x5069A0
0x5069E0
0x506E50
0x506EB0
0x507240
0x5072A0
0x507430
0x507BD0
0x507D00
0x507E40
0x507F60
0x507FF0
0x50802A
0x508050
0x5080E0
0x50811A
0x508140
0x5081D0
0x50820A
0x508230
0x508280
0x508310
0x50834A
0x508370
0x508400
0x50843A
0x508460
0x5086E0
0x508700
0x508740
0x5087F0
0x508830
0x508A20
0x508B90
0x508CC0
0x508DB6
0x509550
0x5095C0
0x509800
0x509830
0x509870
0x509A30
0x509A60
0x509A90
0x509BF0
0x509D50
0x509F30
0x50A2E0
0x50A310
0x50A340
0x50A440
0x50A480
0x50A4D0
0x50A550
0x50A620
0x50A680
0x50A700
0x50A840
0x50AA20
0x50AAC0
0x50ACD0
0x50AD10
0x50AF00
0x50AF50
0x50AFC0
0x50B030
0x50B100
0x50B170
0x50B1B0
0x50B220
0x50B2A0
0x50B350
0x50B3A0
0x50B3E0
0x50BEC0
0x50C030
0x50C060
0x50C0C0
0x50C0E0
0x50C230
0x50C2D0
0x50C330
0x50C4A0
0x50C4EC
0x50C500
0x50C860
0x50C8D0
0x50C91C
0x50C930
0x50CDF0
0x50CEE0
0x50CF53
0x50CF80
0x50D230
0x50D290
0x50D320
0x50D500
0x50D630
0x50D6C0
0x50D750
0x50D7E0
0x50D870
0x50D8E0
0x50D900
0x50D960
0x50D980
0x50D9A0
0x50D9F0
0x50DA40
0x50DAB0
0x50DAE0
0x50DB00
0x50DC20
0x50DCC0
0x50DD40
0x50DF10
0x50E04D
0x50E100
0x50E170
0x50E190
0x50E1A0
0x50E1D0
0x50E230
0x50E250
0x50E730
0x50E760
0x50E790
0x50E7B0
0x50E7D0
0x50E7F0
0x50E810
0x50E830
0x50E83C
0x50E850
0x50E870
0x50E8C0
0x50E910
0x50E980
0x50E9B0
0x50E9D0
0x50EA20
0x50EA80
0x50EAC0
0x50EAE0
0x50EB00
0x50ED50
0x50EF20
0x50EFC2
0x50EFED
0x50F0F0
0x50F1A0
0x50F200
0x50F490
0x50F630
0x50F750
0x50F7B0
0x5102D0
0x5102F0
0x510360
0x510380
0x510390
0x5103C0
0x510420
0x510490
0x5104B0
0x51050D
0x510520
0x5105D0
0x510980
0x510F70
0x511220
0x511260
0x5112E0
0x5113F0
0x511990
0x511C40
0x511FF0
0x512070
0x512220
0x512530
0x512550
0x512690
0x5128F0
0x5129A0
0x512D50
0x512E00
0x512E40
0x5130D0
0x513110
0x513160
0x513190
0x5131E0
0x513350
0x5133C0
0x513450
0x5134A0
0x5134F0
0x513550
0x513590
0x5135B0
0x5135D0
0x513620
0x513670
0x5136E0
0x513710
0x513730
0x513760
0x5137A0
0x513840
0x5139A0
0x513A00
0x513AA0
0x513D00
0x514660
0x514760
0x514780
0x514C50
0x514C90
0x514D00
0x514D70
0x514DD0
0x514E10
0x514EA0
0x514F10
0x514F80
0x515010
0x515030
0x515090
0x5150E0
0x515110
0x515150
0x5151C0
0x515210
0x515230
0x515310
0x515360
0x5153B0
0x515400
0x515420
0x5154E0
0x5159B6
0x5159C9
0x5160B5
0x516170
0x516230
0x516490
0x516890
0x5168F0
0x516910
0x516CC0
0x516FB0
0x517040
0x5171E0
0x517220
0x518356
0x5188A6
0x51CA50
0x51CAA0
0x51CB50
0x51CCA0
0x51CCE0
0x51D040
0x51D2F0
0x51D530
0x51D610
0x51D660
0x51D680
0x51D6A0
0x51D6F0
0x51D980
0x51DE70
0x51DEB0
0x51DEE0
0x51E000
0x51E040
0x51E0E0
0x51E130
0x51E600
0x51E8F0
0x51EBE0
0x51EC10
0x51ECA0
0x51ECF0
0x51F1F0
0x51F420
0x51F490
0x51F750
0x51F930
0x51FD80
0x5200C0
0x5202C0
0x5203B0
0x520E20
0x520F30
0x521300
0x5214C0
0x5215E0
0x5216B0
0x5223B0
0x522630
0x522BE0
0x522C70
0x522F50
0x524330
0x524480
0x524800
0x524940
0x524990
0x525CC0
0x526400
0x5268D0
0x526990
0x5269F0
0x526B00
0x526FD0
0x528E20
0x529940
0x52CE00
0x52D4F0
0x52D4F4
0x52D885
0x52D889
0x52E440
0x52EE40
0x52EF20
0x530B00
0x530BD0
0x530E70
0x531F50
0x5320E3
0x5322E3
0x532477
0x5328A0
0x533454
0x5338C0
0x533B30
0x534B90
0x534DC0
0x536BF0
0x536E10
0x537160
0x5372C0
0x537680
0x537F00
0x538870
0x538A30
0x538AB0
0x538FA0
0x539000
0x5390C0
0x539340
0x539420
0x539490
0x5396A0
0x539730
0x539790
0x539820
0x539840
0x539880
0x5398E0
0x539F80
0x53A1A0
0x53A3F0
0x53A6B1
0x53A740
0x53A790
0x53A910
0x53A9C0
0x53AA80
0x53AAA0
0x53AC20
0x53ACC0
0x53AE50
0x53AF20
0x53B0B0
0x53B290
0x53B490
0x53B6E0
0x53BC20
0x53D040
0x53E470
0x53E5C0
0x53E6F0
0x53E7C0
0x53E82D
0x53EAA0
0x53EC10
0x53ECC0
0x53ED40
0x53EDC0
0x53EDF0
0x53EEA0
0x53EF30
0x53EF80
0x53F0A0
0x53F0F0
0x53F2F0
0x53F340
0x53F3B0
0x53F3F0
0x53F490
0x53F560
0x53F580
0x53F870
0x53F8D0
0x53FA70
0x53FB50
0x53FC60
0x53FDD0
0x53FE10
0x53FF70
0x540120
0x540730
0x5407A0
0x540950
0x5409D0
0x540CB0
0x540CE0
0x540D40
0x540D70
0x540DC0
0x541410
0x541430
0x541530
0x5416C0
0x5417F0
0x541A80
0x541AF0
0x541B60
0x541BE0
0x541C60
0x541D40
0x541F30
0x542870
0x5429F0
0x542A70
0x542AE0
0x542BE0
0x542C50
0x542C64
0x542D50
0x542D70
0x542D84
0x542F70
0x542F84
0x5430A0
0x5430B4
0x543150
0x543170
0x5432D0
0x543650
0x543DB0
0x543E10
0x543EE0
0x543FE0
0x544060
0x5440F0
0x54413F
0x545AF0
0x545B50
0x545B70
0x545C20
0x545C34
0x545C80
0x545CC0
0x545D60
0x545D90
0x545E50
0x545E90
0x5461E0
0x546210
0x546250
0x5462A0
0x546450
0x5464A0
0x5464C4
0x546A60
0x546C90
0x546D60
0x546E00
0x546F60
0x547290
0x5472E0
0x547340
0x547354
0x547460
0x547474
0x5476C0
0x5478A0
0x547AE0
0x547AF4
0x547B50
0x547B64
0x547C20
0x547C80
0x547C94
0x547EC0
0x5480D0
0x5480E4
0x548290
0x5482A4
0x5483D0
0x548430
0x548480
0x5484E0
0x548540
0x548690
0x548730
0x54874F
0x5488A0
0x5488F0
0x548940
0x548A50
0x548A64
0x548C90
0x548CE0
0x548E00
0x548E60
0x548F60
0x549010
0x549030
0x549090
0x549280
0x5492D0
0x549340
0x549393
0x549520
0x549540
0x5495B0
0x549650
0x5498D0
0x549A10
0x549B40
0x549BA0
0x549C20
0x549C70
0x549CA4
0x549DC0
0x549E29
0x549E40
0x54A130
0x54A2E0
0x54A3E0
0x54A520
0x54A6E0
0x54A700
0x54AE30
0x54B47F
0x54B810
0x54B860
0x54B8C0
0x54B9B0
0x54BA20
0x54BAA0
0x54BC30
0x54C164
0x54C38C
0x54C440
0x54C640
0x54C670
0x54CBF0
0x54CF80
0x54D850
0x54E260
0x54E2C0
0x54E330
0x54E570
0x54E910
0x54F0B0
0x54F1D0
0x54F1FD
0x54F230
0x54F2B0
0x54F380
0x54F393
0x54F3F3
0x54F480
0x54F4A0
0x54F55C
0x54F570
0x54F5F0
0x54F6F0
0x54F760
0x54F7B0
0x54F8C0
0x54F960
0x54F9B0
0x54FAD0
0x54FC80
0x550050
0x55018D
0x550250
0x550450
0x550690
0x5507E3
0x550CA0
0x550E70
0x551130
0x55122C
0x551310
0x551440
0x551720
0x551840
0x552090
0x5523F0
0x552420
0x552530
0x5525B0
0x5526A4
0x5526C0
0x552750
0x552970
0x552DE0
0x552EC0
0x552F40
0x553100
0x5531E0
0x5532A0
0x5532C0
0x553C20
0x553FF0
0x554030
0x554230
0x5543A0
0x5544C0
0x5544F0
0x554550
0x5545E0
0x554670
0x554900
0x554970
0x554A60
0x554AB0
0x554B10
0x554D10
0x554F50
0x555070
0x5550E0
0x5551D0
0x555230
0x5552A0
0x555340
0x555380
0x555440
0x5554C0
0x555600
0x555654
0x55583C
0x555A40
0x555B20
0x555B4B
0x555C80
0x555D70
0x555E50
0x555F00
0x5560A0
0x556120
0x5561A0
0x556210
0x5563B0
0x5563E0
0x556410
0x5564D0
0x556500
0x556520
0x556540
0x556580
0x5565C0
0x5567F0
0x5569A0
0x556A40
0x556B30
0x556B50
0x556CF0
0x556EA7
0x556ED0
0x556F40
0x557050
0x557230
0x557350
0x557630
0x557760
0x557790
0x557A59
0x557AD0
0x557B00
0x557B60
0x557C10
0x557C30
0x557D90
0x557E60
0x557FD0
0x558180
0x558390
0x558410
0x558450
0x558590
0x558630
0x558760
0x5589E0
0x558AB0
0x558B60
0x558BC0
0x558BE0
0x558EB0
0x558FB0
0x559010
0x559260
0x5592C0
0x5592F0
0x5594AF
0x5596E4
0x559850
0x559910
0x559BD0
0x559CB0
0x559CE2
0x559ED0
0x559F00
0x55A0C0
0x55A0E0
0x55A140
0x55A2E0
0x55A530
0x55A740
0x55A7A0
0x55A7B3
0x55B8E0
0x55BA10
0x55BB60
0x55BD40
0x55BE60
0x55C1C0
0x55C480
0x55C4C0
0x55C540
0x55C690
0x55C800
0x55C880
0x55C900
0x55CB90
0x55CBB0
0x55CD00
0x55CD60
0x55CE00
0x55CE80
0x55D080
0x55D200
0x55D620
0x55D6D0
0x55D760
0x55D8E0
0x55D900
0x55D950
0x55DA30
0x55DAD0
0x55DB60
0x55DC00
0x55DC50
0x55DCF0
0x55DDF0
0x55DE43
0x55E900
0x55EA30
0x55EBC0
0x55EE40
0x55F000
0x55F080
0x55FA90
0x55FFD0
0x5601B0
0x560228
0x560590
0x5607F0
0x5608A0
0x560EE0
0x5612A0
0x561A5A
0x561BF0
0x561CA0
0x561CA4
0x561DF0
0x561DF4
0x561EC0
0x562250
0x5623C0
0x5623CB
0x562590
0x56259B
0x562AA0
0x562AA8
0x562C70
0x562C74
0x562D30
0x562D34
0x562E30
0x562E3B
0x5632E0
0x5639F0
0x5639F8
0x563B20
0x563B28
0x563B40
0x563B4B
0x563BD2
0x563DC0
0x563DC8
0x563FC0
0x564100
0x564104
0x564230
0x564570
0x5647C0
0x564870
0x564A70
0x564BA0
0x564FE0
0x565520
0x565930
0x565A50
0x565D50
0x565F50
0x566020
0x5660D0
0x566220
0x5664A0
0x5666C0
0x5668F0
0x566A70
0x566CE0
0x566D20
0x566D70
0x566DC0
0x566E10
0x566E60
0x566FC0
0x567110
0x5673C0
0x567640
0x5677A0
0x5679A0
0x5679A4
0x5679A6
0x567B00
0x567CD0
0x567E30
0x567EB0
0x567F80
0x5680D7
0x568550
0x5685F0
0x568630
0x568770
0x5687E0
0x568870
0x568910
0x5689B0
0x568A83
0x568DC0
0x568EB0
0x568F00
0x568F29
0x569340
0x5693B0
0x569420
0x569430
0x5694D0
0x569590
0x569630
0x569680
0x56973F
0x569830
0x569890
0x569C70
0x56A3D0
0x56A3E6
0x56A5F0
0x56A620
0x56A650
0x56AC20
0x56ACC0
0x56AF00
0x56B020
0x56B660
0x56B6E0
0x56B840
0x56BA9C
0x56BC76
0x56BEA0
0x56C2D0
0x56C410
0x56C470
0x56C490
0x56C501
0x56C750
0x56C870
0x56C900
0x56CA5F
0x56CB50
0x56CBE0
0x56CC50
0x56CCF0
0x56CD69
0x56CD96
0x56D890
0x56D970
0x56DB40
0x56DC20
0x56DCD0
0x56DDE0
0x56DED0
0x56E0D0
0x56E130
0x56E2E3
0x56E4D0
0x56E5D0
0x56E6A0
0x56E7F0
0x56E81E
0x56E833
0x56EA00
0x56EBC0
0x56EDD0
0x56EF50
0x56EF76
0x56EFF0
0x56F010
0x56F0A0
0x56F130
0x56F170
0x56F590
0x56F600
0x56F8A0
0x56F980
0x56FA80
0x56FB20
0x56FBF0
0x56FC50
0x570090
0x570100
0x570250
0x570300
0x5703B0
0x570430
0x570AB0
0x570B70
0x570CF0
0x570F20
0x570F60
0x571060
0x5710D0
0x571110
0x571130
0x571270
0x571340
0x5714D0
0x571710
0x571810
0x5718C0
0x571A70
0x571C60
0x571CF0
0x571E20
0x571FB0
0x572060
0x572078
0x572090
0x572100
0x5721F0
0x5723D0
0x572680
0x5727A0
0x5728C0
0x572900
0x572A60
0x572D30
0x572D34
0x573350
0x573370
0x573440
0x573470
0x573510
0x57352E
0x573680
0x573A20
0x573A50
0x573A80
0x573E00
0x573E70
0x5746A0
0x574710
0x5747D0
0x575190
0x5751B0
0x575200
0x575260
0x5752B0
0x575B40
0x575B80
0x575F00
0x576040
0x576090
0x5768F0
0x576A50
0x576B00
0x5771D0
0x577410
0x577890
0x577AF0
0x577B90
0x577C40
0x577C70
0x577CC0
0x577D20
0x577D80
0x577E10
0x577EE0
0x577F70
0x577F90
0x5784A0
0x578540
0x578590
0x5794A4
0x57DAF0
0x57DBF0
0x57DC80
0x57DD30
0x57DEC0
0x57DEF0
0x57DF50
0x57E000
0x57E080
0x57E0E0
0x57E130
0x57E180
0x57E1C0
0x57E2B0
0x57E300
0x57E520
0x57E5B0
0x57E6F0
0x57E736
0x57EA00
0x57ED30
0x57EFD0
0x57F060
0x580BC0
0x580CA0
0x580F10
0x581150
0x581370
0x581490
0x5814F0
0x5815D0
0x5818E0
0x581B60
0x581C00
0x581E10
0x581EA0
0x582097
0x5820D0
0x582550
0x582610
0x5826B0
0x582B10
0x5830A0
0x5830D0
0x583210
0x5832D0
0x5834D0
0x583600
0x583990
0x583AB0
0x584280
0x5842E0
0x584400
0x584570
0x584730
0x5851C0
0x585230
0x5852B0
0x585340
0x585360
0x585470
0x5854B0
0x5855B0
0x5859F0
0x586120
0x586230
0x586300
0x5863D0
0x586410
0x586530
0x586540
0x586760
0x586780
0x5868F0
0x586900
0x586A70
0x586A90
0x586AB0
0x586B10
0x586BB0
0x586F00
0x5871D0
0x587273
0x587320
0x5873D8
0x587400
0x587A40
0x587B40
0x587B90
0x588580
0x5885D0
0x588640
0x5889C0
0x588BB0
0x588DD0
0x588E60
0x589230
0x589340
0x589630
0x589CE0
0x589EF0
0x589F10
0x58A0C0
0x58A180
0x58A240
0x58A4D0
0x58A630
0x58A6E0
0x58A720
0x58A770
0x58A7B0
0x58AB10
0x58ABD0
0x58ACD0
0x58ADA0
0x58ADF0
0x58AEF0
0x58B510
0x58B550
0x58B570
0x58B5A0
0x58B820
0x58B930
0x58B960
0x58B9A0
0x58BA10
0x58BAD0
0x58BB90
0x58BC00
0x58BC50
0x58BCC0
0x58BD30
0x58BDB0
0x58BE50
0x58D300
0x58D320
0x58D480
0x58D500
0x5902F0
0x590650
0x590820
0x590B10
0x590CF0
0x590FB0
0x591740
0x5918B0
0x591C50
0x591D20
0x592850
0x592870
0x592BE0
0x592C40
0x592C90
0x592CB0
0x593010
0x593060
0x593100
0x593160
0x5931A0
0x5931E0
0x593260
0x5932F0
0x593314
0x593430
0x593470
0x593520
0x593550
0x5935B0
0x5936E0
0x5937C0
0x5938A0
0x593AB0
0x593C10
0x593C40
0x593C70
0x593D40
0x593D70
0x593D90
0x593F30
0x593F70
0x593FA0
0x594070
0x5940E0
0x594120
0x594170
0x5942B0
0x594630
0x594760
0x594B60
0x594CA0
0x594E00
0x594E50
0x595550
0x595860
0x595870
0x595900
0x595D50
0x595D90
0x595E10
0x595E50
0x595EF0
0x595F80
0x596010
0x596040
0x5960E0
0x596200
0x5962D0
0x5963C0
0x596480
0x5964E0
0x596530
0x596560
0x596590
0x5965F0
0x5966D0
0x596780
0x596A30
0x596B10
0x596B40
0x596B70
0x596CB0
0x596CF0
0x596F20
0x596F80
0x5971C0
0x597220
0x597350
0x598540
0x598560
0x5985F0
0x598650
0x5986B0
0x598730
0x5987A0
0x598850
0x5988E0
0x598930
0x598980
0x5989A0
0x5989F0
0x598B30
0x598F70
0x598FC0
0x599400
0x599490
0x599800
0x599830
0x599890
0x599940
0x599990
0x5999E0
0x599A60
0x599AC0
0x599AF0
0x599B40
0x599B90
0x599C20
0x59A0B0
0x59A100
0x59A140
0x59A450
0x59A4E0
0x59A630
0x59A6E0
0x59A840
0x59AA30
0x59AB60
0x59AC00
0x59ACD0
0x59AD00
0x59AD90
0x59AE30
0x59AED0
0x59B070
0x59B120
0x59B490
0x59B5F0
0x59B660
0x59B6A0
0x59B710
0x59B780
0x59B920
0x59BA10
0x59BA36
0x59BA50
0x59BA80
0x59BAB0
0x59BB00
0x59BBD0
0x59BF70
0x59BFA0
0x59BFD0
0x59C1B0
0x59C1D0
0x59C220
0x59C2C0
0x59C3A0
0x59C500
0x59C6A0
0x59C720
0x59C850
0x59C9A0
0x59CC90
0x59CCC0
0x59CD40
0x59CE30
0x59CE80
0x59CE90
0x59CEA0
0x59CEB0
0x59CED0
0x59CEE0
0x59CEF0
0x59CF00
0x59CF10
0x59CF20
0x59CF40
0x59CF50
0x59CF60
0x59CF70
0x59CF80
0x59CFB0
0x59D150
0x59D1A0
0x59D1C0
0x59D1E0
0x59D220
0x59D240
0x59D260
0x59D520
0x59D7E0
0x59D800
0x59D9D0
0x59DA40
0x59DA60
0x59DA90
0x59DAB0
0x59DE70
0x59E070
0x59E0C0
0x59E320
0x59E3C9
0x59E46D
0x59E511
0x59E5BA
0x59E65E
0x59E702
0x59E7AE
0x59E852
0x59E8F6
0x59E997
0x59EB44
0x59ECC0
0x59ED50
0x59EDE0
0x59EE40
0x59EEC0
0x59EF30
0x59EF80
0x59EFD0
0x59F060
0x59F3F0
0x59F5A0
0x59F5F0
0x59F7F5
0x59F896
0x59FA36
0x59FB40
0x59FBD0
0x59FC50
0x59FCB0
0x59FD20
0x59FD80
0x59FDD0
0x59FE20
0x59FEB0
0x5A02F0
0x5A0790
0x5A0970
0x5A0AD0
0x5A0B20
0x5A0D43
0x5A0DEF
0x5A0E93
0x5A0F37
0x5A0FD8
0x5A1178
0x5A1280
0x5A1310
0x5A137D
0x5A1390
0x5A13F0
0x5A1470
0x5A14D0
0x5A1520
0x5A1570
0x5A1600
0x5A1680
0x5A1750
0x5A1790
0x5A1860
0x5A1A10
0x5A1BA0
0x5A1BD0
0x5A26C0
0x5A26F0
0x5A2C31
0x5A30E0
0x5A3180
0x5A363D
0x5A36B0
0x5A38D0
0x5A3950
0x5A39E0
0x5A46A0
0x5A4710
0x5A4BA0
0x5A4C10
0x5A5270
0x5A52E0
0x5A5350
0x5A5620
0x5A5760
0x5A57D0
0x5A70E0
0x5A7150
0x5A71D0
0x5A72D0
0x5A7D60
0x5A8010
0x5A8014
0x5A878C
0x5A8DA0
0x5A8FE8
0x5A90D0
0x5A9150
0x5A9C30
0x5A9D60
0x5A9FC0
0x5AA010
0x5AA520
0x5AA5A0
0x5AA610
0x5AA680
0x5AA6F0
0x5AA760
0x5AA7E0
0x5AA8D0
0x5AA970
0x5AAA70
0x5AAC80
0x5AAFB0
0x5AB030
0x5AB0E0
0x5AB560
0x5AB5E0
0x5AB640
0x5AC0B0
0x5AC3E0
0x5AC6D0
0x5AC740
0x5ACAE0
0x5ACB10
0x5ACBE0
0x5ACE90
0x5ACF00
0x5ACF70
0x5ACFE0
0x5AD5A0
0x5AD880
0x5AD8E0
0x5AD8F2
0x5AD9D0
0x5ADB50
0x5ADE00
0x5ADFA0
0x5AEE60
0x5AEED0
0x5AF010
0x5AF090
0x5AF510
0x5AF680
0x5AF7C0
0x5AF810
0x5AF8E0
0x5AFA50
0x5AFB00
0x5AFB40
0x5AFB50
0x5B00E0
0x5B0520
0x5B0A80
0x5B0C00
0x5B0E00
0x5B0F50
0x5B1190
0x5B1310
0x5B14D0
0x5B1640
0x5B1680
0x5B16C0
0x5B1B00
0x5B1C30
0x5B1D80
0x5B1DD0
0x5B1E30
0x5B1EA0
0x5B1ED0
0x5B1F30
0x5B2100
0x5B22A0
0x5B2490
0x5B2540
0x5B26F0
0x5B2800
0x5B2C20
0x5B2C9B
0x5B2CB0
0x5B2DB0
0x5B2EB0
0x5B2EB4
0x5B2F90
0x5B3000
0x5B30A0
0x5B3150
0x5B35DD
0x5B3740
0x5B3780
0x5B3A60
0x5B3AE0
0x5B3C00
0x5B3D50
0x5B3EA0
0x5B3FE0
0x5B4020
0x5B4230
0x5B4270
0x5B4360
0x5B45E0
0x5B45FD
0x5B4670
0x5B47B0
0x5B4870
0x5B4930
0x5B4A60
0x5B4B0C
0x5B4B70
0x5B4BE3
0x5B4C30
0x5B4C70
0x5B4E90
0x5B4EF7
0x5B4F80
0x5B5070
0x5B5340
0x5B5380
0x5B53B0
0x5B53D0
0x5B5400
0x5B5430
0x5B5470
0x5B54B0
0x5B54F0
0x5B5510
0x5B5700
0x5B5720
0x5B5850
0x5B5A90
0x5B5CE0
0x5B5D10
0x5B5D40
0x5B5DA0
0x5B5E50
0x5B5ED0
0x5B5F30
0x5B5F80
0x5B5FD0
0x5B6060
0x5B6100
0x5B6150
0x5B61A0
0x5B6240
0x5B62F0
0x5B6440
0x5B65F0
0x5B6620
0x5B6680
0x5B6730
0x5B6810
0x5B6830
0x5B6950
0x5B6970
0x5B69A0
0x5B6C80
0x5B7070
0x5B70C0
0x5B70F0
0x5B7150
0x5B7400
0x5B7720
0x5B7790
0x5B7810
0x5B78C0
0x5B7910
0x5B7960
0x5B7990
0x5B79C0
0x5B79F0
0x5B7B10
0x5B7C10
0x5B7CE0
0x5B7E40
0x5B7E60
0x5B7E80
0x5B7F20
0x5B7FC0
0x5B8060
0x5B8150
0x5B8200
0x5B8270
0x5B8300
0x5B8390
0x5B8550
0x5B8570
0x5B8630
0x5B8720
0x5B8740
0x5B87C0
0x5B8820
0x5B8850
0x5B88A0
0x5B88F0
0x5B8B30
0x5B8BF0
0x5B8D90
0x5B8E10
0x5B8F80
0x5B9140
0x5B91F0
0x5B9380
0x5B94E0
0x5B9580
0x5B96B0
0x5B9800
0x5B9850
0x5B9900
0x5B9930
0x5B9B40
0x5B9B90
0x5B9D50
0x5B9EB0
0x5B9F60
0x5BA010
0x5BA290
0x5BA310
0x5BA370
0x5BA410
0x5BA480
0x5BA550
0x5BA6A0
0x5BA7C0
0x5BA890
0x5BAA20
0x5BAC30
0x5BACE0
0x5BAE70
0x5BAF20
0x5BAFD0
0x5BB050
0x5BB0F0
0x5BB160
0x5BB200
0x5BB2C0
0x5BB440
0x5BB560
0x5BB630
0x5BB7C0
0x5BB9A0
0x5BBA50
0x5BBAB0
0x5BBAD0
0x5BBB30
0x5BBBE0
0x5BBE80
0x5BC1C0
0x5BC570
0x5BC7B0
0x5BC960
0x5BCE00
0x5BCEB0
0x5BCF60
0x5BD020
0x5BD0A0
0x5BD110
0x5BD1C0
0x5BD230
0x5BD330
0x5BD3F0
0x5BD460
0x5BD500
0x5BD5A0
0x5BD5F0
0x5BD6A0
0x5BDC10
0x5BDC30
0x5BDD00
0x5BDD20
0x5BE650
0x5BE7F0
0x5BE830
0x5BE940
0x5BEAA0
0x5BEC00
0x5BED20
0x5BEE10
0x5BEF10
0x5BEFA0
0x5BF140
0x5BF1F0
0x5BF2B0
0x5BF38E
0x5BF550
0x5BF5C0
0x5BF5D0
0x5BF610
0x5BF6B0
0x5BF7C0
0x5BF900
0x5BF9F0
0x5BFA60
0x5BFAB0
0x5BFB60
0x5BFD30
0x5BFE60
0x5C01E0
0x5C07E0
0x5C0B20
0x5C0C00
0x5C0C50
0x5C0CA0
0x5C0CC0
0x5C0EA0
0x5C1080
0x5C1100
0x5C14B0
0x5C1580
0x5C18F0
0x5C19D0
0x5C1A20
0x5C1D80
0x5C1D84
0x5C1D86
0x5C2270
0x5C2274
0x5C2276
0x5C2710
0x5C28E0
0x5C2C20
0x5C2E60
0x5C2F40
0x5C3280
0x5C3330
0x5C35D0
0x5C3640
0x5C36A0
0x5C3700
0x5C3C30
0x5C3C60
0x5C3C80
0x5C3CB0
0x5C3CD0
0x5C3EB0
0x5C40B0
0x5C4450
0x5C4780
0x5C47C0
0x5C4800
0x5C4AC0
0x5C4C4B
0x5C4D30
0x5C4E60
0x5C4FB0
0x5C4FE0
0x5C53A0
0x5C5A40
0x5C5B80
0x5C5CF0
0x5C5D70
0x5C5F10
0x5C6030
0x5C6240
0x5C6340
0x5C6690
0x5C6800
0x5C6804
0x5C7370
0x5C73C0
0x5C73F0
0x5C7430
0x5C7580
0x5C7620
0x5C77C0
0x5C7BB0
0x5C7D20
0x5C7E90
0x5C7F10
0x5C7F40
0x5C7F60
0x5C7F80
0x5C7FE0
0x5C80B0
0x5C8440
0x5C86F0
0x5C8800
0x5C8910
0x5C8B90
0x5C8C10
0x5C8DA0
0x5C8E30
0x5C93E0
0x5C9464
0x5C94A0
0x5C9550
0x5C95C0
0x5C9630
0x5CA130
0x5CA470
0x5CA550
0x5CA5B0
0x5CA5D0
0x5CA5F0
0x5CA680
0x5CA890
0x5CA920
0x5CAE10
0x5CB350
0x5CB380
0x5CB3D0
0x5CB4F0
0x5CB530
0x5CB830
0x5CB870
0x5CB8D0
0x5CB920
0x5CB960
0x5CBA50
0x5CBAB0
0x5CBCF0
0x5CBDF0
0x5CBE10
0x5CBE80
0x5CBF10
0x5CBF60
0x5CBFB0
0x5CBFB4
0x5CBFB6
0x5CC370
0x5CC3B0
0x5CC420
0x5CC4B0
0x5CC500
0x5CC550
0x5CC670
0x5CCB70
0x5CCB74
0x5CCB76
0x5CCDA0
0x5CCDA4
0x5CD1A0
0x5CD280
0x5CD430
0x5CD4C0
0x5CD4F0
0x5CD550
0x5CD600
0x5CD680
0x5CD6E0
0x5CD710
0x5CD760
0x5CD7B0
0x5CD880
0x5CDA40
0x5CDB90
0x5CDBF0
0x5CDD20
0x5CDDA0
0x5CDF50
0x5CDFD0
0x5CE060
0x5CE0F0
0x5CE1A0
0x5CE250
0x5CE3C0
0x5CE410
0x5CE590
0x5CE650
0x5CE6B0
0x5CE730
0x5CE7C0
0x5CE8A0
0x5CE9A0
0x5CED10
0x5CEDF0
0x5CEEA0
0x5CEF50
0x5CF030
0x5CF060
0x5CF1F0
0x5CF350
0x5CF3A0
0x5CF3D0
0x5CF440
0x5CF480
0x5CF5A0
0x5CF5F0
0x5CF650
0x5CF940
0x5CF9B0
0x5CF9B4
0x5CFEB0
0x5CFF20
0x5D00A0
0x5D01D0
0x5D0380
0x5D0540
0x5D0750
0x5D0900
0x5D0AD0
0x5D0C90
0x5D0E50
0x5D1010
0x5D11E0
0x5D13A0
0x5D1570
0x5D1720
0x5D18E0
0x5D1AB0
0x5D1C90
0x5D1CB0
0x5D1CE0
0x5D1D30
0x5D1D80
0x5D1DD0
0x5D2880
0x5D28B0
0x5D2920
0x5D34F0
0x5D3530
0x5D3580
0x5D3630
0x5D3910
0x5D3A20
0x5D3BF0
0x5D3C20
0x5D4C20
0x5D4FA0
0x5D4FA4
0x5D50FB
0x5D51E0
0x5D5370
0x5D55D0
0x5D5830
0x5D5890
0x5D58E0
0x5D5C40
0x5D5FB0
0x5D63C0
0x5D6480
0x5D6580
0x5D6640
0x5D66F0
0x5D6800
0x5D6910
0x5D6980
0x5D6AB0
0x5D6B20
0x5D6B90
0x5D6CA0
0x5D6CF0
0x5D6D20
0x5D6E30
0x5D6F00
0x5D7090
0x5D71C0
0x5D7310
0x5D7340
0x5D7440
0x5D74C0
0x5D7540
0x5D75E2
0x5D7710
0x5D7883
0x5D78A0
0x5D78D0
0x5D7930
0x5D79E0
0x5D7FC3
0x5D8020
0x5D8090
0x5D82D0
0x5D8310
0x5D86BF
0x5D8870
0x5D8980
0x5D8A60
0x5D8AA0
0x5D8AE0
0x5D8B80
0x5D8BB0
0x5D8CD0
0x5D9090
0x5D90C0
0x5D9140
0x5D91A0
0x5D91F0
0x5D9240
0x5D9330
0x5D956D
0x5D9580
0x5D95C9
0x5D9650
0x5D9700
0x5D9790
0x5D97E0
0x5D9830
0x5D9890
0x5D98B0
0x5D9910
0x5D99A0
0x5D9A10
0x5D9A70
0x5D9AB0
0x5D9B50
0x5D9B90
0x5D9BE0
0x5D9F70
0x5D9FA0
0x5D9FD0
0x5DA000
0x5DA070
0x5DA0A0
0x5DA180
0x5DA1C0
0x5DA250
0x5DA2A0
0x5DA2F0
0x5DA390
0x5DA400
0x5DA460
0x5DA530
0x5DA550
0x5DA570
0x5DA5D0
0x5DA620
0x5DA640
0x5DA660
0x5DA6C0
0x5DA720
0x5DA770
0x5DA774
0x5DA776
0x5DA810
0x5DA870
0x5DA8E0
0x5DA940
0x5DA990
0x5DA9F0
0x5DAA60
0x5DAAB0
0x5DAB10
0x5DAB90
0x5DAC00
0x5DAC50
0x5DAC70
0x5DACE0
0x5DAD70
0x5DAE00
0x5DAF80
0x5DAFC0
0x5DB02B
0x5DB060
0x5DB130
0x5DB390
0x5DB4F0
0x5DB540
0x5DB560
0x5DB5A0
0x5DB5E0
0x5DB640
0x5DB6A0
0x5DB810
0x5DB9F0
0x5DBA4A
0x5DC080
0x5DC290
0x5DC490
0x5DC7A0
0x5DCA00
0x5DCEB0
0x5DD040
0x5DD340
0x5DD590
0x5DD8A0
0x5DD8E0
0x5DD920
0x5DDC00
0x5DDC70
0x5DDD00
0x5DDD50
0x5DDDA0
0x5DDDF0
0x5DDEE0
0x5DE790
0x5DE7C0
0x5DE820
0x5DE840
0x5DE9A0
0x5DE9F0
0x5DEAB0
0x5DEB60
0x5DEBA0
0x5DEC20
0x5DF040
0x5DFC7A
0x5E02B9
0x5E0300
0x5E0698
0x5E081E
0x5E0BB6
0x5E0DD0
0x5E1350
0x5E1400
0x5E16A7
0x5E16CA
0x5E17D0
0x5E1840
0x5E1940
0x5E1980
0x5E1B96
0x5E1CA0
0x5E1D60
0x5E21C0
0x5E21E0
0x5E2260
0x5E23B0
0x5E2440
0x5E24D0
0x5E2540
0x5E25D0
0x5E2620
0x5E2670
0x5E2720
0x5E2950
0x5E29C0
0x5E2AF0
0x5E2C40
0x5E2C70
0x5E2D40
0x5E2F30
0x5E2FF0
0x5E3090
0x5E3160
0x5E3190
0x5E31F9
0x5E3230
0x5E32D0
0x5E3370
0x5E3480
0x5E3770
0x5E3810
0x5E38C0
0x5E38F0
0x5E3950
0x5E3A00
0x5E3A80
0x5E3AE0
0x5E3B30
0x5E3BB0
0x5E3C60
0x5E3D70
0x5E3DB0
0x5E3E70
0x5E3F40
0x5E41C0
0x5E4400
0x5E4610
0x5E4820
0x5E4A10
0x5E5120
0x5E5160
0x5E51F0
0x5E52A0
0x5E5310
0x5E53A0
0x5E55B0
0x5E5690
0x5E58A0
0x5E5AE0
0x5E5D80
0x5E5E10
0x5E5E50
0x5E6000
0x5E6430
0x5E64E0
0x5E65E0
0x5E6610
0x5E67C0
0x5E67F0
0x5E6880
0x5E6960
0x5E69B0
0x5E6BA0
0x5E6BE0
0x5E6C30
0x5E6F30
0x5E6F70
0x5E70C0
0x5E70F0
0x5E7130
0x5E7290
0x5E72B0
0x5E7800
0x5E79E0
0x5E7AC0
0x5E7BD0
0x5E7F60
0x5E8040
0x5E81D0
0x5E8490
0x5E8520
0x5E8590
0x5E85E0
0x5E9B90
0x5E9EB0
0x5E9F70
0x5EA470
0x5EA5A0
0x5EA760
0x5EA860
0x5EA8D0
0x5EAB50
0x5EABA0
0x5EB520
0x5EB720
0x5EB780
0x5EBD60
0x5EBD80
0x5EBDB0
0x5EC4B0
0x5EC4E0
0x5EC780
0x5EC7B0
0x5EC810
0x5EC860
0x5ECE60
0x5ED4A0
0x5ED500
0x5ED590
0x5ED6A0
0x5ED8D0
0x5ED950
0x5EDA60
0x5EDB80
0x5EDC50
0x5EDD40
0x5EE0D0
0x5EE1B0
0x5EE630
0x5EE6A0
0x5EE700
0x5EE7D0
0x5EE840
0x5EE8A0
0x5EE900
0x5EE960
0x5EEA80
0x5EEB50
0x5EEC80
0x5EEE00
0x5EEEA0
0x5EEF60
0x5EF070
0x5EF180
0x5EF290
0x5EF3A0
0x5EF4B0
0x5EF500
0x5EF520
0x5EF5A0
0x5EF600
0x5EF710
0x5EF7D0
0x5EF9D0
0x5EFA40
0x5EFA90
0x5EFB70
0x5EFC00
0x5EFD10
0x5EFDD0
0x5EFE90
0x5EFF20
0x5F0000
0x5F00C0
0x5F0420
0x5F0720
0x5F07F0
0x5F0C30
0x5F0C90
0x5F0CE0
0x5F0DA0
0x5F0E30
0x5F0E90
0x5F0F00
0x5F0F50
0x5F0F70
0x5F0FC0
0x5F0FE0
0x5F1030
0x5F1050
0x5F1160
0x5F1220
0x5F1320
0x5F1370
0x5F1430
0x5F14C0
0x5F1530
0x5F1970
0x5F1A90
0x5F1C10
0x5F1D80
0x5F1EF0
0x5F2060
0x5F2150
0x5F2210
0x5F2300
0x5F23C0
0x5F24B0
0x5F2570
0x5F2660
0x5F2720
0x5F2810
0x5F28D0
0x5F2990
0x5F2A60
0x5F2AC0
0x5F2B50
0x5F2BA0
0x5F2C00
0x5F2F50
0x5F2FF0
0x5F30F0
0x5F3170
0x5F33A0
0x5F35E0
0x5F3690
0x5F36B0
0x5F37D0
0x5F39D0
0x5F3B70
0x5F3B84
0x5F3CE0
0x5F48D0
0x5F4940
0x5F4DE0
0x5F5130
0x5F5220
0x5F5240
0x5F5290
0x5F52C0
0x5F52F0
0x5F55D0
0x5F5630
0x5F5670
0x5F56E0
0x5F5770
0x5F57C0
0x5F5900
0x5F59E0
0x5F5A50
0x5F5F00
0x5F66A0
0x5F68B0
0x5F6920
0x5F6B70
0x5F6BF0
0x5F6C70
0x5F7130
0x5F71B0
0x5F71D0
0x5F7200
0x5F72C0
0x5F7300
0x5F7340
0x5F7460
0x5F74A0
0x5F7530
0x5F7580
0x5F7C80
0x5F8990
0x5F89A0
0x5F8A20
0x5F8AA0
0x5F8B90
0x5F8C10
0x5F8C60
0x5F8CB0
0x5F8F10
0x5F8F50
0x5F8F80
0x5F8FD0
0x5F9000
0x5F91C0
0x5F9360
0x5F9374
0x5F9560
0x5F9610
0x5F9690
0x5F96D0
0x5F9760
0x5F9800
0x5F9830
0x5F9880
0x5F98A0
0x5F98D0
0x5F98F0
0x5F9920
0x5F9940
0x5F9980
0x5F9990
0x5F99C0
0x5F9C50
0x5F9C70
0x5F9D10
0x5F9D80
0x5F9DD0
0x5F9E20
0x5F9E60
0x5F9F30
0x5FA030
0x5FA090
0x5FA0B0
0x5FA0F0
0x5FA130
0x5FA1A0
0x5FA240
0x5FA2B0
0x5FA300
0x5FA3A0
0x5FA4B0
0x5FA510
0x5FA540
0x5FA561
0x5FA7D0
0x5FA820
0x5FA880
0x5FAB10
0x5FAD40
0x5FAE50
0x5FB1D0
0x5FB430
0x5FB630
0x5FB6A0
0x5FB760
0x5FB7A0
0x5FB7E0
0x5FB900
0x5FB950
0x5FBA40
0x5FBA80
0x5FBAC0
0x5FBBE0
0x5FBC00
0x5FBC2C
0x5FBC50
0x5FBDA0
0x5FBF60
0x5FBF90
0x5FC190
0x5FC1C0
0x5FC3A0
0x5FC3D0
0x5FC500
0x5FC8B0
0x5FCAF0
0x5FCBA0
0x5FCC10
0x5FCDA0
0x5FD2B0
0x5FD920
0x5FE150
0x5FE1A0
0x5FE450
0x5FE480
0x5FE4D0
0x5FE510
0x5FE550
0x5FE630
0x5FE680
0x5FE6E0
0x5FE940
0x5FE980
0x5FE9F0
0x5FEA90
0x5FEB20
0x5FECB0
0x5FED90
0x5FEE00
0x5FEE70
0x5FEED0
0x5FEEF0
0x5FF840
0x5FF8A0
0x60096C
0x600D00
0x600D90
0x600E00
0x600EF0
0x600F70
0x601280
0x6013F0
0x601610
0x602100
0x603467
0x603489
0x6036C6
0x603A80
0x603B50
0x603C50
0x603CA0
0x603E80
0x603F00
0x603F70
0x604080
0x6043B0
0x604410
0x604470
0x604540
0x604740
0x604850
0x604960
0x6049F0
0x604C90
0x604D20
0x604D80
0x605050
0x6050E0
0x605160
0x6051B0
0x605220
0x6052F0
0x605350
0x605470
0x6054D0
0x605540
0x605570
0x6055C0
0x6055E0
0x605690
0x6056C0
0x605710
0x605740
0x605CD0
0x605D50
0x606050
0x6060C0
0x606160
0x606210
0x606640
0x606670
0x606690
0x606790
0x606A00
0x606E30
0x606E80
0x606F30
0x607130
0x607C50
0x607DC0
0x607E20
0x607E70
0x607ED0
0x607FF0
0x6080F0
0x608140
0x6081A0
0x608200
0x6082B0
0x608320
0x608360
0x6083A0
0x6085B0
0x608610
0x608760
0x608850
0x6088B0
0x608910
0x6089E0
0x608CB0
0x608DD0
0x609020
0x6091D5
0x6091E0
0x6092F0
0x609320
0x609490
0x609530
0x6095A0
0x6095F0
0x609640
0x6096A0
0x609700
0x609760
0x609880
0x6098C0
0x609920
0x609970
0x6099E0
0x609A80
0x609AE0
0x609B30
0x609C00
0x609EB0
0x609F30
0x609F70
0x609FE0
0x60A080
0x60A0E0
0x60A130
0x60A370
0x60A520
0x60A760
0x60A7C0
0x60AB90
0x60ACC0
0x60AFC0
0x60B170
0x60B300
0x60B320
0x60B4D0
0x60B530
0x60B5A0
0x60B5E0
0x60B790
0x60C1F0
0x60C2A0
0x60C350
0x60C470
0x60C4FB
0x60C5AE
0x60C5D5
0x60C690
0x60C730
0x60C7A0
0x60C950
0x60C9A0
0x60C9F0
0x60CA40
0x60CC20
0x60CC70
0x60CCD0
0x60CD20
0x60CD90
0x60CE30
0x60CE90
0x60CEE0
0x60CF00
0x60D000
0x60D080
0x60D200
0x60D280
0x60D2C0
0x60D530
0x60D660
0x60D700
0x60D7A0
0x60DA60
0x60DAB0
0x60DC80
0x60DFA0
0x60E010
0x60E0A0
0x60E0F0
0x60E140
0x60E1E0
0x60E2D0
0x60E4D0
0x60E540
0x60E630
0x60E740
0x60E770
0x60E810
0x60E840
0x60EAB0
0x60EC60
0x60ECD0
0x60ED40
0x60EDA0
0x60EEF0
0x60EF70
0x60F080
0x60F1A0
0x60F290
0x60F3C0
0x60F460
0x60F5D0
0x60F690
0x60F6E0
0x60F710
0x60F840
0x60F870
0x60F8C0
0x60F910
0x60FAB0
0x60FBF0
0x60FC60
0x60FCD0
0x60FE10
0x60FF20
0x6101E0
0x610240
0x6102F0
0x610340
0x6105F0
0x610670
0x610A10
0x610AD0
0x610C70
0x610E70
0x611050
0x6110C0
0x6111B0
0x611200
0x611AE0
0x611B60
0x611F90
0x6124C0
0x612590
0x612670
0x612700
0x6128A0
0x612940
0x612B30
0x612BA0
0x612CF0
0x612E40
0x612EC0
0x612F30
0x612FD0
0x613010
0x613050
0x613080
0x61324D
0x6132F0
0x6133A0
0x613460
0x613670
0x613AA0
0x613B50
0x613BF0
0x6145B0
0x614620
0x614A70
0x614AE0
0x614B30
0x614C60
0x614D30
0x614DB0
0x615160
0x6151C0
0x615260
0x615DC0
0x616FC0
0x617040
0x6170D0
0x617120
0x617340
0x617420
0x617590
0x617630
0x6176A0
0x617710
0x617770
0x6177D0
0x617880
0x6179F0
0x617A60
0x617B00
0x617B60
0x617BB0
0x617C50
0x617CB0
0x617D20
0x617DC0
0x617E10
0x617E60
0x617EA0
0x617F00
0x617FC0
0x618090
0x6181D0
0x6183C0
0x618560
0x618630
0x6186F0
0x618790
0x618820
0x618900
0x6189C0
0x618A60
0x618AF0
0x618B90
0x618C20
0x618D00
0x618DC0
0x618FD0
0x6191C0
0x6192C0
0x619360
0x619430
0x6194D0
0x619570
0x619640
0x6198D0
0x619940
0x619980
0x6199B0
0x6199F0
0x619A70
0x619A90
0x619B10
0x619B80
0x619BB0
0x619CA0
0x619CD0
0x619DB0
0x619E70
0x619F00
0x619F90
0x61A020
0x61A100
0x61A160
0x61A1E0
0x61A360
0x61A460
0x61A490
0x61A500
0x61A550
0x61A5E0
0x61A640
0x61A870
0x61A920
0x61AB60
0x61AC10
0x61AC60
0x61ACC0
0x61AD00
0x61AE30
0x61AEF0
0x61AF60
0x61B070
0x61B0A0
0x61B220
0x61B2C0
0x61B390
0x61B3C0
0x61B610
0x61BB00
0x61BF80
0x61C190
0x61C4E0
0x61C590
0x61C6D0
0x61C710
0x61C7B0
0x61C7E0
0x61C860
0x61C8B0
0x61C920
0x61C970
0x61CB60
0x61CD30
0x61CD50
0x61CD90
0x61CDF0
0x61CE50
0x61D000
0x61D080
0x61D550
0x61D5A0
0x61D630
0x61D6A0
0x61D8E0
0x61D970
0x61D9E0
0x61DC20
0x61DC60
0x61DD00
0x61DD40
0x61DDB0
0x61DFD0
0x61E080
0x61E170
0x61E1B0
0x61E2E0
0x61E580
0x61E630
0x61E670
0x61E6C0
0x61E770
0x61E780
0x61E790
0x61E7A0
0x61E7D0
0x61EB30
0x61ED00
0x61EDE0
0x61EEB0
0x61F0A0
0x61F650
0x61F690
0x61F790
0x61F830
0x61FBE0
0x620013
0x620D00
0x620E80
0x620EB0
0x621070
0x621220
0x6213D0
0x621580
0x6216E0
0x621AD0
0x621DD0
0x621E20
0x6220E0
0x622110
0x6224D0
0x622650
0x622890
0x6228F0
0x622AD8
0x622B00
0x622C50
0x622E60
0x622F47
0x622F60
0x623150
0x6231A0
0x6231B0
0x623400
0x6236F0
0x6237B0
0x6237E0
0x623A90
0x623C00
0x623C60
0x623C70
0x623CD0
0x623D50
0x623E40
0x623EC0
0x623FC0
0x624050
0x624060
0x6240C0
0x624110
0x6241A0
0x6241F0
0x624280
0x6242D0
0x624320
0x6243B0
0x624440
0x6244B0
0x624570
0x6245D0
0x624630
0x624680
0x6246D0
0x6247B0
0x624EA0
0x624FD0
0x625090
0x6250F0
0x625170
0x625220
0x6252B0
0x625330
0x625640
0x625970
0x6259C0
0x625D50
0x625DE3
0x625E10
0x625E50
0x625F60
0x6260A0
0x6261A0
0x626280
0x626360
0x6263F0
0x6264D0
0x626530
0x626590
0x626630
0x626700
0x62682E
0x6268B0
0x626950
0x6269F0
0x626A90
0x626AF0
0x626B90
0x626C60
0x626D20
0x626DF0
0x626EB0
0x626F80
0x627040
0x6270E0
0x6271D0
0x6272A0
0x627360
0x627430
0x6274F0
0x6275C0
0x627680
0x627720
0x6277A3
0x6277E0
0x627863
0x6278A0
0x627907
0x627940
0x6279A0
0x6279F0
0x627A40
0x627AC0
0x627B40
0x627BB0
0x627BF0
0x627CA0
0x627D20
0x627D90
0x627DD0
0x627DF0
0x627F70
0x628080
0x628290
0x628310
0x628350
0x6283C0
0x628430
0x628450
0x6288E0
0x628940
0x628B80
0x628C00
0x628D10
0x628F40
0x629D65
0x629DA5
0x629EE0
0x629F00
0x629F30
0x629FB0
0x62A090
0x62A0E0
0x62A160
0x62A250
0x62A380
0x62A3B0
0x62A410
0x62A550
0x62A800
0x62A8B0
0x62A970
0x62AA20
0x62AAA0
0x62AAF9
0x62AC40
0x62ACB0
0x62ACE0
0x62AE50
0x62B260
0x62B274
0x62B2A0
0x62B2E0
0x62B3A0
0x62B560
0x62B700
0x62B749
0x62B770
0x62B7B0
0x62B7F0
0x62B860
0x62B8C0
0x62B8F0
0x62B930
0x62B990
0x62BA00
0x62BA70
0x62BA90
0x62BBC0
0x62BBF0
0x62BD20
0x62BDC0
0x62BE30
0x62BE60
0x62BF20
0x62BF50
0x62BFB0
0x62C000
0x62C030
0x62C090
0x62C0E0
0x62C110
0x62C1F0
0x62C220
0x62C250
0x62C300
0x62C5E0
0x62C760
0x62C790
0x62C840
0x62C8C0
0x62CB80
0x62CBA0
0x62CBE0
0x62CC10
0x62CC50
0x62CCC0
0x62CD00
0x62CD70
0x62CE60
0x62D080
0x62D0A0
0x62D170
0x62D1B0
0x62D390
0x62D3D0
0x62D4A0
0x62D510
0x62D590
0x62D600
0x62D6B0
0x62D7D0
0x62D8D0
0x62D900
0x62DB20
0x62DB50
0x62DB80
0x62DD20
0x62DE50
0x62DEE0
0x62DF30
0x62E020
0x62E070
0x62E170
0x62E190
0x62E270
0x62E2F0
0x62E330
0x62E380
0x62E4C0
0x62E580
0x62E5D0
0x62E660
0x62EE60
0x62EE80
0x62EEA0
0x62EF60
0x62F020
0x62F520
0x62F550
0x62F9F0
0x62FA70
0x62FAE0
0x62FB30
0x62FBC0
0x62FC10
0x62FC60
0x62FCF0
0x62FD40
0x62FD90
0x62FDC0
0x62FE30
0x62FEC0
0x62FF10
0x62FF60
0x62FF90
0x62FFF0
0x630060
0x630100
0x630140
0x630190
0x6301C0
0x6301F0
0x6303F0
0x6305C0
0x630650
0x630680
0x6306E0
0x630790
0x630890
0x6308E0
0x630960
0x6309C0
0x6309F0
0x630A40
0x630A90
0x630AF0
0x630D30
0x630D60
0x631920
0x631950
0x6319B0
0x631C50
0x631D20
0x631D50
0x631D70
0x631DC0
0x631F10
0x631FC0
0x632030
0x6320C0
0x632110
0x632160
0x6322E0
0x632600
0x632660
0x6326B0
0x632860
0x6328D0
0x632A00
0x632E10
0x632FD0
0x633140
0x633180
0x633240
0x6332C0
0x6336A0
0x633BA0
0x633D10
0x633D90
0x633E60
0x634060
0x634090
0x634160
0x634210
0x634280
0x6342F0
0x6343B0
0x634480
0x634560
0x634640
0x634790
0x634890
0x634910
0x634914
0x634E40
0x634FC0
0x634FE0
0x635310
0x635330
0x635780
0x6357D0
0x635920
0x635960
0x6359F0
0x6366F0
0x636710
0x636780
0x6368A0
0x636910
0x6381C0
0x638230
0x639370
0x639CF0
0x639F80
0x63A020
0x63A0C0
0x63AA20
0x63AA50
0x63B2D0
0x63B9F0
0x63BE70
0x63C720
0x63C750
0x63C8E0
0x63C9F0
0x63C9F4
0x63C9F6
0x63FF60
0x6404B1
0x64055D
0x640B80
0x6412E0
0x6412E4
0x6412E6
0x641461
0x64154D
0x641790
0x641AE0
0x642C0B
0x642C52
0x642FC0
0x643740
0x643AC0
0x643C60
0x643D10
0x643DC0
0x644660
0x6446D0
0x644DB0
0x6451F0
0x6452D0
0x645420
0x645A10
0x645EA0
0x645FB0
0x6461FE
0x6476B0
0x647CD0
0x647DF0
0x647DF4
0x648370
0x648750
0x648770
0x6487A0
0x649E50
0x64A280
0x64A2B0
0x64A870
0x64A8F0
0x64AB50
0x64B400
0x64B5AF
0x64B5D0
0x64BAB0
0x64BCB0
0x64C050
0x64C1E0
0x64C480
0x64C4C0
0x64C530
0x64C560
0x64C6A0
0x64C770
0x64C840
0x64C9A0
0x64CA70
0x64D580
0x64D6B0
0x64D7B0
0x64D890
0x64E260
0x64E264
0x64E266
0x64E5D0
0x64E670
0x64E700
0x64E790
0x64EB70
0x64EE80
0x64F2A0
0x64F5F0
0x64F890
0x64F8F0
0x64FCC0
0x64FE90
0x64FED0
0x64FF40
0x650080
0x6501D0
0x6504B0
0x650860
0x650920
0x650BF0
0x650E20
0x650F30
0x651260
0x651370
0x651650
0x6517B0
0x6517B4
0x6517B6
0x652240
0x652440
0x65246E
0x6533C0
0x653410
0x653C80
0x653CC0
0x653D20
0x655170
0x6559B0
0x6562D0
0x656460
0x656670
0x656920
0x657320
0x657380
0x6579F0
0x657CC0
0x657E50
0x657F30
0x6580A0
0x6580D0
0x6581E0
0x658290
0x658300
0x658C80
0x658CF0
0x658D60
0x65DB00
0x660D12
0x661AD0
0x661AF0
0x661D20
0x661DB0
0x661DD0
0x661E20
0x661F20
0x662400
0x662470
0x662520
0x6625A0
0x6627D0
0x662820
0x662850
0x6628A0
0x662C60
0x662EB0
0x662EE0
0x662F00
0x662F20
0x662F2F
0x662F40
0x6630D0
0x663610
0x663670
0x663820
0x6639B0
0x663A60
0x663BE0
0x663CD0
0x663E20
0x663E40
0x664050
0x664170
0x6642D0
0x664320
0x6643B0
0x6643D0
0x664420
0x664470
0x6644E0
0x664510
0x664530
0x664550
0x6645C0
0x664680
0x665255
0x666950
0x666B80
0x667220
0x6672B0
0x6672D0
0x667360
0x6673B0
0x667410
0x667450
0x667490
0x6675B0
0x667610
0x667670
0x667770
0x6678A0
0x6678F0
0x66791E
0x667970
0x6679F0
0x667A30
0x667A80
0x667B10
0x667B3C
0x667B60
0x667B80
0x667BD0
0x667E00
0x667EC0
0x667F50
0x667FE0
0x668010
0x668040
0x668050
0x668060
0x6680B0
0x668100
0x6681B0
0x6681F0
0x668220
0x668430
0x668460
0x6684B0
0x668500
0x668610
0x668770
0x668DA0
0x668DD0
0x668E30
0x668EE0
0x66A1E0
0x66A290
0x66A2D0
0x66A3F0
0x66A430
0x66A4A0
0x66A530
0x66A610
0x66A730
0x66A8E0
0x66A940
0x66AA30
0x66ABD0
0x66AC00
0x66C2C0
0x66C410
0x66C440
0x66C5B0
0x66C710
0x66D080
0x66D0D0
0x66D300
0x66D410
0x66D640
0x66D780
0x66D9B0
0x66DB50
0x66DC50
0x66DD20
0x66DD60
0x66E260
0x66E2D8
0x66E340
0x66E370
0x66E410
0x66ED70
0x66F000
0x66F210
0x66F2E0
0x66F440
0x66F4D0
0x66F510
0x66F590
0x66F5F0
0x66F620
0x66F670
0x66F6C0
0x66F760
0x66F7B0
0x66F9E0
0x66FA00
0x66FC40
0x66FFD0
0x6703C0
0x670430
0x670450
0x670659
0x670870
0x670A30
0x670B80
0x670DC0
0x671050
0x6715E0
0x6715E4
0x671E9E
0x672000
0x672422
0x672810
0x672C50
0x672DA9
0x6730C0
0x673110
0x6736C7
0x673B8B
0x673E00
0x674260
0x674550
0x674889
0x674AE0
0x674E90
0x674EC6
0x674FD0
0x6750B0
0x675100
0x675450
0x6755A0
0x675660
0x675A20
0x675B90
0x675BD0
0x675BF0
0x675CA0
0x675FF0
0x676080
0x676250
0x6763C0
0x6764B0
0x676540
0x676860
0x6768C0
0x676910
0x676B20
0x676D30
0x676E00
0x676ED0
0x677C10
0x677D70
0x677D90
0x677F00
0x677F20
0x677F40
0x677F60
0x677F80
0x6780D0
0x678940
0x678970
0x678BA0
0x678D80
0x678DF0
0x679060
0x679A50
0x679CD0
0x679D30
0x67A010
0x67A0B0
0x67A2A0
0x67A320
0x67A390
0x67A510
0x67A5E0
0x67AF60
0x67B070
0x67B130
0x67B240
0x67B264
0x67CB70
0x67CBA0
0x67CC10
0x67CD50
0x67CE40
0x67E0D7
0x67E1E0
0x67E270
0x67F2E0
0x67F350
0x67FC60
0x67FEC0
0x67FFC0
0x680780
0x681E40
0x681F00
0x681FC0
0x683210
0x683510
0x6836C0
0x6839B0
0x683A80
0x683AAD
0x683BF0
0x683C20
0x683DC0
0x683E60
0x684000
0x68402D
0x6841B0
0x684270
0x684291
0x684430
0x684454
0x684650
0x68467D
0x684770
0x68479D
0x6848C0
0x684A00
0x684A40
0x685281
0x6852CB
0x685360
0x6853A2
0x68540D
0x685457
0x6854EC
0x685534
0x6855A2
0x6855EF
0x687AC0
0x687B80
0x687BD0
0x687C30
0x68A016
0x68A2D8
0x68A530
0x68A710
0x68A760
0x68B1E0
0x68B290
0x68B350
0x68B354
0x68F300
0x6917C0
0x698A3A
0x6A0150
0x6A1D30
0x6A69F0
0x6A6EE0
0x6A6F70
0x6A7030
0x6A72F0
0x6A7770
0x6A7FE0
0x6A8240
0x6A8510
0x6A89E0
0x6A8CC0
0x6AB080
0x6AB210
0x6AB2A0
0x6AB330
0x6AB4E0
0x6AB770
0x6AB78C
0x6ABA20
0x6ABC20
0x6ABFF0
0x6AC200
0x6AC430
0x6AC6E0
0x6ACBF0
0x6ACBF5
0x6AD409
0x6AD469
0x6AD4C9
0x6AE710
0x6B2E40
0x6B2E44
0x6B36C0
0x6B3740
0x6B3790
0x6B37E0
0x6B5810
0x6B5840
0x6B5890
0x6B58E0
0x6B5A20
0x6B5C50
0x6B97B0
0x6B9DA0
0x6B9DE0
0x6B9EC0
0x6B9FA0
0x6BA090
0x6BA170
0x6BA420
0x6BA490
0x6BABA0
0x6BACF0
0x6BB5C0
0x6BB900
0x6BBA00
0x6BBC60
0x6BBF60
0x6BC170
0x6BC1F0
0x6BC270
0x6BC610
0x6BC700
0x6BCD40
0x6BCDA0
0x6BD030
0x6BD1A0
0x6BD2B0
0x6BD320
0x6BD520
0x6BD730
0x6BDB40
0x6BEE60
0x6BEF40
0x6BF030
0x6BF140
0x6BF230
0x6BF280
0x6BF2C0
0x6C0730
0x6C08C0
0x6C0C50
0x6C0E90
0x6C1080
0x6C1140
0x6C1330
0x6C1420
0x6C1D80
0x6C3220
0x6C3670
0x6C38F0
0x6C3CF0
0x6C40C0
0x6C4510
0x6C4D60
0x6C5220
0x6C52A0
0x6C52C0
0x6C52D0
0x6C5300
0x6C5340
0x6C5380
0x6C53C0
0x6C5410
0x6C5610
0x6C5680
0x6C56F0
0x6C5770
0x6C57A0
0x6C57C0
0x6C5860
0x6C5880
0x6C5920
0x6C5CD0
0x6C5D50
0x6C5D80
0x6C6460
0x6C64E0
0x6C6530
0x6C65F0
0x6C6670
0x6C66A0
0x6C6860
0x6C6A20
0x6C6C40
0x6C6CD0
0x6C6F60
0x6C6FC0
0x6C7040
0x6C70B0
0x6C70E0
0x6C7330
0x6C7350
0x6C73D0
0x6C7460
0x6C7480
0x6C74D0
0x6C75D0
0x6C75F0
0x6C7750
0x6C7BB0
0x6C7D80
0x6C7EB0
0x6C7F20
0x6C83C0
0x6C8430
0x6C85E0
0x6C8650
0x6C8960
0x6C8A60
0x6C8AA0
0x6C8F10
0x6C9120
0x6C92FE
0x6C93C0
0x6C9420
0x6C95C0
0x6C9710
0x6C97A0
0x6C97C0
0x6C9810
0x6C9A50
0x6C9AB0
0x6C9B40
0x6C9BA0
0x6C9C60
0x6C9D10
0x6C9D50
0x6C9DB0
0x6C9DD0
0x6C9E10
0x6C9E70
0x6C9F20
0x6CA020
0x6CA040
0x6CA050
0x6CA0D0
0x6CA100
0x6CA210
0x6CA7E9
0x6CA870
0x6CB2F0
0x6CB330
0x6CB3B0
0x6CB4B0
0x6CB5C0
0x6CB5F0
0x6CB6D0
0x6CBEC0
0x6CBF80
0x6CBFA0
0x6CC050
0x6CC0C0
0x6CC1B0
0x6CC500
0x6CC530
0x6CC590
0x6CC640
0x6CC6A0
0x6CC7D0
0x6CC890
0x6CC8C0
0x6CC960
0x6CC9C0
0x6CCAD0
0x6CCB80
0x6CCC80
0x6CCD90
0x6CCE30
0x6CCEA0
0x6CCF90
0x6CD040
0x6CD130
0x6CD1F0
0x6CD280
0x6CD2D0
0x6CD320
0x6CD350
0x6CD410
0x6CD450
0x6CD570
0x6CD600
0x6CD650
0x6CD672
0x6CD6A0
0x6CD710
0x6CD750
0x6CD8C0
0x6CDBB0
0x6CDEB8
0x6CE090
0x6CE600
0x6CE7D0
0x6CE860
0x6CE8B0
0x6CE9D0
0x6CEB1E
0x6CEB30
0x6CEBA0
0x6CEC10
0x6CEEE0
0x6CEF70
0x6CEFC0
0x6CF010
0x6CF090
0x6CF0D0
0x6CF170
0x6CF190
0x6CF1C0
0x6CF290
0x6CF300
0x6CF610
0x6CF7A0
0x6CFBB0
0x6CFE20
0x6CFFB0
0x6D0000
0x6D04F0
0x6D10F0
0x6D1480
0x6D1A50
0x6D1B00
0x6D1B50
0x6D1B80
0x6D1C00
0x6D1C60
0x6D1C90
0x6D1CE0
0x6D1D30
0x6D1D40
0x6D1D70
0x6D2780
0x6D2870
0x6D2900
0x6D2960
0x6D29F0
0x6D2A40
0x6D2A70
0x6D2C80
0x6D2EEB
0x6D3080
0x6D30C0
0x6D31F0
0x6D3230
0x6D32E0
0x6D3590
0x6D3620
0x6D37B0
0x6D37D0
0x6D3890
0x6D3AB0
0x6D3C00
0x6D3C40
0x6D3C70
0x6D3D90
0x6D3DD0
0x6D3E60
0x6D3EB0
0x6D3F00
0x6D3F50
0x6D3FC0
0x6D4130
0x6D4150
0x6D4320
0x6D4340
0x6D43D0
0x6D4420
0x6D4470
0x6D44B0
0x6D4500
0x6D4530
0x6D4560
0x6D45B0
0x6D4610
0x6D4BA0
0x6D4EA0
0x6D5220
0x6D5690
0x6D5880
0x6D5D30
0x6D5F70
0x6D6080
0x6D60E0
0x6D6100
0x6D6130
0x6D61C0
0x6D6210
0x6D6230
0x6D6290
0x6D6B70
0x6D6C40
0x6D6DF0
0x6D6F10
0x6D70E0
0x6D71A0
0x6D7200
0x6D7230
0x6D7360
0x6D73B0
0x6D7440
0x6D75F0
0x6D7620
0x6D76A0
0x6D76E0
0x6D7B20
0x6D7C60
0x6D7CF0
0x6D7F10
0x6D8340
0x6D83D0
0x6D8420
0x6D85F0
0x6D8650
0x6D86A0
0x6D86C0
0x6D8A80
0x6D8BF0
0x6D8EE0
0x6D8F30
0x6D8F90
0x6D8FD0
0x6D9090
0x6D93B0
0x6D9550
0x6D9570
0x6D9800
0x6D9A30
0x6D9D90
0x6DA290
0x6DA2C0
0x6DA310
0x6DA3C0
0x6DA440
0x6DA4A0
0x6DA4D0
0x6DA520
0x6DA570
0x6DA7C0
0x6DA820
0x6DA860
0x6DABD0
0x6DAC49
0x6DAC70
0x6DACF0
0x6DAD40
0x6DAE10
0x6DB2F0
0x6DB480
0x6DB5B0
0x6DB700
0x6DB780
0x6DB7B0
0x6DB880
0x6DB9B0
0x6DB9D0
0x6DBB00
0x6DBB30
0x6DBB60
0x6DBE30
0x6DC090
0x6DC380
0x6DC500
0x6DC630
0x6DC660
0x6DC6F0
0x6DC740
0x6DC8B0
0x6DC8D0
0x6DC8F0
0x6DCB00
0x6DD050
0x6DD100
0x6DD1B0
0x6DD390
0x6DD590
0x6DD803
0x6DD840
0x6DD9B0
0x6DDA40
0x6DDAA0
0x6DDBC0
0x6DDC80
0x6DE360
0x6DE3C0
0x6DE500
0x6DE610
0x6DE6B0
0x6DE6F0
0x6DE990
0x6DEC60
0x6DEDC0
0x6DEE50
0x6DF150
0x6DF230
0x6DF320
0x6DF3A0
0x6DF3CA
0x6DF3F0
0x6DF430
0x6DF5D0
0x6DF710
0x6DF850
0x6DF890
0x6DF9F0
0x6DFA00
0x6DFA20
0x6DFCF0
0x6E0000
0x6E0190
0x6E03E0
0x6E0910
0x6E09F0
0x6E0B3F
0x6E0B90
0x6E0BF0
0x6E0C80
0x6E0E20
0x6E0E90
0x6E1190
0x6E1370
0x6E1410
0x6E1450
0x6E16C0
0x6E1760
0x6E17E0
0x6E1E80
0x6E1F00
0x6E2070
0x6E2200
0x6E2270
0x6E2460
0x6E24A0
0x6E24F0
0x6E2550
0x6E25B0
0x6E2600
0x6E2650
0x6E2655
0x6E2720
0x6E2725
0x6E2800
0x6E28F0
0x6E29A0
0x6E2A60
0x6E2AC0
0x6E2B80
0x6E2BE0
0x6E2C70
0x6E2CE0
0x6E2D20
0x6E2D70
0x6E2DE0
0x6E2E30
0x6E2EA0
0x6E2F00
0x6E2F60
0x6E2FB0
0x6E3020
0x6E3090
0x6E3100
0x6E3160
0x6E31D0
0x6E3220
0x6E3280
0x6E32E0
0x6E3360
0x6E33C0
0x6E3430
0x6E34A0
0x6E3510
0x6E3580
0x6E3600
0x6E3660
0x6E36C0
0x6E3720
0x6E38C0
0x6E3910
0x6E3950
0x6E39C0
0x6E3A00
0x6E3A70
0x6E3ACF
0x6E3D60
0x6E3DD0
0x6E3E70
0x6E3EE0
0x6E3F20
0x6E3FB0
0x6E3FE0
0x6E4040
0x6E4090
0x6E40D0
0x6E4250
0x6E4300
0x6E49B0
0x6E49BF
0x6E49D0
0x6E4A00
0x6E4A90
0x6E4B40
0x6E4BA0
0x6E4CB5
0x6E4D30
0x6E4DF0
0x6E4E53
0x6E5220
0x6E5230
0x6E5280
0x6E5290
0x6E5330
0x6E53C0
0x6E56C0
0x6E56D0
0x6E5760
0x6E57B0
0x6E5800
0x6E5890
0x6E58E0
0x6E5930
0x6E59A0
0x6E5A60
0x6E5A80
0x6E5E10
0x6E6330
0x6E6400
0x6E6490
0x6E6650
0x6E6760
0x6E6820
0x6E6950
0x6E6A40
0x6E6A80
0x6E6C40
0x6E6E1C
0x6E6EC0
0x6E6F80
0x6E6F90
0x6E6FA0
0x6E6FB0
0x6E7690
0x6E76FA
0x6E7790
0x6E77B0
0x6E7812
0x6E7830
0x6E78B0
0x6E7950
0x6E79B2
0x6E7A00
0x6E7A10
0x6E7A7B
0x6E7C50
0x6E7CC0
0x6E8160
0x6E82A5
0x6E8320
0x6E8490
0x6E8620
0x6E8670
0x6E86A0
0x6E8720
0x6E8750
0x6E8780
0x6E87A0
0x6E87F0
0x6E8830
0x6E8860
0x6E8930
0x6E8960
0x6E89E0
0x6E8A10
0x6E8A60
0x6E8CF0
0x6E8D50
0x6E8F30
0x6E8F50
0x6E8F80
0x6E8FF0
0x6E9060
0x6E90D0
0x6E9140
0x6E91B0
0x6E91E0
0x6E92D0
0x6E92F0
0x6E9340
0x6E93F0
0x6E9470
0x6E94D0
0x6E9500
0x6E9530
0x6E9590
0x6E95E0
0x6E9690
0x6E96C0
0x6E96F0
0x6E9720
0x6E9750
0x6E9A20
0x6E9A70
0x6E9AC0
0x6E9B10
0x6E9B60
0x6E9BA0
0x6E9BD0
0x6E9C10
0x6E9C40
0x6E9C60
0x6E9CD0
0x6E9CF0
0x6E9D10
0x6E9D80
0x6EA1D0
0x6EA2A0
0x6EA350
0x6EA400
0x6EA4C0
0x6EA580
0x6EA5E0
0x6EA600
0x6EA620
0x6EA680
0x6EA6A0
0x6EA6C0
0x6EA780
0x6EA7A0
0x6EA850
0x6EA8C0
0x6EA8E0
0x6EA900
0x6EA940
0x6EA960
0x6EA9A0
0x6EAA20
0x6EAB50
0x6EAB80
0x6EADD0
0x6EAE90
0x6EAF80
0x6EAFC0
0x6EB060
0x6EB090
0x6EB0C0
0x6EB0E0
0x6EB100
0x6EB120
0x6EB180
0x6EB1A0
0x6EB1C0
0x6EB260
0x6EB280
0x6EB2A0
0x6EB320
0x6EB340
0x6EB360
0x6EB380
0x6EB430
0x6EB450
0x6EB470
0x6EB490
0x6EB4B0
0x6EB4D0
0x6EB4E4
0x6EB4F0
0x6EB530
0x6EB570
0x6EB5C0
0x6EB5E0
0x6EB600
0x6EB640
0x6EB680
0x6EB6B0
0x6EB710
0x6EB730
0x6EB750
0x6EB7B0
0x6EB7D0
0x6EB820
0x6EB840
0x6EB860
0x6EB8A0
0x6EB8C0
0x6EB910
0x6EB950
0x6EB9C0
0x6EBA70
0x6EBB70
0x6EBBB0
0x6EBBF0
0x6EBC70
0x6EBD10
0x6EBD90
0x6EBEA0
0x6EBEE0
0x6EBF80
0x6EBFA0
0x6EC000
0x6EC010
0x6EC040
0x6EC060
0x6EC130
0x6EC7E0
0x6EC930
0x6ECD40
0x6ED9E0
0x6EDA00
0x6EDB50
0x6EDB70
0x6EDBD0
0x6EDBF0
0x6EDC40
0x6EDCC0
0x6EDCE0
0x6EDD00
0x6EDD20
0x6EDD50
0x6EDD80
0x6EDDA0
0x6EDDC0
0x6EDDE0
0x6EE190
0x6EE1B0
0x6EE1D0
0x6EE1F0
0x6EE210
0x6EE230
0x6EE2A0
0x6EE310
0x6EE380
0x6EE3F0
0x6EE410
0x6EE430
0x6EE450
0x6EE470
0x6EE490
0x6EE4B0
0x6EE4D0
0x6EE4F0
0x6EE510
0x6EE530
0x6EE550
0x6EE570
0x6EE590
0x6EE5B0
0x6EE5D0
0x6EE600
0x6EE630
0x6EE650
0x6EE670
0x6EE690
0x6EE6B0
0x6EE6D0
0x6EE6DC
0x6EE6F0
0x6EE710
0x6EE730
0x6EE7E0
0x6EE860
0x6EE8B0
0x6EE920
0x6EE9C0
0x6EEA20
0x6EEA40
0x6EEAC0
0x6EEB10
0x6EEBB0
0x6EEC00
0x6EECA0
0x6EEE00
0x6EEE18
0x6EEF80
0x6EEFA0
0x6EEFD0
0x6EF090
0x6EF0D0
0x6EF120
0x6EF250
0x6EF2C0
0x6EF2E0
0x6EF360
0x6EF3C0
0x6EF450
0x6EF470
0x6EF490
0x6EF4B0
0x6EF4D0
0x6EF4F0
0x6EF5A0
0x6EF610
0x6EF680
0x6EF6F0
0x6EF760
0x6EF7D0
0x6EF840
0x6EF8B0
0x6EF920
0x6EF990
0x6EF9B0
0x6EF9D0
0x6EF9F0
0x6EFA10
0x6EFA30
0x6EFA50
0x6EFA5C
0x6EFA70
0x6EFA90
0x6EFAB0
0x6EFAD0
0x6EFAF0
0x6EFB10
0x6EFB30
0x6EFBC0
0x6EFC10
0x6EFC70
0x6EFCD0
0x6EFD20
0x6EFD80
0x6EFDC0
0x6EFE20
0x6EFE60
0x6EFF20
0x6EFF50
0x6EFF80
0x6EFFF0
0x6F0270
0x6F02C0
0x6F02F0
0x6F0600
0x6F0630
0x6F0660
0x6F0950
0x6F09B0
0x6F09E0
0x6F0A30
0x6F0A70
0x6F0B10
0x6F0B90
0x6F0C40
0x6F0D00
0x6F0DB0
0x6F0E00
0x6F0EA0
0x6F1020
0x6F10D0
0x6F11B0
0x6F1260
0x6F12B0
0x6F13C0
0x6F1450
0x6F14D0
0x6F1530
0x6F15B0
0x6F1620
0x6F16B0
0x6F1830
0x6F19A0
0x6F1A10
0x6F1C70
0x6F1D00
0x6F1FA0
0x6F1FC0
0x6F2010
0x6F2050
0x6F2070
0x6F20A0
0x6F20D0
0x6F2100
0x6F2130
0x6F2160
0x6F21A6
0x6F2300
0x6F26A0
0x6F2810
0x6F2850
0x6F29E0
0x6F2B10
0x6F2B40
0x6F47C0
0x6F47E0
0x6F49E0
0x6F4BD0
0x6F4C10
0x6F4C30
0x6F4CE0
0x6F4DE0
0x6F59C0
0x6F5A90
0x6F5AB0
0x6F5B20
0x6F5B40
0x6F5BA0
0x6F5BC0
0x6F5BE0
0x6F5C00
0x6F5C30
0x6F5C70
0x6F5CB0
0x6F5D40
0x6F5E80
0x6F5F50
0x6F5F70
0x6F5FA0
0x6F5FC0
0x6F6030
0x6F6050
0x6F60D0
0x6F6160
0x6F6280
0x6F62C0
0x6F6350
0x6F63A0
0x6F6430
0x6F6480
0x6F64D0
0x6F6500
0x6F65D0
0x6F6620
0x6F6660
0x6F6EF0
0x6F6F60
0x6F7030
0x6F71D0
0x6F7200
0x6F7290
0x6F72E0
0x6F81A0
0x6F83F0
0x6F85B0
0x6F8600
0x6F8690
0x6F8840
0x6F8880
0x6F88C0
0x6F88E0
0x6F8950
0x6F8A60
0x6F8AA0
0x6F8AE0
0x6F8B00
0x6F8B14
0x6F8B20
0x6F8CC0
0x6F8D00
0x6F8DC0
0x6F8ED0
0x6F90C0
0x6F9100
0x6F91E0
0x6F92D0
0x6F9460
0x6F9470
0x6F94E0
0x6F9500
0x6F9520
0x6F9530
0x6F95B0
0x6F95D0
0x6F9600
0x6F9670
0x6F96B0
0x6F9720
0x6F9760
0x6F9776
0x6F9890
0x6F98B0
0x6F9A20
0x6F9A40
0x6F9A80
0x6F9AF0
0x6F9B10
0x6F9B30
0x6F9B90
0x6F9BF0
0x6F9CA0
0x6F9D10
0x6F9D50
0x6F9D90
0x6F9E30
0x6FA1A0
0x6FA240
0x6FA310
0x6FA3B0
0x6FA440
0x6FA470
0x6FA4D0
0x6FA580
0x6FA620
0x6FA6A0
0x6FA6F0
0x6FA720
0x6FA780
0x6FA7D0
0x6FA800
0x6FA830
0x6FA850
0x6FA8A0
0x6FA910
0x6FA940
0x6FA960
0x6FA9F0
0x6FAA10
0x6FAA70
0x6FAB10
0x6FACC0
0x6FAD00
0x6FAD40
0x6FAD80
0x6FADC0
0x6FAE10
0x6FAE40
0x6FAEB0
0x6FAF10
0x6FAF70
0x6FAFB0
0x6FB010
0x6FB0A0
0x6FB0D0
0x6FB120
0x6FB1A0
0x6FB200
0x6FB250
0x6FB4E0
0x6FB510
0x6FB570
0x6FB590
0x6FB5C0
0x6FB60F
0x6FB780
0x6FB8A0
0x6FB9D0
0x6FB9F0
0x6FBA20
0x6FBA40
0x6FBA60
0x6FBC20
0x6FBC40
0x6FBC60
0x6FBCB0
0x6FBD90
0x6FBDC0
0x6FC350
0x6FC390
0x6FC3D0
0x6FC420
0x6FC460
0x6FC500
0x6FC710
0x6FC7B0
0x6FC7E0
0x6FC800
0x6FC850
0x6FC870
0x6FC890
0x6FC8F0
0x6FC950
0x6FC990
0x6FC9B0
0x6FC9C0
0x6FC9E0
0x6FCA00
0x6FCA90
0x6FCAB0
0x6FCD40
0x6FCD60
0x6FCF10
0x6FCF30
0x6FCF50
0x6FD240
0x6FD2E0
0x6FD330
0x6FD3A0
0x6FD3C0
0x6FD3E0
0x6FD480
0x6FD4E0
0x6FD530
0x6FD550
0x6FD5A0
0x6FD5F0
0x6FD660
0x6FD690
0x6FD6B0
0x6FD6D0
0x6FD6F0
0x6FD780
0x6FD7A0
0x6FD7D0
0x6FD7F0
0x6FD810
0x6FD81F
0x6FD830
0x6FD880
0x6FD8D0
0x6FD930
0x6FDF10
0x6FDF60
0x6FDFB0
0x6FE0E0
0x6FE110
0x6FE140
0x6FE160
0x6FE1B0
0x6FE2F0
0x6FE310
0x6FEAB0
0x6FED30
0x6FEE80
0x6FF100
0x6FF3A0
0x6FF490
0x6FF510
0x6FF5D0
0x6FF66B
0x6FF780
0x6FFA30
0x6FFD70
0x700040
0x700360
0x7004A0
0x700570
0x700B40
0x700C70
0x700E00
0x700EC0
0x7010B0
0x701270
0x701400
0x7014E0
0x7015C0
0x701680
0x701740
0x701800
0x701920
0x701950
0x701970
0x7019C0
0x701A10
0x701BD0
0x701C70
0x701C90
0x701CA0
0x701CE0
0x701D00
0x701D40
0x701D60
0x701DA0
0x701DE0
0x701E30
0x701E90
0x702420
0x70242C
0x702440
0x702460
0x7024D0
0x7024F0
0x702550
0x702570
0x7025F0
0x702610
0x702690
0x7026C0
0x702710
0x702760
0x7027D0
0x702800
0x702820
0x702840
0x702890
0x7028E0
0x702900
0x702920
0x702940
0x702990
0x702CE0
0x702FC0
0x703050
0x703070
0x703090
0x7030B0
0x7030D0
0x7030F0
0x703120
0x703240
0x703260
0x703290
0x7032C0
0x7032F0
0x703320
0x703340
0x703360
0x703380
0x7033A0
0x7033C0
0x7033E0
0x703400
0x703420
0x703440
0x7034A0
0x703510
0x703530
0x703550
0x703570
0x703590
0x7035B0
0x7035F0
0x703620
0x703660
0x7036C0
0x703730
0x703750
0x7037A0
0x7037C0
0x7037E0
0x703800
0x703820
0x703870
0x703890
0x7038B0
0x7038D0
0x7038DC
0x7038F0
0x703910
0x703930
0x703950
0x703970
0x703990
0x7039B0
0x703A20
0x703A90
0x703B00
0x703B70
0x703BE0
0x703BEC
0x703C00
0x703C40
0x703C60
0x703C80
0x703CA0
0x703CD0
0x703D40
0x703D60
0x703D80
0x703DA0
0x703DC0
0x703DE0
0x703E00
0x703E20
0x703E40
0x703E60
0x703E80
0x703EA0
0x703EC0
0x7044A0
0x7045F0
0x704660
0x7049C0
0x704A86
0x704B50
0x704B80
0x704BE0
0x704C10
0x704C70
0x704D20
0x704DA0
0x704E00
0x704E30
0x704E80
0x704EE0
0x705000
0x7050A0
0x7050F0
0x705130
0x705240
0x705270
0x7052B0
0x705430
0x705480
0x7054D0
0x7054F0
0x705540
0x7055F0
0x705620
0x705650
0x7056E0
0x705840
0x7058D0
0x7059E0
0x705A70
0x705C30
0x705C60
0x705E80
0x705EB0
0x705ED0
0x705EF0
0x705F10
0x705F30
0x706010
0x7063E0
0x706430
0x706500
0x706540
0x7065E0
0x706600
0x706610
0x706670
0x706690
0x7066E0
0x7067C0
0x706B80
0x706BB0
0x706BD0
0x706BF0
0x706C90
0x706CC0
0x706D00
0x706D80
0x706DF0
0x706E70
0x707130
0x7071C0
0x707210
0x707270
0x707310
0x7079C0
0x707A00
0x709C20
0x709D10
0x709DB0
0x70A140
0x70A5D2
0x70A9B0
0x70B580
0x70C000
0x70C0E0
0x70C210
0x70C920
0x70C9C0
0x70CC80
0x70D020
0x70D04B
0x70D290
0x70D610
0x70D710
0x70DF30
0x70DFA0
0x70E020
0x70E0B0
0x70E3A0
0x70E410
0x70E540
0x70EFD0
0x70F080
0x70F350
0x70F590
0x70F5C0
0x70F680
0x70F9B0
0x70FFC0
0x710092
0x7100F0
0x7101A2
0x7101F0
0x710D50
0x710E60
0x711000
0x711170
0x711300
0x711380
0x7113D9
0x7113E1
0x711470
0x711800
0x711A60
0x711A80
0x711D80
0x711E40
0x711F00
0x711F40
0x711F60
0x711F80
0x7122B0
0x712320
0x7126AA
0x712ED0
0x712F30
0x712F50
0x712F70
0x712F90
0x712FB0
0x712FD0
0x713040
0x713060
0x7130C0
0x7130E0
0x713130
0x713160
0x713190
0x7131B0
0x713240
0x713260
0x7132F0
0x713310
0x713370
0x7133A0
0x7133E0
0x7135B0
0x713700
0x713840
0x713890
0x7138D0
0x713900
0x7139F0
0x713A10
0x713A40
0x713A70
0x713AB0
0x713AD0
0x713AF0
0x713C90
0x713CB0
0x713D20
0x713D70
0x713DA0
0x713FE0
0x714020
0x7140B0
0x714100
0x714150
0x714250
0x7143D0
0x714FE0
0x715000
0x715090
0x7150C0
0x715130
0x715620
0x715690
0x715730
0x715840
0x716080
0x716130
0x716360
0x716520
0x7166E0
0x716710
0x716770
0x7175B0
0x7175D0
0x717810
0x717840
0x717A80
0x717EA0
0x717EF0
0x717FA0
0x7181C0
0x718230
0x7184D0
0x718540
0x718740
0x718880
0x7188E0
0x718940
0x7189C0
0x718A20
0x718A40
0x718AB0
0x718B40
0x718B90
0x718BE0
0x718C10
0x718C90
0x718D00
0x718D70
0x718DE0
0x718E70
0x718E90
0x718ED0
0x718EF0
0x718F20
0x718F40
0x7190C0
0x7190E0
0x719110
0x719140
0x7195EC
0x7196A0
0x719750
0x7199E0
0x719A50
0x719B00
0x719BE0
0x719C10
0x719EE0
0x719F20
0x71A120
0x71A190
0x71A200
0x71A2B0
0x71A320
0x71A390
0x71A560
0x71A750
0x71A890
0x71A8F0
0x71A940
0x71A990
0x71AA00
0x71AA30
0x71AA50
0x71AA70
0x71B1F0
0x71B270
0x71B340
0x71B490
0x71B7E0
0x71B830
0x71B890
0x71B8C0
0x71B920
0x71B9D0
0x71BA40
0x71BB70
0x71BC90
0x71BD10
0x71BD70
0x71BDA0
0x71BDF0
0x71BE40
0x71BFE0
0x71C030
0x71C0E0
0x71C1E0
0x71C530
0x71C660
0x71C7B0
0x71C7E0
0x71C860
0x71C8A0
0x71C900
0x71C970
0x71C9B0
0x71CBB0
0x71CBE0
0x71CC30
0x71CC70
0x71CD00
0x71CDB0
0x71CE5C
0x71CFB7
0x71D100
0x71D280
0x71D340
0x71D3E0
0x71D420
0x71D470
0x71D490
0x71D820
0x71D900
0x71D9C0
0x71EBB0
0x71EC30
0x71ECF0
0x71EDF0
0x71EEB0
0x71F120
0x71F240
0x721E40
0x721EF0
0x721FA0
0x7220F0
0x7221B0
0x722240
0x722350
0x722410
0x722490
0x722930
0x722B90
0x722C50
0x722D00
0x722E10
0x722EE0
0x722FA0
0x723240
0x7232F0
0x723420
0x723520
0x7235E0
0x723740
0x723840
0x723910
0x7239C0
0x723A80
0x723CB0
0x723DB0
0x723EB0
0x723F60
0x724010
0x724120
0x724220
0x7243B0
0x7244C0
0x724580
0x7245E0
0x7246A0
0x724850
0x724960
0x724A20
0x724AF0
0x724B70
0x724BF0
0x724CA0
0x724E50
0x724ED0
0x7252B0
0x725370
0x7253F0
0x725510
0x725630
0x725850
0x725900
0x725960
0x7259C0
0x725A80
0x725B50
0x725C60
0x725CE0
0x725DB0
0x725E60
0x725F10
0x7260D0
0x726100
0x7262E0
0x726410
0x726750
0x726840
0x7268B0
0x726933
0x726950
0x726A10
0x726AB0
0x726BC0
0x726C20
0x726C80
0x726D90
0x726EA0
0x726FB0
0x7270C0
0x7271D0
0x7272E0
0x7273F0
0x727500
0x727610
0x727670
0x727780
0x7277E0
0x7278F0
0x727C60
0x727F60
0x728010
0x728060
0x728120
0x7281B0
0x729370
0x7293E0
0x729430
0x7294F0
0x729580
0x729670
0x729730
0x7297C0
0x729A30
0x729B50
0x729C30
0x729CE0
0x72C880
0x72CA90
0x72CB30
0x72CBA0
0x72CC40
0x72CCB0
0x72CDE0
0x72CE90
0x72CF50
0x72CFE0
0x72D060
0x72D0D0
0x72D1C0
0x72D280
0x72D2F0
0x72D340
0x72D780
0x72D810
0x72DA20
0x72DB40
0x72DC00
0x72DC90
0x72DD30
0x72DDA0
0x72E0C0
0x72E1B0
0x72E270
0x72E330
0x72E3C0
0x72E610
0x72E6B0
0x72E720
0x72E820
0x72E910
0x72E9C0
0x72EA80
0x72EB10
0x72EC60
0x72ED50
0x72EE10
0x72EED0
0x72EF70
0x72F000
0x72F0C0
0x72F150
0x72F350
0x72F4C0
0x72F590
0x72F680
0x72F730
0x72F7A0
0x72F840
0x72F8B0
0x72F960
0x72F9F0
0x72FAE0
0x72FBD0
0x72FC80
0x72FE00
0x72FF60
0x730050
0x730110
0x730160
0x730220
0x7302B0
0x730460
0x7305F0
0x7306E0
0x7307A0
0x730830
0x7308F0
0x730980
0x7309F0
0x730A60
0x730AB0
0x730B20
0x730B70
0x730C10
0x730C80
0x730C9D
0x730D04
0x730DE0
0x730E70
0x730EE0
0x730F30
0x731300
0x7316E0
0x7317A0
0x731810
0x731860
0x731970
0x731A30
0x731B40
0x731C00
0x731C90
0x731CB0
0x731ED0
0x7320A0
0x732140
0x732190
0x7321B0
0x732200
0x732220
0x7322E0
0x732370
0x732430
0x7324C0
0x7325C0
0x732630
0x732680
0x732740
0x7327D0
0x732870
0x7328E0
0x732980
0x7329F0
0x732A80
0x732BE0
0x732CF0
0x732E50
0x732EE0
0x732F70
0x733060
0x733628
0x733FD0
0x734060
0x7366F0
0x736780
0x736950
0x736B40
0x736C60
0x736F50
0x7372E0
0x737430
0x7374F0
0x7375B0
0x737620
0x737690
0x737730
0x7377E0
0x7378A0
0x737950
0x7379E0
0x737A70
0x737B60
0x737C20
0x737C80
0x737CD0
0x737D30
0x737D80
0x737E70
0x737F30
0x738020
0x7380E0
0x7381D0
0x738290
0x738380
0x738440
0x738530
0x7385F0
0x7386E0
0x7387A0
0x738860
0x738950
0x738A10
0x738B00
0x738BC0
0x738CB0
0x738D70
0x738DD0
0x738E20
0x738F10
0x738FD0
0x739030
0x739080
0x739140
0x739200
0x7392C0
0x7393B0
0x739470
0x739530
0x739550
0x739570
0x739640
0x739700
0x7397D0
0x739890
0x739960
0x739A30
0x739A90
0x739AB0
0x739CB0
0x739CD0
0x739E70
0x739E90
0x739EE0
0x739F30
0x73A100
0x73A120
0x73A1F0
0x73A270
0x73A2F0
0x73A3D0
0x73A830
0x73A8F0
0x73B4E0
0x73B590
0x73B5F0
0x73B780
0x73BA70
0x73BB00
0x73BD10
0x73BEC0
0x73BF60
0x73C070
0x73C100
0x73C190
0x73C6C0
0x73C740
0x73DF90
0x73E090
0x73E200
0x73E3A0
0x73E530
0x73E580
0x73E950
0x73EC00
0x73ED80
0x73F049
0x73F210
0x73FAE0
0x73FBF0
0x73FED0
0x7405B0
0x740820
0x7408F0
0x740ED0
0x740F40
0x7411F0
0x7416E0
0x741770
0x741B10
0x741CC0
0x741CF0
0x741D40
0x741D60
0x741DD0
0x741E10
0x741E90
0x741F00
0x741F20
0x742090
0x7420B0
0x742170
0x742250
0x742CE0
0x742D30
0x742E00
0x742E30
0x742E4B
0x742FD0
0x743090
0x7432F0
0x7433C0
0x743670
0x7437C0
0x743860
0x743920
0x743B60
0x743B90
0x743BC0
0x743C20
0x743CD0
0x743D90
0x743EE0
0x743EF7
0x743EFB
0x744250
0x744370
0x7443F0
0x7444E0
0x7446B0
0x744890
0x7448C0
0x744930
0x744970
0x7449A0
0x744A20
0x744A90
0x744AD0
0x744B00
0x744C10
0x744C50
0x744CB0
0x744D00
0x744DD0
0x744FB0
0x745020
0x745060
0x7450A0
0x745150
0x7451C0
0x7454E0
0x745600
0x745740
0x745900
0x7459D0
0x745A60
0x745C30
0x745C50
0x745D80
0x745ED0
0x745F00
0x745F70
0x74601E
0x7460A0
0x746110
0x7462F0
0x746500
0x7465C0
0x7466A0
0x746A70
0x746A8C
0x746AB0
0x746B80
0x746CF0
0x746D90
0x746E70
0x746FC0
0x7470F0
0x747990
0x748950
0x7489A0
0x748B40
0x748BA0
0x748DC0
0x748E40
0x748E80
0x748EF0
0x748F80
0x748FD0
0x749020
0x7490A0
0x749100
0x749150
0x7491A0
0x7491F0
0x7492B0
0x7492E0
0x749400
0x749440
0x7494E0
0x749530
0x749570
0x7495A0
0x7495F0
0x7496B0
0x7497D0
0x749810
0x7498B0
0x7498D0
0x7498F0
0x749A20
0x749AF0
0x749C40
0x749CB0
0x749D00
0x749D50
0x749DEA
0x749E80
0x749F1A
0x74A060
0x74A1B0
0x74A200
0x74A260
0x74A2B0
0x74A540
0x74A790
0x74A7E0
0x74A830
0x74A8B0
0x74A970
0x74AA10
0x74AA80
0x74AAD0
0x74AB17
0x74AB30
0x74B140
0x74B14C
0x74B160
0x74B180
0x74B1A0
0x74B2C0
0x74B2D0
0x74B2E0
0x74B2F0
0x74B300
0x74B320
0x74B340
0x74B350
0x74B370
0x74B390
0x74B3A0
0x74B3C0
0x74B3E0
0x74B400
0x74B420
0x74B450
0x74B460
0x74B480
0x74B490
0x74B4B0
0x74B4D0
0x74B4E0
0x74B4F0
0x74B500
0x74B510
0x74B530
0x74B550
0x74B560
0x74B570
0x74B590
0x74B5B0
0x74B5D0
0x74B5F0
0x74B610
0x74B640
0x74B650
0x74B660
0x74B670
0x74B690
0x74B6A0
0x74B6C0
0x74B6D0
0x74B6F0
0x74B700
0x74B710
0x74B720
0x74B740
0x74B750
0x74B780
0x74B7B0
0x74B7D0
0x74B7F0
0x74B810
0x74B830
0x74BEAE
0x74D8D0
0x74D920
0x74DC0B
0x74DCF0
0x74DD30
0x74E0A0
0x74E0C0
0x74E2F0
0x74E7C0
0x74E8BE
0x74E900
0x74E9D0
0x74EC70
0x74ECD0
0x74ED46
0x74EE30
0x74F030
0x74F120
0x74F1A0
0x74F1E0
0x74F200
0x74F250
0x74F2B0
0x74F580
0x74F6F0
0x74F7A0
0x74FAD0
0x74FD70
0x74FE40
0x750280
0x750430
0x7506F0
0x7507A0
0x7507D0
0x750870
0x750A00
0x750B30
0x750D10
0x750DB0
0x750EC0
0x750F70
0x751040
0x7511F0
0x751360
0x751410
0x751AD0
0x751AF0
0x751EA0
0x751EE0
0x751FE0
0x752DA0
0x752E90
0x752F10
0x752F90
0x7530B0
0x753150
0x753240
0x753390
0x7533C0
0x7534C0
0x7535B0
0x754760
0x754870
0x7549E0
0x754A28
0x754A70
0x754B50
0x754D50
0x754DF0
0x755520
0x7557A0
0x755910
0x755BD0
0x755C40
0x756320
0x756340
0x756599
0x756660
0x756D80
0x7572EF
0x7583B0
0x7584C0
0x758A10
0x758FA0
0x7594E0
0x759650
0x7597D0
0x759899
0x7598D0
0x75A1D5
0x75A200
0x75A360
0x75A3B0
0x75A830
0x75A9C0
0x75ABF0
0x75B0D0
0x75B140
0x75B190
0x75B1E0
0x75B300
0x75B370
0x75B870
0x75BEF0
0x75C5D0
0x75C970
0x75D1F0
0x75D2D0
0x75D4C0
0x75D5E0
0x75D650
0x75D790
0x75D8E0
0x75DA90
0x75DBA0
0x75DF90
0x75E470
0x75E4A0
0x75E700
0x75E780
0x75E860
0x75EBE0
0x75EF50
0x75F660
0x75FC50
0x75FC90
0x75FDC0
0x75FF10
0x7600C0
0x7602D0
0x7604F0
0x7607E0
0x760A50
0x760B50
0x760F30
0x761110
0x761140
0x761330
0x7613B0
0x761440
0x761590
0x761E80
0x761F10
0x7625C0
0x7626E0
0x762780
0x762820
0x762862
0x762876
0x762D50
0x762E33
0x763EA0
0x76405E
0x764460
0x764480
0x7644B6
0x7644CA
0x764720
0x764800
0x7649D0
0x764AC0
0x764D70
0x764E70
0x765280
0x765440
0x765610
0x765642
0x765656
0x765950
0x766350
0x766900
0x7671A0
0x7672F0
0x767310
0x767330
0x767350
0x767370
0x767390
0x767960
0x767980
0x767D90
0x767E40
0x768C50
0x7692D0
0x769410
0x769480
0x7694B0
0x769530
0x769780
0x769E20
0x76A460
0x76A870
0x76AFF0
0x76BC80
0x76BD20
0x76BF90
0x76C310
0x76C5A0
0x76C6B0
0x76CD20
0x76CFD0
0x76D950
0x76DA70
0x76DCC0
0x76DD50
0x76DDA0
0x76E100
0x76E170
0x76E390
0x76E5A0
0x76E5E0
0x76E690
0x76ED20
0x76FD60
0x770E60
0x770FB0
0x771250
0x771470
0x7717C0
0x771AD0
0x771C20
0x771C50
0x771E90
0x771F70
0x771FA0
0x772640
0x772970
0x772E90
0x773050
0x7730E0
0x773340
0x773450
0x7734B0
0x773540
0x7735F0
0x773680
0x7738B0
0x773B00
0x774100
0x774400
0x774B70
0x775580
0x7756C0
0x775710
0x775930
0x775AC0
0x775CB0
0x775F60
0x776450
0x7764E0
0x776640
0x7768D0
0x776A00
0x776B30
0x776C40
0x776E80
0x776F10
0x7771A0
0x7772C0
0x7776B0
0x777779
0x7777EC
0x777814
0x7779E0
0x777C90
0x777ED0
0x778026
0x778110
0x7781D0
0x7781EB
0x778570
0x77871F
0x77880E
0x77881A
0x778B70
0x778B90
0x778C80
0x778CA0
0x778D50
0x778DF0
0x778E60
0x7797A0
0x779840
0x779BC0
0x779C40
0x779CE0
0x779ED0
0x779F80
0x77A090
0x77A110
0x77A1B0
0x77A1E0
0x77A210
0x77A270
0x77A320
0x77A3A0
0x77A400
0x77A430
0x77A480
0x77A4D0
0x77A830
0x77A900
0x77AAB0
0x77ABF0
0x77ACA0
0x77ADB0
0x77AE30
0x77B2F0
0x77B300
0x77B470
0x77B5F0
0x77B820
0x77B8F0
0x77BA20
0x77BF20
0x77C480
0x77C4F0
0x77C922
0x77CA30
0x77CBD0
0x77CBE3
0x77CE60
0x77CF90
0x77D340
0x77D3A0
0x77D636
0x77D700
0x77D790
0x77D7D0
0x77DAD0
0x77DB90
0x77E170
0x77E174
0x77E240
0x77E2B0
0x77E640
0x77E810
0x77E850
0x77EA50
0x77EC20
0x77EE10
0x77EE90
0x77EFB0
0x77F000
0x77F863
0x77F87C
0x77FD30
0x77FE20
0x77FF50
0x77FFD0
0x7808D0
0x780AF0
0x780C10
0x780C41
0x780CB0
0x780D10
0x780EB0
0x7819E7
0x7819EB
0x781B3D
0x7822B0
0x7824F0
0x782520
0x782650
0x7826B0
0x7826E0
0x782710
0x782760
0x7827B0
0x782830
0x782A80
0x782AC0
0x782AE0
0x782B40
0x782BC0
0x782BE3
0x782C50
0x782C60
0x782C80
0x782DA0
0x783030
0x783060
0x783140
0x783150
0x783220
0x7832E0
0x783330
0x783440
0x783610
0x7837A0
0x7837A5
0x7839F0
0x783B50
0x783C63
0x783CA0
0x783F10
0x784073
0x784090
0x784160
0x784360
0x7845E0
0x784607
0x784689
0x784BB0
0x784BCB
0x784C50
0x784D00
0x7850A0
0x785240
0x785330
0x7853C0
0x785640
0x7856C0
0x785E70
0x785FD0
0x7867B0
0x7867E0
0x786870
0x7869A6
0x786A10
0x786C20
0x786EA0
0x786EA4
0x787490
0x787C90
0x788800
0x788BC0
0x7893F0
0x789A70
0x78A1A0
0x78A240
0x78A280
0x78A2C0
0x78A650
0x78A8D0
0x78AC60
0x78B050
0x78B190
0x78B2B0
0x78B570
0x78B9A0
0x78BC30
0x78BC50
0x78BE20
0x78BED0
0x78BF40
0x78CA10
0x78CA30
0x78CBC0
0x78CC10
0x78CC70
0x78CFA0
0x78D350
0x78D380
0x78D3D0
0x78D8B0
0x78E410
0x78E7C0
0x78ED30
0x78F070
0x78F0D0
0x78F130
0x78F150
0x78F1E0
0x78F390
0x78FE50
0x790430
0x790540
0x790670
0x790700
0x790720
0x7908D0
0x790A70
0x791140
0x7912D0
0x791730
0x791F10
0x792880
0x792A00
0x792FD0
0x793410
0x793600
0x794290
0x7945C0
0x7946B8
0x794980
0x794A30
0x794A80
0x794DA0
0x7953F0
0x795640
0x795AE0
0x795B20
0x795B80
0x795F10
0x795F80
0x796020
0x796060
0x7960B0
0x796140
0x796160
0x796410
0x796440
0x7964A0
0x796550
0x796BD0
0x796C50
0x796CB0
0x796D00
0x796DF0
0x796E68
0x796E80
0x796F30
0x797200
0x797640
0x797740
0x797930
0x7979E3
0x797A83
0x797B1A
0x797BB6
0x7990E0
0x799110
0x799240
0x799390
0x7993C0
0x799430
0x799490
0x7994A0
0x7994F0
0x799550
0x799600
0x799730
0x799870
0x799BA0
0x799D70
0x799E00
0x79A160
0x79A250
0x79A270
0x79A2A0
0x79A620
0x79A670
0x79A6C0
0x79AD30
0x79AD80
0x79ADC0
0x79AE90
0x79B9E6
0x79D9E0
0x79E480
0x7A04C0
0x7A1B67
0x7A1DC0
0x7A2320
0x7A2930
0x7A2ED0
0x7A32C0
0x7A3B40
0x7A3E7F
0x7A4BA0
0x7A4D93
0x7A5C80
0x7A87D0
0x7A91A9
0x7AAAD0
0x7ABF9F
0x7AD8C0
0x7AFD80
0x7AFE50
0x7B14BE
0x7B1EC0
0x7B4CFE
0x7BFDCE
0x7C2E80
0x7C48CE
0x7C9B00
0x7C9FEE
0x7D0A3E
0x7D0BEE
0x7D0E36
0x7DAF7E
0x7DBB4C
0x7DC8DE
0x7E0E36
0x7E4076
0x7EA89E
0x7EDC0E
0x7F10FC
0x7F11AE
0x7F1417
0x7FA71E
0x806A13
0x80B5DA
0x811969
0x8124EE
0x812C8E
0x81407E
0x814EFA
0x815C70
0x815ED6
0x816C50
0x8172A5
0x817FC0
0x818980
0x818E50
0x8190B0
0x819290
0x819380
0x81A3D2
0x81B38C
0x82425C
0x826264
0x82867E
0x828B5C
0x82C774
0x82D22C
0x82DE7C
0x82DECC
0x8352D6
0x8357EC
0x8388A8
0x838F5C
0x83A25A
0x83A66C
0x83C4AC
0x843F7C
0x844076
0x848F5C
0x849BAC
0x84A7C0
0x84B0FC
0x84C33C
0x84D8AC
0x84F9E8
0x8547A4
0x8552D6
0x85AC3C
0x85AED8
0x85D22C
0x85F31C
0x867B6C
0x86AB82
0x86C84C
0x871FCC
0x87667C
0x87B0EC
0x8847A4
0x885A5C
0x88667C
0x8868AC
0x88A4D2
0x88F8FC
0x892F40
0x892FF0
0x893130
0x8931C0
0x893E40
0x8941D0
0x894240
0x8942C0
0x896617
0x8966F0
0x896760
0x898CC0
0x898CE0
0x898CF0
0x898D00
0x898D20
0x898D50
0x898E60
0x898F10
0x899D97
0x89AF1F
0x89BA97
0x89C74C
0x89F357
0x89FD60
0x89FDC0
0x8A01D0
0x8A0240
0x8A0280
0x8A0300
0x8A0320
0x8A03A0
0x8A0410
0x8A0480
0x8A0540
0x8A05A0
0x8A0630
0x8A06C0
0x8A0750
0x8A07B0
0x8A0810
0x8A0870
0x8A08D0
0x8A0930
0x8A0990
0x8A09F0
0x8A0A50
0x8A0AB0
0x8A0B10
0x8A0BB0
0x8A0C50
0x8A0CF0
0x8A0DB0
0x8A0E70
0x8A0F30
0x8A1000
0x8A10F0
0x8A11A0
0x8A1250
0x8A1310
0x8A13D0
0x8A1440
0x8A14B0
0x8A1590
0x8A1670
0x8A1750
0x8A1830
0x8A1900
0x8A19A0
0x8A1A40
0x8A1B10
0x8A1B90
0x8A1C10
0x8A1C90
0x8A1D60
0x8A1E30
0x8A1F00
0x8A1FF0
0x8A20E0
0x8A21A0
0x8A2260
0x8A22B0
0x8A22E0
0x8A2320
0x8A2340
0x8A23B0
0x8A2410
0x8A2470
0x8A2480
0x8A2510
0x8A2550
0x8A25E0
0x8A2690
0x8A26B0
0x8A27B0
0x8A2840
0x8A28D0
0x8A2980
0x8A2A10
0x8A2AA0
0x8A2B30
0x8A2BC0
0x8A2CB0
0x8A2D80
0x8A2DE0
0x8A2E40
0x8A2EA0
0x8A2F10
0x8A2F80
0x8A30E0
0x8A3240
0x8A3310
0x8A3410
0x8A3510
0x8A35B0
0x8A3670
0x8A3730
0x8A3810
0x8A38F0
0x8A39B0
0x8A3A80
0x8A3B50
0x8A3C10
0x8A3CE0
0x8A3DB0
0x8A3E80
0x8A3F80
0x8A4080
0x8A40F0
0x8A4160
0x8A41C0
0x8A4260
0x8A4320
0x8A4380
0x8A43E0
0x8A4480
0x8A4520
0x8A45B0
0x8A4660
0x8A4740
0x8A4840
0x8A48F0
0x8A49A0
0x8A4A70
0x8A4B40
0x8A4BD0
0x8A4C80
0x8A4D60
0x8A4E60
0x8A4F10
0x8A4FC0
0x8A5090
0x8A5160
0x8A51F0
0x8A52A0
0x8A5330
0x8A53E0
0x8A5440
0x8A54A0
0x8A5500
0x8A5560
0x8A55C0
0x8A55F0
0x8A5660
0x8A56D0
0x8A5740
0x8A57B0
0x8A5880
0x8A5970
0x8A59A0
0x8A5A60
0x8A5B20
0x8A5BE0
0x8A5CA0
0x8A5D10
0x8A5D80
0x8A5DF0
0x8A5E50
0x8A5EB0
0x8A5F10
0x8A5F80
0x8A5FF0
0x8A6050
0x8A60C0
0x8A6260
0x8A6400
0x8A64A0
0x8A6510
0x8A6580
0x8A65E0
0x8A6660
0x8A66E0
0x8A6740
0x8A67D0
0x8A6840
0x8A68B0
0x8A6920
0x8A6990
0x8A6A00
0x8A6A70
0x8A6AE0
0x8A6B50
0x8A6BC0
0x8A6C30
0x8A6CA0
0x8A6D10
0x8A6D80
0x8A6E00
0x8A6E90
0x8A6F20
0x8A6FB0
0x8A7049
0x8A70A0
0x8A7139
0x8A7190
0x8A7250
0x8A7310
0x8A73C0
0x8A7470
0x8A7510
0x8A75B0
0x8A7640
0x8A76B0
0x8A7710
0x8A77B0
0x8A7810
0x8A7870
0x8A78D0
0x8A7930
0x8A79D0
0x8A7A30
0x8A7A90
0x8A7AF0
0x8A7B50
0x8A7BB0
0x8A7C10
0x8A7C70
0x8A7CD0
0x8A7D30
0x8A7D90
0x8A7DF0
0x8A7E50
0x8A7EB0
0x8A7F10
0x8A7F70
0x8A7FD0
0x8A8030
0x8A8090
0x8A8120
0x8A81B0
0x8A8240
0x8A82D0
0x8A8360
0x8A83F0
0x8A8460
0x8A84D0
0x8A8540
0x8A85B0
0x8A8620
0x8A8690
0x8A8720
0x8A87B0
0x8A8810
0x8A8870
0x8A88F0
0x8A8950
0x8A89B0
0x8A8A10
0x8A8A70
0x8A8AF0
0x8A8B70
0x8A8BD0
0x8A8C30
0x8A8CB0
0x8A8D40
0x8A8DD0
0x8A8E60
0x8A8EF0
0x8A8FA0
0x8A9040
0x8A90E0
0x8A9180
0x8A94A0
0x8A97C0
0x8A9E20
0x8AA480
0x8AA7A0
0x8AAAC0
0x8AAC60
0x8AAE00
0x8AAE80
0x8AAF00
0x8AAF80
0x8AB000
0x8AB0A0
0x8AB140
0x8AB1B0
0x8AB220
0x8AB290
0x8AB300
0x8AB390
0x8AB420
0x8AB500
0x8AB5E0
0x8AB6C0
0x8AB7A0
0x8AB810
0x8AB880
0x8AB8F0
0x8AB960
0x8AB9D0
0x8ABA40
0x8ABAC0
0x8ABB40
0x8ABBC0
0x8ABC40
0x8ABCD0
0x8ABD60
0x8ABDF0
0x8ABE80
0x8ABF00
0x8ABF80
0x8AC000
0x8AC080
0x8AC120
0x8AC1C0
0x8AC240
0x8AC2C0
0x8AC340
0x8AC3C0
0x8AC460
0x8AC500
0x8AC590
0x8AC620
0x8AC6B0
0x8AC740
0x8AC7F0
0x8AC8A0
0x8AC930
0x8AC9C0
0x8ACA50
0x8ACAE0
0x8ACB80
0x8ACC20
0x8ACCC0
0x8ACD60
0x8ACE00
0x8ACEA0
0x8ACF50
0x8AD000
0x8AD0B0
0x8AD160
0x8AD200
0x8AD2A0
0x8AD340
0x8AD3E0
0x8AD490
0x8AD540
0x8AD5F0
0x8AD6A0
0x8AD760
0x8AD820
0x8AD8E0
0x8AD9A0
0x8ADA70
0x8ADB40
0x8ADC10
0x8ADCE0
0x8ADDC0
0x8ADE90
0x8ADF60
0x8AE030
0x8AE110
0x8AE1E0
0x8AE2B0
0x8AE380
0x8AE480
0x8AE570
0x8AE660
0x8AE750
0x8AE850
0x8AE940
0x8AEA30
0x8AEB20
0x8AEBB0
0x8AEC50
0x8AECF0
0x8AED80
0x8AEE30
0x8AEE90
0x8AEF30
0x8AEF90
0x8AEFF0
0x8AF050
0x8AF0B0
0x8AF110
0x8AF170
0x8AF1D0
0x8AF230
0x8AF290
0x8AF2F0
0x8AF350
0x8AF3B0
0x8AF440
0x8AF4F0
0x8AF550
0x8AF5F0
0x8AF650
0x8AF6F0
0x8AF750
0x8AF7B0
0x8AF840
0x8AF900
0x8AF960
0x8AF9C0
0x8AFA60
0x8AFB20
0x8AFBE0
0x8AFC79
0x8AFCD0
0x8AFD90
0x8AFE29
0x8AFE80
0x8AFF40
0x8AFFD5
0x8B0030
0x8B00F0
0x8B0185
0x8B01E0
0x8B02A0
0x8B02A4
0x8B02AA
0x8B0355
0x8B03C0
0x8B0480
0x8B0540
0x8B05D0
0x8B0680
0x8B0710
0x8B07C0
0x8B0830
0x8B08B0
0x8B0930
0x8B09B0
0x8B0A40
0x8B0AD0
0x8B0B60
0x8B0BF0
0x8B0C90
0x8B0D30
0x8B0DD0
0x8B0E70
0x8B0E74
0x8B0EF7
0x8B0F50
0x8B0F54
0x8B0FD7
0x8B1030
0x8B1034
0x8B111A
0x8B11C0
0x8B11C4
0x8B12AA
0x8B1350
0x8B1410
0x8B14D0
0x8B1580
0x8B1630
0x8B16E0
0x8B1790
0x8B1810
0x8B1890
0x8B1930
0x8B19D0
0x8B1A40
0x8B1AA0
0x8B1B10
0x8B1B80
0x8B1BF0
0x8B1C60
0x8B1CD0
0x8B1D40
0x8B1DB0
0x8B1E20
0x8B1E90
0x8B1F00
0x8B1F60
0x8B1FD0
0x8B2040
0x8B20B0
0x8B2120
0x8B2190
0x8B2200
0x8B2270
0x8B22E0
0x8B2350
0x8B23E0
0x8B2470
0x8B2500
0x8B2504
0x8B25F4
0x8B2680
0x8B2684
0x8B2774
0x8B2800
0x8B2899
0x8B28F0
0x8B2989
0x8B29E0
0x8B2AA0
0x8B2B60
0x8B2C00
0x8B2C04
0x8B2C84
0x8B2CE0
0x8B2CE4
0x8B2D64
0x8B2DC0
0x8B2E40
0x8B2EC0
0x8B2F30
0x8B2FA0
0x8B3000
0x8B3060
0x8B30C0
0x8B3120
0x8B3180
0x8B31C0
0x8B3220
0x8B3260
0x8B32A0
0x8B32F0
0x8B3950
0x8B3C70
0x8B3F90
0x8B4130
0x8B4790
0x8B4AB0
0x8B5110
0x8B5430
0x8B5750
0x8B58F0
0x8B5F50
0x8B6270
0x8B6274
0x8B62FB
0x8B63A0
0x8B645F
0x8B6508
0x8B65A0
0x8B6800
0x8B6870
0x8B68E0
0x8B6950
0x8B69C0
0x8B6A30
0x8B6AA0
0x8B6B10
0x8B6B80
0x8B6C00
0x8B6C80
0x8B6CE0
0x8B6D40
0x8B6DA0
0x8B6E00
0x8B6E60
0x8B6EC0
0x8B6F20
0x8B6F80
0x8B7030
0x8B70E0
0x8B7160
0x8B71D0
0x8B7250
0x8B72C0
0x8B7330
0x8B73A0
0x8B7410
0x8B7480
0x8B7500
0x8B7580
0x8B7600
0x8B7680
0x8B76F0
0x8B7760
0x8B77E0
0x8B7860
0x8B78E0
0x8B7960
0x8B79E0
0x8B7A60
0x8B7AE0
0x8B7B60
0x8B7BC0
0x8B7C40
0x8B7CD0
0x8B7D50
0x8B7DC0
0x8B7E20
0x8B7E24
0x8B7EA7
0x8B7F10
0x8B7FD0
0x8B8070
0x8B8130
0x8B81D0
0x8B8270
0x8B8274
0x8B82F7
0x8B8360
0x8B8420
0x8B84C0
0x8B8580
0x8B8620
0x8B86C0
0x8B8730
0x8B87A0
0x8B8810
0x8B8880
0x8B88F0
0x8B8960
0x8B89D0
0x8B8A40
0x8B8AB0
0x8B8B20
0x8B8BB0
0x8B8C40
0x8B8E50
0x8B8FA0
0x8B90F0
0x8B91F0
0x8B9380
0x8B94A0
0x8B95C0
0x8B96B0
0x8B9730
0x8B97B0
0x8B9830
0x8B98B0
0x8B99D0
0x8B9B00
0x8B9C30
0x8B9D50
0x8B9E80
0x8B9FA0
0x8BA100
0x8BA260
0x8BA4E0
0x8BA760
0x8BA7D0
0x8BA840
0x8BA8B0
0x8BA920
0x8BA990
0x8BAA00
0x8BAA70
0x8BAAE0
0x8BAB50
0x8BABC0
0x8BAC30
0x8BACA0
0x8BACA4
0x8BAD27
0x8BADCC
0x8BAE50
0x8BB0B0
0x8BB4B0
0x8BB5F0
0x8BB800
0x8BB920
0x8BB924
0x8BB9A7
0x8BBA4C
0x8BBAD0
0x8BBD30
0x8BC130
0x8BC270
0x8BC480
0x8BC5A0
0x8BC5A4
0x8BC627
0x8BC6CC
0x8BC750
0x8BC890
0x8BC9B0
0x8BCA30
0x8BCAF0
0x8BCBB0
0x8BCC70
0x8BCCE0
0x8BCD50
0x8BCDC0
0x8BCE20
0x8BCE90
0x8BCF00
0x8BCF70
0x8BCFE0
0x8BD0C0
0x8BD1A0
0x8BD280
0x8BD360
0x8BD440
0x8BD520
0x8BD600
0x8BD6E0
0x8BD7C0
0x8BD8A0
0x8BD980
0x8BDA60
0x8BDAC0
0x8BDB20
0x8BDBA0
0x8BDC20
0x8BDC80
0x8BDCE0
0x8BDD50
0x8BDDC0
0x8BDE30
0x8BDEA0
0x8BDF10
0x8BDF80
0x8BDFF0
0x8BE060
0x8BE0F0
0x8BE180
0x8BE210
0x8BE2A0
0x8BE320
0x8BE3A0
0x8BE420
0x8BE4A0
0x8BE520
0x8BE5A0
0x8BE620
0x8BE6A0
0x8BE710
0x8BE780
0x8BE7F0
0x8BE860
0x8BE8C0
0x8BE930
0x8BE9B0
0x8BEA10
0x8BEA70
0x8BEAD0
0x8BEB30
0x8BEB90
0x8BEBF0
0x8BEC50
0x8BECB0
0x8BED10
0x8BED70
0x8BEDE0
0x8BEE50
0x8BEEC0
0x8BEF30
0x8BEFE0
0x8BF090
0x8BF140
0x8BF1F0
0x8BF2B0
0x8BF370
0x8BF430
0x8BF4F0
0x8BF4F4
0x8BF5F0
0x8BF5F4
0x8BF67B
0x8BF6F0
0x8BF6F4
0x8BF8A0
0x8BF8A4
0x8BF991
0x8BFA50
0x8BFAD0
0x8BFB50
0x8BFBD0
0x8BFC50
0x8BFCD0
0x8BFD50
0x8BFDD0
0x8BFE50
0x8BFEB0
0x8BFF10
0x8BFF70
0x8BFFD0
0x8C0030
0x8C0090
0x8C0130
0x8C02A0
0x8C0380
0x8C0460
0x8C0540
0x8C05E0
0x8C0680
0x8C0720
0x8C07D0
0x8C0880
0x8C0930
0x8C09E0
0x8C0A90
0x8C0B40
0x8C0BF0
0x8C0CA0
0x8C0D50
0x8C0E00
0x8C0EB0
0x8C0F60
0x8C1010
0x8C10C0
0x8C1170
0x8C1240
0x8C1310
0x8C13E0
0x8C14B0
0x8C1580
0x8C1650
0x8C1720
0x8C1780
0x8C1810
0x8C18A0
0x8C1930
0x8C19C0
0x8C1A50
0x8C1AE0
0x8C1B70
0x8C1C00
0x8C1C90
0x8C1DB0
0x8C1ED0
0x8C1FF0
0x8C20A2
0x8C2110
0x8C2230
0x8C23A0
0x8C2510
0x8C2570
0x8C25D0
0x8C26E0
0x8C2740
0x8C2850
0x8C28B0
0x8C28F0
0x8C2930
0x8C2990
0x8C2A10
0x8C2A50
0x8C2AE0
0x8C2B40
0x8C2BC0
0x8C2CB0
0x8C2D10
0x8C2E00
0x8C2E40
0x8C2E80
0x8C2EE0
0x8C2F20
0x8C3040
0x8C30A0
0x8C30E0
0x8C31D0
0x8C3210
0x8C33E0
0x8C3400
0x8C35D0
0x8C36F0
0x8C3810
0x8C3930
0x8C3970
0x8C3A80
0x8C3B50
0x8C3BE0
0x8C3C70
0x8C3D30
0x8C3E00
0x8C3E90
0x8C3F20
0x8C3FE0
0x8C40B0
0x8C4110
0x8C41D0
0x8C42B0
0x8C43B0
0x8C4520
0x8C46B0
0x8C4750
0x8C4910
0x8C4A10
0x8C4B40
0x8C4C70
0x8C4DC0
0x8C5030
0x8C5160
0x8C5290
0x8C53F0
0x8C5480
0x8C55CB
0x8C5710
0x8C57E0
0x8C5980
0x8C5B20
0x8C5BF0
0x8C5CC0
0x8C5D50
0x8C5DE0
0x8C5F10
0x8C6040
0x8C6170
0x8C62A0
0x8C64F0
0x8C6740
0x8C6870
0x8C69A0
0x8C6AD0
0x8C6CE0
0x8C6EF0
0x8C6F30
0x8C6F70
0x8C7060
0x8C7150
0x8C71F0
0x8C7290
0x8C7330
0x8C73D0
0x8C74E0
0x8C75F0
0x8C7700
0x8C7810
0x8C78C0
0x8C7970
0x8C7A20
0x8C7B30
0x8C7C40
0x8C7D50
0x8C7E30
0x8C7F10
0x8C7FF0
0x8C8110
0x8C8230
0x8C8350
0x8C84B0
0x8C85D0
0x8C8700
0x8C8830
0x8C8920
0x8C8A10
0x8C8A70
0x8C8AD0
0x8C8B30
0x8C8C20
0x8C8D10
0x8C8E00
0x8C8EC0
0x8C8F80
0x8C9040
0x8C90D0
0x8C9160
0x8C91F0
0x8C9350
0x8C94E0
0x8C95F0
0x8C9720
0x8C9890
0x8C99A0
0x8C9A90
0x8C9C10
0x8C9D00
0x8C9E80
0x8C9F70
0x8CA0F0
0x8CA180
0x8CA210
0x8CA2D0
0x8CA390
0x8CA5C0
0x8CA7F0
0x8CA8B0
0x8CA970
0x8CAB60
0x8CAD50
0x8CAE10
0x8CAED0
0x8CAF60
0x8CAFF0
0x8CB0B0
0x8CB170
0x8CB200
0x8CB290
0x8CB350
0x8CB410
0x8CB4D0
0x8CB590
0x8CB650
0x8CB710
0x8CB7A0
0x8CB830
0x8CB8C0
0x8CB950
0x8CB9E0
0x8CBA70
0x8CBC30
0x8CBDF0
0x8CBFB0
0x8CC040
0x8CC0D0
0x8CC160
0x8CC240
0x8CC320
0x8CC400
0x8CC500
0x8CC600
0x8CC700
0x8CC8B0
0x8CCA60
0x8CCC20
0x8CCC90
0x8CCD00
0x8CCD70
0x8CCDE0
0x8CD010
0x8CD130
0x8CD230
0x8CD370
0x8CD460
0x8CD4D0
0x8CD540
0x8CD5B0
0x8CD620
0x8CD840
0x8CD930
0x8CDA20
0x8CDB10
0x8CDC00
0x8CDCF0
0x8CDDE0
0x8CDED0
0x8CDFC0
0x8CE030
0x8CE0A0
0x8CE110
0x8CE180
0x8CE1F0
0x8CE260
0x8CE300
0x8CE3A0
0x8CE440
0x8CE500
0x8CE5C0
0x8CE680
0x8CE740
0x8CE8E0
0x8CEA80
0x8CEAF0
0x8CEB60
0x8CEBD0
0x8CEC40
0x8CECB0
0x8CEE00
0x8CEEE0
0x8CEFC0
0x8CF210
0x8CF4A0
0x8CF580
0x8CF660
0x8CF7E0
0x8CF960
0x8CF9E0
0x8CFA60
0x8CFB00
0x8CFE00
0x8CFF60
0x8D0090
0x8D0100
0x8D0170
0x8D01E0
0x8D0290
0x8D0340
0x8D04A0
0x8D0620
0x8D0760
0x8D07D0
0x8D0840
0x8D08B0
0x8D0920
0x8D0990
0x8D0A00
0x8D0B80
0x8D0D00
0x8D0E40
0x8D0F80
0x8D10B0
0x8D1110
0x8D1170
0x8D11D0
0x8D1230
0x8D14C0
0x8D1520
0x8D1580
0x8D15E0
0x8D1640
0x8D16A0
0x8D1700
0x8D1760
0x8D17C0
0x8D1870
0x8D1A10
0x8D1B70
0x8D1CC0
0x8D1E10
0x8D1E70
0x8D1ED0
0x8D1F30
0x8D1F70
0x8D1FB0
0x8D1FF0
0x8D2030
0x8D2070
0x8D20B0
0x8D2110
0x8D2170
0x8D21D0
0x8D2320
0x8D2470
0x8D25C0
0x8D2710
0x8D2870
0x8D28E0
0x8D2990
0x8D29E0
0x8D2B90
0x8D2CF0
0x8D2D60
0x8D2E80
0x8D2F80
0x8D2FF0
0x8D3060
0x8D30D0
0x8D3270
0x8D3290
0x8D3340
0x8D3390
0x8D3530
0x8D35A0
0x8D3610
0x8D3680
0x8D36F0
0x8D37A0
0x8D37F0
0x8D3860
0x8D38D0
0x8D3940
0x8D39E0
0x8D3CB0
0x8D3D20
0x8D3D90
0x8D3E60
0x8D3ED0
0x8D3F70
0x8D4240
0x8D42B0
0x8D4320
0x8D43F0
0x8D4460
0x8D4580
0x8D46A0
0x8D4780
0x8D48B0
0x8D49B0
0x8D4A40
0x8D4AD0
0x8D4BE0
0x8D4CF0
0x8D4DB0
0x8D4F00
0x8D50D0
0x8D5280
0x8D5450
0x8D5600
0x8D5680
0x8D56B3
0x8D5710
0x8D57E0
0x8D58B0
0x8D5990
0x8D5A70
0x8D5AA0
0x8D5BB0
0x8D5CD0
0x8D5DF0
0x8D5E70
0x8D5EF0
0x8D5F80
0x8D6010
0x8D6090
0x8D6110
0x8D6270
0x8D6330
0x8D63D0
0x8D6410
0x8D6450
0x8D6490
0x8D6560
0x8D65A0
0x8D66E0
0x8D6940
0x8D6BD5
0x8D6C68
0x8D6CA0
0x8D6E60
0x8D6FF0
0x8D71B0
0x8D72C0
0x8D74A0
0x8D7580
0x8D77B0
0x8D79C0
0x8D7BF0
0x8D7D40
0x8D7D50
0x8D7F50
0x8D80A0
0x8D81E0
0x8D82F0
0x8D83F0
0x8D8500
0x8D8610
0x8D8720
0x8D8830
0x8D8890
0x8D8A80
0x8D8BE0
0x8D8CE0
0x8D8E70
0x8D9000
0x8D9100
0x8D9290
0x8D9420
0x8D94D0
0x8D9580
0x8D9640
0x8D9700
0x8D97C0
0x8D9880
0x8D9940
0x8D9A00
0x8D9A80
0x8D9B30
0x8D9BE0
0x8D9CA0
0x8D9D40
0x8D9DE0
0x8D9F10
0x8D9FC0
0x8DA070
0x8DA340
0x8DA420
0x8DA500
0x8DA7D0
0x8DA8B0
0x8DA990
0x8DAAD0
0x8DAB90
0x8DAC50
0x8DAD90
0x8DAE50
0x8DAF10
0x8DB040
0x8DB0F0
0x8DB1A0
0x8DB220
0x8DB2E0
0x8DB3A0
0x8DB4D0
0x8DB570
0x8DB610
0x8DB6D0
0x8DB790
0x8DB850
0x8DBC60
0x8DBD20
0x8DBE00
0x8DBEE0
0x8DBFA0
0x8DC080
0x8DC160
0x8DC210
0x8DC2F0
0x8DC3D0
0x8DCA10
0x8DCAF0
0x8DCB93
0x8DCBD0
0x8DCDD0
0x8DCEC0
0x8DCFB0
0x8DD140
0x8DD250
0x8DD360
0x8DD490
0x8DD530
0x8DD5D0
0x8DD780
0x8DD930
0x8DD9B0
0x8DDA30
0x8DDAE0
0x8DDC00
0x8DDCF0
0x8DDD70
0x8DDDF0
0x8DDED0
0x8DDFB0
0x8DE050
0x8DE0F0
0x8DE150
0x8DE1B0
0x8DE210
0x8DE270
0x8DE2D0
0x8DE350
0x8DE3D0
0x8DE480
0x8DE510
0x8DE710
0x8DE910
0x8DEA30
0x8DEB50
0x8DEC70
0x8DEDE0
0x8DEF10
0x8DF050
0x8DF190
0x8DF290
0x8DF390
0x8DF420
0x8DF4B0
0x8DF540
0x8DF5A0
0x8DF600
0x8DF6B0
0x8DF740
0x8DF930
0x8DFB20
0x8DFC40
0x8DFD60
0x8DFE80
0x8DFFF0
0x8E0120
0x8E0260
0x8E03A0
0x8E04A0
0x8E05A0
0x8E0630
0x8E06C0
0x8E0750
0x8E07B0
0x8E0810
0x8E08C0
0x8E0950
0x8E0B30
0x8E0D10
0x8E0DC0
0x8E0E20
0x8E0ED0
0x8E0F80
0x8E1080
0x8E1180
0x8E12C0
0x8E1480
0x8E1640
0x8E1700
0x8E17C0
0x8E1880
0x8E1940
0x8E1C10
0x8E1D50
0x8E1F00
0x8E1FC0
0x8E21B0
0x8E22A0
0x8E2410
0x8E2740
0x8E2910
0x8E2B30
0x8E2CD0
0x8E2D70
0x8E2E10
0x8E2F00
0x8E30A0
0x8E3290
0x8E3320
0x8E33B0
0x8E3440
0x8E3510
0x8E3660
0x8E36F0
0x8E3780
0x8E3810
0x8E3A00
0x8E3B80
0x8E3C10
0x8E3CA0
0x8E3D30
0x8E3DC0
0x8E3E60
0x8E3E80
0x8E3EE0
0x8E4070
0x8E409A
0x8E4250
0x8E427A
0x8E4390
0x8E44A0
0x8E4570
0x8E4680
0x8E4780
0x8E4880
0x8E4980
0x8E4A80
0x8E4B80
0x8E4CB0
0x8E4DF0
0x8E4F30
0x8E5030
0x8E5130
0x8E5230
0x8E5370
0x8E5440
0x8E5510
0x8E55E0
0x8E5740
0x8E58A0
0x8E5A60
0x8E5BE0
0x8E5D60
0x8E5EC0
0x8E5FB0
0x8E6160
0x8E6320
0x8E63F0
0x8E64A0
0x8E6590
0x8E6660
0x8E6760
0x8E6830
0x8E6930
0x8E6A30
0x8E6B30
0x8E6C80
0x8E6E30
0x8E6F40
0x8E70A0
0x8E7220
0x8E74A0
0x8E76E0
0x8E7830
0x8E7A80
0x8E7C90
0x8E7DA0
0x8E7EF0
0x8E80A0
0x8E81B0
0x8E8310
0x8E8490
0x8E8710
0x8E8950
0x8E8AA0
0x8E8CF0
0x8E8F00
0x8E8FE0
0x8E90F0
0x8E9240
0x8E9390
0x8E94F0
0x8E9690
0x8E9830
0x8E99D0
0x8E9BC0
0x8E9D90
0x8E9E10
0x8E9EF0
0x8E9FF0
0x8EA090
0x8EA200
0x8EA240
0x8EA290
0x8EA350
0x8EA440
0x8EA4A0
0x8EA500
0x8EA560
0x8EA5C0
0x8EA620
0x8EA660
0x8EA6A0
0x8EA6E0
0x8EA720
0x8EA760
0x8EA7B0
0x8EA800
0x8EA850
0x8EA8A0
0x8EA8F0
0x8EA950
0x8EA9B0
0x8EAA10
0x8EAA70
0x8EAAD0
0x8EAB90
0x8EAC00
0x8EAC70
0x8EAD30
0x8EAE10
0x8EAEF0
0x8EAFB0
0x8EB020
0x8EB0C0
0x8EB140
0x8EB1B0
0x8EB210
0x8EB2D0
0x8EB390
0x8EB450
0x8EB510
0x8EB5D0
0x8EB690
0x8EB750
0x8EB810
0x8EB8D0
0x8EB990
0x8EBA50
0x8EBB10
0x8EBBD0
0x8EBC90
0x8EBD50
0x8EBE10
0x8EBED0
0x8EBFF0
0x8EC110
0x8EC390
0x8EC540
0x8EC6B0
0x8EC770
0x8EC830
0x8EC8F0
0x8EC9B0
0x8ECA70
0x8ECB30
0x8ECBF0
0x8ECCB0
0x8ECD70
0x8ECE30
0x8ECEF0
0x8ECFB0
0x8ED070
0x8ED130
0x8ED1F0
0x8ED2B0
0x8ED3C0
0x8ED4C0
0x8ED530
0x8ED5D0
0x8ED650
0x8ED6C0
0x8ED720
0x8ED790
0x8ED800
0x8ED860
0x8ED8D0
0x8ED940
0x8ED9A0
0x8EDA9E
0x8EDB40
0x8EDCB0
0x8EDD30
0x8EDE50
0x8EDF70
0x8EDFD0
0x8EE030
0x8EE090
0x8EE0F0
0x8EE150
0x8EE1B0
0x8EE210
0x8EE270
0x8EE2D0
0x8EE330
0x8EE390
0x8EE3F0
0x8EE450
0x8EE600
0x8EE6F0
0x8EE7C0
0x8EE810
0x8EE860
0x8EE8B0
0x8EE900
0x8EE950
0x8EE9A0
0x8EE9F0
0x8EEA40
0x8EEA90
0x8EEAE0
0x8EEB30
0x8EEB80
0x8EEBD0
0x8EEC30
0x8EEC90
0x8EECF0
0x8EED50
0x8EEDB0
0x8EEE10
0x8EEE70
0x8EEED0
0x8EEF30
0x8EEF90
0x8EEFF0
0x8EF050
0x8EF0B0
0x8EF110
0x8EF170
0x8EF1D0
0x8EF230
0x8EF290
0x8EF2F0
0x8EF350
0x8EF3B0
0x8EF410
0x8EF470
0x8EF530
0x8EF5F0
0x8EF6B0
0x8EF770
0x8EF830
0x8EF8F0
0x8EF9B0
0x8EFA70
0x8EFB30
0x8EFBF0
0x8EFCB0
0x8EFD70
0x8EFED0
0x8EFF90
0x8F00E0
0x8F0150
0x8F0280
0x8F03B0
0x8F0410
0x8F0470
0x8F0550
0x8F0630
0x8F0710
0x8F07F0
0x8F08D0
0x8F09B0
0x8F0A90
0x8F0B70
0x8F0C30
0x8F0CA0
0x8F0D00
0x8F0D60
0x8F0E20
0x8F0EE0
0x8F0FA0
0x8F1060
0x8F1120
0x8F11E0
0x8F12A0
0x8F1360
0x8F1420
0x8F14E0
0x8F15A0
0x8F1660
0x8F1720
0x8F17E0
0x8F19A0
0x8F1B60
0x8F1E20
0x8F1EF0
0x8F1FB0
0x8F2070
0x8F2200
0x8F22A0
0x8F2330
0x8F23B0
0x8F2440
0x8F24C0
0x8F2550
0x8F25E0
0x8F2670
0x8F26F0
0x8F2870
0x8F2910
0x8F2CD0
0x8F2FE0
0x8F30A0
0x8F31B0
0x8F32C0
0x8F33E0
0x8F3500
0x8F36E0
0x8F3810
0x8F3920
0x8F3A30
0x8F3AF0
0x8F3B50
0x8F3BB0
0x8F3C10
0x8F3C70
0x8F3CD0
0x8F3D30
0x8F3DA0
0x8F3E10
0x8F3E80
0x8F3EF0
0x8F3F60
0x8F3FD0
0x8F4040
0x8F40E0
0x8F41C0
0x8F42A0
0x8F4380
0x8F4460
0x8F4540
0x8F4620
0x8F46B0
0x8F4720
0x8F4790
0x8F4800
0x8F4870
0x8F48E0
0x8F4950
0x8F4A70
0x8F4B30
0x8F4BF0
0x8F4D10
0x8F4DD0
0x8F4DFB
0x8F4E90
0x8F4FE0
0x8F50D0
0x8F5140
0x8F51B0
0x8F5220
0x8F5290
0x8F5300
0x8F5370
0x8F53E0
0x8F5450
0x8F54C0
0x8F5530
0x8F55A0
0x8F5610
0x8F5680
0x8F56F0
0x8F5760
0x8F57D0
0x8F5870
0x8F5910
0x8F5A10
0x8F5AB0
0x8F5BC0
0x8F5C60
0x8F5D20
0x8F5DE0
0x8F5EA0
0x8F5F60
0x8F6020
0x8F60E0
0x8F61A0
0x8F6260
0x8F6320
0x8F63E0
0x8F64A0
0x8F6560
0x8F6620
0x8F66E0
0x8F67A0
0x8F6860
0x8F6920
0x8F69E0
0x8F6AA0
0x8F6B60
0x8F6D50
0x8F6E10
0x8F6F30
0x8F7050
0x8F71D0
0x8F7350
0x8F7620
0x8F7710
0x8F7970
0x8F7E00
0x8F7F00
0x8F8000
0x8F8100
0x8F8200
0x8F83B0
0x8F8560
0x8F8640
0x8F8720
0x8F87D0
0x8F89C0
0x8F8AA0
0x8F8B80
0x8F8C60
0x8F8D40
0x8F8E20
0x8F8F00
0x8F8FE0
0x8F90C0
0x8F9180
0x8F9240
0x8F9300
0x8F93C0
0x8F9540
0x8F96D0
0x8F9860
0x8F9940
0x8F9AD0
0x8F9BB0
0x8F9D40
0x8F9ED0
0x8F9FB0
0x8FA140
0x8FA2D0
0x8FA3B0
0x8FA470
0x8FA530
0x8FA5F0
0x8FA6B0
0x8FA770
0x8FA830
0x8FA8F0
0x8FA9B0
0x8FAA70
0x8FAB30
0x8FABF0
0x8FACB0
0x8FADC0
0x8FAED0
0x8FAFE0
0x8FB0F0
0x8FB1B0
0x8FB270
0x8FB330
0x8FB3F0
0x8FB4B0
0x8FB570
0x8FB630
0x8FB6F0
0x8FB7B0
0x8FB870
0x8FB930
0x8FB9F0
0x8FBAB0
0x8FBB70
0x8FBC30
0x8FBCD0
0x8FBD70
0x8FBE10
0x8FBF10
0x8FC010
0x8FC120
0x8FC1F0
0x8FC280
0x8FC310
0x8FC390
0x8FC420
0x8FC4B0
0x8FC530
0x8FC5B0
0x8FC630
0x8FC6C0
0x8FC740
0x8FC7C0
0x8FC840
0x8FC844
0x8FC99F
0x8FCA80
0x8FCB7E
0x8FCC20
0x8FCCA0
0x8FCD60
0x8FCE20
0x8FCEE0
0x8FCFF8
0x8FD090
0x8FD210
0x8FD3F0
0x8FD590
0x8FD750
0x8FD910
0x8FDAE0
0x8FDCB0
0x8FDE80
0x8FE050
0x8FE250
0x8FE450
0x8FE650
0x8FE850
0x8FE8F0
0x8FE990
0x8FEA30
0x8FEAD0
0x8FEB40
0x8FEBB0
0x8FEC20
0x8FEC90
0x8FED30
0x8FEDD0
0x8FEE70
0x8FEF10
0x8FEFB0
0x8FF050
0x8FF0C0
0x8FF130
0x8FF1A0
0x8FF290
0x8FF380
0x8FF520
0x8FF6C0
0x8FF7E0
0x8FF900
0x8FFA10
0x8FFB20
0x8FFC30
0x8FFD40
0x8FFF20
0x9000D0
0x900238
0x9003A0
0x900580
0x9006C0
0x900980
0x900A90
0x900BD0
0x900D38
0x900EA0
0x900F90
0x901080
0x901170
0x901260
0x901350
0x901440
0x9014A0
0x901500
0x901560
0x9015C0
0x901620
0x901680
0x901790
0x901960
0x901B30
0x901D00
0x901E40
0x902490
0x902510
0x90253C
0x903B83
0x90B9A0
0x90BAB0
0x913620
0x913670
0x9136A0
0x9136D0
0x913700
0x913730
0x913760
0x913790
0x9137C0
0x9137E0
0x913810
0x913840
0x913870
0x9138A0
0x9138D0
0x913900
0x913922
0x913930
0x913B50
0x913BD0
0x913D20
0x913D80
0x913DE0
0x913ED0
0x914020
0x914080
0x914250
0x9142C0
0x914310
0x914360
0x9146A0
0x9148D0
0x914940
0x914990
0x9149E0
0x914AB0
0x914B80
0x914C90
0x914CE0
0x914D50
0x914DB0
0x914E10
0x914EB0
0x914EE0
0x914F10
0x914F40
0x914FE0
0x915010
0x915090
0x9150F0
0x915120
0x915180
0x9151E0
0x915210
0x915240
0x915270
0x9152A0
0x9152D0
0x915300
0x915330
0x915360
0x915390
0x9153C0
0x915610
0x915880
0x9159D0
0x915B50
0x915D10
0x915F00
0x916020
0x9161F0
0x9163E0
0x916530
0x916680
0x916850
0x916A40
0x916B90
0x916CE0
0x916E60
0x916FE0
0x917160
0x917330
0x917520
0x917670
0x9177C0
0x9178B0
0x917950
0x917AD0
0x917BF0
0x917C90
0x917E20
0x917F40
0x918060
0x9181A0
0x9182C0
0x9183E0
0x918500
0x918770
0x9189C0
0x918AE0
0x918C00
0x918C50
0x918CB0
0x918D00
0x918D60
0x918DF0
0x918E20
0x918E50
0x918E70
0x918E90
0x918EB0
0x918ED0
0x918EF0
0x918F20
0x918F50
0x918F80
0x918FB0
0x918FE0
0x919010
0x919040
0x919070
0x9190A0
0x9190D0
0x919100
0x919130
0x919160
0x919190
0x9191C0
0x9191F0
0x919220
0x919250
0x919280
0x9192B0
0x919300
0x919350
0x9193A0
0x9193F0
0x919440
0x919490
0x9194E0
0x919530
0x919560
0x919590
0x9195C0
0x9195F0
0x919620
0x919670
0x9196C0
0x919710
0x919760
0x919790
0x9197C0
0x9197F0
0x919820
0x919850
0x919880
0x9198B0
0x9198E0
0x919910
0x919940
0x919970
0x9199A0
0x9199D0
0x919A00
0x919A30
0x919A60
0x919A90
0x919C00
0x919C50
0x919CB0
0x919D00
0x919D60
0x919D80
0x919DF0
0x919E40
0x919EC0
0x919F70
0x919FD0
0x91A0D0
0x91A1D0
0x91A2D0
0x91A3D0
0x91A4D0
0x91A5D0
0x91A6D0
0x91A7D0
0x91A8D0
0x91A9D0
0x91AAD0
0x91AAE0
0x91ABD0
0x91ACD0
0x91ADD0
0x91AED0
0x91AFD0
0x91B0D0
0x91B1D0
0x91B2D0
0x91B3D0
0x91B410
0x91B450
0x91B490
0x91B540
0x91B600
0x91B6C0
0x91B780
0x91B840
0x91B890
0x91B8E0
0x91B990
0x91BA00
0x91BA70
0x91BAE0
0x91BB50
0x91BBB0
0x91BC10
0x91BC70
0x91BCD0
0x91BD50
0x91BDD0
0x91BE50
0x91BED0
0x91BF50
0x91BFA0
0x91C050
0x91C100
0x91C1C0
0x91C220
0x91C280
0x91C2E0
0x91C330
0x91C380
0x91C3D0
0x91C420
0x91C460
0x91C4A0
0x91C4E0
0x91C520
0x91C610
0x91C660
0x91C6B0
0x91C700
0x91C750
0x91C7A0
0x91C7F0
0x91C840
0x91C960
0x91CA80
0x91CBA0
0x91CCC0
0x91CCD0
0x91CDE0
0x91CF00
0x91CFF0
0x91D0E0
0x91D1D0
0x91D2C0
0x91D3B0
0x91D4A0
0x91D530
0x91D5C0
0x91D650
0x91D6E0
0x91D770
0x91D800
0x91D820
0x91D8E0
0x91D900
0x91D990
0x91DA60
0x91DAF0
0x91DB80
0x91DBD0
0x91DC40
0x91DC90
0x91DD40
0x91DDC0
0x91DE40
0x91DF00
0x91DFA0
0x91E010
0x91E080
0x91E100
0x91E130
0x91E1D0
0x91E4F0
0x91E520
0x91E550
0x91E580
0x91E5B0
0x91E670
0x91E6C0
0x91E6F0
0x91E7B0
0x91E9B0
