0x425E
0x429E
0x42A9
0x42F1
0x4344
0x4350
0x4950
0x4A70
0x4C30
0x4C70
0x4CA0
0x4D20
0x4DA0
0x4DE0
0x4E70
0x4FD0
0x5090
0x5390
0x5670
0x5730
0x57B0
0x5800
0x5830
0x5850
0x5880
0x58D0
0x5900
0x5980
0x59D0
0x5A00
0x5B30
0x5B60
0x5BB0
0x5BF0
0x5D70
0x5E90
0x7420
0x7670
0x77A0
0x7830
0x78F0
0x7930
0x7C60
0x80F0
0x8170
0x81A0
0x82E0
0x8450
0x8480
0x8600
0x8700
0x8800
0x8890
0x89F0
0x8BA0
0x8BD0
0x8CC0
0x8E30
0x8E60
0x9190
0x9460
0x9490
0x9750
0x9780
0x9820
0x9850
0x99E0
0x9A20
0x9A40
0x9B20
0x9BF0
0x9CE0
0x9D30
0x9DB0
0x9E10
0xA280
0xA780
0xA880
0xAA20
0xAAE0
0xAB60
0xABD0
0xAC20
0xAC70
0xACC0
0xAD10
0xAD60
0xADC0
0xAE30
0xAE80
0xAED0
0xAF20
0xAFA0
0xAFF0
0xB010
0xB030
0xB650
0xB6B0
0xB840
0xB8B0
0xB960
0xB9D0
0xBA70
0xBB80
0xBBD0
0xBF60
0xC020
0xC1F0
0xC280
0xC390
0xC520
0xC590
0xC710
0xC840
0xC8A0
0xC9B0
0xCA70
0xD150
0xD154
0xD156
0xD6C0
0xD85D
0xD980
0xD9B0
0xDAB1
0xDAF0
0xDBF0
0xDC40
0xDCD0
0xDD00
0xDD30
0xDD70
0xDE00
0xDF80
0xE040
0xE070
0xE0A0
0xE1B0
0xE1F0
0xE210
0xE260
0xE4D0
0xE560
0xE9D0
0xEA80
0xEAD0
0xEB10
0xEC00
0xEC40
0xEC70
0xECA0
0xED00
0xED80
0xEDC0
0xEE00
0xEE30
0xEE80
0xEF00
0xEF20
0xEF40
0xEF80
0xF000
0xF030
0xF080
0xF0B0
0xF0F0
0xF120
0xF160
0xF1A0
0xF1E0
0xF240
0xF2A0
0xF330
0xF3A0
0xF460
0xF490
0xF4D0
0xF510
0xF540
0xF660
0xF6C0
0xF7C0
0xF820
0xF920
0xF980
0xFA90
0xFAE0
0xFB40
0xFBA0
0xFBF0
0xFC60
0xFCD0
0xFD40
0xFD70
0xFDA0
0xFDD0
0xFEA4
0xFF30
0xFFA0
0x10007
0x10020
0x10250
0x102D0
0x10350
0x103C0
0x10410
0x10460
0x10490
0x104C0
0x104F0
0x10520
0x105A0
0x105D0
0x10600
0x10630
0x10660
0x10690
0x106D0
0x10700
0x10750
0x10791
0x107F0
0x10820
0x10850
0x10910
0x10930
0x109B0
0x10AF0
0x10B60
0x10B90
0x10BC0
0x10C10
0x10CD0
0x10E40
0x10EC0
0x11010
0x11240
0x11293
0x115C0
0x118A0
0x11A00
0x11B20
0x11BD0
0x11D50
0x11DE0
0x11E20
0x11E40
0x11E60
0x11E80
0x11EA0
0x11ED0
0x12080
0x120B0
0x12120
0x123F0
0x12520
0x12620
0x126D0
0x12730
0x12770
0x127B0
0x12840
0x128B0
0x12C10
0x12CA6
0x12D40
0x12F50
0x13140
0x13180
0x131B0
0x13430
0x13510
0x135E0
0x136A0
0x13870
0x13A20
0x13A80
0x13B20
0x13FA0
0x14030
0x14047
0x14060
0x140E0
0x14110
0x14190
0x14220
0x14270
0x14300
0x14350
0x143E7
0x14400
0x14520
0x14590
0x14660
0x14690
0x147E0
0x14920
0x14950
0x14A80
0x14C50
0x14D80
0x14E60
0x14F40
0x150D0
0x15270
0x15370
0x15450
0x15550
0x15580
0x155B0
0x155F0
0x15630
0x156B0
0x156E0
0x156F0
0x15700
0x15710
0x15720
0x15740
0x15760
0x15780
0x157A0
0x157C0
0x157D0
0x157E0
0x157F0
0x15800
0x15810
0x15830
0x15C50
0x15C60
0x15C70
0x15C90
0x15CA0
0x15CB0
0x15CC0
0x15CD0
0x15CE0
0x15CF0
0x15D00
0x15D10
0x15D20
0x15D30
0x15D40
0x15D50
0x15D60
0x15D70
0x15D80
0x15D90
0x15DA0
0x15DB0
0x15DC0
0x15DD0
0x15DE0
0x15DF0
0x15E00
0x15E10
0x15E20
0x15E30
0x15E40
0x15E50
0x15E60
0x15E70
0x15E80
0x15EA0
0x15EC0
0x15EE0
0x15F00
0x15F10
0x15F20
0x15F30
0x15F40
0x15F50
0x15F60
0x15F70
0x15F80
0x15F90
0x15FB0
0x15FC0
0x15FE0
0x15FF0
0x16010
0x16020
0x16030
0x16040
0x16060
0x16070
0x16090
0x160A0
0x163F0
0x16520
0x165F0
0x167E0
0x16880
0x16A00
0x16AA0
0x16B60
0x16C00
0x16C90
0x16CB0
0x16D10
0x16D70
0x16DE0
0x16EA0
0x16F60
0x16FB0
0x16FF0
0x17010
0x17020
0x17090
0x17100
0x171E0
0x172C0
0x17310
0x17370
0x173B0
0x17410
0x17480
0x174C0
0x174F0
0x17520
0x17550
0x175F0
0x175FC
0x17610
0x17650
0x176D0
0x17710
0x17790
0x177A0
0x177D0
0x17820
0x17870
0x178C0
0x17910
0x17960
0x179B0
0x179F0
0x17A60
0x17AB0
0x17B30
0x17B60
0x17BE0
0x17C50
0x17C70
0x17D60
0x17DB0
0x17E00
0x17E50
0x17EA0
0x17ED6
0x17F00
0x17FB0
0x17FD0
0x18010
0x180B0
0x180E0
0x18120
0x18180
0x181B0
0x181D0
0x181F0
0x18220
0x18240
0x18280
0x182D0
0x182F0
0x18350
0x183A0
0x183F0
0x18420
0x18470
0x184C0
0x18530
0x18570
0x185B0
0x18640
0x18670
0x186A0
0x186D0
0x18720
0x1875B
0x18780
0x187A0
0x187C0
0x187F0
0x18840
0x18880
0x188B0
0x188E0
0x18920
0x18950
0x18980
0x189B0
0x189E0
0x18CD0
0x18DB0
0x18E50
0x18E90
0x18EB0
0x18ED0
0x18EF0
0x18F30
0x18F80
0x18FC0
0x19000
0x19030
0x19050
0x190F0
0x19110
0x19180
0x19200
0x19310
0x19350
0x19390
0x193F0
0x19470
0x194C0
0x19760
0x199F0
0x19AA0
0x19AE0
0x19B20
0x19BD0
0x19C00
0x19C20
0x19C50
0x19C80
0x19D50
0x19EF0
0x19F70
0x19FA0
0x1A060
0x1A0D0
0x1A120
0x1A1A0
0x1A1D0
0x1A240
0x1A2C0
0x1A340
0x1A3C0
0x1A400
0x1A4C0
0x1A4E0
0x1A560
0x1A670
0x1A6A0
0x1A6C0
0x1A6E0
0x1A700
0x1A720
0x1A740
0x1A770
0x1A790
0x1A870
0x1A8A0
0x1A8E0
0x1A910
0x1A950
0x1A980
0x1A9B0
0x1A9E0
0x1AA20
0x1AA50
0x1AA90
0x1AAD0
0x1AB20
0x1AB60
0x1AB70
0x1ABA0
0x1ABE0
0x1AC60
0x1AE20
0x1AF40
0x1AF80
0x1AF90
0x1AFD0
0x1B080
0x1B0A0
0x1B100
0x1B150
0x1B2B0
0x1B320
0x1B370
0x1B3D0
0x1B420
0x1B470
0x1B59F
0x1B840
0x1B9B0
0x1BB20
0x1BBD0
0x1BC40
0x1BCA0
0x1BCF0
0x1BD20
0x1BD70
0x1BE60
0x1BF70
0x1C1D0
0x1C200
0x1C230
0x1C2C0
0x1C3B0
0x1C4E0
0x1C4F0
0x1C560
0x1C6A0
0x1C830
0x1C870
0x1C8B0
0x1C940
0x1C9D0
0x1CA60
0x1CA80
0x1CAA0
0x1CBF0
0x1CC01
0x1CCD0
0x1CD50
0x1CE90
0x1CFD0
0x1D070
0x1D480
0x1D590
0x1DBA0
0x1DC40
0x1DDB0
0x1DF40
