0x42B0
0x42B2
0x4A3E
0x4A7E
0x4A89
0x4AD1
0x4B24
0x4B80
0x4C20
0x4C49
0x4D00
0x53EC
0x5557
0x55B1
0x55F1
0x5693
0x5AA0
0x5AA7
0x5AAC
0x5E36
0x5F58
0x5F5F
0x61E4
0x61E6
0x61EC
0x65E0
0x66D3
0x69D0
0x69D2
0x6F16
0x6F30
0x6F32
0x6F36
0x8727
0x90A0
0x90E0
0x9120
0x9220
0x9276
0x9322
0x9B30
0x9B37
0x9BDE
0x9DE2
0x9F7F
0x9FB7
0xA150
0xA155
0xA2A5
0xA335
0xA3BE
0xA4B3
0xA8D0
0xA9A0
0xAD70
0xAD7F
0xB786
0xB7F0
0xC035
0xC280
0xC403
0xC415
0xC41A
0xC478
0xC4D0
0xC600
0xC620
0xC690
0xC6B8
0xC713
0xC778
0xC9F8
0xCAD8
0xCC40
0xCC5F
0xCFB0
0xCFC0
0xCFD0
0xCFE0
0xCFF0
0xD010
0xD020
0xD200
0xD209
0xD3E6
0xD498
0xD4F5
0xD525
0xD550
0xD570
0xD590
0xD5B0
0xD610
0xD630
0xD650
0xD690
0xD6B8
0xD6E0
0xD708
0xD76F
0xD7E0
0xD827
0xD8A5
0xD910
0xD927
0xD989
0xDB46
0xDC72
0xDC7D
0xDDC4
0xE270
0xE801
0xE880
0xE8C0
0xE920
0xE9D0
0xEEC2
0xEECD
0xF3A0
0xF420
0xF460
0xF480
0xF4B0
0xF501
0xF5C0
0xF5D3
0xF720
0xF740
0xF750
0xF752
0xF756
0xF940
0xFA10
0xFAB0
0xFE20
0xFE30
0xFE50
0xFF40
0xFF4A
0x1040C
0x10465
0x104E0
0x10657
0x10670
0x1067A
0x109C0
0x109C4
0x109C6
0x109CC
0x10B43
0x10DC8
0x10F10
0x10F18
0x10FB6
0x11018
0x1103E
0x110CC
0x11222
0x11229
0x11910
0x11970
0x11BF6
0x12080
0x120DA
0x12390
0x123D0
0x12412
0x124E2
0x12560
0x12568
0x125A0
0x12600
0x12603
0x1260D
0x12670
0x12673
0x1267D
0x126EE
0x1276E
0x12870
0x12900
0x12970
0x12973
0x129B0
0x129D0
0x12A30
0x12A71
0x12AC0
0x12B10
0x12B20
0x12B60
0x12BA0
0x12BE0
0x12C20
0x12C80
0x12CC0
0x12D50
0x12E60
0x12E63
0x12E6D
0x12ED0
0x12FA1
0x12FE1
0x1301E
0x13081
0x130B0
0x130B2
0x1316F
0x131F1
0x13290
0x133DA
0x13580
0x13600
0x13650
0x136A0
0x1390C
0x13990
0x13A40
0x13AD0
0x13D80
0x13DB0
0x13FB0
0x141D0
0x14206
0x142E6
0x143C0
0x143E0
0x14490
0x14496
0x146E1
0x14737
0x14906
0x14956
0x149EC
0x14AA0
0x14AE0
0x14AF0
0x14B20
0x14B50
0x14B60
0x14C30
0x14CF0
0x14D30
0x14D70
0x14DD0
0x14E30
0x14EB0
0x14F24
0x150D7
0x15118
0x152D0
0x15473
0x154A5
0x154C0
0x15500
0x15540
0x15580
0x15634
0x15828
0x15880
0x158E8
0x15922
0x159D9
0x15A00
0x15E00
0x15E2B
0x15E30
0x15F00
0x15FA0
0x16070
0x16510
0x16550
0x1659A
0x1661A
0x1669A
0x16738
0x16848
0x1684D
0x16907
0x169E6
0x16BC0
0x16EB7
0x17157
0x17320
0x17350
0x17359
0x1735F
0x17770
