0x4016D5
0x401724
0x40178A
0x4017A1
0x401800
0x4019B7
0x401AF1
0x401BC3
0x401C01
0x401CD4
0x401D01
0x402041
0x4020A8
0x40217B
0x4022F1
0x402651
0x4026A8
0x4028F0
0x402971
0x40297A
0x402AA1
0x402B0D
0x402B10
0x402B91
0x402E71
0x402E7A
0x402F71
0x402F7A
0x403071
0x40307A
0x403171
0x40317A
0x403271
0x40327A
0x403371
0x40337A
0x403487
0x403581
0x403767
0x4038B1
0x403AD7
0x403C81
0x403EF1
0x404151
0x4043F1
0x4046F1
0x404961
0x404F97
0x405581
0x4058A1
0x406081
0x4060F1
0x406161
0x4061D1
0x406241
0x4062B1
0x406321
0x406391
0x406421
0x4064B1
0x406541
0x4065D1
0x406661
0x4066F1
0x4069B1
0x406B21
0x406BC1
0x406C81
0x406CE1
0x406E51
0x406EB1
0x406FC1
0x407031
0x4070A1
0x407111
0x407181
0x4071F1
0x407261
0x4072D1
0x407361
0x4073F1
0x407481
0x407511
0x4075A1
0x407631
0x4076C0
0x407790
0x407811
0x4078D1
0x4079B1
0x407B11
0x407BF0
0x407D31
0x407F61
0x4081F1
0x408381
0x40838A
0x408464
0x4084F0
0x408528
0x4085E1
0x40872A
0x408780
0x4087D0
0x4088D8
0x408976
0x4089C1
0x408A92
0x408B71
0x408B73
0x408CE1
0x408FF0
0x4090F1
0x4092D0
0x409361
0x409363
0x4097C1
0x40A1FB
0x40A211
0x40A321
0x40A673
0x40A751
0x40AAC1
0x40B181
0x40B3C0
0x40B3E1
0x40BB70
0x40BD51
0x40BE41
0x40BF67
0x40BF70
0x40BF8C
0x40BF95
0x40BFBB
0x40C001
0x40C171
0x40C26B
0x40C26E
0x40C294
0x40C361
0x40C5A0
0x40C751
0x40C871
0x40C873
0x40C8D0
0x40CA60
0x40CBA0
0x40CC00
0x40CD30
0x40CE00
0x40CE61
0x40D0C1
0x40D400
0x40D666
0x40D6F8
0x40D875
0x40D8BD
0x40D9A1
0x40E245
0x40E28D
0x40E3B1
0x40E94B
0x40EC10
0x40ED20
0x40ED41
0x40EE00
0x40F090
0x40F3E0
0x40F771
0x40FBA1
0x40FBA3
0x40FDA1
0x411C81
0x411CE1
0x411EA0
0x411FDE
0x411FF1
0x4120E1
0x412C21
0x4136C1
0x413851
0x413884
0x413FF6
0x4140A6
0x414156
0x414214
0x414301
0x4147B8
0x414A78
0x414BD0
0x414D61
0x414E01
0x414F5F
0x4150A1
0x4152D1
0x415551
0x4156E1
0x415901
0x415925
0x4159B1
0x415B21
0x415C60
0x415FE1
0x416471
0x416791
0x4168AA
0x416C51
0x416CED
0x416DF1
0x416EC1
0x416FA1
0x416FAA
0x417101
0x417591
0x4177F1
0x4177FA
0x4179C1
0x4179D1
0x417AAD
0x417C9C
0x418360
0x4183DA
0x418470
0x418690
0x4186B8
0x418721
0x418891
0x419749
0x41A5C1
0x41A820
0x41ABF1
0x41B5C1
0x41B691
0x41BAF8
0x41BE80
0x41BF01
0x41C2C1
0x41C589
0x41C821
0x41CBA1
0x41CEC1
0x41D181
0x41D491
0x41D661
0x41DA61
0x41DE21
0x41E0B1
0x41E3F0
0x41E471
0x41EBA1
0x41EC71
0x41EEA6
0x41F1AB
0x41F1F4
0x41F2F6
0x41F5E1
0x41FB30
0x41FB87
0x41FCB1
0x41FD51
0x420271
0x42027A
0x4202BA
0x420682
0x4206CE
0x420831
0x420C04
0x420C50
0x420DC0
0x421001
0x421248
0x421310
0x421381
0x42138A
0x421491
0x421635
0x4216C9
0x421741
0x4219A0
0x421A01
0x421C18
0x421CFB
0x421E7B
0x421EE1
0x421FC3
0x422041
0x422371
0x42247F
0x4227EB
0x4227F3
0x422BD1
0x422BDA
0x422D41
0x422ED1
0x423381
0x42345C
0x4237F1
0x423FD1
0x424092
0x424301
0x4244B1
0x424F31
0x4259B0
0x425A4D
0x425B1F
0x425BC9
0x425C5C
0x425E10
0x425F81
0x426101
0x426431
0x426501
0x4265FC
0x42661D
0x4267E1
0x4268C0
0x4268C8
0x426900
0x426BB1
0x426C16
0x426F51
0x4270B0
0x427161
0x4273B1
0x427741
0x4278E1
0x427A80
0x427BD1
0x427BD3
0x427CA1
0x427D71
0x427E60
0x427FE0
0x428131
0x4282A1
0x4283C1
0x4283CA
0x428927
0x428D81
0x429021
0x4290F1
0x4292F1
0x4294E1
0x42A360
0x42A3E1
0x42A50B
0x42A522
0x42A571
0x42A811
0x42A9EB
0x42AE61
0x42AFA1
0x42AFA7
0x42B081
0x42B1BA
0x42C7C4
0x42D216
0x42D4F6
0x42DF02
0x42E10D
0x42E858
0x42E863
0x42EC95
0x42F761
0x42F76A
0x42F851
0x42F9D6
0x42FAC8
0x42FB0F
0x42FC95
0x42FD77
0x42FE1C
0x42FE7C
0x430044
0x43005B
0x430104
0x4302A6
0x4302BD
0x43075D
0x430A4F
0x430AAA
0x430AC5
0x430AF8
0x430B34
0x430B6C
0x430C56
0x430D41
0x430FC2
0x43113E
0x431589
0x4315C4
0x431870
0x4318A1
0x431A39
0x431A45
0x431B64
0x431BA4
0x431C65
0x431EFE
0x432010
0x432024
0x432057
0x432068
0x4321B2
0x4322ED
0x432303
0x432323
0x432439
0x4328B1
0x432BC1
0x432C9F
0x432CB1
0x432D05
0x432E71
0x433051
0x433561
0x433C4B
0x434008
0x434039
0x4344C3
0x4344FF
0x434671
0x4347FA
0x4348A1
0x434990
0x4349F1
0x4356E0
0x435759
0x435891
0x435DA1
0x436851
0x437091
0x437093
0x437277
0x4372C1
0x437479
0x437AF1
0x437C40
0x437D90
0x437DC0
0x438071
0x4384D1
0x438671
0x4387F0
0x4388B1
0x439040
0x4392C1
0x439570
0x439631
0x4397E1
0x4397E3
0x4398B0
0x439A86
0x439B1F
0x439CD0
0x439CF2
0x439DB6
0x43A360
0x43A440
0x43A4B0
0x43A4D0
0x43A511
0x43A941
0x43ABF1
0x43AC4E
0x43AD70
0x43AE01
0x43AF41
0x43B271
0x43B401
0x43B621
0x43B62A
0x43BCF1
0x43BEC4
0x43C0C0
0x43C0C2
0x43C0C4
0x43C361
0x43CC79
0x43CFF1
0x43CFF3
0x43D054
0x43D201
0x43D541
0x43D5BB
0x43D900
0x43D9E1
0x43E031
0x43E120
0x43E201
0x43EE01
0x43EE9C
0x43EF68
0x43F017
0x43F0AA
0x43F260
0x43F3C1
0x43F541
0x43F871
0x43F941
0x43FA4C
0x43FBA1
0x43FBEE
0x43FF11
0x440020
0x440028
0x440061
0x440211
0x440E20
0x440E80
0x440F30
0x441130
0x4411E1
0x441325
0x4414A1
0x4415F0
0x4416B1
0x4417E1
0x4423B1
0x443471
0x4436F1
0x4439A0
0x443AF0
0x443B51
0x443BC1
0x443D51
0x443E91
0x444170
0x444970
0x444A60
0x444B81
0x444C2E
0x445458
0x4455A1
0x4455A3
0x4456C0
0x445A80
0x445AC0
0x445B51
0x445F50
0x446231
0x446340
0x446344
0x447671
0x447673
0x447730
0x44778E
0x447971
0x447D61
0x448661
0x448B40
0x448BF0
0x448D10
0x448D90
0x448DB1
0x448EB1
0x448FB1
0x449100
0x4491F0
0x449360
0x4493B1
0x4495A1
0x44968F
0x4496A0
0x4496D1
0x4496DA
0x4497A9
0x449CF5
0x449DD8
0x44A5B0
0x44A62A
0x44A6FE
0x44A791
0x44A880
0x44A921
0x44AB40
0x44AB71
0x44AC11
0x44AF90
0x44AF92
0x44AF94
0x44B070
0x44B0A1
0x44B1F0
0x44B230
0x44B240
0x44B244
0x44B280
0x44B2B6
0x44B2D1
0x44B340
0x44B411
0x44B465
0x44B52E
0x44B5C1
0x44B810
0x44B8A1
0x44B8AA
0x44BC71
0x44BD31
0x44BEC1
0x44BF20
0x44BF80
0x44BFB1
0x44C146
0x44C1C1
0x44C241
0x44C2E0
0x44C2E8
0x44C471
0x44C4F1
0x44C711
0x44C8D1
0x44CB30
0x44CC50
0x44CD61
0x44CFE0
0x44D020
0x44D121
0x44D123
0x44D28F
0x44D2A0
0x44D320
0x44D324
0x44DCBC
0x44DCD1
0x44DCD3
0x44DCDC
0x44DE11
0x44DE1A
0x44F351
0x44F3C0
0x44F400
0x44F561
0x44F7A0
0x44F820
0x44F890
0x44F8B1
0x44FA00
0x44FAA0
0x450ED5
0x450EF3
