0x400C65
0x400CB4
0x400D1A
0x400D31
0x400ECD
0x401251
0x40128F
0x401310
0x401314
0x401610
0x401614
0x401691
0x401880
0x4018B0
0x4018E0
0x401940
0x401942
0x401A20
0x401C13
0x401CD0
0x401D10
0x401D30
0x401D3A
0x401D80
0x401D8A
0x401DDD
0x401DE7
0x401EBE
0x401F71
0x401F98
0x401FB2
0x402121
0x40212A
0x402370
0x402480
0x4024D0
0x402561
0x402760
0x402770
0x4027D0
0x402880
0x4028F0
0x4028F2
0x402951
0x402B51
0x402CA9
0x402CD4
0x402D10
0x402D12
0x402D70
0x402E00
0x402FD1
0x403171
0x403360
0x403520
0x403580
0x40359A
0x403690
0x4037E1
0x403971
0x403B40
0x403B44
0x403C42
0x403D00
0x403D04
0x403EA0
0x403FC1
0x404040
0x404251
0x404351
0x4044C1
0x4045B0
0x4045B4
0x404659
0x404830
0x404920
0x4049C0
0x404A41
0x404B3C
0x404C50
0x404CF1
0x404D56
0x404D6E
0x404DD0
0x404DD4
0x405020
0x405024
0x4051B1
0x405318
0x40539D
0x405490
0x405510
0x4055C1
0x405620
0x405671
0x405711
0x4057C0
0x4058D1
0x4059C1
0x405D01
0x405D61
0x405E41
0x405F9E
0x406000
0x406004
0x406150
0x406291
0x406571
0x406760
0x406800
0x406804
0x406916
0x406A40
0x406AB0
0x406B51
0x406BB0
0x406C71
0x406DD1
0x407090
0x4070E0
0x407221
0x407294
0x4072B1
0x407610
0x407640
0x407644
0x4077C1
0x407901
0x407C86
0x407E30
0x407E40
0x407E81
0x407EE1
0x407F8D
0x407FA1
0x408030
0x408061
0x408200
0x40826A
0x4082C4
0x4084C0
0x408580
0x408671
0x40882C
0x408F9A
0x409310
0x409381
0x409580
0x4096B1
0x4096BA
0x4097E0
0x409830
0x409931
0x40993A
0x409A91
0x409AC3
0x409B61
0x409C8D
0x409C92
0x409D21
0x409EC1
0x40A054
0x40A1E1
0x40A2D7
0x40A401
0x40A551
0x40A6A4
0x40A6A9
0x40A6F1
0x40A7C1
0x40A977
0x40A9B1
0x40AAE0
0x40AC81
0x40AE89
0x40AEB0
0x40AEB4
0x40AEC1
0x40AFC1
0x40AFCA
0x40B1F0
0x40B330
0x40B341
0x40B6A0
0x40B750
0x40B820
0x40B9FD
0x40BA04
0x40BA90
0x40BAD1
0x40BBA0
0x40BC51
0x40BDB1
0x40BEF1
0x40BF71
0x40C081
0x40C301
0x40C3A6
0x40C4D1
0x40C4DA
0x40C5F0
0x40C66F
0x40C8B1
0x40C93A
0x40C9EA
0x40CA51
0x40CC20
0x40CC81
0x40CD0A
0x40D131
0x40D926
0x40DE41
0x40DFE1
0x40E0A1
0x40E1B1
0x40E211
0x40E2D1
0x40E3A1
0x40E3E0
0x40E451
0x40E670
0x40EE16
0x411106
0x4113E0
0x411A10
0x411D40
0x411E10
0x411E3D
0x411E44
0x411E61
0x411F50
0x411F53
0x411FC1
0x412100
0x412230
0x4122D1
0x412592
0x412620
0x4126F0
0x412750
0x412891
0x412B80
0x412BAC
0x412BE0
0x412D0A
0x412D51
0x412F11
0x412FF1
0x412FFA
0x413171
0x41337C
0x413440
0x413476
0x413550
0x413631
0x413981
0x413F11
0x413FC7
0x414271
0x414273
0x4144F1
0x4147AF
0x4147C3
0x414A00
0x414B61
0x414C20
0x414CA0
0x414D51
0x414DF0
0x414F48
0x415000
0x415008
0x415074
0x4150D0
0x4150D4
0x4152D0
0x4153B0
0x4153B4
0x415538
0x415588
0x4157C1
0x4157F1
0x41592C
0x415A46
0x415B01
0x415C8D
0x415CC1
0x415D2F
0x415D7F
0x415E15
0x415E1C
0x415E53
0x41604A
0x4160F0
0x41610D
0x416290
0x4163B1
0x4164C1
0x416621
0x416851
0x416853
0x4169F8
0x416A50
0x416AF8
0x416BC1
0x416DB2
0x416E70
0x416F30
0x417121
0x417162
0x417501
0x417503
0x417590
0x417780
0x4177B1
0x4178D0
0x4179B0
0x417A10
0x417A71
0x417BF0
0x417BF8
0x417CA1
0x417CC9
0x4180D1
0x418181
0x4181F0
0x418270
0x418272
0x4182D1
0x418461
0x41849C
0x418601
0x418751
0x4188D1
0x418BC1
0x418CA1
0x418D81
0x418F01
0x419091
0x419220
0x419310
0x419331
0x4193A0
0x4193B1
0x4193C0
0x419450
0x419480
0x419631
0x419781
0x419923
0x41998D
0x419A1A
0x419C70
0x419DC0
0x419E00
0x419E40
0x419E90
0x419EDF
0x419F10
0x41B0AF
0x41BCEB
0x41D6E7
0x41D791
0x41D805
0x41E382
0x41E6EE
